{
  "version": "1.0",
  "truncation": null,
  "padding": null,
  "added_tokens": [
    {
      "id": 0,
      "content": "[UNK]",
      "single_word": false,
      "lstrip": false,
      "rstrip": false,
      "normalized": false,
      "special": true
    },
    {
      "id": 1,
      "content": "[CLS]",
      "single_word": false,
      "lstrip": false,
      "rstrip": false,
      "normalized": false,
      "special": true
    },
    {
      "id": 2,
      "content": "[SEP]",
      "single_word": false,
      "lstrip": false,
      "rstrip": false,
      "normalized": false,
      "special": true
    },
    {
      "id": 3,
      "content": "[PAD]",
      "single_word": false,
      "lstrip": false,
      "rstrip": false,
      "normalized": false,
      "special": true
    },
    {
      "id": 4,
      "content": "[MASK]",
      "single_word": false,
      "lstrip": false,
      "rstrip": false,
      "normalized": false,
      "special": true
    }
  ],
  "normalizer": null,
  "pre_tokenizer": {
    "type": "ByteLevel",
    "add_prefix_space": true,
    "trim_offsets": true,
    "use_regex": true
  },
  "post_processor": null,
  "decoder": {
    "type": "ByteLevel",
    "add_prefix_space": true,
    "trim_offsets": true,
    "use_regex": true
  },
  "model": {
    "type": "BPE",
    "dropout": null,
    "unk_token": "[UNK]",
    "continuing_subword_prefix": null,
    "end_of_word_suffix": null,
    "fuse_unk": false,
    "byte_fallback": false,
    "ignore_merges": false,
    "vocab": {
      "[UNK]": 0,
      "[CLS]": 1,
      "[SEP]": 2,
      "[PAD]": 3,
      "[MASK]": 4,
      "!": 5,
      "(": 6,
      ")": 7,
      ",": 8,
      "-": 9,
      ".": 10,
      ":": 11,
      ";": 12,
      "?": 13,
      "[": 14,
      "]": 15,
      "a": 16,
      "b": 17,
      "c": 18,
      "d": 19,
      "e": 20,
      "f": 21,
      "g": 22,
      "h": 23,
      "i": 24,
      "j": 25,
      "k": 26,
      "l": 27,
      "m": 28,
      "n": 29,
      "o": 30,
      "p": 31,
      "r": 32,
      "s": 33,
      "t": 34,
      "u": 35,
      "w": 36,
      "y": 37,
      "£": 38,
      "Ì": 39,
      "â": 40,
      "Ġ": 41,
      "Ģ": 42,
      "Ĥ": 43,
      "Ħ": 44,
      "ĺ": 45,
      "Ļ": 46,
      "ľ": 47,
      "Ŀ": 48,
      "Ġi": 49,
      "Ì£": 50,
      "Ġe": 51,
      "Ġm": 52,
      "ÌĦ": 53,
      "Ġo": 54,
      "ÌĢ": 55,
      "Ġme": 56,
      "an": 57,
      "Ġk": 58,
      "wu": 59,
      "ek": 60,
      "en": 61,
      "Ġu": 62,
      "yi": 63,
      "bo": 64,
      "Ġin": 65,
      "be": 66,
      "bi": 67,
      "Ġa": 68,
      "Ġik": 69,
      "re": 70,
      "lek": 71,
      "si": 72,
      "tu": 73,
      "Ġn": 74,
      "Ġebi": 75,
      "ya": 76,
      "gwu": 77,
      "ji": 78,
      "ch": 79,
      "Ġem": 80,
      "ÌĤ": 81,
      "wa": 82,
      "Ġen": 83,
      "ge": 84,
      "je": 85,
      "ro": 86,
      "Ġke": 87,
      "uk": 88,
      "ka": 89,
      "mu": 90,
      "ki": 91,
      "ko": 92,
      "ri": 93,
      "sa": 94,
      "Ġlek": 95,
      "Ġogwu": 96,
      "kp": 97,
      "gw": 98,
      "âĢ": 99,
      "in": 100,
      "ta": 101,
      "ku": 102,
      "Ġya": 103,
      "Ġinyi": 104,
      "em": 105,
      "chi": 106,
      "Ġge": 107,
      "Ġibe": 108,
      "Ġinu": 109,
      "Ġotu": 110,
      "ba": 111,
      "jo": 112,
      "Ġema": 113,
      "Ġisi": 114,
      "te": 115,
      "to": 116,
      "ban": 117,
      "ÌĦ,": 118,
      "gbo": 119,
      "mo": 120,
      "ti": 121,
      "Ġkan": 122,
      "gwem": 123,
      "Ġubo": 124,
      "ĠâĢ": 125,
      "fi": 126,
      "Ġene": 127,
      "een": 128,
      "cha": 129,
      "Ġenyi": 130,
      "Ġgee": 131,
      "Ġmgbo": 132,
      "Ġmi": 133,
      "Ġeji": 134,
      "bu": 135,
      "Ġire": 136,
      "Ġowu": 137,
      "Ġoku": 138,
      "ra": 139,
      "so": 140,
      "Ġotutu": 141,
      "Ġki": 142,
      "ĠâĢľ": 143,
      "Ġemi": 144,
      "mugwem": 145,
      "un": 146,
      "Ġijo": 147,
      "Ġotutuuk": 148,
      "ÌĦ.": 149,
      "Ġsi": 150,
      "Ġon": 151,
      "kpo": 152,
      "Ġokumugwem": 153,
      "waji": 154,
      "yo": 155,
      "Ġawaji": 156,
      "wo": 157,
      "Ġmo": 158,
      "go": 159,
      "le": 160,
      "Ġgeelek": 161,
      "bot": 162,
      "ma": 163,
      "kup": 164,
      "tumu": 165,
      "Ġije": 166,
      "ana": 167,
      "eni": 168,
      "Ġako": 169,
      "eek": 170,
      "Ġkp": 171,
      "Ġkiban": 172,
      "waan": 173,
      "Ġikp": 174,
      "ene": 175,
      "ak": 176,
      "Ġcha": 177,
      "lo": 178,
      "Ġeyi": 179,
      "do": 180,
      "Ġiki": 181,
      "âĢĿ": 182,
      "li": 183,
      "fo": 184,
      "kaan": 185,
      "Ġemen": 186,
      "wun": 187,
      "Ġike": 188,
      "Ġibot": 189,
      "Ġere": 190,
      "Ì£,": 191,
      "Ġmije": 192,
      "Ġkwun": 193,
      "gwa": 194,
      "ye": 195,
      "ja": 196,
      "Ġchi": 197,
      "lu": 198,
      "la": 199,
      "Ġiko": 200,
      "da": 201,
      "Ġuwu": 202,
      "inyi": 203,
      "Ġeki": 204,
      "Ġika": 205,
      "gwun": 206,
      "rieen": 207,
      "kpa": 208,
      "Ġita": 209,
      "san": 210,
      "kwu": 211,
      "Ġgwun": 212,
      "ok": 213,
      "Ġinyo": 214,
      "Ġama": 215,
      "Ġkinyi": 216,
      "Ġini": 217,
      "on": 218,
      "Ġejit": 219,
      "rio": 220,
      "Ġun": 221,
      "Ġus": 222,
      "Ġiro": 223,
      "Ġmbu": 224,
      "ubo": 225,
      "Ġisa": 226,
      "Ġag": 227,
      "Ġmelek": 228,
      "Ġkubo": 229,
      "ren": 230,
      "ru": 231,
      "Ġje": 232,
      "se": 233,
      "Ġoneni": 234,
      "Ġijeren": 235,
      "Ġoro": 236,
      ".âĢĿ": 237,
      "eke": 238,
      "Ġok": 239,
      "ga": 240,
      "Ġata": 241,
      "mun": 242,
      "Ġsa": 243,
      "Ġiba": 244,
      "Ġikwaan": 245,
      "Ġmbuban": 246,
      "Ġif": 247,
      "ria": 248,
      "Ġma": 249,
      "Ġchieen": 250,
      "ulu": 251,
      "rie": 252,
      "Ġido": 253,
      "gwugwa": 254,
      "Ġngwugwa": 255,
      "Ġisibi": 256,
      "fu": 257,
      "Ġito": 258,
      "Ġenen": 259,
      "Ġji": 260,
      "yan": 261,
      "yaka": 262,
      "nyi": 263,
      "Ġisan": 264,
      "bene": 265,
      "Ġek": 266,
      "Ġnte": 267,
      "Ġbo": 268,
      "Ġyi": 269,
      "Ġgeege": 270,
      "tet": 271,
      "ÌĦ-": 272,
      "Ġkpe": 273,
      "Ġagan": 274,
      "gba": 275,
      "che": 276,
      "Ġj": 277,
      "gwo": 278,
      "Ġjiso": 279,
      "Ġoki": 280,
      "Ġikeya": 281,
      "Ġusen": 282,
      "luk": 283,
      "su": 284,
      "Ġuko": 285,
      "Ġkeyi": 286,
      "alek": 287,
      "Ġoto": 288,
      "week": 289,
      "ran": 290,
      "Ġechi": 291,
      "Ġebe": 292,
      "Ġofi": 293,
      "Ġka": 294,
      "gwen": 295,
      "Ġugwem": 296,
      "wot": 297,
      "Ì£.": 298,
      "up": 299,
      "ben": 300,
      "Ġjo": 301,
      "di": 302,
      "tap": 303,
      "Ġobo": 304,
      "we": 305,
      "tele": 306,
      "bet": 307,
      "kpulu": 308,
      "Ġitap": 309,
      "Ġikana": 310,
      "no": 311,
      "chit": 312,
      "Ġowot": 313,
      "Ġso": 314,
      "Ġkiji": 315,
      "jit": 316,
      "Ġeya": 317,
      "Ġofo": 318,
      "gban": 319,
      "Ġunye": 320,
      "gwook": 321,
      "man": 322,
      "Ġore": 323,
      "Ġju": 324,
      "eki": 325,
      "Ġete": 326,
      "Ġikpo": 327,
      "aan": 328,
      "Ġakpa": 329,
      "kan": 330,
      "ke": 331,
      "chieek": 332,
      "Ġukpo": 333,
      "ni": 334,
      "Ġd": 335,
      "ebi": 336,
      "Ġife": 337,
      "Ġofifi": 338,
      "Ġana": 339,
      "Ġetete": 340,
      "Ġida": 341,
      "Ġesa": 342,
      "rek": 343,
      "Ġga": 344,
      "Ġiji": 345,
      "unu": 346,
      "Ġanam": 347,
      "Ġotoko": 348,
      "Ġino": 349,
      "nan": 350,
      "nu": 351,
      "Ġba": 352,
      "Ġigo": 353,
      "fa": 354,
      "Ġuto": 355,
      "Ġikan": 356,
      "Ġero": 357,
      "min": 358,
      "Ġikeyi": 359,
      "Ġukot": 360,
      "iin": 361,
      "Ġoye": 362,
      "Ġdebi": 363,
      "rere": 364,
      "Ġira": 365,
      "Ġdebit": 366,
      "eme": 367,
      "fieek": 368,
      "kpan": 369,
      "Ġig": 370,
      "wuuk": 371,
      "ĠâĢĺ": 372,
      "lin": 373,
      "mi": 374,
      "dun": 375,
      "Ġesi": 376,
      "gwe": 377,
      "pi": 378,
      "kana": 379,
      "me": 380,
      "Ġiman": 381,
      "Ġenenen": 382,
      "Ġikpa": 383,
      "titi": 384,
      "sun": 385,
      "Ġikaan": 386,
      "kwukwu": 387,
      "Ġikup": 388,
      "Ġirek": 389,
      "Ġifo": 390,
      "Ġigwook": 391,
      "sis": 392,
      "Ġirio": 393,
      "Ġmun": 394,
      "Ġja": 395,
      "linyo": 396,
      "Ġlinyo": 397,
      "Ġukan": 398,
      "Ġenenwaan": 399,
      "Ġiso": 400,
      "fe": 401,
      "Ġinan": 402,
      "Ġebirieen": 403,
      "Ġoniin": 404,
      "Ġosa": 405,
      "Ġmosis": 406,
      "Ġogo": 407,
      "Ġenerieen": 408,
      "Ġibo": 409,
      "Ġowuwa": 410,
      "nwo": 411,
      "Ġgaalek": 412,
      "bum": 413,
      "sibi": 414,
      "Ġeneni": 415,
      "âĢĻ": 416,
      "Ġichit": 417,
      "Ġeje": 418,
      "Ġuti": 419,
      "riaak": 420,
      "Ġeb": 421,
      "Ġacha": 422,
      "Ġagba": 423,
      "Ġerieen": 424,
      "Ġudun": 425,
      "Ġinin": 426,
      "Ġitumu": 427,
      "jeen": 428,
      "Ġjeru": 429,
      "lem": 430,
      "Ġkpunu": 431,
      "Ġokwaan": 432,
      "Ġinorie": 433,
      "Ġkara": 434,
      "Ġmkpulu": 435,
      "Ġjuda": 436,
      "selem": 437,
      "Ġila": 438,
      "Ġala": 439,
      "lene": 440,
      "Ġebilene": 441,
      "Ġjeruselem": 442,
      "ukp": 443,
      "Ġati": 444,
      "tip": 445,
      "Ġeri": 446,
      "Ġnwa": 447,
      "Ġatiko": 448,
      "Ġinyan": 449,
      "neni": 450,
      "eko": 451,
      "Ġnto": 452,
      "chieen": 453,
      "Ġnri": 454,
      "ibot": 455,
      "Ġusun": 456,
      "Ġogoon": 457,
      "gbe": 458,
      "tim": 459,
      "Ġaro": 460,
      "gwan": 461,
      "Ġijipi": 462,
      "Ġijipiti": 463,
      "Ġeka": 464,
      "Ġalata": 465,
      "rebet": 466,
      "Ġngwan": 467,
      "Ġmkpa": 468,
      "Ġgo": 469,
      "Ġimun": 470,
      "Ġigba": 471,
      "ÌĦ;": 472,
      "gbu": 473,
      "Ġfi": 474,
      "na": 475,
      "wele": 476,
      "nti": 477,
      "Ġukpook": 478,
      "Ġikpan": 479,
      "?âĢĿ": 480,
      "Ġp": 481,
      "Ġewuuk": 482,
      "Ġifuk": 483,
      "Ġogwukaan": 484,
      "ejit": 485,
      "is": 486,
      "titiin": 487,
      "Ġmfu": 488,
      "Ġiche": 489,
      "fit": 490,
      "Ġoyerebet": 491,
      "Ġikpe": 492,
      "Ġkarais": 493,
      "Ġara": 494,
      "Ġnriran": 495,
      "aba": 496,
      "Ġkeke": 497,
      "kiro": 498,
      "Ġonenitumu": 499,
      "Ġigak": 500,
      "Ġmege": 501,
      "Ġokaan": 502,
      "Ġufi": 503,
      "gi": 504,
      "Ġkpa": 505,
      "Ġetip": 506,
      "Ġile": 507,
      "libi": 508,
      "dasi": 509,
      "tan": 510,
      "jaka": 511,
      "inu": 512,
      "Ġjaaba": 513,
      "Ġobop": 514,
      "Ġogbo": 515,
      "uku": 516,
      "Ġokwa": 517,
      "kpukp": 518,
      "Ġikpele": 519,
      "Ġefit": 520,
      "age": 521,
      "sabo": 522,
      "siki": 523,
      "Ġebiba": 524,
      "Ġochi": 525,
      "Ġokpo": 526,
      "Ġyaage": 527,
      "Ġigwa": 528,
      "ini": 529,
      "Ġikeke": 530,
      "Ġefu": 531,
      "Ġmkpo": 532,
      "fuk": 533,
      "Ġnyi": 534,
      "Ġnro": 535,
      "gbaan": 536,
      "Ġege": 537,
      "sini": 538,
      "kwut": 539,
      "Ġokup": 540,
      "Ġikom": 541,
      "raka": 542,
      "sia": 543,
      "Ġeke": 544,
      "Ġitele": 545,
      "kare": 546,
      "sik": 547,
      "Ġinye": 548,
      "Ġonyi": 549,
      "Ġusini": 550,
      "Ġekwukwu": 551,
      "ÌĦ.âĢĿ": 552,
      "Ġebibaan": 553,
      "Ġibene": 554,
      "Ġitet": 555,
      "Ġuga": 556,
      "suuk": 557,
      ".âĢĻ": 558,
      "Ġli": 559,
      "chini": 560,
      "taan": 561,
      "chak": 562,
      "tibi": 563,
      "Ġadasi": 564,
      "yam": 565,
      "Ġuyo": 566,
      "Ġilaak": 567,
      "Ġisun": 568,
      "Ġug": 569,
      "Ġna": 570,
      "Ġesabe": 571,
      "Ġute": 572,
      "Ġulo": 573,
      "Ġirak": 574,
      "bele": 575,
      "Ġotun": 576,
      "Ġebek": 577,
      "Ġoko": 578,
      "ire": 579,
      "buuk": 580,
      "Ġochicha": 581,
      "Ġokuk": 582,
      "Ġesuuk": 583,
      "Ġotumu": 584,
      "toon": 585,
      "et": 586,
      "jaan": 587,
      "faka": 588,
      "nin": 589,
      "Ġararan": 590,
      "nyan": 591,
      "Ġuji": 592,
      "Ġmfut": 593,
      "bem": 594,
      "embuuk": 595,
      "Ġeriembuuk": 596,
      "!âĢĿ": 597,
      "ama": 598,
      "Ġineni": 599,
      "tat": 600,
      "Ġaya": 601,
      "kisa": 602,
      "gobo": 603,
      "Ġofolek": 604,
      "Ġoyet": 605,
      "Ġntook": 606,
      "Ġilo": 607,
      "kitumu": 608,
      "jot": 609,
      "Ġinwo": 610,
      "Ġikpoko": 611,
      "Ġekup": 612,
      "Ġeli": 613,
      "Ġobe": 614,
      "Ġikeme": 615,
      "Ġefuuk": 616,
      "abe": 617,
      "keek": 618,
      "Ġekwut": 619,
      "Ġaran": 620,
      "Ġntumu": 621,
      "Ġmiin": 622,
      "Ġkeya": 623,
      "Ġudo": 624,
      "Ġnsabo": 625,
      "Ġijet": 626,
      "ruk": 627,
      "Ġkpebe": 628,
      "Ġuja": 629,
      "Ġkpo": 630,
      "Ġonyan": 631,
      "Ġamo": 632,
      "taka": 633,
      "Ġisiki": 634,
      "Ġikpak": 635,
      "Ġigwu": 636,
      "Ġufialek": 637,
      "sut": 638,
      "ogwu": 639,
      "Ġuru": 640,
      "bon": 641,
      "Ġosat": 642,
      "Ġeko": 643,
      "Ġotunchit": 644,
      "Ġgi": 645,
      "Ġoge": 646,
      "kaki": 647,
      "keke": 648,
      "Ġiraka": 649,
      "Ġmgban": 650,
      "nya": 651,
      "Ġre": 652,
      "rot": 653,
      "Ġitoon": 654,
      "at": 655,
      "Ġoli": 656,
      "Ġorie": 657,
      "gu": 658,
      "Ġni": 659,
      "Ġjeko": 660,
      "Ġurum": 661,
      "Ġotumube": 662,
      "gbugbo": 663,
      "Ġese": 664,
      "Ġekene": 665,
      "Ġura": 666,
      "Ġokuket": 667,
      "ukup": 668,
      "Ġekisa": 669,
      "Ġjei": 670,
      "Ġumin": 671,
      "Ġikiro": 672,
      "Ġesese": 673,
      "Ġosu": 674,
      "Ġse": 675,
      "Ġigbaalek": 676,
      "kwaan": 677,
      "kakaan": 678,
      "bai": 679,
      "bilo": 680,
      "Ġebeki": 681,
      "Ġewo": 682,
      "Ġunaan": 683,
      "anan": 684,
      "Ġkechi": 685,
      "Ġsabum": 686,
      "Ġegwe": 687,
      "sulu": 688,
      "Ì£-": 689,
      "Ġosusut": 690,
      "Ġche": 691,
      "Ġmba": 692,
      "Ġinyinya": 693,
      "let": 694,
      "Ġkpai": 695,
      "Ġugan": 696,
      "Ġikakaan": 697,
      "Ġbene": 698,
      "dim": 699,
      "Ġimu": 700,
      "Ġfili": 701,
      "Ġuriaak": 702,
      "fiat": 703,
      "Ġbabilo": 704,
      "Ġoron": 705,
      "Ġisasa": 706,
      "Ġgwe": 707,
      "regwen": 708,
      "Ġutoon": 709,
      "Ġokupbe": 710,
      "Ġgweregwen": 711,
      "sisik": 712,
      "Ġinire": 713,
      "Ġlibai": 714,
      "Ġonyibe": 715,
      "Ġichi": 716,
      "Ġebum": 717,
      "Ġabi": 718,
      "Ġekigwen": 719,
      "Ġakpalek": 720,
      "wabu": 721,
      "Ġasa": 722,
      "Ġpo": 723,
      "jijaka": 724,
      "Ġujo": 725,
      "Ġekeki": 726,
      "Ġben": 727,
      "Ġigwen": 728,
      "Ġunwo": 729,
      "Ġijot": 730,
      "Ġekaan": 731,
      "kpu": 732,
      "lomo": 733,
      "Ġoti": 734,
      "ura": 735,
      "lom": 736,
      "sefu": 737,
      "Ġebere": 738,
      "Ġnki": 739,
      "Ġne": 740,
      "Ġikike": 741,
      "teme": 742,
      "Ġijeen": 743,
      "gbana": 744,
      "sabe": 745,
      "Ġjosefu": 746,
      "Ġich": 747,
      "yen": 748,
      "rep": 749,
      "Ġeririeen": 750,
      "Ġoje": 751,
      "Ġntitiin": 752,
      "Ġesip": 753,
      "beek": 754,
      "Ġekiro": 755,
      "ik": 756,
      "kukup": 757,
      "laak": 758,
      "kwa": 759,
      "Ġro": 760,
      "Ġfe": 761,
      "Ġotutumu": 762,
      "Ġnsan": 763,
      "tun": 764,
      "look": 765,
      "Ġebereyam": 766,
      "jak": 767,
      "Ġfilisia": 768,
      "Ġsolomo": 769,
      "Ġilai": 770,
      "Ġijaan": 771,
      "Ġitibi": 772,
      "Ġiwo": 773,
      "tutumu": 774,
      "Ġitim": 775,
      "Ġfero": 776,
      "Ġikweek": 777,
      "kayaka": 778,
      "Ġichechieek": 779,
      "Ġichep": 780,
      "Ġeto": 781,
      "suwa": 782,
      "Ġorebe": 783,
      "jibi": 784,
      "Ġiwele": 785,
      "tetet": 786,
      "du": 787,
      "Ġili": 788,
      "Ġpi": 789,
      "Ġit": 790,
      "Ġkpeb": 791,
      "Ġugane": 792,
      "Ġs": 793,
      "rioon": 794,
      "reke": 795,
      "Ġekp": 796,
      "Ġewe": 797,
      "Ġoka": 798,
      "Ġonen": 799,
      "Ġkpeki": 800,
      "Ġmbum": 801,
      "Ġifi": 802,
      "turu": 803,
      "nen": 804,
      "Ġiyaka": 805,
      "chaka": 806,
      "ĠâĢĿ": 807,
      "Ġikitumu": 808,
      "Ġokeki": 809,
      "bin": 810,
      "Ġinyinyi": 811,
      "Ġoruk": 812,
      "Ġataak": 813,
      "Ġsoso": 814,
      "Ġebot": 815,
      "Ġgerep": 816,
      "Ġbak": 817,
      "iko": 818,
      "Ġuso": 819,
      "fet": 820,
      "Ġora": 821,
      "Ġotubo": 822,
      "mfaka": 823,
      "wek": 824,
      "Ġiluk": 825,
      "Ġifieek": 826,
      "Ġerio": 827,
      "Ġosiki": 828,
      "Ġnkwukwu": 829,
      "Ġikpulu": 830,
      "Ġiweek": 831,
      "Ġolik": 832,
      "Ġorukan": 833,
      "Ġego": 834,
      "emi": 835,
      "Ġbe": 836,
      "Ġinama": 837,
      "mechieen": 838,
      "Ġiben": 839,
      "Ġikwu": 840,
      "Ġisotu": 841,
      "Ġefo": 842,
      "enyi": 843,
      "Ġosi": 844,
      "Ġkpek": 845,
      "dan": 846,
      "kbe": 847,
      "Ġnji": 848,
      "Ġimumechieen": 849,
      "Ġasi": 850,
      "Ġnre": 851,
      "Ġfituru": 852,
      "duku": 853,
      "tbe": 854,
      "Ġkpan": 855,
      "Ġikak": 856,
      "Ġnteme": 857,
      "Ġuyok": 858,
      "Ġolom": 859,
      "Ġuse": 860,
      "Ġikito": 861,
      "Ġinen": 862,
      "tutu": 863,
      "chechieek": 864,
      "asi": 865,
      "ÌĦ?": 866,
      "Ġnroon": 867,
      "Ġpita": 868,
      "Ġmkpukp": 869,
      "Ġogbogbo": 870,
      "sen": 871,
      "Ġinw": 872,
      "wop": 873,
      "nyo": 874,
      "Ġikin": 875,
      "ÌĦ!": 876,
      "kaya": 877,
      "jeje": 878,
      "buk": 879,
      "Ġoduku": 880,
      "Ġebesa": 881,
      "Ġjosuwa": 882,
      "Ġokop": 883,
      "kito": 884,
      "kupbe": 885,
      "oku": 886,
      "Ġijejeen": 887,
      "okumugwem": 888,
      "Ġeru": 889,
      "Ġekpan": 890,
      "Ġoru": 891,
      "Ġemun": 892,
      "kinyi": 893,
      "Ġibak": 894,
      "Ġegebe": 895,
      "Ġomun": 896,
      "Ġikikpo": 897,
      "rekeyi": 898,
      "kwo": 899,
      "eejit": 900,
      "Ġitata": 901,
      "Ġjeri": 902,
      "Ġototun": 903,
      "fat": 904,
      "eja": 905,
      "kat": 906,
      "Ġufieejit": 907,
      "Ġebo": 908,
      "Ġekpo": 909,
      "bia": 910,
      "gak": 911,
      "inan": 912,
      "Ġichen": 913,
      "Ġuche": 914,
      "Ġakpan": 915,
      "Ġken": 916,
      "wut": 917,
      "Ġatata": 918,
      "mgbo": 919,
      "Ġunen": 920,
      "Ġcherekeyi": 921,
      "gwuun": 922,
      "Ġeno": 923,
      "nye": 924,
      "Ġenu": 925,
      "Ġogboon": 926,
      "gugo": 927,
      "Ġtumu": 928,
      "Ġedo": 929,
      "ijo": 930,
      "Ġowa": 931,
      "Ġiteke": 932,
      "Ġmkpukpe": 933,
      "Ì£;": 934,
      "Ġko": 935,
      "yat": 936,
      "Ġikije": 937,
      "gwat": 938,
      "kpukpo": 939,
      "Ġimo": 940,
      "Ġatan": 941,
      "but": 942,
      "ntiik": 943,
      "Ġnnwo": 944,
      "Ġokiro": 945,
      "tata": 946,
      "yeke": 947,
      "Ġokpu": 948,
      "wulu": 949,
      "Ġunan": 950,
      "Ġetap": 951,
      "Ġuyeke": 952,
      "sasa": 953,
      "Ġatanga": 954,
      "chili": 955,
      "yana": 956,
      "Ġirie": 957,
      "saba": 958,
      "kpe": 959,
      "lam": 960,
      "owu": 961,
      "kisi": 962,
      "Ġutop": 963,
      "Ġisinyo": 964,
      "Ġatalek": 965,
      "Ġegep": 966,
      "Ġotito": 967,
      "Ġewele": 968,
      "Ġugbo": 969,
      "Ġmowabu": 970,
      "Ġbet": 971,
      "Ġobebe": 972,
      "Ġenan": 973,
      "Ġirom": 974,
      "Ġefet": 975,
      "Ġnga": 976,
      "mijo": 977,
      "Ġojelek": 978,
      "Ġonanan": 979,
      "Ġekitumu": 980,
      "pa": 981,
      "Ġiria": 982,
      "bebene": 983,
      "soso": 984,
      "rak": 985,
      "Ġikisa": 986,
      "Ġjodan": 987,
      "nama": 988,
      "Ġkpebeko": 989,
      "Ġolu": 990,
      "kinu": 991,
      "Ġmu": 992,
      "kije": 993,
      "Ġofiaan": 994,
      "Ġewelegwe": 995,
      "Ġeluk": 996,
      "Ġta": 997,
      "Ġnneni": 998,
      "kikpo": 999,
      "kike": 1000,
      "ram": 1001,
      "Ġuseen": 1002,
      "jamin": 1003,
      "ekeke": 1004,
      "saak": 1005,
      "Ġitaka": 1006,
      "Ġekupbe": 1007,
      "Ġtele": 1008,
      "rem": 1009,
      "Ġonin": 1010,
      "mien": 1011,
      "Ġerumun": 1012,
      "Ġto": 1013,
      "Ġegbe": 1014,
      "Ġmkp": 1015,
      "Ġmbem": 1016,
      "kikpulu": 1017,
      "Ġkperio": 1018,
      "Ġagbagba": 1019,
      "Ġyo": 1020,
      "Ġirieen": 1021,
      "Ġiriaak": 1022,
      "Ġaji": 1023,
      "Ġbenjamin": 1024,
      "kiweek": 1025,
      "Ġonenido": 1026,
      "Ġiferem": 1027,
      "Ġosabe": 1028,
      "ju": 1029,
      "mumun": 1030,
      "Ġonenibe": 1031,
      "Ġaka": 1032,
      "Ġmana": 1033,
      "roon": 1034,
      "Ġinisa": 1035,
      "fuun": 1036,
      "Ġmudim": 1037,
      "Ġokike": 1038,
      "Ġjeyo": 1039,
      "Ġkpeyaka": 1040,
      "eta": 1041,
      "mbe": 1042,
      "tumube": 1043,
      "Ġpa": 1044,
      "Ġasabo": 1045,
      "weekbe": 1046,
      "Ġle": 1047,
      "Ġitutumu": 1048,
      "Ġebon": 1049,
      "Ġafa": 1050,
      "ema": 1051,
      "Ġgili": 1052,
      "ween": 1053,
      "Ġukwu": 1054,
      "bore": 1055,
      "wam": 1056,
      "Ġikat": 1057,
      "Ġulom": 1058,
      "Ġchini": 1059,
      "Ġjeeta": 1060,
      "Ġekwe": 1061,
      "Ġukwuuk": 1062,
      "Ġchinichini": 1063,
      "Ġoria": 1064,
      "Ġoluk": 1065,
      "Ġigbaan": 1066,
      "Ġubele": 1067,
      "kpoyaka": 1068,
      "Ġjona": 1069,
      "Ġubelejit": 1070,
      "Ġkarake": 1071,
      "mgbugbo": 1072,
      "Ġusem": 1073,
      "bat": 1074,
      "Ġono": 1075,
      "Ġikasi": 1076,
      "Ġujamgbugbo": 1077,
      "Ġikakwun": 1078,
      "fan": 1079,
      "Ġititiin": 1080,
      "Ì£.âĢĿ": 1081,
      "Ġochak": 1082,
      "Ġnsen": 1083,
      "Ġekana": 1084,
      "ket": 1085,
      "Ġkenan": 1086,
      "Ġnsensi": 1087,
      "Ġda": 1088,
      "Ġjio": 1089,
      "Ġnra": 1090,
      "gbegbe": 1091,
      "Ġiwa": 1092,
      "Ġkpebeyaka": 1093,
      "men": 1094,
      "gele": 1095,
      "buwam": 1096,
      "Ġikpukp": 1097,
      "Ġekiket": 1098,
      "Ġsamien": 1099,
      "Ġpe": 1100,
      "Ġoruru": 1101,
      "Ġisaba": 1102,
      "ali": 1103,
      "Ġotuchieen": 1104,
      "Ġunyan": 1105,
      "Ġaram": 1106,
      "yenye": 1107,
      "Ġan": 1108,
      "Ġmg": 1109,
      "ekp": 1110,
      "Ġutele": 1111,
      "bokup": 1112,
      "Ġayi": 1113,
      "Ġngobo": 1114,
      "gat": 1115,
      "Ġutelelek": 1116,
      "Ġorere": 1117,
      "Ġilibi": 1118,
      "eka": 1119,
      "reyi": 1120,
      "Ġnu": 1121,
      "Ġsayo": 1122,
      "Ġnrio": 1123,
      "bak": 1124,
      "jomo": 1125,
      "Ġtap": 1126,
      "rege": 1127,
      "maya": 1128,
      "Ġurie": 1129,
      "Ġnan": 1130,
      "yala": 1131,
      "Ġoni": 1132,
      "Ġifu": 1133,
      "Ġjowabu": 1134,
      "Ġilile": 1135,
      "Ġajiki": 1136,
      "Ġmanasi": 1137,
      "buku": 1138,
      "eya": 1139,
      "Ġuro": 1140,
      "tatat": 1141,
      "luluk": 1142,
      "Ġegwu": 1143,
      "jei": 1144,
      "Ġosasa": 1145,
      "Ġasiria": 1146,
      "Ġokwukwu": 1147,
      "Ġesasa": 1148,
      "Ġmmun": 1149,
      "chieekbe": 1150,
      "Ġdan": 1151,
      "Ġchereyi": 1152,
      "yu": 1153,
      "Ġijit": 1154,
      "Ì£?": 1155,
      "Ġerebe": 1156,
      "Ġjerimaya": 1157,
      "Ġesan": 1158,
      "Ġodo": 1159,
      "lep": 1160,
      "Ġuna": 1161,
      "Ġiraraka": 1162,
      "mimin": 1163,
      "Ġkechilo": 1164,
      "kwek": 1165,
      "Ġima": 1166,
      "Ġago": 1167,
      "Ġsibi": 1168,
      "Ġikarek": 1169,
      "nyibe": 1170,
      "Ġayaya": 1171,
      "eji": 1172,
      "Ġetet": 1173,
      "Ġnsi": 1174,
      "Ġikam": 1175,
      "gwut": 1176,
      "kibem": 1177,
      "buru": 1178,
      "Ġikisi": 1179,
      "lili": 1180,
      "kpaka": 1181,
      "iri": 1182,
      "Ġokwu": 1183,
      "Ġorio": 1184,
      "Ġigbet": 1185,
      "Ġkpekaan": 1186,
      "wene": 1187,
      "Ġota": 1188,
      "Ġagwut": 1189,
      "kiluk": 1190,
      "chep": 1191,
      "Ġakpabin": 1192,
      "Ġijijaka": 1193,
      "Ġifiin": 1194,
      "jen": 1195,
      "Ġkpeko": 1196,
      "bidim": 1197,
      "Ġfo": 1198,
      "Ġalo": 1199,
      "Ġada": 1200,
      "gwak": 1201,
      "tutuku": 1202,
      "Ġekije": 1203,
      "Ġuno": 1204,
      "Ġmbubet": 1205,
      "Ġakpatan": 1206,
      "Ġ(": 1207,
      "kpoko": 1208,
      "Ġilaija": 1209,
      "Ġleban": 1210,
      "Ġru": 1211,
      "Ġeben": 1212,
      "kin": 1213,
      "Ġejikaya": 1214,
      "Ġmbubut": 1215,
      "Ġotita": 1216,
      "boro": 1217,
      "Ġnkeek": 1218,
      "Ġenanan": 1219,
      "kario": 1220,
      "Ġonenisa": 1221,
      "Ġkeyilo": 1222,
      "Ġkpunube": 1223,
      "kwakwaan": 1224,
      "Ġubene": 1225,
      "Ġibebene": 1226,
      "lelet": 1227,
      "Ġinwan": 1228,
      "nja": 1229,
      "Ġkpasi": 1230,
      "den": 1231,
      "Ġorioon": 1232,
      "din": 1233,
      "nlo": 1234,
      "Ġigwo": 1235,
      "rom": 1236,
      "fila": 1237,
      "Ġmgbu": 1238,
      "kijeen": 1239,
      "Ġekito": 1240,
      "Ġinitumu": 1241,
      "gbala": 1242,
      "adi": 1243,
      "jin": 1244,
      "Ġikerere": 1245,
      "Ġebebene": 1246,
      "Ġbaali": 1247,
      "Ġulobo": 1248,
      "gan": 1249,
      "Ġichak": 1250,
      "tut": 1251,
      "kiko": 1252,
      "Ġonaan": 1253,
      "Ġigobo": 1254,
      "Ġmgbidim": 1255,
      "de": 1256,
      "Ġotetet": 1257,
      "Ġebibi": 1258,
      "dia": 1259,
      "Ġesibi": 1260,
      "Ġgiliadi": 1261,
      "Ġdi": 1262,
      "Ġilaisia": 1263,
      "gen": 1264,
      "Ġekpa": 1265,
      "Ġuwele": 1266,
      "Ġsame": 1267,
      "Ġsameria": 1268,
      "otu": 1269,
      "Ġiya": 1270,
      "Ġisulu": 1271,
      "Ġufuk": 1272,
      "cho": 1273,
      "Ġonenikana": 1274,
      "Ġokoko": 1275,
      "Ġuri": 1276,
      "Ġogwugwu": 1277,
      "ÌĦ.âĢĻ": 1278,
      "Ġeyabu": 1279,
      "Ġjonatan": 1280,
      "aak": 1281,
      "Ġti": 1282,
      "taba": 1283,
      "Ġonenire": 1284,
      "Ġokeke": 1285,
      "fefieek": 1286,
      "Ġbi": 1287,
      "Ġokp": 1288,
      "Ġinene": 1289,
      "kikup": 1290,
      "Ġikayaka": 1291,
      "wen": 1292,
      "Ġafi": 1293,
      "fio": 1294,
      "fuuk": 1295,
      "gwegwen": 1296,
      "Ġiri": 1297,
      "rarak": 1298,
      "Ġkilo": 1299,
      "Ġunene": 1300,
      "nyenye": 1301,
      "Ġuman": 1302,
      "Ġno": 1303,
      "Ġenin": 1304,
      "Ġokokop": 1305,
      "ntet": 1306,
      "Ġichieek": 1307,
      "Ġinitap": 1308,
      "keki": 1309,
      "Ġfa": 1310,
      "Ġetim": 1311,
      "Ġnwakpa": 1312,
      "Ġekot": 1313,
      "Ġt": 1314,
      "ĠĠ": 1315,
      "kitap": 1316,
      "Ġonan": 1317,
      "lat": 1318,
      "Ġeyaka": 1319,
      "Ġnkwu": 1320,
      "Ġjero": 1321,
      "melek": 1322,
      "Ġoluku": 1323,
      "Ġokwukwut": 1324,
      "eyi": 1325,
      "Ġra": 1326,
      "Ġukpa": 1327,
      "Ġeni": 1328,
      "risi": 1329,
      "buso": 1330,
      "Ġsai": 1331,
      "busolo": 1332,
      "tetele": 1333,
      "chat": 1334,
      "Ġitaba": 1335,
      "Ġjewu": 1336,
      "Ġolifu": 1337,
      "Ġsan": 1338,
      "Ġiban": 1339,
      "Ġabusolo": 1340,
      "Ġnjak": 1341,
      "anaan": 1342,
      "Ġnsa": 1343,
      "Ġnye": 1344,
      "Ġnlelet": 1345,
      "kakup": 1346,
      "Ġikikpulu": 1347,
      "Ġekiweek": 1348,
      "Ġmfufuk": 1349,
      "Ġgibi": 1350,
      "Ġmbeek": 1351,
      "Ġntap": 1352,
      "ronyan": 1353,
      "Ġntoronyan": 1354,
      "ika": 1355,
      "Ġotiti": 1356,
      "yik": 1357,
      "Ġnkaan": 1358,
      "kigo": 1359,
      "kot": 1360,
      "Ġoboko": 1361,
      "rakabe": 1362,
      "neme": 1363,
      "ufuun": 1364,
      "Ġaja": 1365,
      "tatap": 1366,
      "gbuk": 1367,
      "lak": 1368,
      "Ġoneniria": 1369,
      "umu": 1370,
      "Ġuke": 1371,
      "Ġugbana": 1372,
      "Ġenunu": 1373,
      "Ġonenibon": 1374,
      "Ġukechieen": 1375,
      "adin": 1376,
      "Ì£!": 1377,
      "Ġogbu": 1378,
      "Ġufe": 1379,
      "leke": 1380,
      "Ġnke": 1381,
      "Ġetetet": 1382,
      "Ġigwak": 1383,
      "Ġoraan": 1384,
      "bukadin": 1385,
      "Ġjerobuwam": 1386,
      "bukadineja": 1387,
      "keme": 1388,
      "Ġuwop": 1389,
      "Ġajaka": 1390,
      "Ġjebu": 1391,
      "kput": 1392,
      "Ġokput": 1393,
      "Ġetapbe": 1394,
      "Ġajakajak": 1395,
      "iya": 1396,
      "mana": 1397,
      "naan": 1398,
      "chiaan": 1399,
      "Ġikiweek": 1400,
      "Ġifa": 1401,
      "Ġnebukadineja": 1402,
      "Ġelukbe": 1403,
      "boko": 1404,
      "bieen": 1405,
      "uko": 1406,
      "chichini": 1407,
      "Ġbara": 1408,
      "Ġikwek": 1409,
      "Ġnyan": 1410,
      "kom": 1411,
      "Ġuneen": 1412,
      "Ġokitumu": 1413,
      "Ġuraa": 1414,
      "Ġifuun": 1415,
      "Ġusaba": 1416,
      "ukan": 1417,
      "karo": 1418,
      "kibo": 1419,
      "Ġokakana": 1420,
      "nunu": 1421,
      "Ġot": 1422,
      "Ġotap": 1423,
      "Ġenwo": 1424,
      "kachieek": 1425,
      "Ġisisi": 1426,
      "raya": 1427,
      "raraka": 1428,
      "Ġofit": 1429,
      "Ġmkpat": 1430,
      "Ġugumu": 1431,
      "Ġoninin": 1432,
      "Ġfarisi": 1433,
      "?âĢĻ": 1434,
      "Ġri": 1435,
      "Ġla": 1436,
      "Ġorieen": 1437,
      "jijen": 1438,
      "riya": 1439,
      "fiin": 1440,
      "Ġijeek": 1441,
      "Ġebero": 1442,
      "Ġijibi": 1443,
      "mije": 1444,
      "Ġekero": 1445,
      "Ġelieja": 1446,
      "Ġimumun": 1447,
      "ilaak": 1448,
      "yim": 1449,
      "yiyala": 1450,
      "kpulube": 1451,
      "Ġifon": 1452,
      "Ġegwo": 1453,
      "sisaak": 1454,
      "tuku": 1455,
      "rudun": 1456,
      "benebe": 1457,
      "Ġokije": 1458,
      "Ġokukup": 1459,
      "Ġobebene": 1460,
      "kwak": 1461,
      "Ġmgburudun": 1462,
      "Ġegbaan": 1463,
      "Ġeden": 1464,
      "Ġorakabe": 1465,
      "sin": 1466,
      "ÌĤ,": 1467,
      "sefat": 1468,
      "Ġgadi": 1469,
      "Ġekpiri": 1470,
      "Ġjiosefat": 1471,
      "kekeke": 1472,
      "Ġifiat": 1473,
      "Ġegwa": 1474,
      "jijit": 1475,
      "fiaan": 1476,
      "Ġikigo": 1477,
      "Ġkpere": 1478,
      "Ġenenisa": 1479,
      "ogwukaan": 1480,
      "Ġonenin": 1481,
      "kwook": 1482,
      "Ġmkpukan": 1483,
      "ien": 1484,
      "Ġerie": 1485,
      "wuwu": 1486,
      "Ġugo": 1487,
      "Ġali": 1488,
      "Ġachiaan": 1489,
      "Ġenama": 1490,
      "kako": 1491,
      "baak": 1492,
      "Ġeneninan": 1493,
      "Ġekeke": 1494,
      "Ġkachieek": 1495,
      "Ġigon": 1496,
      "Ġigwuun": 1497,
      "Ġmkpilaak": 1498,
      "nte": 1499,
      "pbe": 1500,
      "Ġibia": 1501,
      "Ġetumu": 1502,
      "bosa": 1503,
      "Ġari": 1504,
      "Ġngugo": 1505,
      "Ġokisa": 1506,
      "Ġbalam": 1507,
      "Ġogobo": 1508,
      "Ġibook": 1509,
      "Ġilet": 1510,
      "Ġoneninan": 1511,
      "nenen": 1512,
      "Ġebu": 1513,
      "Ġmfaka": 1514,
      "Ġolat": 1515,
      "Ġmeri": 1516,
      "kakana": 1517,
      "Ġisik": 1518,
      "Ġsam": 1519,
      "Ġibaan": 1520,
      "susun": 1521,
      "Ġonyinyi": 1522,
      "Ġinwene": 1523,
      "Ġirin": 1524,
      "Ġekpirikpo": 1525,
      "meen": 1526,
      "Ġige": 1527,
      "Ġawo": 1528,
      "riro": 1529,
      "Ġikibe": 1530,
      "Ġebeben": 1531,
      "Ġruben": 1532,
      "Ġbarabat": 1533,
      "miin": 1534,
      "Ġiin": 1535,
      "Ġmbin": 1536,
      "Ġogu": 1537,
      "Ġukwook": 1538,
      "Ġase": 1539,
      "kinan": 1540,
      "jojot": 1541,
      "mabe": 1542,
      "Ġinito": 1543,
      "Ġlilin": 1544,
      "Ġokputut": 1545,
      "Ġikpukpuku": 1546,
      "Ġibum": 1547,
      "Ġulibi": 1548,
      "kara": 1549,
      "saya": 1550,
      "ina": 1551,
      "Ġitat": 1552,
      "Ġonenisi": 1553,
      "Ġejeje": 1554,
      "Ġgban": 1555,
      "Ġagbo": 1556,
      "kpukpulu": 1557,
      "Ġeburo": 1558,
      "aya": 1559,
      "beni": 1560,
      "gbuku": 1561,
      "po": 1562,
      "Ġimin": 1563,
      "Ġigbana": 1564,
      "Ġakan": 1565,
      "fita": 1566,
      "Ġenyibe": 1567,
      "Ġikijeen": 1568,
      "Ġinigwa": 1569,
      "!âĢĻ": 1570,
      "nwa": 1571,
      "Ġetumube": 1572,
      "Ġogwa": 1573,
      "Ġokpa": 1574,
      "Ġufieek": 1575,
      "kai": 1576,
      "Ġikitaan": 1577,
      "Ġechichi": 1578,
      "Ġechieek": 1579,
      "Ġikpakpan": 1580,
      "Ġsek": 1581,
      "Ġefon": 1582,
      "Ġmebe": 1583,
      "was": 1584,
      "Ġikachieek": 1585,
      "Ġjese": 1586,
      "Ġkpechieek": 1587,
      "gwenbe": 1588,
      "Ġobosa": 1589,
      "Ġgalili": 1590,
      "Ġekpen": 1591,
      "Ġokpibot": 1592,
      "Ġuraafio": 1593,
      "Ġugumulek": 1594,
      "yayaka": 1595,
      "kibe": 1596,
      "chachak": 1597,
      "raria": 1598,
      "Ġikirie": 1599,
      "laba": 1600,
      "Ġkaan": 1601,
      "nube": 1602,
      "Ġicho": 1603,
      "ilet": 1604,
      "uruk": 1605,
      "Ġban": 1606,
      "Ġwo": 1607,
      "Ġitip": 1608,
      "Ġet": 1609,
      "Ġegw": 1610,
      "Ġmbi": 1611,
      "ÌĦ?âĢĿ": 1612,
      "Ġochieekbe": 1613,
      "Ġinyana": 1614,
      "Ġonenigwen": 1615,
      "Ġekarege": 1616,
      "Ġotunwa": 1617,
      "Ġinenitumu": 1618,
      "Ġpailet": 1619,
      "Ġoriabe": 1620,
      "Ġsamsin": 1621,
      "Ġoguga": 1622,
      "owot": 1623,
      "tuuk": 1624,
      "Ġeman": 1625,
      "kitet": 1626,
      "kibele": 1627,
      "kpolo": 1628,
      "Ġekiluk": 1629,
      "Ġikarege": 1630,
      "dio": 1631,
      "dikai": 1632,
      "Ġesita": 1633,
      "Ġabina": 1634,
      "Ġdanien": 1635,
      "ukot": 1636,
      "Ġburu": 1637,
      "Ġinya": 1638,
      "Ġikwa": 1639,
      "Ġikeek": 1640,
      "Ġnli": 1641,
      "Ġokolo": 1642,
      "Ġntumube": 1643,
      "Ġoraria": 1644,
      "Ġnjijin": 1645,
      "sek": 1646,
      "Ġetoon": 1647,
      "Ġojot": 1648,
      "Ġafo": 1649,
      "Ġikinyi": 1650,
      "Ġnno": 1651,
      "Ġnkupbe": 1652,
      "Ġonunu": 1653,
      "Ġokinyi": 1654,
      "Ġreyo": 1655,
      "Ġokekebe": 1656,
      "Ġetele": 1657,
      "Ġugwat": 1658,
      "Ġikeki": 1659,
      "sisibi": 1660,
      "kisibi": 1661,
      "Ġichichini": 1662,
      "Ġjioya": 1663,
      "Ġburubut": 1664,
      "uwu": 1665,
      "Ġsimi": 1666,
      "jajaan": 1667,
      "Ġekibe": 1668,
      "Ġjeen": 1669,
      "Ġjedi": 1670,
      "gbaalek": 1671,
      "Ġijija": 1672,
      "titim": 1673,
      "Ġekayaka": 1674,
      "Ġabimelek": 1675,
      "Ġoneninyi": 1676,
      "Ġnjijo": 1677,
      "Ġogbaan": 1678,
      "ret": 1679,
      "yaji": 1680,
      "chim": 1681,
      "top": 1682,
      "sook": 1683,
      "Ġeyiyi": 1684,
      "Ġinido": 1685,
      "Ġaga": 1686,
      "Ġonenifo": 1687,
      "Ġifan": 1688,
      "Ġigen": 1689,
      "Ġnriroon": 1690,
      "Ġgidio": 1691,
      "Ġbeten": 1692,
      "Ġurieek": 1693,
      "Ġegwijo": 1694,
      "Ġigban": 1695,
      "Ġibeni": 1696,
      "sisi": 1697,
      "Ġnka": 1698,
      "wawa": 1699,
      "kitaan": 1700,
      "chiaak": 1701,
      "Ġmidi": 1702,
      "Ġowut": 1703,
      "nanan": 1704,
      "tatana": 1705,
      "Ġujat": 1706,
      "Ġsera": 1707,
      "Ġiyakwut": 1708,
      "Ġnkwurieen": 1709,
      "Ġotitip": 1710,
      "Ġmidian": 1711,
      "Ġye": 1712,
      "Ġnkitumu": 1713,
      "kabo": 1714,
      "kisun": 1715,
      "sai": 1716,
      "sak": 1717,
      "Ġijeje": 1718,
      "Ġitaan": 1719,
      "gwele": 1720,
      "Ġekom": 1721,
      "Ġekpe": 1722,
      "Ġsaimo": 1723,
      "efuuk": 1724,
      "Ġefuk": 1725,
      "Ġugwun": 1726,
      "Ġemu": 1727,
      "chacha": 1728,
      "yok": 1729,
      "Ġinibe": 1730,
      "Ġinigo": 1731,
      "Ġokana": 1732,
      "Ġeberam": 1733,
      "Ġinanan": 1734,
      "Ġjeriko": 1735,
      "Ġsekem": 1736,
      "Ġlo": 1737,
      "Ġifit": 1738,
      "Ġitetet": 1739,
      "ÌĦ!âĢĿ": 1740,
      "rebe": 1741,
      "kim": 1742,
      "kis": 1743,
      "chiin": 1744,
      "ralek": 1745,
      "sobe": 1746,
      "Ġjosaya": 1747,
      "Ġekario": 1748,
      "Ġichim": 1749,
      "Ġnuwa": 1750,
      "Ġokwube": 1751,
      "jan": 1752,
      "Ġte": 1753,
      "Ġukara": 1754,
      "Ġnnyibe": 1755,
      "kaweek": 1756,
      "kikeek": 1757,
      "doni": 1758,
      "kpayaka": 1759,
      "Ġjeka": 1760,
      "sibibe": 1761,
      "Ġurak": 1762,
      "Ġnetan": 1763,
      "Ġukarajit": 1764,
      "Ġsu": 1765,
      "Ġegwook": 1766,
      "Ġujit": 1767,
      "Ġinaan": 1768,
      "kiben": 1769,
      "ino": 1770,
      "Ġkpen": 1771,
      "Ġikiriaak": 1772,
      "Ġikario": 1773,
      "ruro": 1774,
      "weweek": 1775,
      "nenirio": 1776,
      "nenikana": 1777,
      "tutuuk": 1778,
      "Ġogobobe": 1779,
      "Ġnlilo": 1780,
      "kweek": 1781,
      "okaan": 1782,
      "otutuuk": 1783,
      "ten": 1784,
      "Ġyu": 1785,
      "Ġogbugbo": 1786,
      "Ġngi": 1787,
      "mumen": 1788,
      "Ġirere": 1789,
      "Ġonanaan": 1790,
      "Ġekekp": 1791,
      "Ġilook": 1792,
      "Ġlebano": 1793,
      "Ġotin": 1794,
      "Ġjedikaya": 1795,
      "feen": 1796,
      "ken": 1797,
      "Ġefieek": 1798,
      "Ġesun": 1799,
      "Ġmbet": 1800,
      "sio": 1801,
      "kamun": 1802,
      "Ġisinu": 1803,
      "Ġsime": 1804,
      "Ġikiluk": 1805,
      "Ġjesi": 1806,
      "Ġibaak": 1807,
      "Ġibala": 1808,
      "Ġigbu": 1809,
      "Ġilep": 1810,
      "gobobe": 1811,
      "Ġebekisa": 1812,
      "Ġododo": 1813,
      "Ġogbuuruk": 1814,
      "ada": 1815,
      "gana": 1816,
      "yem": 1817,
      "Ġoman": 1818,
      "Ġinunu": 1819,
      "mot": 1820,
      "tis": 1821,
      "tetbe": 1822,
      "Ġjobu": 1823,
      "Ġijiji": 1824,
      "nenisa": 1825,
      "Ġfigi": 1826,
      "Ġogbokot": 1827,
      "Ġujaralek": 1828,
      "Ġichili": 1829,
      "Ġakaka": 1830,
      "wi": 1831,
      "Ġelo": 1832,
      "Ġetitiin": 1833,
      "Ġowo": 1834,
      "Ġemo": 1835,
      "kiriaak": 1836,
      "chichaka": 1837,
      "yon": 1838,
      "juuk": 1839,
      "awaji": 1840,
      "bek": 1841,
      "gbet": 1842,
      "Ġeria": 1843,
      "yada": 1844,
      "Ġotuuk": 1845,
      "babia": 1846,
      "Ġonu": 1847,
      "Ġikitap": 1848,
      "Ġekisi": 1849,
      "Ġekikpo": 1850,
      "Ġonenije": 1851,
      "Ġoboro": 1852,
      "Ġasaya": 1853,
      "Ġikinwo": 1854,
      "Ġreyobuwam": 1855,
      "Ġjekaraya": 1856,
      "Ġijijinu": 1857,
      ",âĢĿ": 1858,
      "fun": 1859,
      "Ġigele": 1860,
      "Ġoyo": 1861,
      "Ġobaak": 1862,
      "retis": 1863,
      "Ġnchat": 1864,
      "kilo": 1865,
      "kpak": 1866,
      "Ġibeek": 1867,
      "Ġibele": 1868,
      "Ġkana": 1869,
      "Ġsisa": 1870,
      "Ġekigwa": 1871,
      "Ġinikana": 1872,
      "Ġisak": 1873,
      "Ġokikpo": 1874,
      "feretis": 1875,
      "Ġejebe": 1876,
      "Ġalala": 1877,
      "Ġnjin": 1878,
      "Ġinyakpa": 1879,
      "Ġyuferetis": 1880,
      "beka": 1881,
      "Ġgwu": 1882,
      "Ġewa": 1883,
      "boni": 1884,
      "sisiki": 1885,
      "chen": 1886,
      "tio": 1887,
      "masi": 1888,
      "Ġekinyi": 1889,
      "Ġinikup": 1890,
      "Ġokiweek": 1891,
      "Ġgat": 1892,
      "Ġrechen": 1893,
      "Ġngigo": 1894,
      "Ġigbugbo": 1895,
      "Ġsun": 1896,
      "Ì£?âĢĿ": 1897,
      "Ġekpulube": 1898,
      "Ġofu": 1899,
      "Ġuchi": 1900,
      "Ġukpak": 1901,
      "Ġnlom": 1902,
      "sasan": 1903,
      "tiin": 1904,
      "liya": 1905,
      "Ġokinan": 1906,
      "Ġakpat": 1907,
      "Ġekesi": 1908,
      "Ġrom": 1909,
      "Ġkpebek": 1910,
      "juja": 1911,
      "Ġjeyoyada": 1912,
      "Ġdamasi": 1913,
      "Ġemanbe": 1914,
      "Ġdamasiko": 1915,
      "nbe": 1916,
      "Ġgwa": 1917,
      "Ġtet": 1918,
      "Ġegba": 1919,
      "Ġmbe": 1920,
      "kiri": 1921,
      "kirie": 1922,
      "teen": 1923,
      "lap": 1924,
      "dadasi": 1925,
      "Ġiniben": 1926,
      "Ġekwaan": 1927,
      "Ġkperarak": 1928,
      "Ġobokup": 1929,
      "Ġjudia": 1930,
      "Ġenenido": 1931,
      "Ġojeje": 1932,
      "Ġsema": 1933,
      "Ġosisi": 1934,
      "Ġukpatu": 1935,
      "Ġifaka": 1936,
      "Ġsimio": 1937,
      "Ġogbugboon": 1938,
      "Ġiburu": 1939,
      "Ġituuk": 1940,
      "wukwu": 1941,
      "Ġujuja": 1942,
      "Ġnsabe": 1943,
      "kafat": 1944,
      "kigwen": 1945,
      "Ġisiraka": 1946,
      "Ġikido": 1947,
      "Ġekiko": 1948,
      "Ġikaro": 1949,
      "Ġoke": 1950,
      "fum": 1951,
      "Ġkpegban": 1952,
      "Ġgibiya": 1953,
      "ike": 1954,
      "Ġeta": 1955,
      "Ġmbo": 1956,
      "Ġkup": 1957,
      "Ġakwo": 1958,
      "Ġnnyan": 1959,
      "kima": 1960,
      "kido": 1961,
      "kinwo": 1962,
      "koro": 1963,
      "gween": 1964,
      "bala": 1965,
      "Ġisimen": 1966,
      "fifila": 1967,
      "Ġsiki": 1968,
      "oket": 1969,
      "Ġiniro": 1970,
      "Ġinikpa": 1971,
      "Ġinimun": 1972,
      "Ġinikeke": 1973,
      "Ġidodo": 1974,
      "Ġekek": 1975,
      "Ġokikpulu": 1976,
      "Ġotoon": 1977,
      "Ġbasan": 1978,
      "Ġininin": 1979,
      "Ġinenisa": 1980,
      "Ġewop": 1981,
      "Ġmbasa": 1982,
      "Ġkom": 1983,
      "Ġtaya": 1984,
      "Ġaligo": 1985,
      "Ġfan": 1986,
      "Ġisusun": 1987,
      "Ġamin": 1988,
      "reli": 1989,
      "ruruk": 1990,
      "set": 1991,
      "Ġonenibo": 1992,
      "yanan": 1993,
      "Ġjado": 1994,
      "Ġenenitumu": 1995,
      "Ġayaji": 1996,
      "Ġikpukpo": 1997,
      "Ġgibio": 1998,
      "Ġechechieek": 1999,
      "Ġogugo": 2000,
      "Ġmera": 2001,
      "Ġai": 2002,
      "Ġacho": 2003,
      "Ġnruruk": 2004,
      "kire": 2005,
      "fiak": 2006,
      "fon": 2007,
      "jaya": 2008,
      "Ġonenikwu": 2009,
      "Ġokwun": 2010,
      "Ġokito": 2011,
      "Ġjowas": 2012,
      "teleyem": 2013,
      "Ġigbagban": 2014,
      "kpukpuku": 2015,
      "Ġbeteleyem": 2016,
      "Ġegwugwu": 2017,
      "Ġokwukwek": 2018,
      "Ġtema": 2019,
      "Ġotapbe": 2020,
      "Ġribeka": 2021,
      ",âĢĻ": 2022,
      "Ġdo": 2023,
      "Ġlibi": 2024,
      "Ġefe": 2025,
      "Ġelook": 2026,
      "Ġoyaka": 2027,
      "bojeje": 2028,
      "Ġinyam": 2029,
      "Ġaman": 2030,
      "Ġngo": 2031,
      "jiya": 2032,
      "kidun": 2033,
      "Ġirerie": 2034,
      "Ġorombe": 2035,
      "Ġigu": 2036,
      "Ġesisi": 2037,
      "Ġejeek": 2038,
      "ninin": 2039,
      "Ġiwop": 2040,
      "Ġoniro": 2041,
      "Ġekpakpan": 2042,
      "Ġegwogwook": 2043,
      "fitali": 2044,
      "Ġofut": 2045,
      "Ġfanti": 2046,
      "len": 2047,
      "ut": 2048,
      "Ġiye": 2049,
      "Ġimeen": 2050,
      "Ġosibibe": 2051,
      "Ġabo": 2052,
      "Ġnria": 2053,
      "Ġnnyi": 2054,
      "Ġnkiro": 2055,
      "Ġkecha": 2056,
      "Ġejijaka": 2057,
      "Ġsie": 2058,
      "Ġkpemun": 2059,
      "Ġobore": 2060,
      "kanabe": 2061,
      "tititiin": 2062,
      "Ġejeen": 2063,
      "Ġagbasi": 2064,
      "Ġfila": 2065,
      "Ġelia": 2066,
      "Ġikwukwu": 2067,
      "Ġojotbe": 2068,
      "Ġonube": 2069,
      "faan": 2070,
      "Ġeweek": 2071,
      "Ġomo": 2072,
      "Ġinwaan": 2073,
      "ÌĤ.": 2074,
      "rok": 2075,
      "kimo": 2076,
      "Ġikiko": 2077,
      "dabu": 2078,
      "Ġekikeek": 2079,
      "Ġikakup": 2080,
      "Ġikatet": 2081,
      "Ġjemi": 2082,
      "Ġonenibene": 2083,
      "Ġorom": 2084,
      "Ġebebe": 2085,
      "Ġnafitali": 2086,
      "Ġigwugwuun": 2087,
      "sulube": 2088,
      "Ġechieekbe": 2089,
      "Ġjesereli": 2090,
      "Ġsimei": 2091,
      "kororok": 2092,
      "us": 2093,
      "wan": 2094,
      "Ġiti": 2095,
      "Ġosan": 2096,
      "Ġosun": 2097,
      "Ġogwegwen": 2098,
      "wuwuuk": 2099,
      "raan": 2100,
      "Ġsilo": 2101,
      "gon": 2102,
      "lim": 2103,
      "liki": 2104,
      "Ġekibo": 2105,
      "Ġamajiya": 2106,
      "benbe": 2107,
      "Ġsetan": 2108,
      "Ġitana": 2109,
      "Ġenube": 2110,
      "Ġkoyat": 2111,
      "Ġoriara": 2112,
      "Ġetetbe": 2113,
      "Ġbie": 2114,
      "Ġajariya": 2115,
      "Ġjebulo": 2116,
      "Ġmbit": 2117,
      "Ġfilafila": 2118,
      "kek": 2119,
      "Ġbu": 2120,
      "Ġanan": 2121,
      "Ġiluluk": 2122,
      "Ġitetele": 2123,
      "Ġobu": 2124,
      "Ġomumun": 2125,
      "jebe": 2126,
      "kasa": 2127,
      "Ġogwugwa": 2128,
      "Ġisini": 2129,
      "Ġikigwen": 2130,
      "Ġikasa": 2131,
      "Ġamalek": 2132,
      "Ġune": 2133,
      "Ġoneniro": 2134,
      "Ġitobo": 2135,
      "dido": 2136,
      "Ġsodo": 2137,
      "Ġjudas": 2138,
      "Ġkora": 2139,
      "Ġolukbe": 2140,
      "Ġomanbe": 2141,
      "Ġjemis": 2142,
      "tana": 2143,
      "Ġwi": 2144,
      "Ġeche": 2145,
      "Ġeweekbe": 2146,
      "ano": 2147,
      "Ġufo": 2148,
      "Ġuwot": 2149,
      "Ġukwek": 2150,
      "yas": 2151,
      "Ġkelep": 2152,
      "kifieek": 2153,
      "kilibi": 2154,
      "Ġkiria": 2155,
      "kpore": 2156,
      "Ġikibo": 2157,
      "Ġitatap": 2158,
      "seba": 2159,
      "Ġonenito": 2160,
      "Ġenenisi": 2161,
      "Ġmfufiat": 2162,
      "abas": 2163,
      "takabe": 2164,
      "Ġikakana": 2165,
      "Ġonineen": 2166,
      "ekpe": 2167,
      "Ġbanabas": 2168,
      "Ġemumun": 2169,
      "ata": 2170,
      "kem": 2171,
      "Ġomin": 2172,
      "Ġokpan": 2173,
      "boyaka": 2174,
      "Ġakpo": 2175,
      "Ġngan": 2176,
      "Ġenye": 2177,
      "mumana": 2178,
      "kitaka": 2179,
      "riki": 2180,
      "Ġisisibi": 2181,
      "bumu": 2182,
      "Ġsido": 2183,
      "leek": 2184,
      "Ġikigwa": 2185,
      "lai": 2186,
      "Ġekitap": 2187,
      "Ġkpero": 2188,
      "Ġbalak": 2189,
      "Ġiboni": 2190,
      "Ġewuukbe": 2191,
      "Ġayajaya": 2192,
      "Ġseya": 2193,
      "Ġekekitumu": 2194,
      "Ġenamabe": 2195,
      "Ġnjijoon": 2196,
      "Ġigugo": 2197,
      "dek": 2198,
      "nene": 2199,
      "Ġiwut": 2200,
      "Ġobenebe": 2201,
      "Ġaba": 2202,
      "Ġikinu": 2203,
      "Ġikween": 2204,
      "Ġebikaan": 2205,
      "jipa": 2206,
      "ris": 2207,
      "Ġikifieek": 2208,
      "daya": 2209,
      "Ġekirie": 2210,
      "Ġiniki": 2211,
      "Ġinilook": 2212,
      "Ġibat": 2213,
      "Ġifin": 2214,
      "suru": 2215,
      "Ġakpakpa": 2216,
      "rekwukwu": 2217,
      "Ġekesa": 2218,
      "Ġekerekwukwu": 2219,
      "Ġfilip": 2220,
      "Ġasafu": 2221,
      "Ġbenaya": 2222,
      "laakbe": 2223,
      "Ġnjijan": 2224,
      "Ġotataan": 2225,
      "Ġokanabe": 2226,
      "Ġsemaya": 2227,
      "kween": 2228,
      "oye": 2229,
      "Ġgwook": 2230,
      "Ġiyik": 2231,
      "Ġmban": 2232,
      "Ġoweekbe": 2233,
      "Ġufun": 2234,
      "yiaan": 2235,
      "Ġininyi": 2236,
      "Ġikukup": 2237,
      "katele": 2238,
      "kagbe": 2239,
      "Ġonwo": 2240,
      "lia": 2241,
      "lilaba": 2242,
      "Ġekikup": 2243,
      "Ġitaak": 2244,
      "Ġekekeke": 2245,
      "miri": 2246,
      "Ġibosi": 2247,
      "Ġenenije": 2248,
      "Ġejet": 2249,
      "Ġlia": 2250,
      "Ġmbaro": 2251,
      "Ġosikibe": 2252,
      "Ġpesia": 2253,
      "Ġanyiaan": 2254,
      "Ġekekpo": 2255,
      "oyerebet": 2256,
      "Ġufuna": 2257,
      "ito": 2258,
      "tem": 2259,
      "Ġmfi": 2260,
      "Ġogba": 2261,
      "Ġakat": 2262,
      "tutun": 2263,
      "Ġenyan": 2264,
      "jeri": 2265,
      "katet": 2266,
      "kikpukpo": 2267,
      "mama": 2268,
      "lalaak": 2269,
      "Ġinigwook": 2270,
      "Ġisaka": 2271,
      "Ġsaina": 2272,
      "chechep": 2273,
      "dimi": 2274,
      "kanwo": 2275,
      "Ġifet": 2276,
      "Ġbali": 2277,
      "Ġilap": 2278,
      "Ġnkinyi": 2279,
      "Ġikwuun": 2280,
      "Ġgiligan": 2281,
      "Ġpere": 2282,
      "Ġimaan": 2283,
      "Ġija": 2284,
      "Ġiwuuk": 2285,
      "Ġiwulu": 2286,
      "Ġmgbugbo": 2287,
      "Ġmmumun": 2288,
      "Ġotata": 2289,
      "boset": 2290,
      "Ġami": 2291,
      "Ġnso": 2292,
      "Ġkeek": 2293,
      "kikaan": 2294,
      "Ġisire": 2295,
      "Ġekigbaan": 2296,
      "Ġjera": 2297,
      "Ġekukup": 2298,
      "Ġoboni": 2299,
      "kanyi": 2300,
      "Ġufiak": 2301,
      "Ġefuun": 2302,
      "Ġelisa": 2303,
      "Ġolilibi": 2304,
      "des": 2305,
      "Ġrama": 2306,
      "Ġjebus": 2307,
      "adadi": 2308,
      "Ġigwegwen": 2309,
      "Ġetutumu": 2310,
      "ÌĢ-": 2311,
      "Ġkwu": 2312,
      "gwugwuun": 2313,
      "jijijaka": 2314,
      "katumu": 2315,
      "rim": 2316,
      "eman": 2317,
      "baan": 2318,
      "Ġisimun": 2319,
      "Ġmijipa": 2320,
      "kpako": 2321,
      "kpakpan": 2322,
      "Ġamat": 2323,
      "gwogwook": 2324,
      "wuukbe": 2325,
      "Ġkpomo": 2326,
      "Ġigwugwu": 2327,
      "Ġasasa": 2328,
      "Ġjioyakim": 2329,
      "Ġmerari": 2330,
      "Ġwit": 2331,
      "Ġpereji": 2332,
      ".)": 2333,
      "aka": 2334,
      "nwene": 2335,
      "pe": 2336,
      "Ġoga": 2337,
      "beben": 2338,
      "beme": 2339,
      "Ġadoni": 2340,
      "wakwaan": 2341,
      "Ġenek": 2342,
      "kitoon": 2343,
      "kikput": 2344,
      "Ġibesi": 2345,
      "Ġibeben": 2346,
      "Ġsiyon": 2347,
      "Ġikigban": 2348,
      "Ġmbubeek": 2349,
      "Ġbowaji": 2350,
      "Ġkpesa": 2351,
      "Ġkpeben": 2352,
      "Ġesibon": 2353,
      "Ġnriro": 2354,
      "timbe": 2355,
      "Ġekakpo": 2356,
      "Ġnali": 2357,
      "Ġebekpa": 2358,
      "Ġobeben": 2359,
      "Ġekoon": 2360,
      "Ġmbat": 2361,
      "Ġnebo": 2362,
      "Ġkpekiko": 2363,
      "Ġegop": 2364,
      "Ġakajit": 2365,
      "Ġkiriat": 2366,
      "mkpo": 2367,
      "Ġibieen": 2368,
      "Ġeso": 2369,
      "Ġedim": 2370,
      "Ġoyayaka": 2371,
      "Ġulu": 2372,
      "Ġnlak": 2373,
      "Ġnsek": 2374,
      "yayat": 2375,
      "chon": 2376,
      "kibene": 2377,
      "Ġikpukot": 2378,
      "lilibi": 2379,
      "Ġekinu": 2380,
      "lukwulu": 2381,
      "kanan": 2382,
      "Ġgasio": 2383,
      "Ġjeruba": 2384,
      "Ġekakaan": 2385,
      "gbugbuku": 2386,
      "Ġebekup": 2387,
      "Ġikwala": 2388,
      "Ġamino": 2389,
      "Ġichaka": 2390,
      "Ġomabe": 2391,
      "Ġosobe": 2392,
      "Ġotetbe": 2393,
      "boki": 2394,
      "Ġnnaan": 2395,
      "tataka": 2396,
      "Ġyaka": 2397,
      "Ġibem": 2398,
      "Ġejira": 2399,
      "anama": 2400,
      "Ġejitbe": 2401,
      "sero": 2402,
      "Ġkpewo": 2403,
      "Ġokitap": 2404,
      "Ġokitaan": 2405,
      "Ġunyechieen": 2406,
      "Ġiraria": 2407,
      "nenire": 2408,
      "Ġmfuun": 2409,
      "Ġayasero": 2410,
      "Ġasaak": 2411,
      "Ġojebe": 2412,
      "Ġekpuk": 2413,
      "neneme": 2414,
      "Ġnkwukwak": 2415,
      "Ġasera": 2416,
      "Ġkwulukwulu": 2417,
      "Ġebekpakpan": 2418,
      "fen": 2419,
      "nyam": 2420,
      "Ġrio": 2421,
      "Ġria": 2422,
      "Ġega": 2423,
      "Ġegwen": 2424,
      "Ġoma": 2425,
      "bolo": 2426,
      "Ġiken": 2427,
      "sibe": 2428,
      "Ġnchi": 2429,
      "jijibi": 2430,
      "kam": 2431,
      "kisan": 2432,
      "kinyan": 2433,
      "Ġikisibi": 2434,
      "Ġikikeek": 2435,
      "Ġinitoon": 2436,
      "Ġokekeke": 2437,
      "Ġokijeen": 2438,
      "titibi": 2439,
      "Ġobedi": 2440,
      "Ġgiris": 2441,
      "gumu": 2442,
      "Ġuraya": 2443,
      "Ġabija": 2444,
      "kwala": 2445,
      "Ġodobe": 2446,
      "Ġadam": 2447,
      "),": 2448,
      "Ġileke": 2449,
      "Ġekpulu": 2450,
      "Ġogbe": 2451,
      "jet": 2452,
      "kigwa": 2453,
      "kisiki": 2454,
      "kitutuku": 2455,
      "unun": 2456,
      "Ġikiwo": 2457,
      "Ġikalo": 2458,
      "Ġisasan": 2459,
      "Ġonenikpo": 2460,
      "lukbe": 2461,
      "Ġebejeje": 2462,
      "Ġkatet": 2463,
      "mimiin": 2464,
      "Ġenenigbaan": 2465,
      "Ġefumbe": 2466,
      "Ġujaya": 2467,
      "Ġmbatumu": 2468,
      "Ġichiaak": 2469,
      "Ġifiaan": 2470,
      "Ġnrebe": 2471,
      "Ġikinye": 2472,
      "jomobe": 2473,
      "Ġrufu": 2474,
      "wuwum": 2475,
      "Ġtuku": 2476,
      "Ġetatap": 2477,
      "Ġmgbaan": 2478,
      "Ġojeen": 2479,
      "Ġomumen": 2480,
      "wuwo": 2481,
      "bini": 2482,
      "Ġnko": 2483,
      "rorom": 2484,
      "toto": 2485,
      "Ġikibele": 2486,
      "Ġikilook": 2487,
      "Ġekigo": 2488,
      "Ġiniria": 2489,
      "Ġinitim": 2490,
      "Ġunin": 2491,
      "Ġoneniben": 2492,
      "Ġokinu": 2493,
      "Ġokisibi": 2494,
      "susulu": 2495,
      "Ġofia": 2496,
      "Ġjoram": 2497,
      "tapbe": 2498,
      "Ġijin": 2499,
      "unuun": 2500,
      "Ġigbe": 2501,
      "mega": 2502,
      "Ġochili": 2503,
      "Ġabiata": 2504,
      "sisip": 2505,
      "Ġegwookbe": 2506,
      "Ġnchicha": 2507,
      "isi": 2508,
      "mkpan": 2509,
      "nchieek": 2510,
      "Ġluk": 2511,
      "Ġolo": 2512,
      "Ġkweek": 2513,
      "boje": 2514,
      "bonu": 2515,
      "bes": 2516,
      "Ġntim": 2517,
      "gwugwu": 2518,
      "Ġenun": 2519,
      "kakiro": 2520,
      "kiya": 2521,
      "kitim": 2522,
      "tam": 2523,
      "Ġonama": 2524,
      "Ġikitet": 2525,
      "Ġekimun": 2526,
      "Ġekijeen": 2527,
      "Ġinikpo": 2528,
      "Ġmaika": 2529,
      "Ġebesi": 2530,
      "Ġeberie": 2531,
      "Ġkawuuk": 2532,
      "Ġekakana": 2533,
      "Ġekakat": 2534,
      "Ġseru": 2535,
      "Ġebekimin": 2536,
      "kinyinyo": 2537,
      "kpebe": 2538,
      "Ġotitop": 2539,
      "Ġjeyoram": 2540,
      "Ġano": 2541,
      "Ġngobobe": 2542,
      "Ġurimi": 2543,
      "Ġeninin": 2544,
      "Ġagam": 2545,
      "Ġegbagbaan": 2546,
      "Ġsieba": 2547,
      "ofi": 2548,
      "ruku": 2549,
      "Ġijak": 2550,
      "Ì£!âĢĿ": 2551,
      "Ġela": 2552,
      "Ġegban": 2553,
      "Ġojit": 2554,
      "Ġokwut": 2555,
      "Ġodu": 2556,
      "Ġolaakbe": 2557,
      "wuruku": 2558,
      "Ġnkisa": 2559,
      "Ġntutun": 2560,
      "kafieek": 2561,
      "kararak": 2562,
      "kimin": 2563,
      "kifuuk": 2564,
      "inin": 2565,
      "kut": 2566,
      "Ġemaan": 2567,
      "Ġijomo": 2568,
      "enia": 2569,
      "lobo": 2570,
      "Ġikisun": 2571,
      "Ġikibem": 2572,
      "las": 2573,
      "kwube": 2574,
      "Ġsaro": 2575,
      "Ġsalu": 2576,
      "Ġmaaka": 2577,
      "ranet": 2578,
      "Ġifefieek": 2579,
      "fieekge": 2580,
      "Ġesibe": 2581,
      "Ġesiki": 2582,
      "Ġesisibi": 2583,
      "Ġenenigwu": 2584,
      "Ġenenititiin": 2585,
      "Ġigbaka": 2586,
      "Ġigwagwa": 2587,
      "Ġeketo": 2588,
      "Ġokodi": 2589,
      "Ġpomega": 2590,
      "Ġilip": 2591,
      "Ġosibe": 2592,
      "Ġosisibi": 2593,
      "namabe": 2594,
      "Ġnnenimun": 2595,
      "Ġjeyowa": 2596,
      "liliin": 2597,
      "Ġtimo": 2598,
      "Ġekekebe": 2599,
      "Ġefukbe": 2600,
      "Ġtukutuku": 2601,
      "Ġpomegaranet": 2602,
      "fuku": 2603,
      "ikup": 2604,
      "renia": 2605,
      "Ġelam": 2606,
      "Ġmweek": 2607,
      "Ġoweek": 2608,
      "Ġochechieek": 2609,
      "Ġmedi": 2610,
      "wum": 2611,
      "wuku": 2612,
      "tuun": 2613,
      "Ġnun": 2614,
      "jeret": 2615,
      "kimun": 2616,
      "ribo": 2617,
      "chichit": 2618,
      "Ġibeme": 2619,
      "Ġisisik": 2620,
      "terenia": 2621,
      "Ġejiro": 2622,
      "Ġikimo": 2623,
      "Ġikitim": 2624,
      "daliya": 2625,
      "Ġuwuuk": 2626,
      "Ġekitutuku": 2627,
      "Ġikako": 2628,
      "Ġinigwu": 2629,
      "Ġjet": 2630,
      "sera": 2631,
      "Ġitop": 2632,
      "nyinyi": 2633,
      "Ġofieek": 2634,
      "Ġkamen": 2635,
      "Ġjotam": 2636,
      "fafiat": 2637,
      "Ġosasan": 2638,
      "Ġenenijibi": 2639,
      "Ġugbek": 2640,
      "Ġnajeret": 2641,
      "Ġebekaan": 2642,
      "Ġelilim": 2643,
      "Ġkpekup": 2644,
      "Ġantio": 2645,
      "Ġnomi": 2646,
      "Ġmbiribo": 2647,
      "Ġbieseba": 2648,
      "Ġmediterenia": 2649,
      "ebe": 2650,
      "nyana": 2651,
      "Ġiyat": 2652,
      "Ġiyiyala": 2653,
      "Ġegbugbuku": 2654,
      "Ġmmabe": 2655,
      "Ġochieek": 2656,
      "Ġosulube": 2657,
      "Ġineme": 2658,
      "gwuuk": 2659,
      "kino": 2660,
      "kigban": 2661,
      "kpunu": 2662,
      "Ġgedaliya": 2663,
      "jop": 2664,
      "Ġejibi": 2665,
      "kpokup": 2666,
      "Ġikput": 2667,
      "dodo": 2668,
      "Ġikikaan": 2669,
      "Ġikiwut": 2670,
      "Ġikijijen": 2671,
      "lio": 2672,
      "seya": 2673,
      "Ġonenijibi": 2674,
      "Ġekwakwaan": 2675,
      "Ġkpefuk": 2676,
      "Ġebeto": 2677,
      "Ġkat": 2678,
      "Ġofifit": 2679,
      "Ġbasa": 2680,
      "Ġbaruk": 2681,
      "Ġiraak": 2682,
      "Ġnaban": 2683,
      "Ġelikana": 2684,
      "Ġkpebero": 2685,
      "Ġichibi": 2686,
      "Ġilikiya": 2687,
      "Ġseme": 2688,
      "Ġkpekiro": 2689,
      "Ġmgbet": 2690,
      "Ġsailas": 2691,
      "Ġlajo": 2692,
      "Ġegwabe": 2693,
      "Ġananiya": 2694,
      "Ġobubot": 2695,
      "Ġf": 2696,
      "Ġichieen": 2697,
      "Ġeku": 2698,
      "Ġotele": 2699,
      "Ġotetele": 2700,
      "Ġmesi": 2701,
      "bonan": 2702,
      "bokwukwu": 2703,
      "bokikpulu": 2704,
      "Ġikwo": 2705,
      "Ġnin": 2706,
      "Ġnwo": 2707,
      "Ġnkana": 2708,
      "gwuku": 2709,
      "kalo": 2710,
      "kajaka": 2711,
      "Ġgeyaji": 2712,
      "Ġotukot": 2713,
      "Ġisiro": 2714,
      "tobo": 2715,
      "Ġmikaya": 2716,
      "Ġejijit": 2717,
      "Ġkpukp": 2718,
      "Ġikitaka": 2719,
      "Ġikibeek": 2720,
      "Ġekikaan": 2721,
      "Ġikare": 2722,
      "Ġmbubak": 2723,
      "Ġonenisan": 2724,
      "riaan": 2725,
      "Ġebetumu": 2726,
      "niro": 2727,
      "Ġikanan": 2728,
      "Ġikanye": 2729,
      "Ġjakajaka": 2730,
      "Ġebeni": 2731,
      "Ġebeko": 2732,
      "neniro": 2733,
      "Ġekaro": 2734,
      "Ġekako": 2735,
      "Ġaraba": 2736,
      "Ġichip": 2737,
      "Ġefieekbe": 2738,
      "Ġikakupge": 2739,
      "Ġadonija": 2740,
      "beki": 2741,
      "gbin": 2742,
      "ngwa": 2743,
      "Ġigbo": 2744,
      "Ġebene": 2745,
      "Ġegwenbe": 2746,
      "Ġokpukp": 2747,
      "Ġokpukpulu": 2748,
      "Ġobenbe": 2749,
      "Ġnti": 2750,
      "kasan": 2751,
      "kikpa": 2752,
      "kitibi": 2753,
      "ineya": 2754,
      "taak": 2755,
      "totoon": 2756,
      "chachiaak": 2757,
      "Ġejijibi": 2758,
      "buja": 2759,
      "Ġirep": 2760,
      "soon": 2761,
      "Ġsisera": 2762,
      "lululuk": 2763,
      "Ġekiriaak": 2764,
      "kpatele": 2765,
      "Ġinikpulu": 2766,
      "Ġjesuwa": 2767,
      "Ġjefita": 2768,
      "Ġokek": 2769,
      "Ġmaliki": 2770,
      "yakabe": 2771,
      "Ġekan": 2772,
      "Ġotobe": 2773,
      "Ì£.âĢĻ": 2774,
      "Ġigwat": 2775,
      "Ġnayo": 2776,
      "Ġewopbe": 2777,
      "Ġabisai": 2778,
      "Ġegonbe": 2779,
      "Ġjioyakin": 2780,
      "Ġsalum": 2781,
      "Ġjeyowayaji": 2782,
      "ineyas": 2783,
      "Ġgbaalek": 2784,
      "Ġiruro": 2785,
      "Ġeba": 2786,
      "Ġelibi": 2787,
      "Ġegobo": 2788,
      "Ġetio": 2789,
      "Ġojo": 2790,
      "Ġogban": 2791,
      "Ġusa": 2792,
      "Ġugwuuk": 2793,
      "Ġnnen": 2794,
      "Ġntut": 2795,
      "gegen": 2796,
      "kasibi": 2797,
      "chibi": 2798,
      "Ġgera": 2799,
      "Ġowuuk": 2800,
      "Ġonye": 2801,
      "kpokaan": 2802,
      "maan": 2803,
      "ake": 2804,
      "Ġikimin": 2805,
      "Ġikitoon": 2806,
      "liin": 2807,
      "gwaka": 2808,
      "Ġekisun": 2809,
      "Ġikawuuk": 2810,
      "Ġinibo": 2811,
      "Ġiniluk": 2812,
      "Ġiniyik": 2813,
      "Ġinichichini": 2814,
      "Ġonenigwu": 2815,
      "Ġsafan": 2816,
      "Ġeberi": 2817,
      "Ġkasa": 2818,
      "Ġkades": 2819,
      "pia": 2820,
      "Ġenenire": 2821,
      "Ġigbama": 2822,
      "Ġifuku": 2823,
      "Ġnadabu": 2824,
      "Ġinenibe": 2825,
      "Ġrefa": 2826,
      "Ġililaba": 2827,
      "Ġbeja": 2828,
      "kisisaak": 2829,
      "Ġakasia": 2830,
      "Ġotabe": 2831,
      "Ġotatap": 2832,
      "Ġetimbe": 2833,
      "Ġeyakabe": 2834,
      "Ġajayen": 2835,
      "Ġjeseben": 2836,
      "Ġbani": 2837,
      "Ġejijakabe": 2838,
      "Ġjerubaben": 2839,
      "Ġfineyas": 2840,
      "Ġikanyege": 2841,
      "Ġokpukpuk": 2842,
      "Ġetiopia": 2843,
      "mem": 2844,
      "Ġicha": 2845,
      "Ġewu": 2846,
      "Ġecha": 2847,
      "Ġele": 2848,
      "Ġewuwu": 2849,
      "Ġotet": 2850,
      "Ġoche": 2851,
      "Ġobum": 2852,
      "Ġofefieek": 2853,
      "Ġojijibi": 2854,
      "bokpo": 2855,
      "biya": 2856,
      "sito": 2857,
      "Ġnkwa": 2858,
      "kaba": 2859,
      "kama": 2860,
      "kala": 2861,
      "Ġogwulo": 2862,
      "Ġmika": 2863,
      "Ġmidia": 2864,
      "Ġokuba": 2865,
      "Ġsitibi": 2866,
      "kpobo": 2867,
      "kponwo": 2868,
      "Ġikikup": 2869,
      "Ġikiben": 2870,
      "Ġikato": 2871,
      "Ġikafieek": 2872,
      "Ġikafiat": 2873,
      "Ġinisi": 2874,
      "Ġonenikpulu": 2875,
      "Ġkpebo": 2876,
      "Ġkpetet": 2877,
      "Ġkpeweek": 2878,
      "gbak": 2879,
      "Ġokitet": 2880,
      "Ġokiluk": 2881,
      "Ġebeyaka": 2882,
      "Ġkayaka": 2883,
      "Ġobosi": 2884,
      "Ġgaja": 2885,
      "Ġijiin": 2886,
      "Ġisook": 2887,
      "gbeme": 2888,
      "Ġekakwaan": 2889,
      "Ġnieman": 2890,
      "Ġsefa": 2891,
      "Ġekekije": 2892,
      "Ġnkito": 2893,
      "Ġnebat": 2894,
      "temebe": 2895,
      "Ġikino": 2896,
      "Ġtasis": 2897,
      "Ġakara": 2898,
      "Ġdario": 2899,
      "Ġdibo": 2900,
      "Ġramot": 2901,
      "Ġlakis": 2902,
      "Ġokpakpan": 2903,
      "donia": 2904,
      "Ġsusa": 2905,
      "Ġogaan": 2906,
      "Ġonamabe": 2907,
      "Ġseruya": 2908,
      "Ġmesidonia": 2909,
      "Ġsitibin": 2910,
      ").": 2911,
      "beko": 2912,
      "deja": 2913,
      "ne": 2914,
      "Ġgbo": 2915,
      "Ġititim": 2916,
      "Ġedasi": 2917,
      "Ġeraria": 2918,
      "Ġobi": 2919,
      "Ġokpulube": 2920,
      "Ġogwogwook": 2921,
      "Ġkus": 2922,
      "bobene": 2923,
      "botoon": 2924,
      "Ġnge": 2925,
      "kasik": 2926,
      "katat": 2927,
      "kige": 2928,
      "kpuku": 2929,
      "Ġisinin": 2930,
      "Ġenesi": 2931,
      "Ġkis": 2932,
      "Ġonyenye": 2933,
      "Ġikikpa": 2934,
      "lileek": 2935,
      "Ġererie": 2936,
      "Ġchit": 2937,
      "Ġinirio": 2938,
      "Ġiroon": 2939,
      "Ġmbuuk": 2940,
      "Ġjere": 2941,
      "Ġonenimun": 2942,
      "gbagban": 2943,
      "Ġjoyanan": 2944,
      "wewele": 2945,
      "Ġiram": 2946,
      "Ġigbuku": 2947,
      "Ġekafieekge": 2948,
      "gbugbu": 2949,
      "inife": 2950,
      "Ġnaya": 2951,
      "Ġogebe": 2952,
      "Ġabigen": 2953,
      "Ġifio": 2954,
      "Ġjeyowas": 2955,
      "Ġayija": 2956,
      "Ġifum": 2957,
      "Ġadadeja": 2958,
      "wenwene": 2959,
      "Ġikwak": 2960,
      "Ġeriabe": 2961,
      "Ġsisaria": 2962,
      "Ġkpebekaan": 2963,
      "Ġsemes": 2964,
      "akpa": 2965,
      "dak": 2966,
      "olom": 2967,
      "Ġweek": 2968,
      "Ġgwen": 2969,
      "Ġrek": 2970,
      "Ġwele": 2971,
      "Ġefi": 2972,
      "Ġefa": 2973,
      "Ġejot": 2974,
      "Ġmma": 2975,
      "ÌĦ:": 2976,
      "Ġogwenbe": 2977,
      "bosi": 2978,
      "Ġam": 2979,
      "Ġaso": 2980,
      "Ġninife": 2981,
      "kibu": 2982,
      "kiso": 2983,
      "chichi": 2984,
      "chimi": 2985,
      "teek": 2986,
      "anaya": 2987,
      "Ġikiran": 2988,
      "Ġikilibi": 2989,
      "jat": 2990,
      "Ġekikpulu": 2991,
      "Ġinimo": 2992,
      "Ġonenikup": 2993,
      "Ġmaseya": 2994,
      "Ġokinyan": 2995,
      "Ġkap": 2996,
      "Ġijijen": 2997,
      "Ġjabes": 2998,
      "Ġenenibe": 2999,
      "Ġntoon": 3000,
      "Ġochichit": 3001,
      "bonunu": 3002,
      "Ġreya": 3003,
      "Ġimumana": 3004,
      "Ġililibi": 3005,
      "Ġsukot": 3006,
      "Ġififila": 3007,
      "tataba": 3008,
      "Ġikatana": 3009,
      "Ġtimin": 3010,
      "Ġoneninin": 3011,
      "Ġeriebe": 3012,
      "Ġemumana": 3013,
      "Ġochilibe": 3014,
      "Ġekuro": 3015,
      "Ġowuukbe": 3016,
      "Ġbejalen": 3017,
      "arim": 3018,
      "Ġgwat": 3019,
      "Ġigween": 3020,
      "Ġetaka": 3021,
      "Ġekpukpulu": 3022,
      "Ġobene": 3023,
      "Ġofa": 3024,
      "Ġojijit": 3025,
      "Ġurot": 3026,
      "book": 3027,
      "Ġate": 3028,
      "Ġnchieekbe": 3029,
      "rombe": 3030,
      "Ġkeme": 3031,
      "kago": 3032,
      "kado": 3033,
      "kagban": 3034,
      "kikpan": 3035,
      "kinin": 3036,
      "inwo": 3037,
      "Ġibebe": 3038,
      "Ġotuban": 3039,
      "tolek": 3040,
      "mora": 3041,
      "fiboset": 3042,
      "kponin": 3043,
      "Ġikigwook": 3044,
      "gwagwak": 3045,
      "Ġekimo": 3046,
      "Ġekinan": 3047,
      "Ġikamo": 3048,
      "Ġikatele": 3049,
      "Ġusus": 3050,
      "Ġonenisibi": 3051,
      "Ġmatan": 3052,
      "Ġjiarim": 3053,
      "Ġototuuk": 3054,
      "Ġjuwen": 3055,
      "kanu": 3056,
      "nisa": 3057,
      "Ġanato": 3058,
      "Ġesak": 3059,
      "Ġigana": 3060,
      "riaakbe": 3061,
      "Ġininyan": 3062,
      "gbebe": 3063,
      "Ġgomora": 3064,
      "fukbe": 3065,
      "Ġekemun": 3066,
      "Ġekeluk": 3067,
      "fakabe": 3068,
      "Ġilolook": 3069,
      "Ġebekito": 3070,
      "Ġekekitaan": 3071,
      "Ġneri": 3072,
      "Ġetobe": 3073,
      "Ġsen": 3074,
      "Ġsem": 3075,
      "Ġokekitumu": 3076,
      "Ġkena": 3077,
      "Ġiriaan": 3078,
      "ekpan": 3079,
      "Ġofieekbe": 3080,
      "Ġewuwuwum": 3081,
      "Ġakarake": 3082,
      "Ġobidaya": 3083,
      "Ġkapano": 3084,
      "Ġikatanage": 3085,
      "Ġususuk": 3086,
      "ai": 3087,
      "edo": 3088,
      "mmun": 3089,
      "Ġtoon": 3090,
      "Ġiwot": 3091,
      "Ġigat": 3092,
      "Ġijuuk": 3093,
      "Ġisusulu": 3094,
      "Ì£ÌĢ": 3095,
      "Ġetibi": 3096,
      "Ġmfat": 3097,
      "Ġmfeen": 3098,
      "Ġoda": 3099,
      "Ġobele": 3100,
      "Ġmesu": 3101,
      "Ġukut": 3102,
      "bonin": 3103,
      "Ġinwun": 3104,
      "bidi": 3105,
      "Ġak": 3106,
      "Ġadi": 3107,
      "Ġakis": 3108,
      "siti": 3109,
      "tubo": 3110,
      "Ġnse": 3111,
      "Ġnluk": 3112,
      "Ġnchieek": 3113,
      "Ġnde": 3114,
      "yaak": 3115,
      "Ġkeret": 3116,
      "kabe": 3117,
      "kifiat": 3118,
      "kikukup": 3119,
      "kilook": 3120,
      "inyo": 3121,
      "tataan": 3122,
      "chichili": 3123,
      "baya": 3124,
      "badi": 3125,
      "Ġisibene": 3126,
      "Ġenego": 3127,
      "chachat": 3128,
      "Ġejiik": 3129,
      "bugbuk": 3130,
      "rama": 3131,
      "Ġijojomo": 3132,
      "kpoje": 3133,
      "kporo": 3134,
      "yot": 3135,
      "Ġkpenyi": 3136,
      "Ġikisiki": 3137,
      "Ġikigugo": 3138,
      "Ġekiwo": 3139,
      "Ġekiben": 3140,
      "Ġekinwo": 3141,
      "Ġitama": 3142,
      "Ġagbugbuk": 3143,
      "ruru": 3144,
      "Ġoneniman": 3145,
      "Ġatalia": 3146,
      "Ġmata": 3147,
      "Ġitoto": 3148,
      "Ġokikaan": 3149,
      "Ġkali": 3150,
      "Ġetetele": 3151,
      "Ġde": 3152,
      "Ġirariaak": 3153,
      "Ġisoon": 3154,
      "Ġeneniria": 3155,
      "Ġeneniben": 3156,
      "Ġininwene": 3157,
      "Ġinyanyan": 3158,
      "gbugbugbo": 3159,
      "Ġegege": 3160,
      "Ġkpebemun": 3161,
      "bonbe": 3162,
      "kakilo": 3163,
      "Ġseraya": 3164,
      "Ġebekiro": 3165,
      "Ġitem": 3166,
      "Ġekpabe": 3167,
      "Ġekpakpa": 3168,
      "Ġiyayaka": 3169,
      "Ġogbururu": 3170,
      "Ġkpeno": 3171,
      "Ġefeso": 3172,
      "anowa": 3173,
      "ofifi": 3174,
      "Ġkpukpunu": 3175,
      "Ġmesulam": 3176,
      "Ġnsebe": 3177,
      "asaak": 3178,
      "suk": 3179,
      "sem": 3180,
      "usen": 3181,
      "Ġfieek": 3182,
      "Ġefefieek": 3183,
      "Ġebenebe": 3184,
      "Ġetitim": 3185,
      "Ġegobobe": 3186,
      "Ġmwuuk": 3187,
      "Ġmbele": 3188,
      "Ġogwen": 3189,
      "Ġogwook": 3190,
      "Ġojijaka": 3191,
      "Ġotakabe": 3192,
      "Ġmeliki": 3193,
      "Ġmefiboset": 3194,
      "ekene": 3195,
      "bosibi": 3196,
      "Ġnnube": 3197,
      "wala": 3198,
      "kichieek": 3199,
      "kisis": 3200,
      "rija": 3201,
      "Ġisino": 3202,
      "Ġisisiki": 3203,
      "tofen": 3204,
      "Ġeneje": 3205,
      "sok": 3206,
      "kponan": 3207,
      "Ġkpulu": 3208,
      "Ġikpaan": 3209,
      "Ġikifo": 3210,
      "lilam": 3211,
      "lube": 3212,
      "Ġekitet": 3213,
      "Ġekifieek": 3214,
      "Ġikakpo": 3215,
      "Ġikala": 3216,
      "Ġikagbe": 3217,
      "Ġikatat": 3218,
      "Ġinije": 3219,
      "Ġinitet": 3220,
      "Ġinititiin": 3221,
      "Ġonenimo": 3222,
      "Ġsaasaak": 3223,
      "Ġifaan": 3224,
      "riabe": 3225,
      "Ġngwugwat": 3226,
      "Ġenenin": 3227,
      "Ġekem": 3228,
      "Ġkpetap": 3229,
      "Ġokikup": 3230,
      "Ġobonin": 3231,
      "chieekge": 3232,
      "nikpo": 3233,
      "Ġidasi": 3234,
      "Ġilaka": 3235,
      "gbugbuk": 3236,
      "Ġpeka": 3237,
      "Ġmfufe": 3238,
      "Ġmfufet": 3239,
      "Ġekeje": 3240,
      "tibibe": 3241,
      "Ġinenido": 3242,
      "Ġichon": 3243,
      "Ġkpekisa": 3244,
      "Ġberia": 3245,
      "Ġikinan": 3246,
      "Ġebesasan": 3247,
      "Ġayitofen": 3248,
      "Ġegwugwuun": 3249,
      "Ġadadi": 3250,
      "Ġten": 3251,
      "Ġoneninama": 3252,
      "Ġisikem": 3253,
      "Ġetelebe": 3254,
      "Ġekekpulu": 3255,
      "Ġeliabu": 3256,
      "Ġojitbe": 3257,
      "Ġotelebe": 3258,
      "Ġmikali": 3259,
      "Ġtimina": 3260,
      "Ġikagbege": 3261,
      "Ġikatatge": 3262,
      "ife": 3263,
      "nra": 3264,
      "pan": 3265,
      "sana": 3266,
      "tge": 3267,
      "Ġriaak": 3268,
      "Ġidun": 3269,
      "Ġiden": 3270,
      "Ġesulu": 3271,
      "Ġegat": 3272,
      "Ġelep": 3273,
      "Ġmweekbe": 3274,
      "Ġodi": 3275,
      "Ġoriro": 3276,
      "Ġkwo": 3277,
      "Ġuwo": 3278,
      "Ġuran": 3279,
      "Ġasu": 3280,
      "redi": 3281,
      "Ġnje": 3282,
      "Ġneko": 3283,
      "karere": 3284,
      "kibeek": 3285,
      "rin": 3286,
      "rikwu": 3287,
      "saja": 3288,
      "tayim": 3289,
      "basa": 3290,
      "Ġisiboset": 3291,
      "totop": 3292,
      "tiya": 3293,
      "son": 3294,
      "Ġsiba": 3295,
      "kpomun": 3296,
      "kpotele": 3297,
      "dobe": 3298,
      "Ġikibene": 3299,
      "Ġikecha": 3300,
      "dai": 3301,
      "Ġekikpa": 3302,
      "kpalo": 3303,
      "Ġiniin": 3304,
      "Ġinisan": 3305,
      "Ġiniweek": 3306,
      "Ġinikpan": 3307,
      "Ġinisik": 3308,
      "sedek": 3309,
      "gagak": 3310,
      "Ġmakiri": 3311,
      "Ġkeyila": 3312,
      "Ġototo": 3313,
      "Ġebele": 3314,
      "Ġkare": 3315,
      "Ġkakpo": 3316,
      "Ġobon": 3317,
      "Ġobokwu": 3318,
      "nigo": 3319,
      "nitap": 3320,
      "Ġesia": 3321,
      "Ġikpaka": 3322,
      "Ġjaya": 3323,
      "Ġibon": 3324,
      "Ġibosa": 3325,
      "Ġenenikpo": 3326,
      "Ġenenibene": 3327,
      "nenisan": 3328,
      "gido": 3329,
      "Ġkpebesa": 3330,
      "Ġonyanyana": 3331,
      "Ġebekigwa": 3332,
      "letbe": 3333,
      "Ġichiin": 3334,
      "Ġnkiweek": 3335,
      "Ġikwurikwu": 3336,
      "Ġosisisik": 3337,
      "Ġnnenikpo": 3338,
      "Ġnnenitumu": 3339,
      "Ġtobaya": 3340,
      "Ġimaman": 3341,
      "Ġtirija": 3342,
      "Ġrimo": 3343,
      "Ġekpete": 3344,
      "Ġewabe": 3345,
      "ikeyi": 3346,
      "Ġlibina": 3347,
      "Ġominbe": 3348,
      "Ġgboi": 3349,
      "kibubaan": 3350,
      "esuuk": 3351,
      "gbini": 3352,
      "mfi": 3353,
      "mkpa": 3354,
      "uwa": 3355,
      "Ġibu": 3356,
      "Ġichat": 3357,
      "Ġimiin": 3358,
      "Ġiwuwum": 3359,
      "Ġeban": 3360,
      "Ġegu": 3361,
      "Ġekpukpo": 3362,
      "Ġmkpu": 3363,
      "Ġori": 3364,
      "Ġomiri": 3365,
      "Ġotemebe": 3366,
      "ÌĢ,": 3367,
      "ekbe": 3368,
      "bokekeke": 3369,
      "Ġinanaan": 3370,
      "Ġinanama": 3371,
      "Ġikek": 3372,
      "res": 3373,
      "rerie": 3374,
      "Ġngwenbe": 3375,
      "karie": 3376,
      "kifo": 3377,
      "kigwook": 3378,
      "kititiin": 3379,
      "kigobo": 3380,
      "kinama": 3381,
      "kikpaka": 3382,
      "kijijen": 3383,
      "rip": 3384,
      "Ġibesa": 3385,
      "kpotet": 3386,
      "Ġkpem": 3387,
      "enes": 3388,
      "Ġikiti": 3389,
      "wuna": 3390,
      "Ġikechi": 3391,
      "Ġikaje": 3392,
      "kwuun": 3393,
      "Ġamasa": 3394,
      "Ġinigwen": 3395,
      "Ġinikeme": 3396,
      "Ġonenigo": 3397,
      "Ġmagi": 3398,
      "Ġmaik": 3399,
      "Ġeneninu": 3400,
      "Ġjibi": 3401,
      "Ġjifu": 3402,
      "Ġyilo": 3403,
      "Ġkpefieek": 3404,
      "Ġokitaba": 3405,
      "Ġebet": 3406,
      "Ġebeje": 3407,
      "Ġebewo": 3408,
      "Ġjom": 3409,
      "Ġobonyi": 3410,
      "Ġorebu": 3411,
      "nilio": 3412,
      "Ġdina": 3413,
      "Ġijijijaka": 3414,
      "Ġbarak": 3415,
      "Ġerombe": 3416,
      "Ġjairi": 3417,
      "Ġenenimun": 3418,
      "Ġininan": 3419,
      "nenibo": 3420,
      "Ġekachieekge": 3421,
      "Ġfiin": 3422,
      "Ġarawuna": 3423,
      "nyanyan": 3424,
      "Ġelilibi": 3425,
      "kakinan": 3426,
      "Ġasayen": 3427,
      "dut": 3428,
      "dudun": 3429,
      "Ġkpebeki": 3430,
      "Ġokekije": 3431,
      "Ġbeli": 3432,
      "Ġasido": 3433,
      "tutuun": 3434,
      "Ġinwen": 3435,
      "Ġtaba": 3436,
      "Ġnnenibe": 3437,
      "Ġayimelek": 3438,
      "Ġayikam": 3439,
      "iyak": 3440,
      "Ġifafaka": 3441,
      "Ġifafiat": 3442,
      "Ġuraamo": 3443,
      "Ġotana": 3444,
      "Ġarika": 3445,
      "Ġserayi": 3446,
      "Ġsiela": 3447,
      "akerip": 3448,
      "Ġkalidia": 3449,
      "Ġmaiken": 3450,
      "Ġdinari": 3451,
      "echichi": 3452,
      "rukp": 3453,
      "uru": 3454,
      "Ġ[": 3455,
      "Ġlaak": 3456,
      "Ġsuwa": 3457,
      "Ġisut": 3458,
      "Ġitutuku": 3459,
      "Ġiweweek": 3460,
      "Ġeluluk": 3461,
      "Ġmgba": 3462,
      "Ġojojot": 3463,
      "Ġojomobe": 3464,
      "Ġmero": 3465,
      "Ġumo": 3466,
      "boluk": 3467,
      "bokukup": 3468,
      "bebe": 3469,
      "bebem": 3470,
      "Ġikem": 3471,
      "Ġnkup": 3472,
      "Ġnda": 3473,
      "Ġnyaka": 3474,
      "Ġnkan": 3475,
      "Ġnsun": 3476,
      "gwube": 3477,
      "jim": 3478,
      "kato": 3479,
      "kamo": 3480,
      "kakpo": 3481,
      "kakat": 3482,
      "kifiak": 3483,
      "Ġgeba": 3484,
      "bajeje": 3485,
      "Ġisinan": 3486,
      "tien": 3487,
      "Ġmiria": 3488,
      "rariaak": 3489,
      "rayim": 3490,
      "Ġkiro": 3491,
      "ungwu": 3492,
      "lelep": 3493,
      "maji": 3494,
      "Ġikpekpe": 3495,
      "Ġikilo": 3496,
      "Ġikisan": 3497,
      "limo": 3498,
      "jakisis": 3499,
      "Ġikamun": 3500,
      "Ġitataan": 3501,
      "Ġinijeen": 3502,
      "Ġjefun": 3503,
      "Ġatasuk": 3504,
      "Ġsaba": 3505,
      "Ġmali": 3506,
      "Ġeneninyi": 3507,
      "Ġjimiri": 3508,
      "Ġekweek": 3509,
      "Ġekeko": 3510,
      "gbagbaan": 3511,
      "Ġokibo": 3512,
      "Ġokigbuk": 3513,
      "Ġebetap": 3514,
      "Ġsoba": 3515,
      "Ġeteen": 3516,
      "nikwu": 3517,
      "Ġanak": 3518,
      "Ġenenibo": 3519,
      "ekowa": 3520,
      "Ġnriki": 3521,
      "gbele": 3522,
      "Ġarowe": 3523,
      "Ġikpebe": 3524,
      "libibe": 3525,
      "Ġulook": 3526,
      "Ġujiyen": 3527,
      "Ġkpebelo": 3528,
      "Ġegwegwen": 3529,
      "Ġekekito": 3530,
      "Ġorak": 3531,
      "Ġedobe": 3532,
      "Ġokpurukp": 3533,
      "Ġekanabe": 3534,
      "Ġnsibe": 3535,
      "Ġesibibe": 3536,
      "Ġokpungwu": 3537,
      "wenween": 3538,
      "Ġtekowa": 3539,
      "nemebe": 3540,
      "nunuun": 3541,
      "Ġnetaniya": 3542,
      "Ġnriabe": 3543,
      "Ġmbanyi": 3544,
      "Ġelisama": 3545,
      "Ġoduuk": 3546,
      "Ġmalikija": 3547,
      "Ġochebe": 3548,
      "Ġreka": 3549,
      "Ġatejakisis": 3550,
      "Ġmataniya": 3551,
      "Ġsenakerip": 3552,
      "Ġmkputo": 3553,
      "Ġinwenwene": 3554,
      "Ġmiriam": 3555,
      "Ġjefune": 3556,
      "Ġokpurukpu": 3557,
      "ego": 3558,
      "ikaan": 3559,
      "jene": 3560,
      "Ġrie": 3561,
      "Ġsulu": 3562,
      "Ġiyok": 3563,
      "Ġiteen": 3564,
      "Ġegak": 3565,
      "Ġegwuun": 3566,
      "Ġmkpan": 3567,
      "Ġoso": 3568,
      "Ġobet": 3569,
      "Ġosibi": 3570,
      "Ġosik": 3571,
      "ani": 3572,
      "Ġugban": 3573,
      "boso": 3574,
      "bonyi": 3575,
      "Ġare": 3576,
      "Ġakwaan": 3577,
      "Ġasen": 3578,
      "Ġawala": 3579,
      "sip": 3580,
      "tukot": 3581,
      "Ġngwa": 3582,
      "Ġnni": 3583,
      "Ġnnu": 3584,
      "Ġnriaak": 3585,
      "wak": 3586,
      "wari": 3587,
      "Ġeniin": 3588,
      "kaje": 3589,
      "kaso": 3590,
      "kakan": 3591,
      "kawuuk": 3592,
      "kasiki": 3593,
      "kiwo": 3594,
      "kiwut": 3595,
      "kpekpe": 3596,
      "tabe": 3597,
      "embe": 3598,
      "Ġgesuru": 3599,
      "Ġibet": 3600,
      "Ġisibo": 3601,
      "Ġenere": 3602,
      "Ġenero": 3603,
      "chachaka": 3604,
      "Ġirem": 3605,
      "radan": 3606,
      "Ġeyiman": 3607,
      "Ġikika": 3608,
      "Ġikimun": 3609,
      "Ġikikana": 3610,
      "Ġikisulu": 3611,
      "Ġikigbuk": 3612,
      "Ġekitim": 3613,
      "kpasi": 3614,
      "Ġamariya": 3615,
      "Ġinibene": 3616,
      "Ġinijijaka": 3617,
      "Ġunwan": 3618,
      "Ġjeyi": 3619,
      "Ġjeyen": 3620,
      "Ġonenikaan": 3621,
      "Ġonenititiin": 3622,
      "Ġokan": 3623,
      "Ġmayala": 3624,
      "Ġekeek": 3625,
      "Ġekween": 3626,
      "Ġkpegwu": 3627,
      "Ġkpesan": 3628,
      "Ġokiben": 3629,
      "Ġokiwut": 3630,
      "Ġechit": 3631,
      "Ġebebo": 3632,
      "Ġebeluk": 3633,
      "Ġofiri": 3634,
      "Ġkatele": 3635,
      "Ġobobolo": 3636,
      "Ġakpatukot": 3637,
      "Ġeteteen": 3638,
      "Ġesasan": 3639,
      "Ġbaji": 3640,
      "mebe": 3641,
      "meri": 3642,
      "Ġifofo": 3643,
      "Ġenenito": 3644,
      "Ġalaga": 3645,
      "ukpuku": 3646,
      "nenikup": 3647,
      "Ġmkpaka": 3648,
      "Ġicheche": 3649,
      "Ġineniro": 3650,
      "Ġinenito": 3651,
      "Ġinenibon": 3652,
      "Ġonyanyan": 3653,
      "kakitet": 3654,
      "kekebe": 3655,
      "Ġebekiko": 3656,
      "Ġmbasi": 3657,
      "Ġmbala": 3658,
      "Ġasabiya": 3659,
      "Ġekekisa": 3660,
      "Ġnkikpo": 3661,
      "Ġnebuja": 3662,
      "Ġfesito": 3663,
      "Ġsana": 3664,
      "Ġbela": 3665,
      "wopbe": 3666,
      "sabadi": 3667,
      "sosook": 3668,
      "Ġtaito": 3669,
      "Ġikpukpulu": 3670,
      "Ġpeyo": 3671,
      "Ġayimaji": 3672,
      "Ġnsisa": 3673,
      "Ġebenin": 3674,
      "Ġmgbugban": 3675,
      "Ġdilai": 3676,
      "Ġokpin": 3677,
      "eyiyi": 3678,
      "Ġotitim": 3679,
      "Ġetana": 3680,
      "adap": 3681,
      "Ġetataan": 3682,
      "Ġaminadap": 3683,
      "Ġotataba": 3684,
      "Ġntitaak": 3685,
      "Ġonyebe": 3686,
      "Ġewudu": 3687,
      "gbugbut": 3688,
      "Ġmelikisedek": 3689,
      "Ġaroweri": 3690,
      "Ġrekabu": 3691,
      "Ġnebujaradan": 3692,
      "Ġdilaila": 3693,
      "Ġtu": 3694,
      "Ġlu": 3695,
      "Ġtim": 3696,
      "Ġeraka": 3697,
      "Ġetaan": 3698,
      "Ġejaan": 3699,
      "Ġmfo": 3700,
      "Ġmanowa": 3701,
      "Ġotimbe": 3702,
      "Ġmesak": 3703,
      "ekwut": 3704,
      "boto": 3705,
      "bogo": 3706,
      "bokwu": 3707,
      "bokana": 3708,
      "bedin": 3709,
      "Ġakisa": 3710,
      "Ġabedin": 3711,
      "rereke": 3712,
      "tubu": 3713,
      "Ġncha": 3714,
      "Ġnjeen": 3715,
      "Ġnsiki": 3716,
      "Ġntaan": 3717,
      "yari": 3718,
      "chubo": 3719,
      "Ġenyam": 3720,
      "Ġenanaan": 3721,
      "gegele": 3722,
      "rotu": 3723,
      "muwen": 3724,
      "kiria": 3725,
      "kifuk": 3726,
      "kigbuk": 3727,
      "kililaba": 3728,
      "sam": 3729,
      "tai": 3730,
      "Ġgejeri": 3731,
      "baro": 3732,
      "Ġisibe": 3733,
      "Ġisije": 3734,
      "ton": 3735,
      "ĠâĢĻ": 3736,
      "bubum": 3737,
      "Ġkire": 3738,
      "uni": 3739,
      "Ġsiali": 3740,
      "Ġmore": 3741,
      "Ġmolek": 3742,
      "gogobo": 3743,
      "Ġikigbo": 3744,
      "Ġikima": 3745,
      "Ġikikpukpo": 3746,
      "Ġikisook": 3747,
      "Ġchili": 3748,
      "laya": 3749,
      "lagi": 3750,
      "layat": 3751,
      "dala": 3752,
      "darak": 3753,
      "Ġekima": 3754,
      "Ġekino": 3755,
      "Ġekikan": 3756,
      "Ġekilibi": 3757,
      "Ġekinin": 3758,
      "Ġekitaka": 3759,
      "Ġekinunuun": 3760,
      "Ġikago": 3761,
      "Ġikama": 3762,
      "Ġikarie": 3763,
      "Ġinijibi": 3764,
      "Ġinikweek": 3765,
      "Ġjedu": 3766,
      "Ġoneniyaka": 3767,
      "Ġoneniriaak": 3768,
      "Ġonenikeke": 3769,
      "Ġsama": 3770,
      "fufuk": 3771,
      "Ġekenyi": 3772,
      "Ġokigo": 3773,
      "Ġokimun": 3774,
      "Ġokibem": 3775,
      "Ġokisisaak": 3776,
      "Ġechicha": 3777,
      "Ġobotumu": 3778,
      "kanin": 3779,
      "kanye": 3780,
      "nisi": 3781,
      "Ġdu": 3782,
      "Ġbati": 3783,
      "Ġikanwo": 3784,
      "Ġigbini": 3785,
      "fele": 3786,
      "Ġeneniro": 3787,
      "Ġutibi": 3788,
      "nenikaan": 3789,
      "Ġgosen": 3790,
      "Ġgolayat": 3791,
      "Ġkpama": 3792,
      "Ġokpoon": 3793,
      "Ġokporotu": 3794,
      "Ġefum": 3795,
      "Ġeketet": 3796,
      "Ġeliasi": 3797,
      "Ġkpebetele": 3798,
      "Ġebekisi": 3799,
      "Ġebekirie": 3800,
      "Ġfilikis": 3801,
      "Ġabiyu": 3802,
      "Ġoneninu": 3803,
      "Ġorariaak": 3804,
      "Ġorakbe": 3805,
      "Ġosiya": 3806,
      "Ġikinyan": 3807,
      "kitop": 3808,
      "Ġitataba": 3809,
      "Ġbetani": 3810,
      "Ġjonadabu": 3811,
      "ekpo": 3812,
      "yalabe": 3813,
      "bukubuku": 3814,
      "Ġotaba": 3815,
      "Ġiyaak": 3816,
      "Ġteman": 3817,
      "Ġtera": 3818,
      "Ġsikilagi": 3819,
      "Ġamiram": 3820,
      "Ġenekana": 3821,
      "Ġikafiatge": 3822,
      "Ġwelewele": 3823,
      "Ġkwok": 3824,
      "Ġkareya": 3825,
      "Ġmagidala": 3826,
      "Ġsanasana": 3827,
      "Ġabedinego": 3828,
      "Ġsialitien": 3829,
      "Ġjedutun": 3830,
      "Ġeliasibu": 3831,
      "duk": 3832,
      "eli": 3833,
      "ikayaka": 3834,
      "lan": 3835,
      "leme": 3836,
      "neen": 3837,
      "ninyi": 3838,
      "Ġg": 3839,
      "Ġbele": 3840,
      "Ġbukubuku": 3841,
      "Ġireke": 3842,
      "Ġegbugbo": 3843,
      "Ġefiat": 3844,
      "Ġelaak": 3845,
      "Ġetititiin": 3846,
      "Ġmwuukbe": 3847,
      "Ġojaan": 3848,
      "Ġobabia": 3849,
      "Ġofakabe": 3850,
      "Ġotibibe": 3851,
      "bobe": 3852,
      "bomo": 3853,
      "botumu": 3854,
      "Ġineen": 3855,
      "bina": 3856,
      "Ġakisi": 3857,
      "Ġachubo": 3858,
      "Ġndo": 3859,
      "Ġngwen": 3860,
      "jiin": 3861,
      "chan": 3862,
      "katap": 3863,
      "kakpan": 3864,
      "riga": 3865,
      "sadak": 3866,
      "chichim": 3867,
      "Ġemabe": 3868,
      "Ġisisa": 3869,
      "Ġisikwu": 3870,
      "teteen": 3871,
      "Ġenyinyi": 3872,
      "Ġmili": 3873,
      "Ġmimin": 3874,
      "racha": 3875,
      "Ġsili": 3876,
      "kposa": 3877,
      "kporie": 3878,
      "maliya": 3879,
      "anayas": 3880,
      "lomi": 3881,
      "Ġikigbaan": 3882,
      "Ġikitibi": 3883,
      "Ġikikpe": 3884,
      "Ġikitutuku": 3885,
      "Ġikidido": 3886,
      "gwagwa": 3887,
      "laka": 3888,
      "lari": 3889,
      "dadi": 3890,
      "Ġekini": 3891,
      "Ġekitaan": 3892,
      "Ġekitoon": 3893,
      "Ġekilaak": 3894,
      "Ġikataka": 3895,
      "kpakpa": 3896,
      "Ġiniso": 3897,
      "Ġinisiki": 3898,
      "Ġinitaka": 3899,
      "Ġagiri": 3900,
      "Ġjedaya": 3901,
      "Ġonenige": 3902,
      "Ġonenitet": 3903,
      "Ġonenitap": 3904,
      "Ġsafa": 3905,
      "Ġsadu": 3906,
      "Ġmayana": 3907,
      "Ġjikiri": 3908,
      "Ġeken": 3909,
      "Ġkpelo": 3910,
      "Ġokifieek": 3911,
      "Ġokinin": 3912,
      "Ġkeyinan": 3913,
      "Ġobokaan": 3914,
      "Ġobonbe": 3915,
      "kelo": 3916,
      "Ġesaba": 3917,
      "Ġigogobo": 3918,
      "fieekbe": 3919,
      "titip": 3920,
      "kwukwulu": 3921,
      "Ġenenikpa": 3922,
      "nenitumu": 3923,
      "neniyaka": 3924,
      "Ġmkpamkpa": 3925,
      "welebe": 3926,
      "Ġmfum": 3927,
      "Ġochichili": 3928,
      "Ġefuro": 3929,
      "Ġefufuun": 3930,
      "Ġekesun": 3931,
      "sikbe": 3932,
      "Ġlili": 3933,
      "chakbe": 3934,
      "Ġinenisi": 3935,
      "Ġkpebetaka": 3936,
      "Ġremaliya": 3937,
      "Ġekekibe": 3938,
      "Ġnkige": 3939,
      "Ġnkikeek": 3940,
      "kwaak": 3941,
      "lookbe": 3942,
      "jibibe": 3943,
      "duru": 3944,
      "Ġpisi": 3945,
      "Ġegon": 3946,
      "ÌĦ!âĢĻ": 3947,
      "kitotop": 3948,
      "Ġakalari": 3949,
      "Ġikasisaak": 3950,
      "Ġdago": 3951,
      "Ġiwak": 3952,
      "Ġanduru": 3953,
      "Ġayitubu": 3954,
      "yudu": 3955,
      "Ġikisisaak": 3956,
      "kinaan": 3957,
      "kinyam": 3958,
      "Ġiyak": 3959,
      "Ġbiri": 3960,
      "Ġbili": 3961,
      "Ġonenino": 3962,
      "Ġalimo": 3963,
      "Ġikachieekge": 3964,
      "kibeme": 3965,
      "Ġikekiro": 3966,
      "Ġekekaan": 3967,
      "Ġabaracha": 3968,
      "Ġogbagban": 3969,
      "Ġelisabet": 3970,
      "Ġogbanabe": 3971,
      "Ġnnenino": 3972,
      "Ġsefatiya": 3973,
      "Ġkenaji": 3974,
      "Ġotanabe": 3975,
      "Ġagiripa": 3976,
      "Ġsadusi": 3977,
      "Ġmayanayim": 3978,
      "akaan": 3979,
      "aran": 3980,
      "beke": 3981,
      "dene": 3982,
      "ere": 3983,
      "ebek": 3984,
      "juk": 3985,
      "kge": 3986,
      "osi": 3987,
      "Ġgwo": 3988,
      "Ġlem": 3989,
      "Ġtaka": 3990,
      "Ġgwuun": 3991,
      "Ġyanan": 3992,
      "Ġgbak": 3993,
      "Ġitititiin": 3994,
      "Ġiwuku": 3995,
      "Ġefiin": 3996,
      "Ġedene": 3997,
      "Ġman": 3998,
      "Ġmfiat": 3999,
      "Ġodido": 4000,
      "Ġofukbe": 4001,
      "Ġmetu": 4002,
      "wuwulu": 4003,
      "Ġuchili": 4004,
      "Ġusai": 4005,
      "yis": 4006,
      "yiyik": 4007,
      "yiyiyala": 4008,
      "botap": 4009,
      "bowele": 4010,
      "bokiro": 4011,
      "bochechep": 4012,
      "been": 4013,
      "bila": 4014,
      "Ġapo": 4015,
      "reren": 4016,
      "Ġnnan": 4017,
      "Ġnkaro": 4018,
      "yak": 4019,
      "yaage": 4020,
      "ÌĤ;": 4021,
      "gege": 4022,
      "ron": 4023,
      "Ġkeye": 4024,
      "Ġkeda": 4025,
      "Ġkedes": 4026,
      "kasi": 4027,
      "kajit": 4028,
      "kabore": 4029,
      "kiche": 4030,
      "kichili": 4031,
      "kiyok": 4032,
      "kigumu": 4033,
      "babu": 4034,
      "Ġisijibi": 4035,
      "tofa": 4036,
      "Ġenetumu": 4037,
      "Ġmisa": 4038,
      "rat": 4039,
      "rata": 4040,
      "raran": 4041,
      "Ġkido": 4042,
      "Ġonire": 4043,
      "kpochieek": 4044,
      "kpofat": 4045,
      "golek": 4046,
      "maman": 4047,
      "Ġikiria": 4048,
      "Ġikikpan": 4049,
      "Ġikichak": 4050,
      "Ġikikwak": 4051,
      "lis": 4052,
      "liba": 4053,
      "lima": 4054,
      "dap": 4055,
      "Ġikado": 4056,
      "Ġikachaka": 4057,
      "Ġiniwo": 4058,
      "Ġiniriaak": 4059,
      "Ġinichili": 4060,
      "Ġmbubuuk": 4061,
      "Ġagburu": 4062,
      "Ġjeturu": 4063,
      "Ġonenimin": 4064,
      "riebe": 4065,
      "Ġenenino": 4066,
      "Ġkpeto": 4067,
      "Ġkpetat": 4068,
      "Ġokisi": 4069,
      "Ġkeyin": 4070,
      "Ġebedi": 4071,
      "Ġebebele": 4072,
      "Ġkasi": 4073,
      "Ġkafieek": 4074,
      "Ġjowa": 4075,
      "dimo": 4076,
      "dide": 4077,
      "Ġsora": 4078,
      "Ġsowari": 4079,
      "Ġeyatbe": 4080,
      "kano": 4081,
      "rekaya": 4082,
      "Ġbayana": 4083,
      "faji": 4084,
      "emebe": 4085,
      "Ġesikibe": 4086,
      "Ġenenikana": 4087,
      "ukpo": 4088,
      "nenitele": 4089,
      "Ġgogolek": 4090,
      "gbugbe": 4091,
      "Ġmfufio": 4092,
      "inien": 4093,
      "Ġnayas": 4094,
      "Ġinenimun": 4095,
      "Ġineniria": 4096,
      "kisak": 4097,
      "kisasak": 4098,
      "Ġeliya": 4099,
      "Ġeliliin": 4100,
      "kakikaan": 4101,
      "Ġset": 4102,
      "Ġsedarak": 4103,
      "Ġasari": 4104,
      "Ġekekiro": 4105,
      "Ġekekido": 4106,
      "Ġnkibo": 4107,
      "Ġnkije": 4108,
      "Ġnkiriaak": 4109,
      "Ġnetofa": 4110,
      "Ġiwook": 4111,
      "Ġetoto": 4112,
      "Ġeweweek": 4113,
      "Ġokekikpulu": 4114,
      "Ġokekitaan": 4115,
      "Ġebotbe": 4116,
      "Ġnkwukwuuk": 4117,
      "Ġbeti": 4118,
      "Ġberekaya": 4119,
      "Ġefofon": 4120,
      "Ġkpekakaan": 4121,
      "Ġasikelo": 4122,
      "Ġikakan": 4123,
      "Ġikakwu": 4124,
      "Ġineninyi": 4125,
      "Ġmkpukpo": 4126,
      "sens": 4127,
      "Ġikinin": 4128,
      "Ġikinama": 4129,
      "Ġikinunuun": 4130,
      "jujuk": 4131,
      "Ġpasuru": 4132,
      "Ġpelet": 4133,
      "Ġanun": 4134,
      "yum": 4135,
      "Ġebenbe": 4136,
      "Ġmgbugbak": 4137,
      "Ġokisak": 4138,
      "Ġagagi": 4139,
      "Ġnetanen": 4140,
      "inorie": 4141,
      "Ġewakbe": 4142,
      "Ġsunem": 4143,
      "Ġeferi": 4144,
      "Ġoyakabe": 4145,
      "Ġeliakim": 4146,
      "Ġitiik": 4147,
      "Ġabayaage": 4148,
      "peres": 4149,
      "Ġelesia": 4150,
      "Ġreyabu": 4151,
      "Ġegulo": 4152,
      "Ġndali": 4153,
      "Ġjeyien": 4154,
      "Ġbajilai": 4155,
      "Ġsafaya": 4156,
      "Ġbirido": 4157,
      "Ġlemek": 4158,
      "ala": 4159,
      "fanaya": 4160,
      "im": 4161,
      "iro": 4162,
      "nro": 4163,
      "seen": 4164,
      "Ġwa": 4165,
      "Ġrieen": 4166,
      "Ġtaan": 4167,
      "Ġgbana": 4168,
      "Ġgwak": 4169,
      "Ġidek": 4170,
      "Ġejo": 4171,
      "Ġeti": 4172,
      "Ġmf": 4173,
      "Ġmak": 4174,
      "Ġmben": 4175,
      "Ġmkput": 4176,
      "Ġoba": 4177,
      "Ġopo": 4178,
      "Ġmegido": 4179,
      "Ġku": 4180,
      "Ġkak": 4181,
      "wuwut": 4182,
      "Ġuchit": 4183,
      "Ġubuja": 4184,
      "bokpe": 4185,
      "Ġadu": 4186,
      "sita": 4187,
      "Ġnjo": 4188,
      "Ġnsis": 4189,
      "Ġnnin": 4190,
      "yadi": 4191,
      "rolo": 4192,
      "kafo": 4193,
      "kafiin": 4194,
      "kiyaka": 4195,
      "kichak": 4196,
      "kilaak": 4197,
      "kitutumu": 4198,
      "kigugo": 4199,
      "kigwat": 4200,
      "kikwek": 4201,
      "safu": 4202,
      "inyan": 4203,
      "kuru": 4204,
      "Ġgebe": 4205,
      "bas": 4206,
      "Ġisikario": 4207,
      "Ġeneluk": 4208,
      "Ġejijen": 4209,
      "Ġemiin": 4210,
      "Ġsiperes": 4211,
      "Ġonwenwene": 4212,
      "kpokwu": 4213,
      "kpoluk": 4214,
      "Ġkpema": 4215,
      "Ġeyiyalabe": 4216,
      "Ġikikan": 4217,
      "âĢĿ?": 4218,
      "lien": 4219,
      "jajat": 4220,
      "lut": 4221,
      "Ġekiso": 4222,
      "Ġekichak": 4223,
      "Ġekibeek": 4224,
      "Ġekilook": 4225,
      "Ġikabo": 4226,
      "Ġikatap": 4227,
      "Ġikafiin": 4228,
      "kpasa": 4229,
      "Ġiniche": 4230,
      "Ġinisun": 4231,
      "Ġinigobo": 4232,
      "Ġjefet": 4233,
      "Ġjefanaya": 4234,
      "ses": 4235,
      "Ġonenitele": 4236,
      "Ġonenitaan": 4237,
      "Ġonenilook": 4238,
      "Ġonenichili": 4239,
      "Ġsaya": 4240,
      "Ġmati": 4241,
      "Ġmami": 4242,
      "Ġkpego": 4243,
      "gbagbana": 4244,
      "Ġokiko": 4245,
      "Ġokitim": 4246,
      "Ġokifiak": 4247,
      "rankin": 4248,
      "Ġechili": 4249,
      "Ġebem": 4250,
      "Ġofiat": 4251,
      "Ġkabo": 4252,
      "Ġkakaan": 4253,
      "Ġjosabadi": 4254,
      "Ġobosan": 4255,
      "Ġeyayaka": 4256,
      "nije": 4257,
      "Ġgali": 4258,
      "Ġijiyari": 4259,
      "Ġbasiti": 4260,
      "fas": 4261,
      "fafaka": 4262,
      "fafiaan": 4263,
      "Ġdebiri": 4264,
      "Ġikpakpa": 4265,
      "Ġjakuru": 4266,
      "fera": 4267,
      "Ġenenifo": 4268,
      "Ġininama": 4269,
      "tipbe": 4270,
      "Ġekat": 4271,
      "Ġekasa": 4272,
      "Ġekamun": 4273,
      "Ġigbagbana": 4274,
      "Ġegegele": 4275,
      "Ġekesiki": 4276,
      "Ġekebem": 4277,
      "Ġnasio": 4278,
      "Ġebekpo": 4279,
      "Ġelien": 4280,
      "Ġelileek": 4281,
      "kakito": 4282,
      "kakinyi": 4283,
      "kakichieek": 4284,
      "kakijot": 4285,
      "Ġniko": 4286,
      "Ġuram": 4287,
      "Ġekekigo": 4288,
      "Ġkpekisun": 4289,
      "neninyi": 4290,
      "chakabe": 4291,
      "Ġokekiro": 4292,
      "Ġosire": 4293,
      "Ġkpekeke": 4294,
      "tututuku": 4295,
      "Ġikinaan": 4296,
      "Ġebobot": 4297,
      "Ġedodo": 4298,
      "chilibe": 4299,
      "Ġparan": 4300,
      "Ġlebo": 4301,
      "Ġdaina": 4302,
      "Ġananayas": 4303,
      "Ġilileek": 4304,
      "Ġnsinu": 4305,
      "lilim": 4306,
      "Ġotataka": 4307,
      "Ġadari": 4308,
      "Ġfarankin": 4309,
      "Ġotitibi": 4310,
      "Ġogbugbugbo": 4311,
      "Ġotinien": 4312,
      "Ġariba": 4313,
      "Ġogwabe": 4314,
      "Ġsekanaya": 4315,
      "Ġeferen": 4316,
      "Ġelookbe": 4317,
      "Ġititen": 4318,
      "kekeek": 4319,
      "Ġanani": 4320,
      "Ġecheche": 4321,
      "Ġamiyudu": 4322,
      "Ġjerubaali": 4323,
      "Ġebakbe": 4324,
      "Ġbania": 4325,
      "Ġefarata": 4326,
      "rint": 4327,
      "Ġekpukpobe": 4328,
      "Ġmayalalen": 4329,
      "Ġoporolo": 4330,
      "Ġmamire": 4331,
      "Ġfarankinsens": 4332,
      "deke": 4333,
      "ile": 4334,
      "ida": 4335,
      "kwun": 4336,
      "mkpulu": 4337,
      "non": 4338,
      "nrio": 4339,
      "ngwan": 4340,
      "usini": 4341,
      "Ġtitiin": 4342,
      "Ġfuk": 4343,
      "Ġram": 4344,
      "Ġgbala": 4345,
      "Ġitu": 4346,
      "Ġimem": 4347,
      "Ì£:": 4348,
      "Ġegi": 4349,
      "Ġetan": 4350,
      "Ġefaka": 4351,
      "Ġegbala": 4352,
      "Ġede": 4353,
      "Ġecho": 4354,
      "Ġefifila": 4355,
      "Ġetakabe": 4356,
      "Ġmgbe": 4357,
      "Ġmbenebe": 4358,
      "Ġochit": 4359,
      "Ġotim": 4360,
      "Ġolibi": 4361,
      "Ġokakaan": 4362,
      "Ġogak": 4363,
      "Ġogan": 4364,
      "Ġochachiaak": 4365,
      "Ġoriaakbe": 4366,
      "Ġmena": 4367,
      "Ġukaan": 4368,
      "Ġaf": 4369,
      "Ġario": 4370,
      "reyam": 4371,
      "tuwen": 4372,
      "Ġnene": 4373,
      "Ġnsook": 4374,
      "Ġnnamabe": 4375,
      "Ġntuun": 4376,
      "Ġndide": 4377,
      "Ġebia": 4378,
      "wat": 4379,
      "geen": 4380,
      "gebe": 4381,
      "kakpa": 4382,
      "kajeen": 4383,
      "kabon": 4384,
      "kiji": 4385,
      "kika": 4386,
      "kigwo": 4387,
      "kigbaan": 4388,
      "kilet": 4389,
      "kiwop": 4390,
      "kikat": 4391,
      "kiwulu": 4392,
      "kikpe": 4393,
      "kitaba": 4394,
      "kisook": 4395,
      "rika": 4396,
      "ribu": 4397,
      "riak": 4398,
      "sadai": 4399,
      "bali": 4400,
      "balat": 4401,
      "jojomo": 4402,
      "Ġisiso": 4403,
      "titen": 4404,
      "tisaja": 4405,
      "Ġmikima": 4406,
      "bun": 4407,
      "Ġkiri": 4408,
      "Ġsiria": 4409,
      "kpodo": 4410,
      "kponyi": 4411,
      "kposibi": 4412,
      "wook": 4413,
      "Ġikpi": 4414,
      "lolobo": 4415,
      "Ġikirio": 4416,
      "Ġikifit": 4417,
      "Ġikimumana": 4418,
      "Ġererieen": 4419,
      "labe": 4420,
      "Ġekido": 4421,
      "Ġekikpan": 4422,
      "Ġekifuk": 4423,
      "Ġekikpe": 4424,
      "Ġikaka": 4425,
      "Ġikakpan": 4426,
      "Ġikalululuk": 4427,
      "kpaan": 4428,
      "kpabe": 4429,
      "Ġinikiro": 4430,
      "Ġinigbaan": 4431,
      "Ġinichak": 4432,
      "onaya": 4433,
      "Ġjebidi": 4434,
      "sela": 4435,
      "Ġoneniwut": 4436,
      "Ġonenichichini": 4437,
      "Ġokweekbe": 4438,
      "Ġatak": 4439,
      "Ġsawulu": 4440,
      "Ġifeen": 4441,
      "Ġmare": 4442,
      "Ġjipo": 4443,
      "Ġboji": 4444,
      "gbama": 4445,
      "Ġokido": 4446,
      "Ġokitoon": 4447,
      "Ġokikpukpo": 4448,
      "Ġokibumu": 4449,
      "Ġoboje": 4450,
      "Ġoboyaka": 4451,
      "niin": 4452,
      "niyaka": 4453,
      "Ġgama": 4454,
      "Ġbayala": 4455,
      "Ġesisiki": 4456,
      "meli": 4457,
      "Ġjajeri": 4458,
      "Ġjaredi": 4459,
      "Ġisop": 4460,
      "Ġosakbe": 4461,
      "Ġenenigo": 4462,
      "âĢĻ?": 4463,
      "Ġigbala": 4464,
      "kpukpukpuku": 4465,
      "Ġokpot": 4466,
      "Ġnrom": 4467,
      "Ġinenisan": 4468,
      "Ġinenigwen": 4469,
      "Ġinenikana": 4470,
      "Ġelilam": 4471,
      "Ġeliyu": 4472,
      "Ġelifaji": 4473,
      "Ġobebele": 4474,
      "Ġkpebeto": 4475,
      "Ġkpoko": 4476,
      "ogwugwu": 4477,
      "Ġogegele": 4478,
      "kakiko": 4479,
      "kakima": 4480,
      "kakino": 4481,
      "kakigwat": 4482,
      "Ġrejin": 4483,
      "Ġnimi": 4484,
      "Ġsere": 4485,
      "Ġebekikpo": 4486,
      "Ġichimi": 4487,
      "beekbe": 4488,
      "Ġkpekisi": 4489,
      "Ġikwuk": 4490,
      "Ġkpekino": 4491,
      "Ġinenene": 4492,
      "Ġineninan": 4493,
      "sasak": 4494,
      "Ġtabo": 4495,
      "Ġtola": 4496,
      "Ġtapenes": 4497,
      "Ġifuuk": 4498,
      "Ġnsiro": 4499,
      "Ġrubi": 4500,
      "Ġebenwo": 4501,
      "Ġbiliya": 4502,
      "Ġjeroyam": 4503,
      "Ġraba": 4504,
      "Ġrafa": 4505,
      "Ġsaipo": 4506,
      "Ġbarabas": 4507,
      "Ġmeriba": 4508,
      "Ġogwagwat": 4509,
      "Ġabinadap": 4510,
      "Ġreyobu": 4511,
      "Ġagai": 4512,
      "Ġsimeya": 4513,
      "Ġegbagban": 4514,
      "Ġsikisik": 4515,
      "Ġbierot": 4516,
      "Ġnson": 4517,
      "Ġjerameli": 4518,
      "Ġegbanabe": 4519,
      "Ġejibibe": 4520,
      "Ġobumbe": 4521,
      "Ġefie": 4522,
      "Ġekemin": 4523,
      "Ġarebia": 4524,
      "Ġtubali": 4525,
      "Ġdum": 4526,
      "Ġbatiseba": 4527,
      "Ġmetusela": 4528,
      "Ġkeyefas": 4529,
      "Ġmfem": 4530,
      "Ġmikimas": 4531,
      "am": 4532,
      "ege": 4533,
      "nkaan": 4534,
      "nwun": 4535,
      "ntiti": 4536,
      "nween": 4537,
      "uti": 4538,
      "uga": 4539,
      "ugbana": 4540,
      "Ġbem": 4541,
      "Ġibumu": 4542,
      "Ġimeri": 4543,
      "Ġegugo": 4544,
      "Ġefan": 4545,
      "Ġebak": 4546,
      "Ġegwak": 4547,
      "Ġetataba": 4548,
      "Ġoji": 4549,
      "Ġoben": 4550,
      "Ġodasi": 4551,
      "Ġowelebe": 4552,
      "Ġotipbe": 4553,
      "bobo": 4554,
      "bokaan": 4555,
      "boman": 4556,
      "bonwo": 4557,
      "bokpakpan": 4558,
      "Ġayo": 4559,
      "Ġaye": 4560,
      "Ġadin": 4561,
      "Ġabala": 4562,
      "Ġikekeke": 4563,
      "Ġnyen": 4564,
      "Ġnkukup": 4565,
      "Ġnkat": 4566,
      "Ġebibilo": 4567,
      "jejeen": 4568,
      "kata": 4569,
      "karia": 4570,
      "katoon": 4571,
      "kajot": 4572,
      "kachili": 4573,
      "kiyo": 4574,
      "kida": 4575,
      "kiran": 4576,
      "kitip": 4577,
      "kikeke": 4578,
      "kijak": 4579,
      "kisen": 4580,
      "kimumun": 4581,
      "kibak": 4582,
      "kikeme": 4583,
      "kifiaan": 4584,
      "kichiin": 4585,
      "kilalaak": 4586,
      "kon": 4587,
      "Ġogwuun": 4588,
      "ine": 4589,
      "Ġgesio": 4590,
      "Ġisikup": 4591,
      "Ġisisan": 4592,
      "Ġisisaak": 4593,
      "teri": 4594,
      "Ġenemun": 4595,
      "Ġmisi": 4596,
      "rai": 4597,
      "ragba": 4598,
      "ÌĦ.)": 4599,
      "kpota": 4600,
      "kpogo": 4601,
      "wowop": 4602,
      "mabet": 4603,
      "lona": 4604,
      "Ġikigwu": 4605,
      "Ġikiche": 4606,
      "Ġikijit": 4607,
      "Ġikifuk": 4608,
      "Ġikitaba": 4609,
      "Ġikifiaan": 4610,
      "Ġikikween": 4611,
      "Ġikep": 4612,
      "jajak": 4613,
      "Ġekibele": 4614,
      "Ġekikwaan": 4615,
      "Ġekikpukpo": 4616,
      "Ġekifuun": 4617,
      "Ġekibak": 4618,
      "Ġikaluk": 4619,
      "Ġikakiro": 4620,
      "kpato": 4621,
      "Ġitai": 4622,
      "Ġitataka": 4623,
      "Ġinikwu": 4624,
      "Ġinigwo": 4625,
      "Ġinigban": 4626,
      "Ġinikpe": 4627,
      "Ġjesaya": 4628,
      "Ġjebadi": 4629,
      "selona": 4630,
      "Ġonenikpa": 4631,
      "Ġonenigobo": 4632,
      "Ġonenigbana": 4633,
      "ekeli": 4634,
      "Ġokembe": 4635,
      "Ġmaki": 4636,
      "Ġmayon": 4637,
      "Ġitotoon": 4638,
      "Ġkpetumu": 4639,
      "Ġkpetele": 4640,
      "Ġkpewuuk": 4641,
      "chechieen": 4642,
      "Ġokima": 4643,
      "Ġokiriaak": 4644,
      "Ġokilibi": 4645,
      "Ġokiwulu": 4646,
      "rankat": 4647,
      "Ġechitbe": 4648,
      "Ġebejijijaka": 4649,
      "Ġebeekbe": 4650,
      "Ġkam": 4651,
      "Ġkato": 4652,
      "Ġkajit": 4653,
      "Ġjobabu": 4654,
      "Ġobonama": 4655,
      "nore": 4656,
      "nowam": 4657,
      "Ġofok": 4658,
      "kebe": 4659,
      "nibo": 4660,
      "nire": 4661,
      "nitumu": 4662,
      "Ġgale": 4663,
      "Ġijijit": 4664,
      "Ġbala": 4665,
      "Ġigoon": 4666,
      "Ġerom": 4667,
      "Ġigbuk": 4668,
      "mim": 4669,
      "Ġjayat": 4670,
      "Ġjayaji": 4671,
      "Ġjabidi": 4672,
      "Ġjabadi": 4673,
      "Ġeneniko": 4674,
      "Ġenenikup": 4675,
      "Ġenenisan": 4676,
      "Ġenenigwen": 4677,
      "Ġenenikpulu": 4678,
      "nenigwu": 4679,
      "nenikpulu": 4680,
      "Ġekabe": 4681,
      "Ġekago": 4682,
      "Ġekalo": 4683,
      "Ġgobo": 4684,
      "Ġarabu": 4685,
      "Ġigwaka": 4686,
      "Ġegele": 4687,
      "Ġekego": 4688,
      "Ġeketumu": 4689,
      "Ġekegwa": 4690,
      "Ġebekwaan": 4691,
      "Ġineniben": 4692,
      "Ġinenitap": 4693,
      "kisadi": 4694,
      "Ġelio": 4695,
      "Ġelililiin": 4696,
      "Ġkpeberie": 4697,
      "Ġamoru": 4698,
      "Ġigwuku": 4699,
      "Ġrewen": 4700,
      "Ġreyum": 4701,
      "Ġseleme": 4702,
      "Ġebekiluk": 4703,
      "Ġebekigwen": 4704,
      "Ġebekiben": 4705,
      "Ġichio": 4706,
      "Ġichichaka": 4707,
      "Ġabido": 4708,
      "jijakabe": 4709,
      "Ġekekikpo": 4710,
      "Ġekekiweek": 4711,
      "Ġekekidido": 4712,
      "Ġneriya": 4713,
      "Ġetobobe": 4714,
      "Ġililam": 4715,
      "Ġsekeli": 4716,
      "Ġokekitoon": 4717,
      "Ġnkwukwulube": 4718,
      "Ġegogon": 4719,
      "Ġbeyo": 4720,
      "Ġbetuwen": 4721,
      "Ġosiro": 4722,
      "Ġkpekpo": 4723,
      "Ġinween": 4724,
      "Ġoluluk": 4725,
      "Ġmusi": 4726,
      "Ġtayat": 4727,
      "Ġnnenibene": 4728,
      "Ġtobo": 4729,
      "Ġtofet": 4730,
      "Ġajiri": 4731,
      "Ġajimabet": 4732,
      "jujuuk": 4733,
      "Ġjeyona": 4734,
      "Ġafakisadi": 4735,
      "Ġnuunuun": 4736,
      "Ġegwube": 4737,
      "dias": 4738,
      "Ġtigi": 4739,
      "Ġbigi": 4740,
      "Ġiriak": 4741,
      "Ġenibene": 4742,
      "Ġenirom": 4743,
      "Ġikwekweek": 4744,
      "Ġnyanya": 4745,
      "Ġribila": 4746,
      "Ġalikisen": 4747,
      "Ġarim": 4748,
      "Ġsambalat": 4749,
      "karake": 4750,
      "Ġnlik": 4751,
      "Ġibenitet": 4752,
      "Ġibenitim": 4753,
      "Ġnkarankat": 4754,
      "saimo": 4755,
      "saida": 4756,
      "Ġteselona": 4757,
      "Ġsuru": 4758,
      "Ġkpebekwaan": 4759,
      "ikeya": 4760,
      "ikerere": 4761,
      "Ġetam": 4762,
      "kpukpukube": 4763,
      "Ġlibini": 4764,
      "Ġogbaragba": 4765,
      "Ġkpebenin": 4766,
      "isinyo": 4767,
      "Ġngebe": 4768,
      "Ġakuko": 4769,
      "Ġdedan": 4770,
      "Ġogwookbe": 4771,
      "Ġmerodak": 4772,
      "Ġmilika": 4773,
      "Ġsilisia": 4774,
      "Ġbetisaida": 4775,
      "Ġadulam": 4776,
      "Ġelileekbe": 4777,
      "Ġafek": 4778,
      "Ġmaresa": 4779,
      "Ġgamalien": 4780,
      "Ġabalara": 4781,
      "Ġjebadiya": 4782,
      "Ġselemeya": 4783,
      "Ġteselonaika": 4784,
      "Ġogbaragbat": 4785,
      "ia": 4786,
      "ngwu": 4787,
      "nwaan": 4788,
      "nanaan": 4789,
      "okike": 4790,
      "umun": 4791,
      "weke": 4792,
      "yema": 4793,
      "Ġgbaan": 4794,
      "Ġtun": 4795,
      "Ġlook": 4796,
      "Ġiruk": 4797,
      "Ġiteme": 4798,
      "Ġimen": 4799,
      "Ġituku": 4800,
      "Ġelin": 4801,
      "Ġekpu": 4802,
      "Ġegbaalek": 4803,
      "Ġewawa": 4804,
      "Ġebala": 4805,
      "Ġmbene": 4806,
      "Ġmbieen": 4807,
      "Ġmake": 4808,
      "Ġocha": 4809,
      "Ġosulu": 4810,
      "Ġolet": 4811,
      "Ġoletbe": 4812,
      "Ġososook": 4813,
      "Ġmeyi": 4814,
      "Ġmeyo": 4815,
      "Ġmemfi": 4816,
      "Ġkwek": 4817,
      "ekwukwu": 4818,
      "Ġuchieen": 4819,
      "Ġuduk": 4820,
      "bodo": 4821,
      "borie": 4822,
      "bonyan": 4823,
      "bosisik": 4824,
      "boleke": 4825,
      "botataka": 4826,
      "Ġaku": 4827,
      "Ġado": 4828,
      "Ġafuk": 4829,
      "Ġakaya": 4830,
      "sim": 4831,
      "Ġnsasa": 4832,
      "Ġnkeki": 4833,
      "Ġnkakup": 4834,
      "Ġnseen": 4835,
      "jibun": 4836,
      "Ġenanama": 4837,
      "Ġkeba": 4838,
      "kagwu": 4839,
      "kajo": 4840,
      "kabene": 4841,
      "kakisa": 4842,
      "kakitumu": 4843,
      "katutumu": 4844,
      "kachaka": 4845,
      "kawuwuuk": 4846,
      "kijo": 4847,
      "kiban": 4848,
      "kirio": 4849,
      "kitele": 4850,
      "kini": 4851,
      "kisulu": 4852,
      "kilomo": 4853,
      "kirep": 4854,
      "kinye": 4855,
      "kibaak": 4856,
      "sabum": 4857,
      "tak": 4858,
      "Ġyala": 4859,
      "Ġinyiaan": 4860,
      "emo": 4861,
      "chichiin": 4862,
      "basasa": 4863,
      "Ġisiyaka": 4864,
      "Ġisiben": 4865,
      "ÌĦ,âĢĿ": 4866,
      "ÌĦ,âĢĻ": 4867,
      "mos": 4868,
      "tia": 4869,
      "Ġkanaan": 4870,
      "fifiin": 4871,
      "Ġenerie": 4872,
      "Ġenechieek": 4873,
      "Ġenetim": 4874,
      "Ġenetitiin": 4875,
      "Ġkison": 4876,
      "Ġijojot": 4877,
      "Ġsii": 4878,
      "Ġsisak": 4879,
      "Ġoninan": 4880,
      "kpochep": 4881,
      "enerieen": 4882,
      "lofe": 4883,
      "Ġikiraka": 4884,
      "Ġikigobo": 4885,
      "Ġikifiat": 4886,
      "Ġikirep": 4887,
      "Ġikijop": 4888,
      "limun": 4889,
      "gwagwat": 4890,
      "dada": 4891,
      "Ġekigwu": 4892,
      "Ġekimin": 4893,
      "Ġekisibi": 4894,
      "Ġekititiin": 4895,
      "Ġekinama": 4896,
      "Ġekifeen": 4897,
      "Ġekiriki": 4898,
      "Ġekinyam": 4899,
      "Ġekichimi": 4900,
      "Ġikajo": 4901,
      "Ġikasik": 4902,
      "Ġikajijaka": 4903,
      "Ġikachep": 4904,
      "Ġinikaan": 4905,
      "Ġinirieen": 4906,
      "Ġinirie": 4907,
      "Ġinichieek": 4908,
      "Ġinifieek": 4909,
      "Ġiniraka": 4910,
      "Ġinibeek": 4911,
      "Ġunyana": 4912,
      "Ġagi": 4913,
      "Ġjeba": 4914,
      "Ġjelofe": 4915,
      "Ġonenifieek": 4916,
      "Ġonenijeen": 4917,
      "Ġokemebe": 4918,
      "Ġatafi": 4919,
      "Ġsami": 4920,
      "Ġsafat": 4921,
      "Ġsalimo": 4922,
      "Ġmasa": 4923,
      "Ġmatiti": 4924,
      "fufum": 4925,
      "Ġntele": 4926,
      "cherekeyi": 4927,
      "chereyi": 4928,
      "Ġokibe": 4929,
      "Ġokikeek": 4930,
      "Ġokinama": 4931,
      "Ġokitop": 4932,
      "weekge": 4933,
      "Ġebesibi": 4934,
      "Ġebetatap": 4935,
      "Ġkatumu": 4936,
      "Ġkami": 4937,
      "Ġkachiin": 4938,
      "diden": 4939,
      "Ġobobo": 4940,
      "Ġobokana": 4941,
      "Ġobosibi": 4942,
      "Ġsoban": 4943,
      "Ġeyayat": 4944,
      "Ġorerie": 4945,
      "nia": 4946,
      "nikup": 4947,
      "fafan": 4948,
      "Ġeroon": 4949,
      "Ġjabo": 4950,
      "Ġjasi": 4951,
      "Ġjayen": 4952,
      "Ġjabin": 4953,
      "Ġjakin": 4954,
      "Ġjairo": 4955,
      "Ġjalimun": 4956,
      "feri": 4957,
      "Ġeneniweek": 4958,
      "Ġenenitap": 4959,
      "Ġenenibem": 4960,
      "nenita": 4961,
      "nenikpo": 4962,
      "nenitet": 4963,
      "neniben": 4964,
      "Ġekatumu": 4965,
      "Ġekarie": 4966,
      "Ġgoma": 4967,
      "Ġpen": 4968,
      "kiroon": 4969,
      "giga": 4970,
      "Ġochichini": 4971,
      "Ġochimbe": 4972,
      "Ġeketap": 4973,
      "Ġlisiti": 4974,
      "Ġebekpe": 4975,
      "Ġebekpan": 4976,
      "niniin": 4977,
      "Ġinenikpulu": 4978,
      "Ġobeekbe": 4979,
      "Ġkpebechieek": 4980,
      "Ġigwuk": 4981,
      "kakikpo": 4982,
      "kakitibi": 4983,
      "Ġoriebe": 4984,
      "Ġsebina": 4985,
      "Ġselomi": 4986,
      "Ġmbakup": 4987,
      "Ġmbayaka": 4988,
      "Ġichichit": 4989,
      "Ġabiram": 4990,
      "Ġekekiben": 4991,
      "Ġnkibeek": 4992,
      "Ġneyema": 4993,
      "Ġikikebe": 4994,
      "Ġililiin": 4995,
      "Ġsemi": 4996,
      "Ġonenene": 4997,
      "nenin": 4998,
      "Ġokekido": 4999,
      "Ġegogobo": 5000,
      "Ġbejibun": 5001,
      "Ġikinyam": 5002,
      "Ġoruma": 5003,
      "katana": 5004,
      "Ġowabe": 5005,
      "Ġolulut": 5006,
      "Ġtai": 5007,
      "Ġnnenido": 5008,
      "juru": 5009,
      "Ġjeyoyanan": 5010,
      "Ġjeyosadak": 5011,
      "Ġpadan": 5012,
      "Ġlep": 5013,
      "Ì£?âĢĻ": 5014,
      "lilileek": 5015,
      "Ġadaya": 5016,
      "Ġebenan": 5017,
      "Ġebenyi": 5018,
      "Ġebenama": 5019,
      "deba": 5020,
      "derek": 5021,
      "Ġekpakpaka": 5022,
      "aakbe": 5023,
      "Ġjewus": 5024,
      "Ġntapbe": 5025,
      "Ġajalo": 5026,
      "Ġlayis": 5027,
      "polis": 5028,
      "Ġesitayon": 5029,
      "Ġikinyinya": 5030,
      "Ġtebes": 5031,
      "wila": 5032,
      "Ġkpebekup": 5033,
      "Ġmbebe": 5034,
      "Ġekekeek": 5035,
      "Ġeliasa": 5036,
      "kekem": 5037,
      "Ġisinire": 5038,
      "Ġisiniro": 5039,
      "Ġogbagbana": 5040,
      "Ġijat": 5041,
      "Ġogagana": 5042,
      "Ġenekaan": 5043,
      "Ġigbegbe": 5044,
      "ofia": 5045,
      "ebereyam": 5046,
      "Ġnneninyi": 5047,
      "Ġnayama": 5048,
      "Ġodada": 5049,
      "Ġobelebe": 5050,
      "Ġakwila": 5051,
      "Ġodidim": 5052,
      "Ġikekeek": 5053,
      "Ġbelisaja": 5054,
      "Ġbelitisaja": 5055,
      "Ġenyambe": 5056,
      "Ġpisiga": 5057,
      "Ġmanderek": 5058,
      "Ġmisayen": 5059,
      "Ġechilibe": 5060,
      "Ġnikodimo": 5061,
      "Ġmenayem": 5062,
      "Ġbojira": 5063,
      "Ġnimiro": 5064,
      "Ġserebiya": 5065,
      "ntitiik": 5066,
      "Ġmakeda": 5067,
      "Ġmemfis": 5068,
      "Ġyalayala": 5069,
      "Ġekirikit": 5070,
      "Ġjelofeyadi": 5071,
      "Ġmatitiya": 5072,
      "Ġjalimuna": 5073,
      "Ġlisitira": 5074,
      "Ġneyemaya": 5075,
      "acha": 5076,
      "atan": 5077,
      "gbidim": 5078,
      "ikpoko": 5079,
      "keen": 5080,
      "nto": 5081,
      "pulu": 5082,
      "tek": 5083,
      "tin": 5084,
      "ute": 5085,
      "Ġgba": 5086,
      "Ġbum": 5087,
      "Ġlet": 5088,
      "Ġgana": 5089,
      "Ġwuku": 5090,
      "Ġise": 5091,
      "Ġitut": 5092,
      "Ġichachak": 5093,
      "Ġiwuwo": 5094,
      "Ġituun": 5095,
      "Ġiyiyik": 5096,
      "Ġegbo": 5097,
      "Ġekwu": 5098,
      "Ġechak": 5099,
      "Ġetaba": 5100,
      "Ġegbet": 5101,
      "Ġebabia": 5102,
      "Ġeriaakbe": 5103,
      "Ġefakabe": 5104,
      "Ġmmo": 5105,
      "Ġmman": 5106,
      "Ġof": 5107,
      "Ġobot": 5108,
      "Ġosia": 5109,
      "Ġofan": 5110,
      "Ġobak": 5111,
      "Ġomimin": 5112,
      "Ġobieen": 5113,
      "Ġolalaak": 5114,
      "Ġowopbe": 5115,
      "Ġmere": 5116,
      "Ġmesek": 5117,
      "ekonaya": 5118,
      "Ġukput": 5119,
      "Ġugwaka": 5120,
      "yinyi": 5121,
      "bowa": 5122,
      "bofo": 5123,
      "botet": 5124,
      "boben": 5125,
      "bobet": 5126,
      "bosiki": 5127,
      "bojibi": 5128,
      "bobook": 5129,
      "Ġawu": 5130,
      "Ġamu": 5131,
      "Ġaben": 5132,
      "Ġame": 5133,
      "Ġabak": 5134,
      "Ġakibo": 5135,
      "Ġaten": 5136,
      "rei": 5137,
      "siba": 5138,
      "Ġnen": 5139,
      "Ġnkario": 5140,
      "Ġnden": 5141,
      "Ġnchiaak": 5142,
      "Ġnlukbe": 5143,
      "yabu": 5144,
      "jiso": 5145,
      "Ġemin": 5146,
      "Ġenge": 5147,
      "Ġenene": 5148,
      "Ġenire": 5149,
      "Ġenekeke": 5150,
      "Ġkep": 5151,
      "Ġkemos": 5152,
      "kakwu": 5153,
      "kagwen": 5154,
      "kagbaan": 5155,
      "kabele": 5156,
      "kagobo": 5157,
      "kalet": 5158,
      "kakukup": 5159,
      "kagegen": 5160,
      "kiti": 5161,
      "kiwuuk": 5162,
      "kikana": 5163,
      "kitan": 5164,
      "kisisik": 5165,
      "kijijaka": 5166,
      "kijibi": 5167,
      "kichaka": 5168,
      "kitata": 5169,
      "kikwak": 5170,
      "kitem": 5171,
      "kpi": 5172,
      "Ġgede": 5173,
      "Ġibeen": 5174,
      "babak": 5175,
      "bayot": 5176,
      "jobu": 5177,
      "Ġisiya": 5178,
      "Ġisitet": 5179,
      "Ġisikwaan": 5180,
      "toret": 5181,
      "mowabu": 5182,
      "tifa": 5183,
      "tiik": 5184,
      "fito": 5185,
      "fira": 5186,
      "Ġenebo": 5187,
      "Ġeneto": 5188,
      "Ġenetet": 5189,
      "Ġenetap": 5190,
      "Ġmigido": 5191,
      "Ġejijijaka": 5192,
      "bubuku": 5193,
      "raraan": 5194,
      "Ġkisi": 5195,
      "unye": 5196,
      "Ġsisini": 5197,
      "Ġsikamo": 5198,
      "kpogwu": 5199,
      "kpojit": 5200,
      "kposik": 5201,
      "gogon": 5202,
      "lesa": 5203,
      "legi": 5204,
      "Ġkpeme": 5205,
      "lodo": 5206,
      "Ġikiyaka": 5207,
      "Ġikigwo": 5208,
      "Ġikichieek": 5209,
      "Ġikiwop": 5210,
      "Ġikikput": 5211,
      "Ġikiraan": 5212,
      "wunu": 5213,
      "Ġchichini": 5214,
      "data": 5215,
      "Ġekisan": 5216,
      "Ġekichieek": 5217,
      "Ġekisiki": 5218,
      "Ġekijak": 5219,
      "Ġekijin": 5220,
      "Ġekigen": 5221,
      "Ġekisisaak": 5222,
      "Ġekichachak": 5223,
      "Ġekinene": 5224,
      "Ġikagban": 5225,
      "Ġikasibi": 5226,
      "kpajijaka": 5227,
      "kpachep": 5228,
      "Ġinikitumu": 5229,
      "Ġinigwuun": 5230,
      "Ġinikiweek": 5231,
      "Ġinigele": 5232,
      "Ġusu": 5233,
      "Ġisaak": 5234,
      "Ġjeteri": 5235,
      "Ġonenisiki": 5236,
      "Ġonenitoon": 5237,
      "Ġonenikitumu": 5238,
      "Ġonenisaba": 5239,
      "Ġonenikije": 5240,
      "gawaji": 5241,
      "Ġibabia": 5242,
      "Ġmaluk": 5243,
      "fufuku": 5244,
      "Ġenenyi": 5245,
      "Ġjin": 5246,
      "Ġjijaka": 5247,
      "Ġekeme": 5248,
      "Ġntetbe": 5249,
      "Ġkpegwo": 5250,
      "Ġkpesun": 5251,
      "cheche": 5252,
      "Ġjuni": 5253,
      "Ġjekonaya": 5254,
      "Ġokimo": 5255,
      "Ġokiria": 5256,
      "Ġokichit": 5257,
      "Ġokikpan": 5258,
      "Ġokitibi": 5259,
      "Ġokibele": 5260,
      "Ġokitaka": 5261,
      "Ġokichaka": 5262,
      "Ġokigbin": 5263,
      "Ġototoon": 5264,
      "Ġebeek": 5265,
      "Ġebegwugwuun": 5266,
      "Ġkabe": 5267,
      "Ġkaro": 5268,
      "Ġkada": 5269,
      "Ġkadi": 5270,
      "Ġkalet": 5271,
      "Ġkasisaak": 5272,
      "Ġobomo": 5273,
      "Ġobotet": 5274,
      "Ġobonu": 5275,
      "Ġobonyan": 5276,
      "Ġobokikpulu": 5277,
      "Ġorep": 5278,
      "Ġorerieen": 5279,
      "Ġjuuk": 5280,
      "kanwene": 5281,
      "nitet": 5282,
      "Ġbasem": 5283,
      "Ġikanu": 5284,
      "Ġesik": 5285,
      "Ġesio": 5286,
      "Ġesisik": 5287,
      "pilesa": 5288,
      "Ġjafi": 5289,
      "Ġjasu": 5290,
      "Ġjamin": 5291,
      "Ġjayas": 5292,
      "Ġibolo": 5293,
      "Ġibodo": 5294,
      "Ġeneniki": 5295,
      "Ġenenikeke": 5296,
      "Ġenenikije": 5297,
      "Ġatisi": 5298,
      "Ġeririki": 5299,
      "nenije": 5300,
      "nenigwo": 5301,
      "nenitoon": 5302,
      "nenikeke": 5303,
      "nenigwugwuun": 5304,
      "Ġekasi": 5305,
      "Ġekakpa": 5306,
      "Ġekawuuk": 5307,
      "Ġarak": 5308,
      "Ġogbolodo": 5309,
      "Ġokwakwaan": 5310,
      "sikibe": 5311,
      "Ġochichim": 5312,
      "Ġochiaakbe": 5313,
      "Ġnrombe": 5314,
      "Ġekegwen": 5315,
      "Ġugen": 5316,
      "Ġnama": 5317,
      "Ġebekinyi": 5318,
      "Ġkpebeje": 5319,
      "kakire": 5320,
      "kakikup": 5321,
      "kakisan": 5322,
      "kakimun": 5323,
      "kakitele": 5324,
      "kakifieek": 5325,
      "kakinwo": 5326,
      "Ġosusulu": 5327,
      "Ġselu": 5328,
      "Ġsela": 5329,
      "Ġseferi": 5330,
      "Ġebekitap": 5331,
      "Ġabieja": 5332,
      "Ġekekiko": 5333,
      "Ġekekiluk": 5334,
      "Ġnkisi": 5335,
      "Ġnkiko": 5336,
      "Ġnkitaan": 5337,
      "Ġnkilook": 5338,
      "Ġkpebekpan": 5339,
      "Ġsenes": 5340,
      "Ġokabe": 5341,
      "Ġkpekito": 5342,
      "Ġkpekimo": 5343,
      "Ġkpekitumu": 5344,
      "Ġkpekitap": 5345,
      "turus": 5346,
      "bineya": 5347,
      "Ġkpekwaan": 5348,
      "Ġasiri": 5349,
      "Ġasitoret": 5350,
      "Ġikinene": 5351,
      "Ġpaturus": 5352,
      "Ġgilibowa": 5353,
      "Ġdatan": 5354,
      "Ġpedaya": 5355,
      "Ġpelegi": 5356,
      "Ġtapuwa": 5357,
      "Ġonikisi": 5358,
      "lepbe": 5359,
      "kwekweek": 5360,
      "Ġsibio": 5361,
      "irini": 5362,
      "Ġokwuun": 5363,
      "kineme": 5364,
      "kinunuun": 5365,
      "Ġubenelek": 5366,
      "Ġtiten": 5367,
      "Ġbikiri": 5368,
      "Ġiriki": 5369,
      "kekiro": 5370,
      "kekitumu": 5371,
      "ikatet": 5372,
      "Ġotititiin": 5373,
      "Ġajaya": 5374,
      "Ġigegele": 5375,
      "Ġogula": 5376,
      "kibeben": 5377,
      "Ġikwakwaan": 5378,
      "Ġjioyaribu": 5379,
      "Ġsimiron": 5380,
      "Ġagagawaji": 5381,
      "Ġteli": 5382,
      "Ġkpenan": 5383,
      "Ġkpenwo": 5384,
      "gbetbe": 5385,
      "Ġoyoliba": 5386,
      "Ġmbese": 5387,
      "Ġekekin": 5388,
      "Ġmerayot": 5389,
      "Ġdoru": 5390,
      "Ġitiki": 5391,
      "kekeme": 5392,
      "Ġkiriatayim": 5393,
      "kanyinyi": 5394,
      "totolek": 5395,
      "Ġebabala": 5396,
      "Ġrefaya": 5397,
      "memem": 5398,
      "Ġjeremot": 5399,
      "Ġofafan": 5400,
      "Ġinwunwan": 5401,
      "Ġdelaya": 5402,
      "Ġeneninama": 5403,
      "Ġoboninama": 5404,
      "Ġelepbe": 5405,
      "Ġoririki": 5406,
      "Ġokanbe": 5407,
      "Ġluju": 5408,
      "Ġefiatbe": 5409,
      "Ġeliyasafu": 5410,
      "Ġnsisulu": 5411,
      "Ġgeberi": 5412,
      "Ġmatiyu": 5413,
      "Ġegiriga": 5414,
      "Ġederei": 5415,
      "Ġayejeri": 5416,
      "Ġgalesia": 5417,
      "Ġjayajien": 5418,
      "Ġjeyonadabu": 5419,
      "Ġtigilat": 5420,
      "Ġtuntun": 5421,
      "Ġelinatan": 5422,
      "Ġekpuuruk": 5423,
      "Ġakubu": 5424,
      "Ġadoram": 5425,
      "Ġnkakupge": 5426,
      "Ġselomit": 5427,
      "Ġwukuwuku": 5428,
      "Ġatens": 5429,
      "Ġengedi": 5430,
      "Ġjunipa": 5431,
      "Ġkadimien": 5432,
      "Ġbasemat": 5433,
      "Ġogbolodom": 5434,
      "Ġsenesene": 5435,
      "Ġoyolibama": 5436,
      ".]": 5437,
      "ako": 5438,
      "ati": 5439,
      "bekpan": 5440,
      "esi": 5441,
      "ero": 5442,
      "erieen": 5443,
      "ikan": 5444,
      "irek": 5445,
      "itat": 5446,
      "jeka": 5447,
      "leen": 5448,
      "nsi": 5449,
      "nem": 5450,
      "ot": 5451,
      "seme": 5452,
      "uto": 5453,
      "ufieek": 5454,
      "wana": 5455,
      "yeek": 5456,
      "Ġtip": 5457,
      "Ġtibi": 5458,
      "Ġbuk": 5459,
      "Ġbeke": 5460,
      "Ġibi": 5461,
      "Ġiren": 5462,
      "Ġiran": 5463,
      "Ġisuuk": 5464,
      "Ġisek": 5465,
      "Ġidut": 5466,
      "Ġijene": 5467,
      "Ġitututuku": 5468,
      "Ġejak": 5469,
      "Ġegwat": 5470,
      "Ġepa": 5471,
      "Ġechep": 5472,
      "Ġeraraka": 5473,
      "Ġefiaan": 5474,
      "Ġesulube": 5475,
      "Ġefafiat": 5476,
      "Ġeletbe": 5477,
      "Ġerariaak": 5478,
      "Ġekpukpukube": 5479,
      "Ġmin": 5480,
      "Ġmfieek": 5481,
      "Ġmbia": 5482,
      "Ġminwo": 5483,
      "Ġogwo": 5484,
      "Ġotaan": 5485,
      "Ġocho": 5486,
      "Ġofera": 5487,
      "ena": 5488,
      "Ġulep": 5489,
      "Ġucho": 5490,
      "Ġutek": 5491,
      "yima": 5492,
      "yiyeek": 5493,
      "bobot": 5494,
      "bogwa": 5495,
      "bogwo": 5496,
      "bokisa": 5497,
      "botaka": 5498,
      "bokije": 5499,
      "bero": 5500,
      "berie": 5501,
      "Ġaru": 5502,
      "Ġamien": 5503,
      "Ġarisi": 5504,
      "Ġasuru": 5505,
      "Ġafen": 5506,
      "tus": 5507,
      "tulu": 5508,
      "Ġnjit": 5509,
      "Ġnkeke": 5510,
      "Ġnlet": 5511,
      "Ġnkayaka": 5512,
      "Ġnkwo": 5513,
      "Ġnken": 5514,
      "yaba": 5515,
      "yali": 5516,
      "yayen": 5517,
      "jiji": 5518,
      "Ġeme": 5519,
      "waka": 5520,
      "waak": 5521,
      "Ġena": 5522,
      "Ġeninan": 5523,
      "Ġenwenwene": 5524,
      "Ġenekpan": 5525,
      "Ġenwenween": 5526,
      "Ġkeri": 5527,
      "Ġkebilo": 5528,
      "kabum": 5529,
      "katibi": 5530,
      "kakeek": 5531,
      "kataka": 5532,
      "kakakaan": 5533,
      "kasoso": 5534,
      "kajomo": 5535,
      "kakem": 5536,
      "mut": 5537,
      "kio": 5538,
      "kila": 5539,
      "kigba": 5540,
      "kikan": 5541,
      "kime": 5542,
      "kibum": 5543,
      "kikpukp": 5544,
      "kikakaan": 5545,
      "kiteme": 5546,
      "kigbana": 5547,
      "kijeje": 5548,
      "kigwuun": 5549,
      "kigbala": 5550,
      "kifeen": 5551,
      "kigbet": 5552,
      "kigbugbuk": 5553,
      "kiwuwulu": 5554,
      "kiraran": 5555,
      "rifa": 5556,
      "rimut": 5557,
      "sayi": 5558,
      "ineni": 5559,
      "kube": 5560,
      "chimbe": 5561,
      "Ġgema": 5562,
      "baso": 5563,
      "batumu": 5564,
      "bajijijaka": 5565,
      "Ġisido": 5566,
      "Ġisigwo": 5567,
      "Ġisiwele": 5568,
      "Ġisitaan": 5569,
      "tela": 5570,
      "tobe": 5571,
      "baniya": 5572,
      "Ġenefieek": 5573,
      "Ġmisip": 5574,
      "Ġmitulu": 5575,
      "Ġowutbe": 5576,
      "une": 5577,
      "Ġsin": 5578,
      "Ġonwenween": 5579,
      "Ġonesi": 5580,
      "kposi": 5581,
      "kposo": 5582,
      "kpokeke": 5583,
      "Ġmoni": 5584,
      "mai": 5585,
      "enien": 5586,
      "Ġkpiri": 5587,
      "Ġeyilo": 5588,
      "Ġeyikbe": 5589,
      "Ġikirieen": 5590,
      "Ġikidun": 5591,
      "Ġikime": 5592,
      "Ġikifaka": 5593,
      "Ġikikeke": 5594,
      "Ġikisisik": 5595,
      "Ġikilomo": 5596,
      "Ġikilaak": 5597,
      "Ġikiwulu": 5598,
      "Ġikimumen": 5599,
      "Ġikigana": 5600,
      "Ġikigumu": 5601,
      "Ġikigbin": 5602,
      "Ġikigbugbut": 5603,
      "lipa": 5604,
      "Ġerere": 5605,
      "Ì£,âĢĻ": 5606,
      "yera": 5607,
      "Ġekilo": 5608,
      "Ġekiria": 5609,
      "Ġekiwuuk": 5610,
      "Ġekibum": 5611,
      "Ġekilet": 5612,
      "Ġekifiat": 5613,
      "Ġekitetet": 5614,
      "Ġekikput": 5615,
      "Ġekifiin": 5616,
      "Ġekiweweek": 5617,
      "Ġekilileek": 5618,
      "Ġikaben": 5619,
      "Ġikachak": 5620,
      "Ġikasisik": 5621,
      "kpago": 5622,
      "kpajit": 5623,
      "Ġinibum": 5624,
      "Ġinifuk": 5625,
      "Ġinitaan": 5626,
      "Ġinifaka": 5627,
      "Ġinilet": 5628,
      "Ġinifiat": 5629,
      "Ġinitaba": 5630,
      "Ġinisisaak": 5631,
      "Ġinigwugwuun": 5632,
      "Ġmbubuk": 5633,
      "Ġjeraya": 5634,
      "seri": 5635,
      "Ġonenirio": 5636,
      "Ġoneniweek": 5637,
      "Ġonenikpan": 5638,
      "Ġonenifuk": 5639,
      "Ġonenibeek": 5640,
      "Ġokeek": 5641,
      "gadi": 5642,
      "Ġatarot": 5643,
      "Ġsare": 5644,
      "Ġsairini": 5645,
      "Ġmaya": 5646,
      "Ġmara": 5647,
      "Ġmago": 5648,
      "Ġmalo": 5649,
      "Ġeneninin": 5650,
      "Ġjilipa": 5651,
      "Ġnteek": 5652,
      "Ġyiyala": 5653,
      "Ġkpesi": 5654,
      "Ġkpege": 5655,
      "Ġkperie": 5656,
      "Ġkpegbe": 5657,
      "Ġkpebele": 5658,
      "Ġkpetoon": 5659,
      "Ġkperaraan": 5660,
      "chebe": 5661,
      "Ġjanowa": 5662,
      "Ġokikwu": 5663,
      "Ġokibene": 5664,
      "Ġokigban": 5665,
      "Ġokisiki": 5666,
      "Ġokijot": 5667,
      "Ġokisulu": 5668,
      "Ġebegwo": 5669,
      "Ġebejeen": 5670,
      "Ġebefuk": 5671,
      "Ġebefaka": 5672,
      "Ġofiin": 5673,
      "Ġofiik": 5674,
      "Ġkari": 5675,
      "Ġkago": 5676,
      "Ġkakpan": 5677,
      "Ġkajijaka": 5678,
      "Ġjoon": 5679,
      "didimi": 5680,
      "tapge": 5681,
      "Ġoboto": 5682,
      "Ġobofo": 5683,
      "Ġoboria": 5684,
      "Ġobobene": 5685,
      "Ġobonan": 5686,
      "Ġobofieek": 5687,
      "Ġobokpan": 5688,
      "Ġobodasi": 5689,
      "wegi": 5690,
      "telebe": 5691,
      "Ġsoko": 5692,
      "Ġsowan": 5693,
      "kanyan": 5694,
      "nito": 5695,
      "nimun": 5696,
      "nibene": 5697,
      "nisia": 5698,
      "nitaka": 5699,
      "nikeme": 5700,
      "Ġgayo": 5701,
      "nuwi": 5702,
      "Ġikanin": 5703,
      "minbe": 5704,
      "mio": 5705,
      "mian": 5706,
      "Ġesikon": 5707,
      "mege": 5708,
      "Ġjarimut": 5709,
      "fegi": 5710,
      "felet": 5711,
      "Ġosaba": 5712,
      "Ġenenimo": 5713,
      "Ġenenigobo": 5714,
      "Ġenenichichini": 5715,
      "Ġenenikido": 5716,
      "Ġntobe": 5717,
      "Ġekamo": 5718,
      "Ġekado": 5719,
      "Ġekakpan": 5720,
      "Ġekafiat": 5721,
      "Ġekatbe": 5722,
      "Ġekakala": 5723,
      "Ġpu": 5724,
      "Ġput": 5725,
      "Ġpuwa": 5726,
      "Ġpenien": 5727,
      "Ġmfufo": 5728,
      "Ġlidia": 5729,
      "Ġnayat": 5730,
      "Ġebekwakwaan": 5731,
      "Ġinenire": 5732,
      "Ġinenije": 5733,
      "Ġinenititiin": 5734,
      "Ġinenijijaka": 5735,
      "kisasa": 5736,
      "Ġilomo": 5737,
      "Ġiloma": 5738,
      "Ġelimelek": 5739,
      "Ġelisuru": 5740,
      "Ġelifelet": 5741,
      "Ġkpebebo": 5742,
      "Ġkpebere": 5743,
      "Ġkpebetap": 5744,
      "Ġkpebegban": 5745,
      "Ġkpebejomo": 5746,
      "Ġgiriga": 5747,
      "kakigo": 5748,
      "kakirio": 5749,
      "kakigban": 5750,
      "kakimin": 5751,
      "kakilibi": 5752,
      "kakikeke": 5753,
      "Ġrewu": 5754,
      "Ġsebaniya": 5755,
      "Ġebekiwo": 5756,
      "Ġebekikpulu": 5757,
      "Ġmbado": 5758,
      "Ġfilipa": 5759,
      "Ġabisa": 5760,
      "Ġabisuwa": 5761,
      "Ġabiyali": 5762,
      "Ġekekibo": 5763,
      "Ġekekiran": 5764,
      "Ġnkido": 5765,
      "Ġnkino": 5766,
      "Ġnkirika": 5767,
      "Ġichan": 5768,
      "yenai": 5769,
      "Ġojejeen": 5770,
      "Ġpirisi": 5771,
      "Ġkpekilo": 5772,
      "Ġkpekigban": 5773,
      "Ġkpekichieek": 5774,
      "Ġkpekikeek": 5775,
      "Ġokekisa": 5776,
      "Ġokekikpo": 5777,
      "Ġokekiluk": 5778,
      "Ġokekisisik": 5779,
      "Ġnkwukwuun": 5780,
      "Ġbebai": 5781,
      "Ġberin": 5782,
      "Ġibenin": 5783,
      "Ġkpekpa": 5784,
      "Ġkpekpan": 5785,
      "danien": 5786,
      "Ġikakeke": 5787,
      "Ġinenin": 5788,
      "ÌĦ?âĢĻ": 5789,
      "Ġebesasa": 5790,
      "Ġeruro": 5791,
      "kinyinya": 5792,
      "Ġjerimot": 5793,
      "Ġatantan": 5794,
      "yanak": 5795,
      "Ġotiton": 5796,
      "padi": 5797,
      "Ġtalima": 5798,
      "Ġtayanak": 5799,
      "Ġnnenisi": 5800,
      "juda": 5801,
      "Ġpayat": 5802,
      "Ġiwaka": 5803,
      "Ġpeda": 5804,
      "Ġayio": 5805,
      "Ġayira": 5806,
      "Ġayinowam": 5807,
      "Ġonikwu": 5808,
      "Ġonimbe": 5809,
      "Ġimama": 5810,
      "kpakabe": 5811,
      "irin": 5812,
      "Ġfonisia": 5813,
      "kinunu": 5814,
      "Ġmgbugba": 5815,
      "dedek": 5816,
      "Ġdii": 5817,
      "Ġtisibe": 5818,
      "Ġbinuwi": 5819,
      "kekitaan": 5820,
      "Ġraan": 5821,
      "Ġajaren": 5822,
      "Ġjebun": 5823,
      "chichinibe": 5824,
      "Ġladan": 5825,
      "Ġegwagwa": 5826,
      "Ġoneninene": 5827,
      "Ġoneninyan": 5828,
      "Ġaripadi": 5829,
      "Ġinitobo": 5830,
      "Ġimina": 5831,
      "Ġogwagwa": 5832,
      "Ġefonbe": 5833,
      "Ġegween": 5834,
      "Ġekibeme": 5835,
      "Ġjediyayen": 5836,
      "Ġsuri": 5837,
      "Ġsutela": 5838,
      "Ġkpenin": 5839,
      "Ġkpenama": 5840,
      "Ġngigen": 5841,
      "Ġeriaan": 5842,
      "Ġoyokbe": 5843,
      "Ġoyolia": 5844,
      "boniro": 5845,
      "Ġdowegi": 5846,
      "Ġikasage": 5847,
      "Ġwilo": 5848,
      "Ġabarim": 5849,
      "Ġmbani": 5850,
      "pela": 5851,
      "Ġenekup": 5852,
      "Ġkpebenyi": 5853,
      "Ġuluda": 5854,
      "Ġomaman": 5855,
      "Ġserugu": 5856,
      "Ġntikwo": 5857,
      "Ġokekin": 5858,
      "Ġokekinyi": 5859,
      "Ġrefayim": 5860,
      "memeen": 5861,
      "Ġewuwut": 5862,
      "Ġsefarifa": 5863,
      "Ġrekem": 5864,
      "Ġefili": 5865,
      "Ġofaak": 5866,
      "kinina": 5867,
      "Ġodabia": 5868,
      "Ġojijakabe": 5869,
      "Ġpekaya": 5870,
      "Ġodiya": 5871,
      "Ġibubeek": 5872,
      "Ġikitiik": 5873,
      "Ġsuwali": 5874,
      "limon": 5875,
      "Ġnsisaan": 5876,
      "Ġnsikikeek": 5877,
      "Ġobakbe": 5878,
      "Ġkakeke": 5879,
      "Ġituto": 5880,
      "Ġefifilabe": 5881,
      "Ġochitbe": 5882,
      "Ġogakbe": 5883,
      "Ġelilambe": 5884,
      "Ġmakipela": 5885,
      "Ġelioyenai": 5886,
      "Ġajirikam": 5887,
      "Ġbigibai": 5888,
      "Ġalikisenda": 5889,
      "Ġebalabe": 5890,
      "Ġmeremot": 5891,
      "Ġselumien": 5892,
      "Ġbekeri": 5893,
      "Ġgirigas": 5894,
      "Ġfilipai": 5895,
      "Ġpirisila": 5896,
      "Ġoyoliabu": 5897,
      "Ġsefarifayim": 5898,
      "debi": 5899,
      "edim": 5900,
      "ii": 5901,
      "ije": 5902,
      "ido": 5903,
      "ikpe": 5904,
      "ilai": 5905,
      "msi": 5906,
      "mfu": 5907,
      "nge": 5908,
      "nok": 5909,
      "owa": 5910,
      "ochichim": 5911,
      "seke": 5912,
      "uwen": 5913,
      "yun": 5914,
      "Ġdasi": 5915,
      "Ġbeek": 5916,
      "Ġfuun": 5917,
      "Ġgbegbe": 5918,
      "Ġgbuku": 5919,
      "Ġgbet": 5920,
      "Ġlen": 5921,
      "Ġiga": 5922,
      "Ġimi": 5923,
      "Ġibuk": 5924,
      "Ġimimin": 5925,
      "Ġidimi": 5926,
      "Ġiteek": 5927,
      "Ġiwuwut": 5928,
      "Ġijujuuk": 5929,
      "Ġeriaak": 5930,
      "Ġetutuku": 5931,
      "Ġelat": 5932,
      "Ġesusun": 5933,
      "Ġechachak": 5934,
      "Ġechacha": 5935,
      "Ġefeen": 5936,
      "Ġedadasi": 5937,
      "Ġelalaak": 5938,
      "Ġechon": 5939,
      "Ġechakbe": 5940,
      "Ġedidimi": 5941,
      "Ġmini": 5942,
      "Ġmfuk": 5943,
      "Ġmbebene": 5944,
      "Ġmmemem": 5945,
      "ÌĦâĢĿ": 5946,
      "Ġoban": 5947,
      "Ġosis": 5948,
      "Ġogbana": 5949,
      "Ġolelet": 5950,
      "Ġogen": 5951,
      "Ġochachak": 5952,
      "Ġojuuk": 5953,
      "Ġomama": 5954,
      "Ġosoon": 5955,
      "Ġoteteen": 5956,
      "Ġolookbe": 5957,
      "Ġochakabe": 5958,
      "Ġogbetbe": 5959,
      "ÌĢ.": 5960,
      "Ġmesaya": 5961,
      "enyen": 5962,
      "Ġuwa": 5963,
      "Ġugwo": 5964,
      "Ġutut": 5965,
      "yige": 5966,
      "yieen": 5967,
      "boon": 5968,
      "botibi": 5969,
      "bokeke": 5970,
      "bojijaka": 5971,
      "boluluk": 5972,
      "bojojot": 5973,
      "boyayat": 5974,
      "besi": 5975,
      "beton": 5976,
      "Ġajo": 5977,
      "Ġasan": 5978,
      "Ġatem": 5979,
      "Ġapulu": 5980,
      "Ġajeka": 5981,
      "Ġatus": 5982,
      "Ġikwun": 5983,
      "rerieen": 5984,
      "siya": 5985,
      "Ġnlo": 5986,
      "Ġnsibi": 5987,
      "Ġnlibi": 5988,
      "Ġnsik": 5989,
      "Ġnjijaka": 5990,
      "Ġnyana": 5991,
      "Ġnkako": 5992,
      "Ġnkakana": 5993,
      "Ġnyayaka": 5994,
      "Ġntataan": 5995,
      "Ġndudun": 5996,
      "Ġnkekebe": 5997,
      "jijin": 5998,
      "Ġeniko": 5999,
      "Ġenyenye": 6000,
      "Ġenekpo": 6001,
      "jebu": 6002,
      "ros": 6003,
      "Ġked": 6004,
      "kaka": 6005,
      "kayo": 6006,
      "kawo": 6007,
      "kagwo": 6008,
      "kaluk": 6009,
      "kabet": 6010,
      "kachit": 6011,
      "kaman": 6012,
      "kafiat": 6013,
      "kajijaka": 6014,
      "kagwat": 6015,
      "katata": 6016,
      "kagan": 6017,
      "kasak": 6018,
      "kadodo": 6019,
      "kita": 6020,
      "kigbo": 6021,
      "kitetet": 6022,
      "kibia": 6023,
      "kitatat": 6024,
      "kigwak": 6025,
      "kinenen": 6026,
      "kisusun": 6027,
      "kimeen": 6028,
      "kigbuku": 6029,
      "kimumen": 6030,
      "kifum": 6031,
      "kibumu": 6032,
      "kikween": 6033,
      "kililibi": 6034,
      "kifafiat": 6035,
      "kigbin": 6036,
      "kilileek": 6037,
      "kolu": 6038,
      "Ġogwukube": 6039,
      "tako": 6040,
      "tarot": 6041,
      "kun": 6042,
      "emis": 6043,
      "Ġgedo": 6044,
      "Ġgesem": 6045,
      "Ġibedo": 6046,
      "Ġibebele": 6047,
      "basi": 6048,
      "bayaka": 6049,
      "baali": 6050,
      "Ġisiyi": 6051,
      "Ġisita": 6052,
      "Ġisito": 6053,
      "Ġisitumu": 6054,
      "Ġisinyi": 6055,
      "Ġisitoon": 6056,
      "Ġisiwut": 6057,
      "Ġisisaba": 6058,
      "Ġisinaan": 6059,
      "tiro": 6060,
      "tiki": 6061,
      "tiri": 6062,
      "fia": 6063,
      "fidim": 6064,
      "fiik": 6065,
      "Ġenesa": 6066,
      "Ġenedo": 6067,
      "Ġenegbaan": 6068,
      "Ġenesaba": 6069,
      "chachan": 6070,
      "bubeek": 6071,
      "bubat": 6072,
      "Ġirerieen": 6073,
      "Ġowuwut": 6074,
      "Ġowuwulu": 6075,
      "ras": 6076,
      "rajim": 6077,
      "raton": 6078,
      "Ġkije": 6079,
      "Ġkito": 6080,
      "Ġkitumu": 6081,
      "Ġkitim": 6082,
      "uno": 6083,
      "Ġsiyo": 6084,
      "Ġsitim": 6085,
      "Ġoneme": 6086,
      "Ġoninu": 6087,
      "Ġonyana": 6088,
      "kpojo": 6089,
      "kpoto": 6090,
      "kpotumu": 6091,
      "kposan": 6092,
      "kpogban": 6093,
      "kponu": 6094,
      "kpofieek": 6095,
      "kpochak": 6096,
      "kponyan": 6097,
      "kpofiat": 6098,
      "wodi": 6099,
      "wowook": 6100,
      "Ġmoja": 6101,
      "gobu": 6102,
      "goon": 6103,
      "anam": 6104,
      "Ġchak": 6105,
      "lon": 6106,
      "lot": 6107,
      "lobe": 6108,
      "loon": 6109,
      "Ġeyiyiyala": 6110,
      "Ġikige": 6111,
      "Ġikicha": 6112,
      "Ġikiso": 6113,
      "Ġikida": 6114,
      "Ġikichit": 6115,
      "Ġikitip": 6116,
      "Ġikisut": 6117,
      "Ġikijijaka": 6118,
      "Ġikikat": 6119,
      "Ġikirak": 6120,
      "Ġikigbala": 6121,
      "Ġikibieen": 6122,
      "Ġikibaak": 6123,
      "Ġikibumu": 6124,
      "Ġikikwukwulu": 6125,
      "lita": 6126,
      "yet": 6127,
      "Ġchieek": 6128,
      "Ġchilo": 6129,
      "ludu": 6130,
      "Ġekika": 6131,
      "Ġekifo": 6132,
      "Ġekirio": 6133,
      "Ġekigwo": 6134,
      "Ġekitele": 6135,
      "Ġekijit": 6136,
      "Ġekigwook": 6137,
      "Ġekikeke": 6138,
      "Ġekiwop": 6139,
      "Ġekinye": 6140,
      "Ġekijijen": 6141,
      "Ġekichacha": 6142,
      "Ġekililibi": 6143,
      "Ġekigbin": 6144,
      "Ġikatumu": 6145,
      "Ġikachit": 6146,
      "Ġikagbaan": 6147,
      "Ġikakput": 6148,
      "Ġikafieekge": 6149,
      "Ġikayaak": 6150,
      "kpabo": 6151,
      "kpagban": 6152,
      "kpakpaka": 6153,
      "Ġinisibi": 6154,
      "Ġinikisa": 6155,
      "Ġinikito": 6156,
      "Ġinifuun": 6157,
      "Ġinichiin": 6158,
      "Ġinichibi": 6159,
      "oniin": 6160,
      "Ġmbuuruk": 6161,
      "rufu": 6162,
      "rururo": 6163,
      "Ġoneniko": 6164,
      "Ġoneniwo": 6165,
      "Ġonenima": 6166,
      "Ġoneniche": 6167,
      "Ġonenitim": 6168,
      "Ġonenigele": 6169,
      "Ġonenikpaka": 6170,
      "Ġonenigween": 6171,
      "Ġonenikikpa": 6172,
      "gama": 6173,
      "Ġsalek": 6174,
      "Ġifeme": 6175,
      "Ġmala": 6176,
      "Ġenenene": 6177,
      "Ġenenyan": 6178,
      "Ġekwek": 6179,
      "Ġekweekbe": 6180,
      "Ġntet": 6181,
      "Ġntetet": 6182,
      "Ġyik": 6183,
      "Ġkpeje": 6184,
      "Ġkpechak": 6185,
      "Ġkpefat": 6186,
      "Ġkpeweweek": 6187,
      "Ġokire": 6188,
      "Ġokirie": 6189,
      "Ġokibum": 6190,
      "Ġokifuk": 6191,
      "Ġokigbaan": 6192,
      "Ġokisisik": 6193,
      "Ġokikeme": 6194,
      "Ġokimumen": 6195,
      "Ġkeyiyi": 6196,
      "Ġechiin": 6197,
      "Ġechilo": 6198,
      "Ġebewa": 6199,
      "Ġebego": 6200,
      "Ġebelibi": 6201,
      "Ġebesiki": 6202,
      "Ġebetaka": 6203,
      "Ġebebeek": 6204,
      "Ġebejibi": 6205,
      "Ġkamo": 6206,
      "Ġkalo": 6207,
      "Ġkala": 6208,
      "Ġkafuk": 6209,
      "Ġkagbaan": 6210,
      "Ġkafefieek": 6211,
      "Ġkalululuk": 6212,
      "Ġkafito": 6213,
      "Ġjosadak": 6214,
      "diuru": 6215,
      "Ġobokpo": 6216,
      "Ġoborieen": 6217,
      "Ġoborie": 6218,
      "Ġoboben": 6219,
      "Ġoboman": 6220,
      "Ġobotip": 6221,
      "Ġobokiro": 6222,
      "Ġsofa": 6223,
      "jitbe": 6224,
      "manbe": 6225,
      "Ġjuru": 6226,
      "Ġakparalek": 6227,
      "kaninin": 6228,
      "nigwu": 6229,
      "niko": 6230,
      "nifo": 6231,
      "nigwa": 6232,
      "nikpa": 6233,
      "niluk": 6234,
      "niben": 6235,
      "nigban": 6236,
      "nikpan": 6237,
      "nitim": 6238,
      "nitoon": 6239,
      "nisulu": 6240,
      "Ġdeme": 6241,
      "ebibi": 6242,
      "Ġesasaba": 6243,
      "Ġgalio": 6244,
      "Ġijijo": 6245,
      "Ġijijibi": 6246,
      "Ġbayu": 6247,
      "fafiak": 6248,
      "Ġikano": 6249,
      "Ġigan": 6250,
      "Ġigbidim": 6251,
      "Ġigbeme": 6252,
      "Ġesitem": 6253,
      "meses": 6254,
      "Ġjatu": 6255,
      "Ġjafan": 6256,
      "Ġjasin": 6257,
      "Ġjakio": 6258,
      "Ġogogobo": 6259,
      "Ġenenige": 6260,
      "Ġenenirie": 6261,
      "Ġeneniyaka": 6262,
      "Ġenenitet": 6263,
      "Ġenenisibi": 6264,
      "Ġenenikisa": 6265,
      "Ġenenikitumu": 6266,
      "Ġenenisaba": 6267,
      "Ġeneniroon": 6268,
      "Ġejeri": 6269,
      "nenisi": 6270,
      "nenito": 6271,
      "nenimo": 6272,
      "neniwo": 6273,
      "nenibene": 6274,
      "neniluk": 6275,
      "nenisibi": 6276,
      "nenigbaan": 6277,
      "Ġekabat": 6278,
      "Ġekalabe": 6279,
      "Ġekatapge": 6280,
      "Ġgojan": 6281,
      "Ġigbagbaan": 6282,
      "Ġmfurufu": 6283,
      "Ġarari": 6284,
      "kirom": 6285,
      "gien": 6286,
      "Ġileek": 6287,
      "Ġefufum": 6288,
      "Ġekebo": 6289,
      "Ġekedo": 6290,
      "Ġekerio": 6291,
      "Ġekeran": 6292,
      "Ġekeben": 6293,
      "Ġekesibi": 6294,
      "Ġekejeen": 6295,
      "Ġekwukwulube": 6296,
      "Ġlida": 6297,
      "Ġebekeke": 6298,
      "Ġokom": 6299,
      "ninan": 6300,
      "nyanyam": 6301,
      "Ġinenigwu": 6302,
      "Ġinenikup": 6303,
      "Ġinenifo": 6304,
      "Ġinenisibi": 6305,
      "Ġinenigobo": 6306,
      "Ġelim": 6307,
      "Ġkpeberio": 6308,
      "Ġkpoyakabe": 6309,
      "Ġisikije": 6310,
      "sutbe": 6311,
      "bonyenye": 6312,
      "Ġgiyo": 6313,
      "Ġgibeton": 6314,
      "Ġogege": 6315,
      "Ġogele": 6316,
      "kakita": 6317,
      "kakirie": 6318,
      "kakiben": 6319,
      "kakisun": 6320,
      "kakijeen": 6321,
      "kakinin": 6322,
      "kakigobo": 6323,
      "kakinwene": 6324,
      "Ġrefidim": 6325,
      "Ġnimsi": 6326,
      "Ġeseri": 6327,
      "Ġekisasa": 6328,
      "Ġsele": 6329,
      "Ġsesiba": 6330,
      "Ġsediuru": 6331,
      "Ġebekire": 6332,
      "Ġebekije": 6333,
      "Ġebekisun": 6334,
      "Ġebekikwak": 6335,
      "Ġewowop": 6336,
      "Ġmbabo": 6337,
      "Ġmbakpo": 6338,
      "Ġmbago": 6339,
      "Ġmbaluk": 6340,
      "Ġmbasibi": 6341,
      "Ġbabilonia": 6342,
      "Ġisasaba": 6343,
      "Ġabila": 6344,
      "Ġekekikpa": 6345,
      "Ġekekigban": 6346,
      "Ġekekikeek": 6347,
      "Ġnkiluk": 6348,
      "Ġnkitap": 6349,
      "Ġnkijeen": 6350,
      "Ġnebayot": 6351,
      "Ġetotoon": 6352,
      "Ġpiraton": 6353,
      "Ġkpebekp": 6354,
      "Ġokaka": 6355,
      "Ġkpekibo": 6356,
      "Ġkpekirie": 6357,
      "Ġkpekiyaka": 6358,
      "Ġifiaak": 6359,
      "Ġifiaka": 6360,
      "nentumu": 6361,
      "neninu": 6362,
      "neninin": 6363,
      "Ġokekigo": 6364,
      "Ġokekimin": 6365,
      "Ġokekitana": 6366,
      "Ġoraraan": 6367,
      "Ġosikije": 6368,
      "Ġosibo": 6369,
      "Ġosisiki": 6370,
      "Ġkpekeek": 6371,
      "Ġasimo": 6372,
      "Ġasitarot": 6373,
      "Ġineninyan": 6374,
      "Ġmkpukpuku": 6375,
      "Ġmkpukput": 6376,
      "wopge": 6377,
      "kayat": 6378,
      "Ġebesaba": 6379,
      "Ġerururo": 6380,
      "sababe": 6381,
      "kisisisik": 6382,
      "rakge": 6383,
      "Ġnnenisa": 6384,
      "Ġnnenimo": 6385,
      "Ġmanayat": 6386,
      "Ġpara": 6387,
      "Ġpalu": 6388,
      "Ġpamfi": 6389,
      "Ġparos": 6390,
      "Ġpagien": 6391,
      "Ġochakbe": 6392,
      "Ġdabi": 6393,
      "Ġpela": 6394,
      "Ġpega": 6395,
      "Ġane": 6396,
      "Ġayin": 6397,
      "Ġayiludu": 6398,
      "Ġonikup": 6399,
      "Ġebenu": 6400,
      "kinene": 6401,
      "kinyana": 6402,
      "kinyenye": 6403,
      "Ġdison": 6404,
      "Ġuriyen": 6405,
      "Ġokpekpe": 6406,
      "kekigbuk": 6407,
      "Ġrameses": 6408,
      "Ġenije": 6409,
      "Ġenikup": 6410,
      "Ġmbeekbe": 6411,
      "ikagban": 6412,
      "Ì£!âĢĻ": 6413,
      "Ġogbugbuku": 6414,
      "Ġlawodi": 6415,
      "yiyalabe": 6416,
      "Ġegwagwat": 6417,
      "Ġoneninween": 6418,
      "Ġarien": 6419,
      "Ġaridi": 6420,
      "Ġarigobu": 6421,
      "Ġaserot": 6422,
      "Ġogwakbe": 6423,
      "Ġokpakpa": 6424,
      "kibeen": 6425,
      "lababe": 6426,
      "Ġetembe": 6427,
      "Ġikwakwak": 6428,
      "Ġikekisa": 6429,
      "sookbe": 6430,
      "Ġibenito": 6431,
      "Ġibenikpo": 6432,
      "sisiik": 6433,
      "Ġnkakwu": 6434,
      "Ġekpebe": 6435,
      "Ġlotan": 6436,
      "Ġteyima": 6437,
      "Ġkpenye": 6438,
      "Ġofufuk": 6439,
      "Ġetaak": 6440,
      "Ġdodo": 6441,
      "Ġdotan": 6442,
      "Ġeliale": 6443,
      "Ġitiri": 6444,
      "Ġitimi": 6445,
      "keken": 6446,
      "Ġbuju": 6447,
      "Ġobubum": 6448,
      "Ġobubumu": 6449,
      "Ġamisadai": 6450,
      "Ġogagak": 6451,
      "Ġkpebenan": 6452,
      "Ġkpebenwo": 6453,
      "nyambe": 6454,
      "Ġegayi": 6455,
      "Ġegbanbe": 6456,
      "Ġekun": 6457,
      "bekikpo": 6458,
      "Ġokekinan": 6459,
      "Ġmalikien": 6460,
      "Ġefafan": 6461,
      "Ġreyaya": 6462,
      "Ġreyabia": 6463,
      "Ġateri": 6464,
      "Ġkenayana": 6465,
      "Ġasum": 6466,
      "Ġasubu": 6467,
      "Ġibubuku": 6468,
      "Ġkpemo": 6469,
      "Ġikititen": 6470,
      "urum": 6471,
      "Ġekeekbe": 6472,
      "Ġnchabe": 6473,
      "Ġotababe": 6474,
      "Ġguni": 6475,
      "Ġikadoge": 6476,
      "Ġeliyakim": 6477,
      "Ġetibo": 6478,
      "sitadi": 6479,
      "Ġkpemaman": 6480,
      "Ġofiatbe": 6481,
      "Ġojijo": 6482,
      "Ġayoyi": 6483,
      "Ġadina": 6484,
      "Ġewawak": 6485,
      "Ġmeyola": 6486,
      "Ġpenina": 6487,
      "gigam": 6488,
      "Ġtaikiko": 6489,
      "Ġofini": 6490,
      "Ġawudu": 6491,
      "Ġamedata": 6492,
      "Ġjasubu": 6493,
      "Ġbuki": 6494,
      "enaji": 6495,
      "Ġarisitako": 6496,
      "Ġgemariya": 6497,
      "Ġonesimo": 6498,
      "Ġosababe": 6499,
      "Ġpedajuru": 6500,
      "Ġsurisadai": 6501,
      "debit": 6502,
      "ikpele": 6503,
      "mfut": 6504,
      "Ġgbegbegbe": 6505,
      "Ġlentin": 6506,
      "Ġosisem": 6507,
      "Ġatemis": 6508,
      "Ġgedoru": 6509,
      "Ġdemetiro": 6510,
      "Ġbayurim": 6511,
      "Ġsesibaja": 6512,
      "Ġpamfilia": 6513,
      "Ġlawodisia": 6514,
      ");": 6515,
      ";âĢĻ": 6516,
      "as": 6517,
      "ayi": 6518,
      "abi": 6519,
      "afi": 6520,
      "akarake": 6521,
      "deya": 6522,
      "ese": 6523,
      "eyam": 6524,
      "ejen": 6525,
      "imu": 6526,
      "ikpa": 6527,
      "ifieek": 6528,
      "ikwaan": 6529,
      "igen": 6530,
      "jek": 6531,
      "nga": 6532,
      "nneni": 6533,
      "nyen": 6534,
      "njin": 6535,
      "nanama": 6536,
      "oge": 6537,
      "pu": 6538,
      "utoon": 6539,
      "udu": 6540,
      "Ġwe": 6541,
      "Ġfaka": 6542,
      "Ġtat": 6543,
      "Ġgen": 6544,
      "Ġfaan": 6545,
      "Ġgbini": 6546,
      "Ġbineya": 6547,
      "Ġite": 6548,
      "Ġime": 6549,
      "Ġigwele": 6550,
      "Ġichacha": 6551,
      "Ġiwuwuuk": 6552,
      "Ġititibi": 6553,
      "Ġitutuun": 6554,
      "Ġiwuwulu": 6555,
      "Ġideke": 6556,
      "Ġeda": 6557,
      "Ġebat": 6558,
      "Ġelap": 6559,
      "Ġewuwuuk": 6560,
      "Ġetemebe": 6561,
      "Ġechakabe": 6562,
      "Ġekpakabe": 6563,
      "Ġmmin": 6564,
      "Ġmbenbe": 6565,
      "Ġmwopbe": 6566,
      "Ġmfieekbe": 6567,
      "Ġofe": 6568,
      "Ġofuk": 6569,
      "Ġoraka": 6570,
      "Ġotibi": 6571,
      "Ġobem": 6572,
      "Ġotaka": 6573,
      "Ġojibi": 6574,
      "Ġofet": 6575,
      "Ġowop": 6576,
      "Ġochep": 6577,
      "Ġogwak": 6578,
      "Ġolak": 6579,
      "Ġogana": 6580,
      "Ġolap": 6581,
      "Ġokpukpuku": 6582,
      "Ġofaan": 6583,
      "Ġofen": 6584,
      "Ġokpebe": 6585,
      "Ġojibibe": 6586,
      "Ġmeko": 6587,
      "Ġmefa": 6588,
      "Ġmeselem": 6589,
      "Ġmedeba": 6590,
      "Ġkine": 6591,
      "wumu": 6592,
      "ekaan": 6593,
      "Ġuba": 6594,
      "Ġutun": 6595,
      "Ġuleke": 6596,
      "Ġukama": 6597,
      "Ġusim": 6598,
      "yiyi": 6599,
      "yirot": 6600,
      "bota": 6601,
      "bomun": 6602,
      "bogwook": 6603,
      "bokpan": 6604,
      "bosik": 6605,
      "borot": 6606,
      "bolet": 6607,
      "botata": 6608,
      "bonama": 6609,
      "boyim": 6610,
      "bokire": 6611,
      "boninin": 6612,
      "bofufuk": 6613,
      "beji": 6614,
      "beli": 6615,
      "bisa": 6616,
      "Ġaiko": 6617,
      "Ġaju": 6618,
      "Ġafila": 6619,
      "Ġaleme": 6620,
      "Ġakiji": 6621,
      "tuk": 6622,
      "tura": 6623,
      "Ġnana": 6624,
      "Ġnyam": 6625,
      "Ġnchili": 6626,
      "Ġnwene": 6627,
      "Ġnnanan": 6628,
      "Ġnlaakbe": 6629,
      "Ġndodo": 6630,
      "Ġnlibibe": 6631,
      "Ġebilo": 6632,
      "yati": 6633,
      "gwuk": 6634,
      "jia": 6635,
      "jirayim": 6636,
      "Ġemeen": 6637,
      "ÌĤ.âĢĿ": 6638,
      "Ġenween": 6639,
      "Ġenadadi": 6640,
      "rowas": 6641,
      "Ġkedo": 6642,
      "Ġkelu": 6643,
      "Ġkefira": 6644,
      "Ġketura": 6645,
      "kage": 6646,
      "kaban": 6647,
      "kamin": 6648,
      "kariaak": 6649,
      "kadasi": 6650,
      "kafuk": 6651,
      "kasulu": 6652,
      "katetet": 6653,
      "kakpe": 6654,
      "kamumun": 6655,
      "kakpaka": 6656,
      "kachep": 6657,
      "katutuku": 6658,
      "kaboro": 6659,
      "kajijit": 6660,
      "kafeen": 6661,
      "kasoon": 6662,
      "kakekeek": 6663,
      "muwa": 6664,
      "mumo": 6665,
      "mumumen": 6666,
      "kigwu": 6667,
      "kikwukwu": 6668,
      "kifaka": 6669,
      "kikwaan": 6670,
      "kigak": 6671,
      "kijin": 6672,
      "kileke": 6673,
      "kibieen": 6674,
      "kichachak": 6675,
      "kiweweek": 6676,
      "kikweek": 6677,
      "kitataka": 6678,
      "kifuku": 6679,
      "kikala": 6680,
      "kigbeme": 6681,
      "kililam": 6682,
      "kokpulu": 6683,
      "rit": 6684,
      "riraan": 6685,
      "rijim": 6686,
      "sabi": 6687,
      "sakbe": 6688,
      "Ġogwube": 6689,
      "Ġyayirot": 6690,
      "chio": 6691,
      "Ġgerijim": 6692,
      "Ġibebem": 6693,
      "Ġibebeme": 6694,
      "bata": 6695,
      "bago": 6696,
      "bakup": 6697,
      "bakisa": 6698,
      "bagwagwak": 6699,
      "Ġisigwu": 6700,
      "Ġisirie": 6701,
      "Ġisitap": 6702,
      "Ġisikana": 6703,
      "Ġisinwo": 6704,
      "Ġisikiro": 6705,
      "Ġisiwop": 6706,
      "Ġisinama": 6707,
      "tere": 6708,
      "gbogbo": 6709,
      "mosis": 6710,
      "timi": 6711,
      "tiyas": 6712,
      "titeek": 6713,
      "tifera": 6714,
      "Ġkanwo": 6715,
      "fim": 6716,
      "fiala": 6717,
      "Ġeneen": 6718,
      "Ġenesibi": 6719,
      "Ġenejibi": 6720,
      "chabe": 6721,
      "Ġmilo": 6722,
      "Ġmigi": 6723,
      "Ġmikilo": 6724,
      "Ġmikitop": 6725,
      "Ġmijirayim": 6726,
      "Ġowuwuuk": 6727,
      "ramot": 6728,
      "rakima": 6729,
      "Ġkisa": 6730,
      "Ġkikpo": 6731,
      "Ġkimi": 6732,
      "Ġkisun": 6733,
      "Ġkijeen": 6734,
      "Ġkiborot": 6735,
      "Ġsidim": 6736,
      "Ġsibeka": 6737,
      "Ġoneen": 6738,
      "Ġonene": 6739,
      "Ġonwene": 6740,
      "Ġonanama": 6741,
      "Ġonemebe": 6742,
      "Ġonam": 6743,
      "kpofo": 6744,
      "kporio": 6745,
      "kporere": 6746,
      "kposiki": 6747,
      "kpojot": 6748,
      "kponye": 6749,
      "kpokpe": 6750,
      "yoyok": 6751,
      "woma": 6752,
      "Ġmoro": 6753,
      "leleke": 6754,
      "mage": 6755,
      "matia": 6756,
      "eniri": 6757,
      "Ġakoji": 6758,
      "Ġkpon": 6759,
      "Ġeyim": 6760,
      "Ġikitele": 6761,
      "Ġikititiin": 6762,
      "Ġikilet": 6763,
      "Ġikijak": 6764,
      "Ġikigele": 6765,
      "Ġikilep": 6766,
      "Ġikikpaka": 6767,
      "Ġikigen": 6768,
      "Ġikicho": 6769,
      "Ġikimeen": 6770,
      "Ġikisek": 6771,
      "Ġikigwele": 6772,
      "Ġikiyok": 6773,
      "Ġikiruro": 6774,
      "Ġikilap": 6775,
      "Ġikidimi": 6776,
      "Ġikikwala": 6777,
      "Ġikifuku": 6778,
      "Ġikigbeme": 6779,
      "Ġikididen": 6780,
      "liti": 6781,
      "wunun": 6782,
      "Ġeres": 6783,
      "Ì£,âĢĿ": 6784,
      "gwabe": 6785,
      "Ġchim": 6786,
      "lawoma": 6787,
      "Ġikook": 6788,
      "Ġuwuk": 6789,
      "Ġekige": 6790,
      "Ġekigban": 6791,
      "Ġekiraka": 6792,
      "Ġekitibi": 6793,
      "Ġekigobo": 6794,
      "Ġekiwut": 6795,
      "Ġekifefieek": 6796,
      "Ġekidimi": 6797,
      "Ġekigumu": 6798,
      "Ġekimaan": 6799,
      "Ġekikala": 6800,
      "Ġikasan": 6801,
      "Ġikakpulu": 6802,
      "Ġikaraka": 6803,
      "Ġikarep": 6804,
      "Ġikafifila": 6805,
      "Ġikatoto": 6806,
      "kpakup": 6807,
      "kpatumu": 6808,
      "kpakaan": 6809,
      "kpasan": 6810,
      "kpachieek": 6811,
      "Ġitali": 6812,
      "Ġamaan": 6813,
      "Ġamasai": 6814,
      "Ġiniko": 6815,
      "Ġinita": 6816,
      "Ġinifo": 6817,
      "Ġiniyaka": 6818,
      "Ġinichit": 6819,
      "Ġinijot": 6820,
      "Ġinikpukpo": 6821,
      "Ġinikikpulu": 6822,
      "Ġinilep": 6823,
      "Ġinigwak": 6824,
      "Ġinifiaan": 6825,
      "Ġmbubek": 6826,
      "rum": 6827,
      "sesek": 6828,
      "Ġonenichieek": 6829,
      "Ġonenikiro": 6830,
      "Ġonenibele": 6831,
      "Ġonenikeek": 6832,
      "Ġoneniteme": 6833,
      "Ġonenikikpulu": 6834,
      "Ġonenitaba": 6835,
      "Ġonenifiak": 6836,
      "Ġonenikama": 6837,
      ".âĢĿ]": 6838,
      "Ġokwek": 6839,
      "Ġatai": 6840,
      "Ġatat": 6841,
      "Ġatayaba": 6842,
      "Ġsabe": 6843,
      "Ġsali": 6844,
      "Ġsamiri": 6845,
      "Ġsalima": 6846,
      "Ġsamuwa": 6847,
      "Ġmaro": 6848,
      "Ġmatat": 6849,
      "Ġmayaji": 6850,
      "fumbe": 6851,
      "Ġenenama": 6852,
      "Ġjiya": 6853,
      "Ġjima": 6854,
      "Ġjija": 6855,
      "yanyam": 6856,
      "nyiaan": 6857,
      "nyinya": 6858,
      "Ġekwo": 6859,
      "Ġekanan": 6860,
      "Ġekuko": 6861,
      "Ġbolo": 6862,
      "Ġkpewa": 6863,
      "Ġkperieen": 6864,
      "Ġkpegwen": 6865,
      "Ġkpejit": 6866,
      "Ġkperere": 6867,
      "Ġkpetim": 6868,
      "Ġkpegbugbo": 6869,
      "Ġkpejeje": 6870,
      "Ġkpedodo": 6871,
      "Ġkpewak": 6872,
      "gbasi": 6873,
      "gbagba": 6874,
      "chei": 6875,
      "Ġjen": 6876,
      "Ġokikpa": 6877,
      "Ġokisan": 6878,
      "Ġokiche": 6879,
      "Ġokinya": 6880,
      "Ġokifiat": 6881,
      "Ġokijijaka": 6882,
      "Ġokilomo": 6883,
      "Ġokiteme": 6884,
      "Ġokirep": 6885,
      "Ġokilaak": 6886,
      "Ġokikat": 6887,
      "Ġokichili": 6888,
      "Ġokikput": 6889,
      "Ġokisook": 6890,
      "Ġokiyok": 6891,
      "suso": 6892,
      "Ġechio": 6893,
      "Ġechieen": 6894,
      "Ġechichini": 6895,
      "Ġechimbe": 6896,
      "Ġebefo": 6897,
      "Ġebegwa": 6898,
      "Ġebemun": 6899,
      "Ġebegwen": 6900,
      "Ġebeman": 6901,
      "Ġebeme": 6902,
      "Ġebetim": 6903,
      "Ġebegobo": 6904,
      "Ġebejijaka": 6905,
      "Ġebelaak": 6906,
      "Ġebegbagbaan": 6907,
      "Ġofiak": 6908,
      "Ġofitbe": 6909,
      "Ġkaje": 6910,
      "Ġkafo": 6911,
      "Ġkamun": 6912,
      "Ġkarie": 6913,
      "Ġkatap": 6914,
      "Ġkagban": 6915,
      "Ġkamin": 6916,
      "Ġkachak": 6917,
      "Ġkatoon": 6918,
      "Ġkafiat": 6919,
      "Ġkasisik": 6920,
      "Ġkagan": 6921,
      "Ġkariaan": 6922,
      "benu": 6923,
      "Ġjot": 6924,
      "Ġjoya": 6925,
      "Ġjokin": 6926,
      "Ġjokisan": 6927,
      "Ġjokebe": 6928,
      "dien": 6929,
      "Ġobota": 6930,
      "Ġobodo": 6931,
      "Ġobomun": 6932,
      "Ġobotap": 6933,
      "Ġobokpulu": 6934,
      "Ġobokisa": 6935,
      "Ġobokeke": 6936,
      "Ġobosulu": 6937,
      "Ġobogbana": 6938,
      "Ġobokinyi": 6939,
      "Ġobonye": 6940,
      "Ġobokpe": 6941,
      "Ġobokikpo": 6942,
      "Ġikanaan": 6943,
      "Ġsook": 6944,
      "Ġsomeri": 6945,
      "Ġeyat": 6946,
      "gbanabe": 6947,
      "Ġores": 6948,
      "nio": 6949,
      "nibe": 6950,
      "nimo": 6951,
      "nirie": 6952,
      "nikpulu": 6953,
      "nikana": 6954,
      "nisiki": 6955,
      "nigbaan": 6956,
      "ebirieen": 6957,
      "Ġanas": 6958,
      "Ġanat": 6959,
      "Ġesakbe": 6960,
      "Ġgayas": 6961,
      "Ġijiki": 6962,
      "Ġanameli": 6963,
      "Ġbaya": 6964,
      "Ġbamot": 6965,
      "fam": 6966,
      "fadi": 6967,
      "fafaan": 6968,
      "Ġeroroon": 6969,
      "Ġiraraan": 6970,
      "Ġigumu": 6971,
      "Ġigigen": 6972,
      "pim": 6973,
      "Ġjasobe": 6974,
      "Ġjatiri": 6975,
      "Ġjabeji": 6976,
      "Ġibokwu": 6977,
      "Ġibonin": 6978,
      "Ġenenikpan": 6979,
      "Ġeneniriaak": 6980,
      "Ġenenitoon": 6981,
      "Ġenenilook": 6982,
      "Ġenenichili": 6983,
      "Ġenenigbuku": 6984,
      "âĢĻ,": 6985,
      "Ġinino": 6986,
      "Ġininwaan": 6987,
      "Ġininiin": 6988,
      "Ġkaraso": 6989,
      "Ġinyanyam": 6990,
      "Ġinyanyana": 6991,
      "neniko": 6992,
      "nenifo": 6993,
      "nenigwa": 6994,
      "nenikpan": 6995,
      "nenikeek": 6996,
      "nenitana": 6997,
      "Ġekare": 6998,
      "Ġekaje": 6999,
      "Ġekaka": 7000,
      "Ġekaluk": 7001,
      "Ġekataka": 7002,
      "Ġekasisaak": 7003,
      "Ġgon": 7004,
      "Ġpeta": 7005,
      "Ġararat": 7006,
      "Ġetipbe": 7007,
      "Ġilelet": 7008,
      "Ġileleke": 7009,
      "tanien": 7010,
      "Ġochiin": 7011,
      "Ġigwagwat": 7012,
      "Ġegegen": 7013,
      "Ġekebe": 7014,
      "Ġekerie": 7015,
      "Ġeketip": 7016,
      "Ġeketibi": 7017,
      "Ġekelook": 7018,
      "Ġlisia": 7019,
      "Ġnatanien": 7020,
      "Ġebekp": 7021,
      "Ġebekana": 7022,
      "Ġebekinin": 7023,
      "eten": 7024,
      "Ġinenimo": 7025,
      "Ġinenitim": 7026,
      "Ġelima": 7027,
      "Ġeliada": 7028,
      "Ġeliyanan": 7029,
      "Ġelilababe": 7030,
      "Ġobeek": 7031,
      "Ġkpebewuuk": 7032,
      "Ġkpebechak": 7033,
      "Ġkpoo": 7034,
      "Ġkpotabe": 7035,
      "Ġgiden": 7036,
      "kakiwo": 7037,
      "kakiyaka": 7038,
      "kakisibi": 7039,
      "Ġrejo": 7040,
      "Ġikirom": 7041,
      "Ġseta": 7042,
      "Ġseba": 7043,
      "Ġsesan": 7044,
      "Ġebekikup": 7045,
      "Ġebekitumu": 7046,
      "Ġebekilibi": 7047,
      "Ġebekitaka": 7048,
      "Ġebekiwut": 7049,
      "Ġebekigwugwuun": 7050,
      "Ġebekililam": 7051,
      "Ġegwegween": 7052,
      "Ġmbako": 7053,
      "Ġmbato": 7054,
      "Ġmbaria": 7055,
      "Ġfilimo": 7056,
      "fiatbe": 7057,
      "Ġichichiin": 7058,
      "Ġabibu": 7059,
      "Ġekekifo": 7060,
      "Ġnkimun": 7061,
      "Ġnkirie": 7062,
      "Ġnkigwen": 7063,
      "Ġnkilibi": 7064,
      "Ġnkinin": 7065,
      "Ġnemuwen": 7066,
      "kwakwala": 7067,
      "Ġrogen": 7068,
      "Ġseniri": 7069,
      "Ġokat": 7070,
      "Ġokato": 7071,
      "Ġokario": 7072,
      "Ġokaran": 7073,
      "Ġokakan": 7074,
      "Ġokakat": 7075,
      "Ġkpekikaan": 7076,
      "Ġkpekifiat": 7077,
      "nenlook": 7078,
      "neninan": 7079,
      "Ġokekito": 7080,
      "Ġokekikpukpo": 7081,
      "Ġokekicho": 7082,
      "Ġokekigbuk": 7083,
      "Ġokekisook": 7084,
      "Ġokekimumen": 7085,
      "Ġokekibumu": 7086,
      "Ġokekikebe": 7087,
      "Ġoraraka": 7088,
      "Ġeriook": 7089,
      "Ġberi": 7090,
      "Ġikwut": 7091,
      "Ġosisa": 7092,
      "Ġosiwut": 7093,
      "Ġosisaak": 7094,
      "Ġosisisaak": 7095,
      "Ġasiben": 7096,
      "Ġikitop": 7097,
      "Ġikinen": 7098,
      "Ġikinwene": 7099,
      "kitoto": 7100,
      "Ġeboon": 7101,
      "nyebe": 7102,
      "kpukpobe": 7103,
      "paji": 7104,
      "Ġikisak": 7105,
      "Ġtara": 7106,
      "Ġtayan": 7107,
      "Ġtalimon": 7108,
      "Ġnneniria": 7109,
      "Ġnneniriaak": 7110,
      "Ġnnenikeek": 7111,
      "kiket": 7112,
      "ramgbasi": 7113,
      "Ġtowu": 7114,
      "Ġtobu": 7115,
      "Ġtogama": 7116,
      "Ġtorowas": 7117,
      "Ġtopaji": 7118,
      "Ġajiji": 7119,
      "Ġjeyosabadi": 7120,
      "Ġleyi": 7121,
      "emas": 7122,
      "kpoyakabe": 7123,
      "Ġdari": 7124,
      "Ġdarakima": 7125,
      "Ġnraraan": 7126,
      "Ġiwat": 7127,
      "Ġayiman": 7128,
      "Ġonibe": 7129,
      "Ġonisa": 7130,
      "Ġonikana": 7131,
      "Ġifufuku": 7132,
      "Ġimalek": 7133,
      "Ġsibima": 7134,
      "Ġnsitumu": 7135,
      "Ġnsiik": 7136,
      "Ġadara": 7137,
      "Ġebenyan": 7138,
      "kinwun": 7139,
      "kinwene": 7140,
      "Ġdisan": 7141,
      "chochon": 7142,
      "Ġurim": 7143,
      "Ġogwugwulo": 7144,
      "Ġtiyati": 7145,
      "Ġikayakage": 7146,
      "kekisa": 7147,
      "kekito": 7148,
      "kekigo": 7149,
      "kekikup": 7150,
      "Ġtem": 7151,
      "Ġraya": 7152,
      "Ġeniro": 7153,
      "Ġenisa": 7154,
      "Ġenimun": 7155,
      "Ġeniweek": 7156,
      "Ġenichieek": 7157,
      "Ġenikana": 7158,
      "Ġenimaman": 7159,
      "Ġjewudi": 7160,
      "Ġibani": 7161,
      "ikasa": 7162,
      "ikachieek": 7163,
      "ikafieek": 7164,
      "ikalululuk": 7165,
      "Ġrijipa": 7166,
      "Ġekpirikpi": 7167,
      "Ġegwakbe": 7168,
      "Ġikigoon": 7169,
      "wuwuwo": 7170,
      "Ġugot": 7171,
      "Ġalifio": 7172,
      "bosak": 7173,
      "Ġarimatia": 7174,
      "Ġarifadi": 7175,
      "Ġikibeme": 7176,
      "Ġokpatu": 7177,
      "Ġjeseri": 7178,
      "Ġreyobot": 7179,
      "Ġikekitumu": 7180,
      "Ġikekikaan": 7181,
      "Ġsimisayi": 7182,
      "Ġnkasa": 7183,
      "Ġlodi": 7184,
      "jania": 7185,
      "Ġsufu": 7186,
      "Ġjesimo": 7187,
      "Ġjesimot": 7188,
      "Ġigbugbugbo": 7189,
      "Ġakakam": 7190,
      "kilolomo": 7191,
      "Ġgwuku": 7192,
      "bonikukup": 7193,
      "Ġkpebekeek": 7194,
      "Ġmbeben": 7195,
      "kiriak": 7196,
      "Ġetataka": 7197,
      "Ġekekinu": 7198,
      "Ġmerabu": 7199,
      "Ġlibia": 7200,
      "Ġigugumu": 7201,
      "Ġechebe": 7202,
      "ataak": 7203,
      "Ġibonikpo": 7204,
      "Ġinikigban": 7205,
      "Ġmbanwo": 7206,
      "Ġmbanama": 7207,
      "Ġenyanyam": 7208,
      "jerimaya": 7209,
      "Ġbalisam": 7210,
      "Ġijajak": 7211,
      "Ġobonire": 7212,
      "Ġelisafan": 7213,
      "Ġkpomokup": 7214,
      "Ġigwugwuku": 7215,
      "peli": 7216,
      "perajim": 7217,
      "Ġriaan": 7218,
      "Ġelalap": 7219,
      "Ġkpukpuku": 7220,
      "Ġebenibo": 7221,
      "Ġmalikisuwa": 7222,
      "Ġebabak": 7223,
      "Ġelibibe": 7224,
      "Ġojojomo": 7225,
      "Ġogbanbe": 7226,
      "Ġeles": 7227,
      "nerie": 7228,
      "Ġjeres": 7229,
      "Ġjerefat": 7230,
      "Ġnayarayim": 7231,
      "Ġejotbe": 7232,
      "Ġnerigan": 7233,
      "Ġmatatiyas": 7234,
      "Ġdewen": 7235,
      "Ġeneninyan": 7236,
      "Ġekemo": 7237,
      "Ġnekoda": 7238,
      "Ġjayakan": 7239,
      "Ġikitik": 7240,
      "Ġmgbaramgbasi": 7241,
      "Ġareset": 7242,
      "Ġmayalat": 7243,
      "Ġtumim": 7244,
      "samsin": 7245,
      "Ġikamage": 7246,
      "Ġsamayi": 7247,
      "Ġduma": 7248,
      "Ġbatimio": 7249,
      "Ġmilito": 7250,
      "Ġekenbe": 7251,
      "Ġbiliga": 7252,
      "Ġbiliyan": 7253,
      "Ġkumi": 7254,
      "Ġnsiseen": 7255,
      "Ġnninaan": 7256,
      "Ġgeberen": 7257,
      "seseme": 7258,
      "nonu": 7259,
      "Ġechobe": 7260,
      "Ġbayalat": 7261,
      "Ġmisima": 7262,
      "Ġbaladan": 7263,
      "Ġochabe": 7264,
      "Ġsamila": 7265,
      "Ġjasipa": 7266,
      "Ġochichinibe": 7267,
      "Ġsemida": 7268,
      "Ġsemiramot": 7269,
      "Ġekwukbe": 7270,
      "Ġamulu": 7271,
      "Ġjafilet": 7272,
      "Ġibijan": 7273,
      "Ġemeran": 7274,
      "Ġkeriyot": 7275,
      "Ġpurim": 7276,
      "Ġabisagi": 7277,
      "Ġikakekege": 7278,
      "ijeren": 7279,
      "Ġimila": 7280,
      "jebup": 7281,
      "Ġkedemo": 7282,
      "Ġsiyoru": 7283,
      "Ġonyanabe": 7284,
      "Ġsaleka": 7285,
      "Ġesitemowa": 7286,
      "Ġpelatiya": 7287,
      "imumechieen": 7288,
      "Ġmefayat": 7289,
      "Ġmeselemaya": 7290,
      "Ġkineret": 7291,
      "Ġaikonio": 7292,
      "Ġajuba": 7293,
      "Ġafilafa": 7294,
      "Ġalemet": 7295,
      "Ġakijip": 7296,
      "Ġkedolawoma": 7297,
      "Ġmikilot": 7298,
      "Ġkimiyam": 7299,
      "Ġsibekai": 7300,
      "Ġjokineyam": 7301,
      "Ġjokebedi": 7302,
      "Ġjasobeyam": 7303,
      "Ġpetaya": 7304,
      "Ġosisaakbe": 7305,
      "Ġtiyatira": 7306,
      "Ġekpirikpit": 7307,
      "ais": 7308,
      "adasi": 7309,
      "atata": 7310,
      "abina": 7311,
      "esa": 7312,
      "ewuuk": 7313,
      "egwe": 7314,
      "eteek": 7315,
      "gbi": 7316,
      "ifi": 7317,
      "imi": 7318,
      "ikpi": 7319,
      "jeko": 7320,
      "kweekbe": 7321,
      "mbo": 7322,
      "mbet": 7323,
      "mwuuk": 7324,
      "mkpu": 7325,
      "mukan": 7326,
      "ngwugwa": 7327,
      "nnyi": 7328,
      "nno": 7329,
      "ntim": 7330,
      "nteme": 7331,
      "nwan": 7332,
      "nwenwene": 7333,
      "nekaan": 7334,
      "oje": 7335,
      "okpo": 7336,
      "owo": 7337,
      "osana": 7338,
      "oron": 7339,
      "pen": 7340,
      "uji": 7341,
      "ugan": 7342,
      "Ġfu": 7343,
      "Ġraka": 7344,
      "Ġgu": 7345,
      "Ġgan": 7346,
      "Ġtutuun": 7347,
      "Ġigwugwa": 7348,
      "Ġitun": 7349,
      "Ġiduku": 7350,
      "Ġiwewele": 7351,
      "Ġititip": 7352,
      "Ġibekpan": 7353,
      "Ì£),": 7354,
      "Ġelek": 7355,
      "Ġeran": 7356,
      "Ġelet": 7357,
      "Ġeteme": 7358,
      "Ġechaka": 7359,
      "Ġetutu": 7360,
      "Ġewulu": 7361,
      "Ġesek": 7362,
      "Ġefaan": 7363,
      "Ġesem": 7364,
      "Ġmwo": 7365,
      "Ġmwulu": 7366,
      "Ġmfefieek": 7367,
      "ÌĦâĢĿ?": 7368,
      "Ġola": 7369,
      "Ġoren": 7370,
      "Ġokpulu": 7371,
      "Ġogwe": 7372,
      "Ġotitiin": 7373,
      "Ġokayaka": 7374,
      "Ġojomo": 7375,
      "Ġode": 7376,
      "Ġojijen": 7377,
      "Ġochechep": 7378,
      "Ġojijijaka": 7379,
      "Ġowewele": 7380,
      "Ġoduk": 7381,
      "Ġolepbe": 7382,
      "Ġosutbe": 7383,
      "Ġosookbe": 7384,
      "Ġmeye": 7385,
      "Ġmela": 7386,
      "Ġmese": 7387,
      "Ġmeyu": 7388,
      "Ġmene": 7389,
      "Ġmeyun": 7390,
      "Ġmemukan": 7391,
      "aniya": 7392,
      "Ġkwaan": 7393,
      "Ġkon": 7394,
      "Ġkween": 7395,
      "Ġkino": 7396,
      "Ġkinwo": 7397,
      "Ġkwala": 7398,
      "Ġkonaya": 7399,
      "enai": 7400,
      "Ġuban": 7401,
      "Ġula": 7402,
      "Ġugba": 7403,
      "Ġulam": 7404,
      "Ġujan": 7405,
      "Ġulai": 7406,
      "Ġugeen": 7407,
      "yit": 7408,
      "yikbe": 7409,
      "boka": 7410,
      "bojo": 7411,
      "bosan": 7412,
      "bofieek": 7413,
      "bolibi": 7414,
      "bodasi": 7415,
      "bochak": 7416,
      "botetet": 7417,
      "bowop": 7418,
      "bokat": 7419,
      "bosasa": 7420,
      "bobebene": 7421,
      "bojomo": 7422,
      "bolep": 7423,
      "bojen": 7424,
      "bokijeen": 7425,
      "bokikup": 7426,
      "bokibele": 7427,
      "bodadasi": 7428,
      "bochichit": 7429,
      "bogbugbugbo": 7430,
      "bokpekpe": 7431,
      "bogbagbana": 7432,
      "Ġinyenye": 7433,
      "beya": 7434,
      "besa": 7435,
      "beria": 7436,
      "berebet": 7437,
      "bebele": 7438,
      "bebeek": 7439,
      "bechechep": 7440,
      "berit": 7441,
      "bim": 7442,
      "bit": 7443,
      "bita": 7444,
      "bija": 7445,
      "Ġage": 7446,
      "Ġake": 7447,
      "Ġasik": 7448,
      "Ġareli": 7449,
      "Ġajuru": 7450,
      "Ġakila": 7451,
      "Ġikeen": 7452,
      "reek": 7453,
      "rebu": 7454,
      "Ġnk": 7455,
      "Ġndun": 7456,
      "Ġnkare": 7457,
      "Ġnkakaan": 7458,
      "Ġnsulu": 7459,
      "Ġnjeje": 7460,
      "Ġnjei": 7461,
      "Ġntaba": 7462,
      "Ġnsulube": 7463,
      "Ġnjebe": 7464,
      "Ġnnene": 7465,
      "Ġnchon": 7466,
      "Ġngwugwu": 7467,
      "Ġnletbe": 7468,
      "Ġnlookbe": 7469,
      "Ġnyak": 7470,
      "Ġnwunun": 7471,
      "Ġebiya": 7472,
      "Ġebieen": 7473,
      "yai": 7474,
      "yariya": 7475,
      "yayaak": 7476,
      "jien": 7477,
      "jijijen": 7478,
      "jijop": 7479,
      "jijiin": 7480,
      "wakbe": 7481,
      "wadia": 7482,
      "Ġenwun": 7483,
      "Ġenwene": 7484,
      "jeji": 7485,
      "jeba": 7486,
      "rook": 7487,
      "rodi": 7488,
      "Ġkemuwen": 7489,
      "Ġkelita": 7490,
      "kawa": 7491,
      "kari": 7492,
      "kachak": 7493,
      "kabeek": 7494,
      "kafet": 7495,
      "kajeje": 7496,
      "kabak": 7497,
      "kagwak": 7498,
      "kamabe": 7499,
      "kasisi": 7500,
      "kachiin": 7501,
      "kagana": 7502,
      "kamama": 7503,
      "katobo": 7504,
      "kalululuk": 7505,
      "kagwaka": 7506,
      "kiba": 7507,
      "kicha": 7508,
      "kirieen": 7509,
      "kikwu": 7510,
      "kibet": 7511,
      "kichit": 7512,
      "kiraka": 7513,
      "kisut": 7514,
      "kinya": 7515,
      "kilep": 7516,
      "kigen": 7517,
      "kifefieek": 7518,
      "kitetele": 7519,
      "kichichini": 7520,
      "kikekeke": 7521,
      "kichim": 7522,
      "kigana": 7523,
      "kikpukpuku": 7524,
      "kikpakpan": 7525,
      "kikwala": 7526,
      "kirama": 7527,
      "kijim": 7528,
      "kikekebe": 7529,
      "kigbugbe": 7530,
      "kikekeek": 7531,
      "kikekeme": 7532,
      "kimumumen": 7533,
      "ribi": 7534,
      "riin": 7535,
      "sama": 7536,
      "sayen": 7537,
      "samien": 7538,
      "Ġogwugwuun": 7539,
      "kpeki": 7540,
      "ineen": 7541,
      "tali": 7542,
      "taben": 7543,
      "Ġinyio": 7544,
      "Ġinyinyan": 7545,
      "chichichini": 7546,
      "Ġgele": 7547,
      "Ġiberie": 7548,
      "Ġibebieen": 7549,
      "Ġotut": 7550,
      "Ġotuto": 7551,
      "bayen": 7552,
      "batutumu": 7553,
      "batbe": 7554,
      "batatap": 7555,
      "balak": 7556,
      "babaak": 7557,
      "basasan": 7558,
      "bakpakpan": 7559,
      "bagbugbugbo": 7560,
      "bakpekpe": 7561,
      "basita": 7562,
      "Ġemayo": 7563,
      "Ġisiko": 7564,
      "Ġisikpo": 7565,
      "Ġisigwa": 7566,
      "Ġisiren": 7567,
      "Ġisiweek": 7568,
      "Ġisifieek": 7569,
      "Ġisifit": 7570,
      "Ġisifuk": 7571,
      "Ġisikitumu": 7572,
      "Ġisigbugbo": 7573,
      "Ġisisisik": 7574,
      "Ġisijomo": 7575,
      "Ġisigen": 7576,
      "Ġisifuuk": 7577,
      "Ġisisook": 7578,
      "Ġisichimi": 7579,
      "tolomi": 7580,
      "bani": 7581,
      "banbe": 7582,
      "tiko": 7583,
      "tito": 7584,
      "tibata": 7585,
      "Ġkanyinyi": 7586,
      "Ġubot": 7587,
      "fis": 7588,
      "fimo": 7589,
      "Ġenegwu": 7590,
      "Ġmiti": 7591,
      "Ġmikaan": 7592,
      "Ġmija": 7593,
      "Ġmijaan": 7594,
      "Ġmijamin": 7595,
      "Ġmiai": 7596,
      "Ġmitere": 7597,
      "Ġejim": 7598,
      "Ġejiri": 7599,
      "bubo": 7600,
      "buyen": 7601,
      "Ġowulu": 7602,
      "rado": 7603,
      "solomo": 7604,
      "Ġkili": 7605,
      "Ġkibem": 7606,
      "Ġemian": 7607,
      "unukp": 7608,
      "Ġijojop": 7609,
      "Ġsiti": 7610,
      "Ġsifi": 7611,
      "Ġsilem": 7612,
      "Ġsina": 7613,
      "Ġsipen": 7614,
      "Ġoninyi": 7615,
      "Ġonyam": 7616,
      "kpomo": 7617,
      "kpowo": 7618,
      "kpoben": 7619,
      "kpochit": 7620,
      "kpowuuk": 7621,
      "kpolibi": 7622,
      "kpofuk": 7623,
      "kporaka": 7624,
      "kpotoon": 7625,
      "kpojijaka": 7626,
      "kpokukup": 7627,
      "kpojibi": 7628,
      "kposaba": 7629,
      "kpofiin": 7630,
      "kpojijit": 7631,
      "kposak": 7632,
      "kponwene": 7633,
      "kpoboki": 7634,
      "letai": 7635,
      "mat": 7636,
      "maris": 7637,
      "Ġkpu": 7638,
      "akwut": 7639,
      "Ġeyiya": 7640,
      "Ġikiwa": 7641,
      "Ġikite": 7642,
      "Ġikiban": 7643,
      "Ġikigba": 7644,
      "Ġikibum": 7645,
      "Ġikiwele": 7646,
      "Ġikitan": 7647,
      "Ġikigbana": 7648,
      "Ġikiyat": 7649,
      "Ġikichili": 7650,
      "Ġikisaba": 7651,
      "Ġikibak": 7652,
      "Ġikikwek": 7653,
      "Ġikigwak": 7654,
      "Ġikileke": 7655,
      "Ġikichim": 7656,
      "Ġikichiin": 7657,
      "Ġikikweek": 7658,
      "Ġikibala": 7659,
      "Ġikifiak": 7660,
      "Ġikitutun": 7661,
      "Ġikililiin": 7662,
      "Ġikitaak": 7663,
      "Ġikilileek": 7664,
      "Ġikiteek": 7665,
      "Ġikigbini": 7666,
      "Ġikitak": 7667,
      "Ġikileen": 7668,
      "Ġikiriraan": 7669,
      "ligo": 7670,
      "lilo": 7671,
      "forodi": 7672,
      "wunwan": 7673,
      "Ġikes": 7674,
      "jaben": 7675,
      "jayen": 7676,
      "Ġchibi": 7677,
      "lajo": 7678,
      "layim": 7679,
      "lalap": 7680,
      "dat": 7681,
      "daan": 7682,
      "dais": 7683,
      "Ġuwuson": 7684,
      "Ġekibene": 7685,
      "Ġekiman": 7686,
      "Ġekitip": 7687,
      "Ġekifaka": 7688,
      "Ġekinyan": 7689,
      "Ġekibem": 7690,
      "Ġekisulu": 7691,
      "Ġekisisik": 7692,
      "Ġekinen": 7693,
      "Ġekiwulu": 7694,
      "Ġekilep": 7695,
      "Ġekitaba": 7696,
      "Ġekikwak": 7697,
      "Ġekifiaan": 7698,
      "Ġekikpukpulu": 7699,
      "Ġekigbuku": 7700,
      "Ġekiteen": 7701,
      "Ġekibala": 7702,
      "Ġekililiin": 7703,
      "Ġekikpekpe": 7704,
      "Ġekirika": 7705,
      "Ġikawa": 7706,
      "Ġikawo": 7707,
      "Ġikaweek": 7708,
      "Ġikajit": 7709,
      "Ġikasun": 7710,
      "Ġikalibi": 7711,
      "Ġikabele": 7712,
      "Ġikachechieek": 7713,
      "Ġikakat": 7714,
      "Ġikagugo": 7715,
      "Ġikasasa": 7716,
      "Ġikagwak": 7717,
      "Ġikarom": 7718,
      "Ġikafiaan": 7719,
      "Ġikasak": 7720,
      "Ġikafeen": 7721,
      "Ġikaweekge": 7722,
      "kpata": 7723,
      "kpado": 7724,
      "kparie": 7725,
      "kpawuuk": 7726,
      "kpasaba": 7727,
      "kpatetele": 7728,
      "kpalap": 7729,
      "Ġinige": 7730,
      "Ġinika": 7731,
      "Ġinima": 7732,
      "Ġinigba": 7733,
      "Ġinitele": 7734,
      "Ġinikeek": 7735,
      "Ġinisisik": 7736,
      "Ġinikinyi": 7737,
      "Ġinikwo": 7738,
      "Ġinigak": 7739,
      "Ġinisaba": 7740,
      "Ġinikisi": 7741,
      "Ġinibak": 7742,
      "Ġinibieen": 7743,
      "Ġinimeen": 7744,
      "Ġinichim": 7745,
      "Ġiniken": 7746,
      "Ġinifum": 7747,
      "Ġinikido": 7748,
      "Ġinisoon": 7749,
      "Ġinimaan": 7750,
      "Ġinititen": 7751,
      "Ġuni": 7752,
      "rugwu": 7753,
      "ruwa": 7754,
      "Ġjeya": 7755,
      "sefon": 7756,
      "Ġonenika": 7757,
      "Ġonenigwa": 7758,
      "Ġoneniluk": 7759,
      "Ġonenigbaan": 7760,
      "Ġonenitibi": 7761,
      "Ġonenijaan": 7762,
      "Ġonenikat": 7763,
      "Ġonenikikeek": 7764,
      "Ġonenikwala": 7765,
      "Ġonenikijijen": 7766,
      "Ġoroon": 7767,
      "Ġorona": 7768,
      "Ġokweek": 7769,
      "Ġokeme": 7770,
      "gagat": 7771,
      "gagana": 7772,
      "Ġsara": 7773,
      "Ġsala": 7774,
      "Ġsafu": 7775,
      "Ġsadi": 7776,
      "Ġsalem": 7777,
      "Ġsayanan": 7778,
      "Ġsafira": 7779,
      "Ġibabat": 7780,
      "Ġmayat": 7781,
      "Ġmatata": 7782,
      "Ġmayim": 7783,
      "Ġmaten": 7784,
      "Ġmadai": 7785,
      "Ġjila": 7786,
      "Ġjifita": 7787,
      "tetge": 7788,
      "Ġkpedo": 7789,
      "Ġkpesibi": 7790,
      "Ġkpetip": 7791,
      "Ġkpegbaan": 7792,
      "Ġkpebon": 7793,
      "Ġkpelet": 7794,
      "Ġkpefiat": 7795,
      "Ġkpesaba": 7796,
      "Ġkpemumun": 7797,
      "Ġkpefuun": 7798,
      "Ġkpegbala": 7799,
      "Ġkpegwugwu": 7800,
      "Ġkpegegen": 7801,
      "gbagbala": 7802,
      "Ġjana": 7803,
      "Ġjak": 7804,
      "Ġokige": 7805,
      "Ġokigbo": 7806,
      "Ġokigwa": 7807,
      "Ġokirio": 7808,
      "Ġokigwo": 7809,
      "Ġokigwen": 7810,
      "Ġokitele": 7811,
      "Ġokino": 7812,
      "Ġokigwook": 7813,
      "Ġokinwo": 7814,
      "Ġokigbana": 7815,
      "Ġokifet": 7816,
      "Ġokigwat": 7817,
      "Ġokikpaka": 7818,
      "Ġokigen": 7819,
      "Ġokikweek": 7820,
      "Ġokimumana": 7821,
      "Ġokililaba": 7822,
      "Ġokigbugbut": 7823,
      "Ġechichit": 7824,
      "Ġechichili": 7825,
      "Ġebeen": 7826,
      "Ġebegwu": 7827,
      "Ġebemo": 7828,
      "Ġeberieen": 7829,
      "Ġebesan": 7830,
      "Ġeberio": 7831,
      "Ġebetele": 7832,
      "Ġebetoon": 7833,
      "Ġebebem": 7834,
      "Ġeberoon": 7835,
      "Ġebegwak": 7836,
      "Ġebejin": 7837,
      "Ġebebieen": 7838,
      "Ġebeteteen": 7839,
      "Ġkachit": 7840,
      "Ġkarek": 7841,
      "Ġkalin": 7842,
      "Ġkasia": 7843,
      "Ġkasulu": 7844,
      "Ġkakiket": 7845,
      "benan": 7846,
      "Ġjosi": 7847,
      "Ġjosa": 7848,
      "Ġjoii": 7849,
      "Ġjotibata": 7850,
      "dira": 7851,
      "Ġobolo": 7852,
      "Ġobogwa": 7853,
      "Ġobook": 7854,
      "Ġobogban": 7855,
      "Ġobomin": 7856,
      "Ġobokitumu": 7857,
      "Ġobotaka": 7858,
      "Ġobochili": 7859,
      "Ġobosaba": 7860,
      "Ġobokijeen": 7861,
      "Ġobobeme": 7862,
      "not": 7863,
      "noje": 7864,
      "nota": 7865,
      "nomun": 7866,
      "nofieek": 7867,
      "nowele": 7868,
      "chitbe": 7869,
      "Ġjulio": 7870,
      "Ġjuwari": 7871,
      "kep": 7872,
      "nim": 7873,
      "nika": 7874,
      "niki": 7875,
      "nirio": 7876,
      "niria": 7877,
      "niweek": 7878,
      "nigwook": 7879,
      "nititiin": 7880,
      "nifit": 7881,
      "niraka": 7882,
      "nigak": 7883,
      "nigwak": 7884,
      "nichichini": 7885,
      "nikido": 7886,
      "Ġdemas": 7887,
      "Ġifele": 7888,
      "Ġofifilabe": 7889,
      "Ġanaya": 7890,
      "Ġesarado": 7891,
      "Ġgalan": 7892,
      "Ġgarebu": 7893,
      "Ġbatolomi": 7894,
      "faras": 7895,
      "Ġikanene": 7896,
      "Ġikanyan": 7897,
      "Ġikanyige": 7898,
      "Ġerorom": 7899,
      "Ġirama": 7900,
      "Ġirasito": 7901,
      "kpanyi": 7902,
      "miya": 7903,
      "miti": 7904,
      "pita": 7905,
      "met": 7906,
      "Ġimanuwen": 7907,
      "Ġjaan": 7908,
      "Ġjasa": 7909,
      "Ġjaban": 7910,
      "Ġjadu": 7911,
      "Ġjariya": 7912,
      "Ġjakisis": 7913,
      "Ġjaribu": 7914,
      "Ġison": 7915,
      "fefet": 7916,
      "Ġosak": 7917,
      "Ġosaya": 7918,
      "Ġogogon": 7919,
      "Ġiboje": 7920,
      "Ġibobot": 7921,
      "Ġibotap": 7922,
      "Ġiboraka": 7923,
      "Ġenenika": 7924,
      "Ġeneniwo": 7925,
      "Ġenenikaan": 7926,
      "Ġenenirio": 7927,
      "Ġenenigba": 7928,
      "Ġeneniluk": 7929,
      "Ġenenitele": 7930,
      "Ġenenichieek": 7931,
      "Ġenenitim": 7932,
      "Ġeneniyik": 7933,
      "Ġeneniteen": 7934,
      "Ġenenimaan": 7935,
      "âĢĻ?âĢĿ": 7936,
      "Ġininen": 7937,
      "Ġinineen": 7938,
      "Ġininwo": 7939,
      "Ġininyam": 7940,
      "Ġininimi": 7941,
      "Ġmkpulube": 7942,
      "Ġilalaak": 7943,
      "Ġilalap": 7944,
      "Ġalabasita": 7945,
      "nenido": 7946,
      "nenimun": 7947,
      "neniria": 7948,
      "nenitap": 7949,
      "nenigwook": 7950,
      "nenisun": 7951,
      "nenijeen": 7952,
      "nenikisa": 7953,
      "nenigbana": 7954,
      "nenigwuun": 7955,
      "nenileke": 7956,
      "nenitolek": 7957,
      "Ġarodi": 7958,
      "Ġaroset": 7959,
      "Ġekabo": 7960,
      "Ġekagwu": 7961,
      "Ġekawo": 7962,
      "Ġekakup": 7963,
      "Ġekagwo": 7964,
      "Ġekaben": 7965,
      "Ġekatele": 7966,
      "Ġekakiro": 7967,
      "Ġekagbaan": 7968,
      "Ġekachaka": 7969,
      "Ġekasaba": 7970,
      "Ġekakpe": 7971,
      "Ġekamumun": 7972,
      "Ġekagege": 7973,
      "Ġekatetge": 7974,
      "Ġgoyim": 7975,
      "Ġgolan": 7976,
      "Ġigbagba": 7977,
      "gbut": 7978,
      "Ġfikolu": 7979,
      "ntio": 7980,
      "Ġpuru": 7981,
      "Ġarasa": 7982,
      "Ġaradi": 7983,
      "gio": 7984,
      "Ġokwakwala": 7985,
      "Ġochichi": 7986,
      "Ġokpok": 7987,
      "init": 7988,
      "Ġefufuk": 7989,
      "fukge": 7990,
      "Ġnyiyalabe": 7991,
      "Ġekeche": 7992,
      "Ġeketim": 7993,
      "Ġeketoon": 7994,
      "Ġekechili": 7995,
      "Ġekejijen": 7996,
      "karep": 7997,
      "karerieen": 7998,
      "Ġnawum": 7999,
      "Ġebekinu": 8000,
      "Ġebekini": 8001,
      "Ġokuko": 8002,
      "ninama": 8003,
      "Ġineniko": 8004,
      "Ġinenikpo": 8005,
      "Ġinenigo": 8006,
      "Ġinenigban": 8007,
      "Ġinenisik": 8008,
      "Ġinenilook": 8009,
      "Ġinenigwak": 8010,
      "Ġinenichichini": 8011,
      "kisasan": 8012,
      "Ġilom": 8013,
      "Ġilobo": 8014,
      "Ġiloon": 8015,
      "Ġeliin": 8016,
      "Ġelipa": 8017,
      "Ġelililaba": 8018,
      "Ġelidadi": 8019,
      "Ġobebem": 8020,
      "Ġobebieen": 8021,
      "Ġkpebesi": 8022,
      "Ġkpebewo": 8023,
      "Ġkpebedo": 8024,
      "Ġkpebeluk": 8025,
      "Ġkpebeweek": 8026,
      "Ġkpebetim": 8027,
      "Ġkpebejibi": 8028,
      "Ġkpebejeje": 8029,
      "Ġkpebefuun": 8030,
      "Ġkpojo": 8031,
      "Ġkpokpo": 8032,
      "Ġkpolo": 8033,
      "Ġkpotet": 8034,
      "Ġisikino": 8035,
      "Ġisikigbeme": 8036,
      "Ġgilo": 8037,
      "Ġogegen": 8038,
      "kakibo": 8039,
      "kakikwu": 8040,
      "kakiluk": 8041,
      "kakiweek": 8042,
      "kakitap": 8043,
      "kakikan": 8044,
      "kakibele": 8045,
      "kakitoon": 8046,
      "kakikeek": 8047,
      "kakitotop": 8048,
      "kakiniin": 8049,
      "gubu": 8050,
      "Ġselomo": 8051,
      "Ġsesai": 8052,
      "Ġseredi": 8053,
      "Ġseyera": 8054,
      "Ġsebuyen": 8055,
      "Ġsegubu": 8056,
      "Ġebekibo": 8057,
      "Ġebekitet": 8058,
      "Ġebekigban": 8059,
      "Ġebekifieek": 8060,
      "Ġebekiriaak": 8061,
      "Ġebekibem": 8062,
      "Ġebekiwop": 8063,
      "Ġebekichimi": 8064,
      "Ġmbaje": 8065,
      "Ġmbafo": 8066,
      "Ġmbafieek": 8067,
      "Ġmbasulu": 8068,
      "fiatge": 8069,
      "Ġichichim": 8070,
      "Ġebumbe": 8071,
      "Ġabidi": 8072,
      "Ġabiyen": 8073,
      "Ġabidan": 8074,
      "Ġabisuru": 8075,
      "Ġabinowam": 8076,
      "Ġasawo": 8077,
      "Ġekekikup": 8078,
      "Ġekekitap": 8079,
      "Ġekekikpulu": 8080,
      "Ġekekiriaak": 8081,
      "Ġekekikwak": 8082,
      "Ġekekidimi": 8083,
      "Ġekekililiin": 8084,
      "Ġbenais": 8085,
      "Ġnkigo": 8086,
      "Ġnkiria": 8087,
      "Ġnkikan": 8088,
      "Ġnkinwo": 8089,
      "Ġnkijijen": 8090,
      "Ġnkisisaak": 8091,
      "Ġnefegi": 8092,
      "Ġneyariya": 8093,
      "Ġikikep": 8094,
      "yenyieen": 8095,
      "kwat": 8096,
      "jakbe": 8097,
      "Ġiwowop": 8098,
      "Ġetolek": 8099,
      "duduku": 8100,
      "Ġilim": 8101,
      "Ġililo": 8102,
      "Ġkpebekpo": 8103,
      "Ġekpekpe": 8104,
      "Ġokaro": 8105,
      "Ġokakwu": 8106,
      "Ġokarie": 8107,
      "Ġkpekigwu": 8108,
      "Ġkpekikup": 8109,
      "Ġkpekitet": 8110,
      "Ġkpekigwo": 8111,
      "Ġkpekitele": 8112,
      "Ġkpekigbaan": 8113,
      "Ġkpekigobo": 8114,
      "Ġifiak": 8115,
      "Ġifiik": 8116,
      "Ġifiala": 8117,
      "nenre": 8118,
      "nensa": 8119,
      "nenene": 8120,
      "nenluk": 8121,
      "nenkana": 8122,
      "nenino": 8123,
      "nenken": 8124,
      "Ġokekikana": 8125,
      "Ġokekijeen": 8126,
      "Ġokekilomo": 8127,
      "Ġokekirep": 8128,
      "Ġokekireke": 8129,
      "Ġokekikpe": 8130,
      "Ġokekisak": 8131,
      "Ġokekimumana": 8132,
      "Ġnkwukwulu": 8133,
      "Ġegobe": 8134,
      "Ġbelu": 8135,
      "Ġberaka": 8136,
      "Ġberedi": 8137,
      "Ġbeyera": 8138,
      "Ġbeseri": 8139,
      "Ġosikwu": 8140,
      "Ġosiyaka": 8141,
      "Ġosikan": 8142,
      "Ġkpekinyi": 8143,
      "Ġkpekinwo": 8144,
      "Ġnjijit": 8145,
      "Ġasina": 8146,
      "Ġasiyu": 8147,
      "Ġikakeek": 8148,
      "Ġntemebe": 8149,
      "Ġmkpukpulu": 8150,
      "Ġikinya": 8151,
      "Ġikineen": 8152,
      "Ġikinwunwan": 8153,
      "kitotoon": 8154,
      "kinyinyi": 8155,
      "Ġjeriya": 8156,
      "Ġebolobe": 8157,
      "Ġkore": 8158,
      "tataak": 8159,
      "sasaba": 8160,
      "owuwa": 8161,
      "kisisi": 8162,
      "pas": 8163,
      "pata": 8164,
      "pago": 8165,
      "Ġtaso": 8166,
      "Ġnnenifo": 8167,
      "Ġnnenigwen": 8168,
      "Ġnneniben": 8169,
      "Ġtori": 8170,
      "Ġtobija": 8171,
      "Ġmkpikpi": 8172,
      "jujujuk": 8173,
      "Ġjeyoseba": 8174,
      "Ġpaseya": 8175,
      "Ġikasisi": 8176,
      "Ġnraria": 8177,
      "Ġnrariaak": 8178,
      "Ġiwaak": 8179,
      "Ġiwawat": 8180,
      "Ġikpukpukpo": 8181,
      "Ġpelaya": 8182,
      "Ġani": 8183,
      "Ġmgbuku": 8184,
      "ekpukpo": 8185,
      "Ġayisama": 8186,
      "Ġonigwu": 8187,
      "Ġonitumu": 8188,
      "Ġonirio": 8189,
      "Ġonitet": 8190,
      "Ġonibebene": 8191,
      "Ġifufuun": 8192,
      "Ġifufuuk": 8193,
      "Ġegwurugwu": 8194,
      "kwekween": 8195,
      "Ġagoyim": 8196,
      "Ġnsisi": 8197,
      "Ġnsinan": 8198,
      "Ġnsisaak": 8199,
      "lililaba": 8200,
      "Ġigwogwook": 8201,
      "Ġekitobo": 8202,
      "Ġekitoto": 8203,
      "Ġdimo": 8204,
      "Ġdibila": 8205,
      "Ġiyayaak": 8206,
      "Ġogwugwuku": 8207,
      "tababe": 8208,
      "Ġafian": 8209,
      "Ġnoba": 8210,
      "kekije": 8211,
      "kekitap": 8212,
      "Ġtana": 8213,
      "Ġrayabu": 8214,
      "Ġenirio": 8215,
      "Ġeniluk": 8216,
      "Ġeniman": 8217,
      "ikatele": 8218,
      "Ġajajiya": 8219,
      "iyakwut": 8220,
      "Ġikwekween": 8221,
      "Ġonininiin": 8222,
      "Ġrisa": 8223,
      "Ġlayai": 8224,
      "sisaakbe": 8225,
      "Ġoneninye": 8226,
      "Ġoneninaan": 8227,
      "Ġebubum": 8228,
      "Ġigege": 8229,
      "kinanan": 8230,
      "gbukube": 8231,
      "Ġechichibi": 8232,
      "Ġechichiin": 8233,
      "Ġichocho": 8234,
      "Ġikekito": 8235,
      "Ġikekisun": 8236,
      "Ġsimiri": 8237,
      "Ġibenigo": 8238,
      "Ġibenigwa": 8239,
      "Ġibenitap": 8240,
      "Ġnkasi": 8241,
      "Ġnkato": 8242,
      "Ġnkaweekge": 8243,
      "Ġnkafiatge": 8244,
      "kabokwu": 8245,
      "kabomun": 8246,
      "kabonan": 8247,
      "kiseme": 8248,
      "Ġteba": 8249,
      "Ġteeteek": 8250,
      "Ġjekamiya": 8251,
      "Ġsubayen": 8252,
      "Ġkpenyan": 8253,
      "kensa": 8254,
      "kenlook": 8255,
      "Ġowola": 8256,
      "Ġowoliba": 8257,
      "juukbe": 8258,
      "bekweek": 8259,
      "Ġobaakbe": 8260,
      "bonire": 8261,
      "bonisa": 8262,
      "bonichili": 8263,
      "Ġsuni": 8264,
      "Ġegbama": 8265,
      "Ġsemariya": 8266,
      "kimalek": 8267,
      "Ġekekini": 8268,
      "Ġekekinan": 8269,
      "jayabu": 8270,
      "Ġlibiya": 8271,
      "Ġaboru": 8272,
      "Ġebebeen": 8273,
      "Ġitien": 8274,
      "kekino": 8275,
      "Ġbuni": 8276,
      "Ġananeli": 8277,
      "Ġobubatbe": 8278,
      "Ġisinikana": 8279,
      "kembe": 8280,
      "Ġenyebe": 8281,
      "Ġibonije": 8282,
      "Ġibonigwa": 8283,
      "Ġibonitet": 8284,
      "Ġseyarayim": 8285,
      "Ġinikigwa": 8286,
      "tembe": 8287,
      "Ġogbagbaan": 8288,
      "Ġenyanyan": 8289,
      "Ġoboniraka": 8290,
      "Ġramat": 8291,
      "Ġkpomore": 8292,
      "Ġkpomoyaka": 8293,
      "Ġadoniram": 8294,
      "Ġadonisedek": 8295,
      "bokigbo": 8296,
      "bokinin": 8297,
      "Ġirariaan": 8298,
      "Ġomaan": 8299,
      "Ġololook": 8300,
      "Ġelaka": 8301,
      "Ġelapbe": 8302,
      "Ġoduduku": 8303,
      "fukube": 8304,
      "nyanabe": 8305,
      "Ġebenije": 8306,
      "Ġebenija": 8307,
      "Ġntiko": 8308,
      "Ġekanin": 8309,
      "Ġusam": 8310,
      "Ġnneninan": 8311,
      "Ġbejai": 8312,
      "Ġewuwumbe": 8313,
      "Ġocheche": 8314,
      "kabakpo": 8315,
      "kabakpan": 8316,
      "kpoborie": 8317,
      "Ġikatoge": 8318,
      "Ġakarabim": 8319,
      "Ġerariaan": 8320,
      "Ġjeredi": 8321,
      "Ġjeretan": 8322,
      "kibubat": 8323,
      "chichiki": 8324,
      "Ġtiminat": 8325,
      "Ġofafiala": 8326,
      "Ġseminit": 8327,
      "Ġakwana": 8328,
      "Ġadima": 8329,
      "Ġadidi": 8330,
      "Ġkpenyinyi": 8331,
      "Ġodidimi": 8332,
      "Ġasuwan": 8333,
      "Ġjayalen": 8334,
      "Ġjayajania": 8335,
      "mfiik": 8336,
      "Ġibubum": 8337,
      "Ġebanbe": 8338,
      "Ġkpemiin": 8339,
      "Ġkpebekiro": 8340,
      "Ġikpekpebe": 8341,
      "Ġsobabu": 8342,
      "Ġasenat": 8343,
      "Ġnnibe": 8344,
      "Ġludu": 8345,
      "Ġakisafu": 8346,
      "Ġisiberiaak": 8347,
      "Ġkpamaro": 8348,
      "Ġkpamario": 8349,
      "Ġkpamasulu": 8350,
      "Ġgine": 8351,
      "Ġekenwo": 8352,
      "Ġpisidia": 8353,
      "Ġbilidadi": 8354,
      "Ġbetifegi": 8355,
      "Ġejook": 8356,
      "Ġkusan": 8357,
      "Ġikatapge": 8358,
      "nonin": 8359,
      "Ġitutobo": 8360,
      "Ġederi": 8361,
      "Ġariopago": 8362,
      "Ġayook": 8363,
      "Ġeliopolis": 8364,
      "Ġajirien": 8365,
      "Ġalikisendira": 8366,
      "Ġmeyisa": 8367,
      "Ġnkekikpo": 8368,
      "Ġagit": 8369,
      "Ġsamiga": 8370,
      "Ġntelebe": 8371,
      "Ġtaiberia": 8372,
      "Ġetababe": 8373,
      "Ġamutali": 8374,
      "kitimi": 8375,
      "Ġgedera": 8376,
      "Ġikasibige": 8377,
      "Ġikanuge": 8378,
      "Ġjafiya": 8379,
      "Ġekekinunuun": 8380,
      "atiko": 8381,
      "Ġtibini": 8382,
      "Ġejakbe": 8383,
      "Ġepaforodi": 8384,
      "Ġepafaras": 8385,
      "Ġminye": 8386,
      "Ġochocho": 8387,
      "Ġaruma": 8388,
      "kikpukput": 8389,
      "inenitumu": 8390,
      "Ġsareja": 8391,
      "Ġsareseri": 8392,
      "Ġmayarai": 8393,
      "Ġekafiatge": 8394,
      "Ġibeninween": 8395,
      "Ġtalimai": 8396,
      "Ġtalimayi": 8397,
      "ilaisia": 8398,
      "nokana": 8399,
      "Ġigagan": 8400,
      "Ġikachitge": 8401,
      "Ġekwekweek": 8402,
      "Ġsofari": 8403,
      "Ġkpebekpaan": 8404,
      "Ġasimon": 8405,
      "Ġparadais": 8406,
      "Ġaneri": 8407,
      "Ġwewe": 8408,
      "Ġtatenai": 8409,
      "Ġochepbe": 8410,
      "Ġolakbe": 8411,
      "Ġonenebe": 8412,
      "Ġsabetai": 8413,
      "Ġsaliman": 8414,
      "Ġijikien": 8415,
      "Ġkarasolet": 8416,
      "Ġlisias": 8417,
      "Ġadaramelek": 8418,
      "Ġrayama": 8419,
      "pelit": 8420,
      "Ġfurum": 8421,
      "Ġganim": 8422,
      "Ġodedi": 8423,
      "Ġmeyetaben": 8424,
      "Ġmesejaben": 8425,
      "Ġkonaniya": 8426,
      "bojenai": 8427,
      "Ġasikenaji": 8428,
      "Ġnkarege": 8429,
      "Ġebiyasafu": 8430,
      "Ġmiteredat": 8431,
      "Ġkiliyo": 8432,
      "Ġsinamo": 8433,
      "Ġoronayim": 8434,
      "Ġsadis": 8435,
      "Ġmatenai": 8436,
      "Ġkarekemis": 8437,
      "Ġjaduwa": 8438,
      "Ġelipayan": 8439,
      "Ġselomot": 8440,
      "nenkenwuwum": 8441,
      "Ġasiyuru": 8442,
      "Ġayisamak": 8443,
      "Ġakwanakwa": 8444,
      "Ġgineto": 8445,
      "Ġtaiberias": 8446,
      "Ġepaforodito": 8447,
      "ase": 8448,
      "amin": 8449,
      "ami": 8450,
      "agwut": 8451,
      "abusolo": 8452,
      "apolis": 8453,
      "ajeba": 8454,
      "dunu": 8455,
      "eto": 8456,
      "elo": 8457,
      "eru": 8458,
      "egbe": 8459,
      "ewele": 8460,
      "eret": 8461,
      "ejeri": 8462,
      "esip": 8463,
      "esita": 8464,
      "fana": 8465,
      "feek": 8466,
      "fak": 8467,
      "feme": 8468,
      "ikp": 8469,
      "isan": 8470,
      "irio": 8471,
      "ibebe": 8472,
      "ijejeen": 8473,
      "kene": 8474,
      "kekpo": 8475,
      "mkp": 8476,
      "mfo": 8477,
      "mbeek": 8478,
      "mmumun": 8479,
      "nt": 8480,
      "nsa": 8481,
      "ntumu": 8482,
      "ndo": 8483,
      "nria": 8484,
      "ntitiin": 8485,
      "nlom": 8486,
      "nnaan": 8487,
      "nwenween": 8488,
      "nneninyi": 8489,
      "njijin": 8490,
      "op": 8491,
      "oko": 8492,
      "obu": 8493,
      "ofo": 8494,
      "okpu": 8495,
      "otito": 8496,
      "pekpe": 8497,
      "penaji": 8498,
      "rana": 8499,
      "sene": 8500,
      "teni": 8501,
      "teke": 8502,
      "tini": 8503,
      "tema": 8504,
      "ufi": 8505,
      "ucha": 8506,
      "uja": 8507,
      "uman": 8508,
      "umin": 8509,
      "uuruk": 8510,
      "ujuja": 8511,
      "wanan": 8512,
      "yuni": 8513,
      "Ġtiti": 8514,
      "Ġgbe": 8515,
      "Ġteme": 8516,
      "Ġwut": 8517,
      "Ġwulu": 8518,
      "Ġfuku": 8519,
      "Ġgbugbut": 8520,
      "Ġiyo": 8521,
      "Ġiyen": 8522,
      "Ġidu": 8523,
      "Ġilak": 8524,
      "Ġiyim": 8525,
      "Ġibek": 8526,
      "Ġilen": 8527,
      "Ġimiri": 8528,
      "Ġilululuk": 8529,
      "Ġidide": 8530,
      "Ġijujuk": 8531,
      "Ġiwuwuwo": 8532,
      "Ġidunu": 8533,
      "Ġera": 8534,
      "Ġelu": 8535,
      "Ġerek": 8536,
      "Ġedun": 8537,
      "Ġetiti": 8538,
      "Ġelem": 8539,
      "Ġegbana": 8540,
      "Ġesen": 8541,
      "Ġewut": 8542,
      "Ġejomo": 8543,
      "Ġegen": 8544,
      "Ġeleke": 8545,
      "Ġejojot": 8546,
      "Ġetatana": 8547,
      "Ġedimi": 8548,
      "Ġetitibi": 8549,
      "Ġesusulu": 8550,
      "Ġegbugbugbo": 8551,
      "Ġeseen": 8552,
      "Ġetututuku": 8553,
      "Ġekpukpukpuku": 8554,
      "Ġejajak": 8555,
      "Ġejujuuk": 8556,
      "Ġefeek": 8557,
      "Ġmwele": 8558,
      "Ġmwop": 8559,
      "Ġmfiin": 8560,
      "Ġmwuwuuk": 8561,
      "Ġmine": 8562,
      "ÌĦ),": 8563,
      "ÌĦ).": 8564,
      "Ġome": 8565,
      "Ġowele": 8566,
      "Ġokare": 8567,
      "Ġosuuk": 8568,
      "Ġofaka": 8569,
      "Ġotat": 8570,
      "Ġoteme": 8571,
      "Ġolaak": 8572,
      "Ġososo": 8573,
      "Ġolep": 8574,
      "Ġoyiyala": 8575,
      "Ġotatana": 8576,
      "Ġochacha": 8577,
      "Ġoyok": 8578,
      "Ġoweweek": 8579,
      "Ġomega": 8580,
      "Ġofafiat": 8581,
      "Ġobaya": 8582,
      "Ġolibibe": 8583,
      "Ġofele": 8584,
      "Ġoyadi": 8585,
      "Ġodeke": 8586,
      "Ġojujuuk": 8587,
      "Ġokpukpukube": 8588,
      "Ġomemeen": 8589,
      "Ġoyiyalabe": 8590,
      "Ġoyikbe": 8591,
      "Ġojakbe": 8592,
      "Ġofukube": 8593,
      "Ġmeso": 8594,
      "Ġmele": 8595,
      "Ġmerio": 8596,
      "Ġmekpan": 8597,
      "Ġmekitumu": 8598,
      "Ġmesabe": 8599,
      "Ġmedan": 8600,
      "Ġmekikpo": 8601,
      "Ġmerom": 8602,
      "Ġmekijeen": 8603,
      "Ġmedadi": 8604,
      "Ġmeyuni": 8605,
      "anda": 8606,
      "ananayas": 8607,
      "Ġkwe": 8608,
      "Ġkwak": 8609,
      "wutbe": 8610,
      "eken": 8611,
      "ekeek": 8612,
      "Ġucha": 8613,
      "Ġuluk": 8614,
      "Ġufit": 8615,
      "Ġugbala": 8616,
      "Ġutai": 8617,
      "Ġufaji": 8618,
      "Ġufam": 8619,
      "Ġupim": 8620,
      "yin": 8621,
      "yiki": 8622,
      "boyo": 8623,
      "borieen": 8624,
      "boria": 8625,
      "boweek": 8626,
      "botele": 8627,
      "bono": 8628,
      "bojit": 8629,
      "bochieek": 8630,
      "botim": 8631,
      "bona": 8632,
      "boraka": 8633,
      "bobele": 8634,
      "bokinyi": 8635,
      "bokwo": 8636,
      "bogugo": 8637,
      "bosaba": 8638,
      "bokisi": 8639,
      "bomimin": 8640,
      "bokitap": 8641,
      "botatap": 8642,
      "boraraka": 8643,
      "boyayaka": 8644,
      "bokisibi": 8645,
      "bochim": 8646,
      "bokitaan": 8647,
      "bobabia": 8648,
      "bokirie": 8649,
      "bojijijaka": 8650,
      "botitibi": 8651,
      "bododo": 8652,
      "bochachiaak": 8653,
      "bogwagwak": 8654,
      "botataan": 8655,
      "bochichili": 8656,
      "bokakat": 8657,
      "bosasak": 8658,
      "bojajak": 8659,
      "bokilolomo": 8660,
      "Ġindia": 8661,
      "bera": 8662,
      "bedo": 8663,
      "bebieen": 8664,
      "beset": 8665,
      "bebeme": 8666,
      "bebeke": 8667,
      "berat": 8668,
      "bejek": 8669,
      "biri": 8670,
      "binen": 8671,
      "bijen": 8672,
      "bisam": 8673,
      "Ġaki": 8674,
      "Ġaban": 8675,
      "Ġapi": 8676,
      "Ġapa": 8677,
      "Ġayu": 8678,
      "Ġaboro": 8679,
      "Ġalak": 8680,
      "Ġakim": 8681,
      "Ġakimo": 8682,
      "Ġasuk": 8683,
      "Ġamuwen": 8684,
      "Ġatin": 8685,
      "Ġikuko": 8686,
      "reya": 8687,
      "refo": 8688,
      "rela": 8689,
      "rebin": 8690,
      "sien": 8691,
      "siro": 8692,
      "siso": 8693,
      "sirek": 8694,
      "simai": 8695,
      "siteni": 8696,
      "tuto": 8697,
      "Ġnwaan": 8698,
      "Ġnrieen": 8699,
      "Ġnrie": 8700,
      "Ġngwook": 8701,
      "Ġnrek": 8702,
      "Ġntat": 8703,
      "Ġntutumu": 8704,
      "Ġnchechieek": 8705,
      "Ġnween": 8706,
      "Ġnket": 8707,
      "Ġngele": 8708,
      "Ġnluluk": 8709,
      "Ġnlep": 8710,
      "Ġnchep": 8711,
      "Ġngwak": 8712,
      "Ġnleke": 8713,
      "Ġnkekeke": 8714,
      "Ġnsibibe": 8715,
      "Ġnkanabe": 8716,
      "Ġnkororok": 8717,
      "Ġnkween": 8718,
      "Ġnkanyi": 8719,
      "Ġninin": 8720,
      "Ġnyakabe": 8721,
      "Ġntataba": 8722,
      "Ġnkanu": 8723,
      "Ġnnisa": 8724,
      "Ġndobe": 8725,
      "Ġnchilibe": 8726,
      "Ġnchebe": 8727,
      "yaya": 8728,
      "yayak": 8729,
      "jijim": 8730,
      "Ġemek": 8731,
      "Ġemumu": 8732,
      "ÌĤ!": 8733,
      "wai": 8734,
      "Ġenwaan": 8735,
      "Ġendo": 8736,
      "Ġeneke": 8737,
      "Ġenaan": 8738,
      "Ġeninu": 8739,
      "Ġenini": 8740,
      "Ġenekpe": 8741,
      "gem": 8742,
      "gelim": 8743,
      "jeek": 8744,
      "jefu": 8745,
      "Ġkero": 8746,
      "Ġkeru": 8747,
      "kas": 8748,
      "kacha": 8749,
      "kagba": 8750,
      "kagwook": 8751,
      "kake": 8752,
      "kadun": 8753,
      "kasun": 8754,
      "kakwukwu": 8755,
      "katip": 8756,
      "kawele": 8757,
      "kalibi": 8758,
      "karaka": 8759,
      "kasuuk": 8760,
      "kataan": 8761,
      "kakeke": 8762,
      "kagbugbo": 8763,
      "kajibi": 8764,
      "katbe": 8765,
      "kakwo": 8766,
      "kasasa": 8767,
      "kagele": 8768,
      "karom": 8769,
      "kagbala": 8770,
      "kataba": 8771,
      "katetele": 8772,
      "kachat": 8773,
      "katatap": 8774,
      "kakeme": 8775,
      "kaboko": 8776,
      "kachachak": 8777,
      "kasisiki": 8778,
      "kasasan": 8779,
      "katoto": 8780,
      "kalobo": 8781,
      "katotoon": 8782,
      "kakala": 8783,
      "kagwagwa": 8784,
      "kacheche": 8785,
      "kakwakwala": 8786,
      "kakwekween": 8787,
      "mus": 8788,
      "mumian": 8789,
      "kia": 8790,
      "kiyi": 8791,
      "kite": 8792,
      "kira": 8793,
      "kiman": 8794,
      "kifit": 8795,
      "kisuuk": 8796,
      "kijaan": 8797,
      "kigbugbo": 8798,
      "kikwa": 8799,
      "kifet": 8800,
      "kigele": 8801,
      "kijomo": 8802,
      "kichep": 8803,
      "kikwakwaan": 8804,
      "kifiin": 8805,
      "kijojot": 8806,
      "kichacha": 8807,
      "kijuuk": 8808,
      "kibabia": 8809,
      "kibala": 8810,
      "kifon": 8811,
      "kininin": 8812,
      "kidido": 8813,
      "kitana": 8814,
      "kitutun": 8815,
      "kidimi": 8816,
      "kigwugwuun": 8817,
      "kijijijaka": 8818,
      "kibaan": 8819,
      "kiyayat": 8820,
      "kigbugbuku": 8821,
      "kititibi": 8822,
      "kiwuwo": 8823,
      "kigwugwu": 8824,
      "kichichit": 8825,
      "kichibi": 8826,
      "kiwewele": 8827,
      "kijat": 8828,
      "kichichili": 8829,
      "kinitap": 8830,
      "kikpekpe": 8831,
      "kigbugbut": 8832,
      "kifufuk": 8833,
      "kikwukwulu": 8834,
      "kiyiyiyala": 8835,
      "kijajat": 8836,
      "kifafiaan": 8837,
      "kididen": 8838,
      "kigiga": 8839,
      "kiyiyeek": 8840,
      "kidedek": 8841,
      "kiseseme": 8842,
      "kigagana": 8843,
      "kikene": 8844,
      "kosi": 8845,
      "kosa": 8846,
      "komo": 8847,
      "kokpo": 8848,
      "koon": 8849,
      "kotap": 8850,
      "kosun": 8851,
      "risa": 8852,
      "rijit": 8853,
      "rinya": 8854,
      "riyen": 8855,
      "rijia": 8856,
      "rianda": 8857,
      "saro": 8858,
      "inene": 8859,
      "inunu": 8860,
      "inat": 8861,
      "kum": 8862,
      "kubo": 8863,
      "kubuk": 8864,
      "Ġyas": 8865,
      "Ġyarak": 8866,
      "emen": 8867,
      "emge": 8868,
      "chichibi": 8869,
      "Ġgeteri": 8870,
      "Ġibeto": 8871,
      "Ġibetim": 8872,
      "Ġibebeek": 8873,
      "Ġibelam": 8874,
      "baje": 8875,
      "baka": 8876,
      "bamo": 8877,
      "bakpo": 8878,
      "bakwu": 8879,
      "baria": 8880,
      "bame": 8881,
      "babilo": 8882,
      "bakpe": 8883,
      "babat": 8884,
      "bayayaka": 8885,
      "babala": 8886,
      "babaan": 8887,
      "basusulu": 8888,
      "balelep": 8889,
      "jona": 8890,
      "josefu": 8891,
      "Ġemama": 8892,
      "Ġisip": 8893,
      "Ġisika": 8894,
      "Ġisiba": 8895,
      "Ġisimo": 8896,
      "Ġisirieen": 8897,
      "Ġisikpa": 8898,
      "Ġisigwen": 8899,
      "Ġisitele": 8900,
      "Ġisichit": 8901,
      "Ġisigwook": 8902,
      "Ġisichieek": 8903,
      "Ġisimin": 8904,
      "Ġisirere": 8905,
      "Ġisikpan": 8906,
      "Ġisiriaak": 8907,
      "Ġisilibi": 8908,
      "Ġisigbaan": 8909,
      "Ġisichak": 8910,
      "Ġisitibi": 8911,
      "Ġisijot": 8912,
      "Ġisitaka": 8913,
      "Ġisijijaka": 8914,
      "Ġisirep": 8915,
      "Ġisiik": 8916,
      "Ġisilaak": 8917,
      "Ġisigwuun": 8918,
      "Ġisinye": 8919,
      "Ġisikpe": 8920,
      "Ġisiroon": 8921,
      "Ġisibak": 8922,
      "Ġisimaya": 8923,
      "Ġisitaba": 8924,
      "Ġisichichini": 8925,
      "tima": 8926,
      "Ġkanan": 8927,
      "Ġkanyi": 8928,
      "Ġkanin": 8929,
      "Ġkaneli": 8930,
      "fip": 8931,
      "fisa": 8932,
      "fififila": 8933,
      "Ġenebe": 8934,
      "Ġenebot": 8935,
      "Ġenefo": 8936,
      "Ġenerio": 8937,
      "Ġeneria": 8938,
      "Ġeneche": 8939,
      "Ġeneweek": 8940,
      "Ġenegwen": 8941,
      "Ġenegwook": 8942,
      "Ġenefuk": 8943,
      "Ġenetoon": 8944,
      "Ġenelook": 8945,
      "Ġeneyik": 8946,
      "chachiaan": 8947,
      "Ġenyinya": 8948,
      "Ġmiwa": 8949,
      "Ġmikup": 8950,
      "Ġmido": 8951,
      "Ġmifieek": 8952,
      "Ġmikin": 8953,
      "Ġmikime": 8954,
      "Ġmibisa": 8955,
      "Ġmibisam": 8956,
      "Ġmikijaan": 8957,
      "Ġejijijen": 8958,
      "Ġejinbe": 8959,
      "bulo": 8960,
      "bubut": 8961,
      "bubaka": 8962,
      "Ġirerep": 8963,
      "Ġowuwuwum": 8964,
      "Ġowuwuwo": 8965,
      "Ġowulube": 8966,
      "rafen": 8967,
      "Ġotututuun": 8968,
      "Ġkikaan": 8969,
      "Ġkirie": 8970,
      "Ġkikpulu": 8971,
      "Ġkigban": 8972,
      "Ġkikeek": 8973,
      "Ġkirisi": 8974,
      "Ġkikween": 8975,
      "Ġijon": 8976,
      "ÌĦ.]": 8977,
      "Ġsik": 8978,
      "Ġsira": 8979,
      "Ġsima": 8980,
      "Ġsirio": 8981,
      "Ġsisik": 8982,
      "Ġsiletai": 8983,
      "Ġsisimai": 8984,
      "Ġonini": 8985,
      "Ġonween": 8986,
      "kpowa": 8987,
      "kpogbo": 8988,
      "kpoda": 8989,
      "kpogwo": 8990,
      "kpokpan": 8991,
      "kpotaka": 8992,
      "kpobia": 8993,
      "kposasa": 8994,
[...]
