{
  "version": "1.0",
  "truncation": null,
  "padding": null,
  "added_tokens": [
    {
      "id": 0,
      "content": "[UNK]",
      "single_word": false,
      "lstrip": false,
      "rstrip": false,
      "normalized": false,
      "special": true
    },
    {
      "id": 1,
      "content": "[CLS]",
      "single_word": false,
      "lstrip": false,
      "rstrip": false,
      "normalized": false,
      "special": true
    },
    {
      "id": 2,
      "content": "[SEP]",
      "single_word": false,
      "lstrip": false,
      "rstrip": false,
      "normalized": false,
      "special": true
    },
    {
      "id": 3,
      "content": "[PAD]",
      "single_word": false,
      "lstrip": false,
      "rstrip": false,
      "normalized": false,
      "special": true
    },
    {
      "id": 4,
      "content": "[MASK]",
      "single_word": false,
      "lstrip": false,
      "rstrip": false,
      "normalized": false,
      "special": true
    }
  ],
  "normalizer": null,
  "pre_tokenizer": {
    "type": "ByteLevel",
    "add_prefix_space": true,
    "trim_offsets": true,
    "use_regex": true
  },
  "post_processor": null,
  "decoder": {
    "type": "ByteLevel",
    "add_prefix_space": true,
    "trim_offsets": true,
    "use_regex": true
  },
  "model": {
    "type": "BPE",
    "dropout": null,
    "unk_token": "[UNK]",
    "continuing_subword_prefix": null,
    "end_of_word_suffix": null,
    "fuse_unk": false,
    "byte_fallback": false,
    "ignore_merges": false,
    "vocab": {
      "[UNK]": 0,
      "[CLS]": 1,
      "[SEP]": 2,
      "[PAD]": 3,
      "[MASK]": 4,
      "!": 5,
      "(": 6,
      ")": 7,
      ",": 8,
      "-": 9,
      ".": 10,
      ":": 11,
      ";": 12,
      "?": 13,
      "[": 14,
      "]": 15,
      "a": 16,
      "b": 17,
      "c": 18,
      "d": 19,
      "e": 20,
      "f": 21,
      "g": 22,
      "h": 23,
      "i": 24,
      "j": 25,
      "k": 26,
      "l": 27,
      "m": 28,
      "n": 29,
      "o": 30,
      "p": 31,
      "r": 32,
      "s": 33,
      "t": 34,
      "u": 35,
      "w": 36,
      "y": 37,
      "»": 38,
      "Ì": 39,
      "á": 40,
      "â": 41,
      "Ġ": 42,
      "Ģ": 43,
      "Ĥ": 44,
      "Ħ": 45,
      "į": 46,
      "ĺ": 47,
      "Ļ": 48,
      "ľ": 49,
      "Ŀ": 50,
      "Ġi": 51,
      "»į": 52,
      "á»į": 53,
      "Ġe": 54,
      "Ġm": 55,
      "ÌĦ": 56,
      "Ġo": 57,
      "ÌĢ": 58,
      "Ġme": 59,
      "an": 60,
      "Ġk": 61,
      "wu": 62,
      "ek": 63,
      "en": 64,
      "Ġu": 65,
      "yi": 66,
      "Ġin": 67,
      "be": 68,
      "bi": 69,
      "Ġa": 70,
      "á»įn": 71,
      "Ġik": 72,
      "re": 73,
      "lek": 74,
      "si": 75,
      "tu": 76,
      "Ġn": 77,
      "Ġebi": 78,
      "ya": 79,
      "gwu": 80,
      "bá»į": 81,
      "ji": 82,
      "ch": 83,
      "Ġem": 84,
      "ÌĤ": 85,
      "wa": 86,
      "Ġen": 87,
      "ge": 88,
      "je": 89,
      "Ġke": 90,
      "ka": 91,
      "uk": 92,
      "mu": 93,
      "ki": 94,
      "ri": 95,
      "sa": 96,
      "Ġlek": 97,
      "Ġogwu": 98,
      "kp": 99,
      "gw": 100,
      "âĢ": 101,
      "in": 102,
      "rá»į": 103,
      "Ġya": 104,
      "ta": 105,
      "ku": 106,
      "Ġinyi": 107,
      "em": 108,
      "bo": 109,
      "chi": 110,
      "Ġge": 111,
      "Ġibe": 112,
      "Ġinu": 113,
      "Ġotu": 114,
      "ba": 115,
      "Ġema": 116,
      "te": 117,
      "Ġisi": 118,
      "ban": 119,
      "ÌĦ,": 120,
      "bá»įk": 121,
      "Ġkan": 122,
      "ti": 123,
      "gwem": 124,
      "gbá»į": 125,
      "ĠâĢ": 126,
      "fi": 127,
      "Ġene": 128,
      "een": 129,
      "á»įk": 130,
      "Ġenyi": 131,
      "Ġgee": 132,
      "cha": 133,
      "Ġmgbá»į": 134,
      "á»įm": 135,
      "bu": 136,
      "Ġeji": 137,
      "Ġmi": 138,
      "Ġire": 139,
      "Ġowu": 140,
      "ra": 141,
      "Ġij": 142,
      "Ġoku": 143,
      "Ġotutu": 144,
      "ĠâĢľ": 145,
      "Ġki": 146,
      "Ġemi": 147,
      "mugwem": 148,
      "Ġotutuuk": 149,
      "un": 150,
      "Ġsi": 151,
      "ÌĦ.": 152,
      "Ġon": 153,
      "Ġokumugwem": 154,
      "oo": 155,
      "á»įmá»į": 156,
      "waji": 157,
      "Ġawaji": 158,
      "Ġá»įmá»į": 159,
      "Ġmo": 160,
      "le": 161,
      "Ġgeelek": 162,
      "ma": 163,
      "bot": 164,
      "Ġak": 165,
      "tumu": 166,
      "kup": 167,
      "ana": 168,
      "Ġije": 169,
      "eni": 170,
      "eek": 171,
      "Ġkp": 172,
      "ak": 173,
      "waan": 174,
      "Ġikp": 175,
      "Ġkiban": 176,
      "Ġiny": 177,
      "ene": 178,
      "Ġcha": 179,
      "Ġeyi": 180,
      "ko": 181,
      "âĢĿ": 182,
      "Ġj": 183,
      "Ġiki": 184,
      "li": 185,
      "wun": 186,
      "Ġemen": 187,
      "kaan": 188,
      "Ġubá»įk": 189,
      "Ġike": 190,
      "Ġibot": 191,
      "Ġere": 192,
      "Ġkwun": 193,
      "Ġmije": 194,
      "gwa": 195,
      "bá»įá»įn": 196,
      "Ġis": 197,
      "Ġubá»įá»įn": 198,
      "lu": 199,
      "Ġchi": 200,
      "la": 201,
      "to": 202,
      "Ġid": 203,
      "Ġuwu": 204,
      "inyi": 205,
      "á»įá»įn": 206,
      "rieen": 207,
      "Ġika": 208,
      "Ġeki": 209,
      "Ġita": 210,
      "gwun": 211,
      "Ġaká»įn": 212,
      "Ġus": 213,
      "kwu": 214,
      "Ġif": 215,
      "kpa": 216,
      "Ġijá»įn": 217,
      "á»įá»įk": 218,
      "Ġkinyi": 219,
      "ye": 220,
      "Ġgwun": 221,
      "Ġama": 222,
      "Ġinyá»įn": 223,
      "Ġini": 224,
      "Ġejit": 225,
      "ook": 226,
      "Ġun": 227,
      "Ġig": 228,
      "Ġag": 229,
      "Ġmbu": 230,
      "ubá»įk": 231,
      "á»įp": 232,
      "ot": 233,
      "Ġisa": 234,
      "Ġiká»į": 235,
      "oon": 236,
      "Ġmelek": 237,
      "Ġkubá»įk": 238,
      "ren": 239,
      "ru": 240,
      "Ġje": 241,
      "Ġoneni": 242,
      "Ġijeren": 243,
      "se": 244,
      "bá»įn": 245,
      "ká»į": 246,
      "eke": 247,
      ".âĢĿ": 248,
      "Ġirá»į": 249,
      "Ġg": 250,
      "Ġok": 251,
      "Ġata": 252,
      "Ġiba": 253,
      "mun": 254,
      "riá»įá»įn": 255,
      "ja": 256,
      "kpá»į": 257,
      "Ġsa": 258,
      "Ġikwaan": 259,
      "sá»į": 260,
      "Ġmbuban": 261,
      "so": 262,
      "da": 263,
      "ria": 264,
      "Ġma": 265,
      "rie": 266,
      "Ġngwu": 267,
      "Ġngwugwa": 268,
      "ulu": 269,
      "Ġchieen": 270,
      "Ġorá»į": 271,
      "om": 272,
      "Ġido": 273,
      "fu": 274,
      "Ġisibi": 275,
      "Ġek": 276,
      "Ġji": 277,
      "Ġenen": 278,
      "yaka": 279,
      "Ġijo": 280,
      "nyi": 281,
      "Ġisan": 282,
      "Ġnte": 283,
      "Ġyi": 284,
      "bene": 285,
      "Ġgeege": 286,
      "tet": 287,
      "Ġog": 288,
      "Ġagan": 289,
      "sá»įs": 290,
      "Ġkpe": 291,
      "Ġbá»įn": 292,
      "ÌĦ-": 293,
      "che": 294,
      "Ġjisá»įs": 295,
      "Ġoki": 296,
      "Ġikeya": 297,
      "Ġusen": 298,
      "tá»į": 299,
      "luk": 300,
      "aan": 301,
      "lá»į": 302,
      "week": 303,
      "Ġmkp": 304,
      "Ġuko": 305,
      "Ġkeyi": 306,
      "alek": 307,
      "ran": 308,
      "su": 309,
      "Ġechi": 310,
      "Ġebe": 311,
      "Ġofi": 312,
      "gwen": 313,
      "wot": 314,
      "on": 315,
      "Ġugwem": 316,
      "ben": 317,
      "we": 318,
      "tap": 319,
      "Ġitap": 320,
      "up": 321,
      "Ġka": 322,
      "tele": 323,
      "di": 324,
      "Ġof": 325,
      "bet": 326,
      "Ġaká»įp": 327,
      "chit": 328,
      "Ġikana": 329,
      "Ġowot": 330,
      "Ġkiji": 331,
      "Ġoto": 332,
      "jit": 333,
      "Ġobo": 334,
      "man": 335,
      "bá»įká»į": 336,
      "tá»įn": 337,
      "Ġukp": 338,
      "Ġju": 339,
      "Ġeya": 340,
      "gwook": 341,
      "Ġore": 342,
      "Ġete": 343,
      "ká»įt": 344,
      "Ġunye": 345,
      "ke": 346,
      "eki": 347,
      "Ġir": 348,
      "Ġd": 349,
      "san": 350,
      "yá»įn": 351,
      "yan": 352,
      "Ġakpa": 353,
      "chieek": 354,
      "Ġife": 355,
      "ebi": 356,
      "kan": 357,
      "Ġana": 358,
      "Ġud": 359,
      "Ġetete": 360,
      "Ġofifi": 361,
      "Ġesa": 362,
      "ni": 363,
      "Ġida": 364,
      "ga": 365,
      "baan": 366,
      "toon": 367,
      "Ġga": 368,
      "wá»į": 369,
      "Ġanam": 370,
      "unu": 371,
      "gban": 372,
      "Ġotoko": 373,
      "Ġiji": 374,
      "nan": 375,
      "fa": 376,
      "Ġba": 377,
      "nu": 378,
      "Ġikan": 379,
      "Ġjo": 380,
      "iin": 381,
      "min": 382,
      "Ġukot": 383,
      "Ġoye": 384,
      "Ġdebi": 385,
      "rere": 386,
      "Ġikeyi": 387,
      "Ġdebit": 388,
      "fieek": 389,
      "Ġira": 390,
      "kpan": 391,
      "wuuk": 392,
      "eme": 393,
      "ĠâĢĺ": 394,
      "lin": 395,
      "Ġesi": 396,
      "Ġiman": 397,
      "Ġikpa": 398,
      "pi": 399,
      "kana": 400,
      "Ġenenen": 401,
      "do": 402,
      "gwe": 403,
      "titi": 404,
      "me": 405,
      "sis": 406,
      "Ġmun": 407,
      "Ġikup": 408,
      "gá»įá»įk": 409,
      "mi": 410,
      "kwukwu": 411,
      "Ġikaan": 412,
      "á»įná»į": 413,
      "Ġigwook": 414,
      "kpo": 415,
      "Ġirek": 416,
      "Ġukan": 417,
      "linyá»įn": 418,
      "Ġlinyá»įn": 419,
      "Ġenenwaan": 420,
      "Ġja": 421,
      "Ġinan": 422,
      "Ġebirieen": 423,
      "Ġmosis": 424,
      "Ġoniin": 425,
      "rá»įn": 426,
      "fe": 427,
      "Ġirá»įrá»į": 428,
      "Ġosa": 429,
      "Ġichit": 430,
      "Ġenerieen": 431,
      "riaak": 432,
      "Ġgaalek": 433,
      "Ġeje": 434,
      "Ġowuwa": 435,
      "âĢĻ": 436,
      "bum": 437,
      "sibi": 438,
      "Ġuti": 439,
      "á»įf": 440,
      "Ġagba": 441,
      "Ġerieen": 442,
      "Ġeneni": 443,
      "Ġacha": 444,
      "Ġeb": 445,
      "Ġitumu": 446,
      "á»įká»į": 447,
      "orie": 448,
      "Ġjeru": 449,
      "Ġokwaan": 450,
      "Ġifo": 451,
      "Ġudun": 452,
      "sel": 453,
      "Ġinorie": 454,
      "Ġinin": 455,
      "Ġkpunu": 456,
      "Ġkara": 457,
      "Ġito": 458,
      "jeen": 459,
      "lom": 460,
      "lene": 461,
      "Ġebilene": 462,
      "selem": 463,
      "tip": 464,
      "Ġmkpulu": 465,
      "Ġjuda": 466,
      "Ġjeruselem": 467,
      "Ġala": 468,
      "Ġnri": 469,
      "Ġeri": 470,
      "Ġila": 471,
      "neni": 472,
      "Ġinyan": 473,
      "ukp": 474,
      "obo": 475,
      "Ġnwa": 476,
      "wá»įn": 477,
      "Ġati": 478,
      "Ġusun": 479,
      "Ġerá»į": 480,
      "Ġatiká»į": 481,
      "Ġigá»įá»įk": 482,
      "ibot": 483,
      "tim": 484,
      "já»įn": 485,
      "chieen": 486,
      "rá»įá»įn": 487,
      "gwan": 488,
      "Ġeka": 489,
      "Ġngwan": 490,
      "Ġmkpa": 491,
      "Ġalata": 492,
      "Ġogoon": 493,
      "ÌĦ;": 494,
      "Ġukpook": 495,
      "rebet": 496,
      "piti": 497,
      "gbe": 498,
      "Ġijipiti": 499,
      "Ġfi": 500,
      "Ġewuuk": 501,
      "Ġokp": 502,
      "Ġikpan": 503,
      "á»įlu": 504,
      "Ġará»įá»įn": 505,
      "?âĢĿ": 506,
      "Ġmfu": 507,
      "Ġnt": 508,
      "Ġimun": 509,
      "Ġp": 510,
      "á»įnti": 511,
      "titiin": 512,
      "ejit": 513,
      "is": 514,
      "Ġogwukaan": 515,
      "Ġs": 516,
      "Ġor": 517,
      "Ġara": 518,
      "fit": 519,
      "Ġiso": 520,
      "wele": 521,
      "Ġiche": 522,
      "Ġikpe": 523,
      "Ġifuk": 524,
      "Ġso": 525,
      "Ġkeke": 526,
      "Ġoyerebet": 527,
      "Ġkarais": 528,
      "kpulu": 529,
      "Ġnriran": 530,
      "Ġuy": 531,
      "Ġikpá»į": 532,
      "Ġonenitumu": 533,
      "á»įt": 534,
      "tá»įbá»į": 535,
      "aba": 536,
      "ama": 537,
      "Ġetip": 538,
      "Ġutá»įn": 539,
      "Ġigak": 540,
      "kirá»į": 541,
      "Ġile": 542,
      "Ġkpa": 543,
      "libi": 544,
      "Ġmege": 545,
      "Ġokaan": 546,
      "ro": 547,
      "dasi": 548,
      "tan": 549,
      "Ġufi": 550,
      "á»įfá»įá»įk": 551,
      "jaka": 552,
      "Ġjaaba": 553,
      "inu": 554,
      "Ġgo": 555,
      "Ġobop": 556,
      "uku": 557,
      "Ġikpele": 558,
      "gba": 559,
      "sabá»įn": 560,
      "Ġefit": 561,
      "Ġogbo": 562,
      "siki": 563,
      "Ġochi": 564,
      "Ġug": 565,
      "Ġokwa": 566,
      "age": 567,
      "Ġigba": 568,
      "Ġiriá»įá»įn": 569,
      "wá»įá»įn": 570,
      "ini": 571,
      "Ġyaage": 572,
      "gbu": 573,
      "Ġigwa": 574,
      "raka": 575,
      "Ġikeke": 576,
      "Ġefu": 577,
      "Ġikom": 578,
      "kwut": 579,
      "sini": 580,
      "Ġokup": 581,
      "Ġnyi": 582,
      "Ġitele": 583,
      "sia": 584,
      "Ġege": 585,
      "Ġitet": 586,
      "Ġinye": 587,
      "Ġofá»įnti": 588,
      "Ġusini": 589,
      "Ġonyi": 590,
      "fuk": 591,
      "wá»įp": 592,
      "Ġit": 593,
      "kare": 594,
      ".âĢĻ": 595,
      "ÌĦ.âĢĿ": 596,
      "Ġeke": 597,
      "sik": 598,
      "Ġiri": 599,
      "suuk": 600,
      "Ġuga": 601,
      "taan": 602,
      "nwá»įn": 603,
      "Ġebibaan": 604,
      "Ġibene": 605,
      "sun": 606,
      "Ġekwukwu": 607,
      "chini": 608,
      "tibi": 609,
      "Ġli": 610,
      "Ġebek": 611,
      "gbo": 612,
      "Ġilaak": 613,
      "bon": 614,
      "Ġesabe": 615,
      "Ġisun": 616,
      "Ġotun": 617,
      "Ġadasi": 618,
      "gbaan": 619,
      "Ġute": 620,
      "Ġna": 621,
      "faka": 622,
      "Ġochicha": 623,
      "ire": 624,
      "Ġesuuk": 625,
      "bem": 626,
      "yam": 627,
      "buuk": 628,
      "Ġirak": 629,
      "Ġineni": 630,
      "chak": 631,
      "Ġararan": 632,
      "Ġotumu": 633,
      "Ġofo": 634,
      "bele": 635,
      "Ġmfut": 636,
      "Ġuji": 637,
      "Ġjek": 638,
      "!âĢĿ": 639,
      "tat": 640,
      "Ġokuk": 641,
      "Ġukpo": 642,
      "Ġntook": 643,
      "embuuk": 644,
      "Ġeriembuuk": 645,
      "kitumu": 646,
      "Ġoyet": 647,
      "gobo": 648,
      "Ġoko": 649,
      "Ġofá»įfá»įá»įk": 650,
      "kisa": 651,
      "má»įn": 652,
      "abe": 653,
      "lá»įn": 654,
      "oko": 655,
      "Ġekwut": 656,
      "sá»įá»įlu": 657,
      "Ġikpoko": 658,
      "Ġofolek": 659,
      "ok": 660,
      "Ġmiin": 661,
      "jot": 662,
      "Ġkeya": 663,
      "kpá»įkpá»į": 664,
      "Ġefuuk": 665,
      "Ġsá»įá»įlu": 666,
      "Ġekup": 667,
      "Ġeli": 668,
      "Ġijet": 669,
      "Ġikeme": 670,
      "keek": 671,
      "Ġijá»įk": 672,
      "kpá»įk": 673,
      "Ġaya": 674,
      "roon": 675,
      "Ġkpebe": 676,
      "at": 677,
      "Ġobe": 678,
      "Ġoge": 679,
      "op": 680,
      "Ġntumu": 681,
      "Ġigwu": 682,
      "Ġnsabá»įn": 683,
      "taka": 684,
      "Ġonyan": 685,
      "Ġotunchit": 686,
      "nin": 687,
      "Ġikpak": 688,
      "má»įná»į": 689,
      "Ġuja": 690,
      "fo": 691,
      "Ġaran": 692,
      "Ġisiki": 693,
      "et": 694,
      "ogwu": 695,
      "nya": 696,
      "Ġuru": 697,
      "kaki": 698,
      "keke": 699,
      "Ġgi": 700,
      "Ġosat": 701,
      "Ġitoon": 702,
      "Ġmgban": 703,
      "lo": 704,
      "sut": 705,
      "Ġura": 706,
      "Ġufialek": 707,
      "Ġiraka": 708,
      "rot": 709,
      "Ġibá»įká»į": 710,
      "Ġerá»įn": 711,
      "Ġjeká»įp": 712,
      "Ġurum": 713,
      "Ġorie": 714,
      "look": 715,
      "Ġotumube": 716,
      "Ġre": 717,
      "Ġese": 718,
      "Ġni": 719,
      "bek": 720,
      "Ġjei": 721,
      "Ġorá»įbe": 722,
      "Ġosu": 723,
      "Ġuriaak": 724,
      "Ġekene": 725,
      "Ġigbaalek": 726,
      "dim": 727,
      "Ġugan": 728,
      "Ġesese": 729,
      "Ġinyinya": 730,
      "Ġkpek": 731,
      "Ġunaan": 732,
      "Ġudá»įn": 733,
      "Ġokuket": 734,
      "Ġoli": 735,
      "Ġekisa": 736,
      "bai": 737,
      "Ġmba": 738,
      "Ġkechi": 739,
      "ukup": 740,
      "kakaan": 741,
      "Ġikakaan": 742,
      "Ġkpai": 743,
      "Ġche": 744,
      "Ġebeki": 745,
      "Ġosusut": 746,
      "Ġbene": 747,
      "anan": 748,
      "Ġsabum": 749,
      "na": 750,
      "Ġfili": 751,
      "Ġinw": 752,
      "fiat": 753,
      "let": 754,
      "Ġoron": 755,
      "Ġumin": 756,
      "Ġikirá»į": 757,
      "Ġinire": 758,
      "Ġimu": 759,
      "Ġbabi": 760,
      "Ġokupbe": 761,
      "nyan": 762,
      "Ġlibai": 763,
      "Ġabi": 764,
      "ukan": 765,
      "tá»įt": 766,
      "Ġse": 767,
      "kwaan": 768,
      "wop": 769,
      "Ġegwe": 770,
      "Ġutoon": 771,
      "Ġisasa": 772,
      "Ġbabilá»įn": 773,
      "Ġichi": 774,
      "Ġakpalek": 775,
      "Ġonyibe": 776,
      "Ġujá»įn": 777,
      "Ġgwe": 778,
      "Ġebum": 779,
      "regwen": 780,
      "Ġgweregwen": 781,
      "sisik": 782,
      "Ġekeki": 783,
      "Ġekigwen": 784,
      "Ġekp": 785,
      "Ġerá»įbe": 786,
      "kw": 787,
      "lá»įk": 788,
      "wabu": 789,
      "rá»įrá»į": 790,
      "Ġijot": 791,
      "ura": 792,
      "jijaka": 793,
      "Ġoti": 794,
      "Ġigwen": 795,
      "Ġben": 796,
      "top": 797,
      "gá»į": 798,
      "gwá»įk": 799,
      "Ġijeen": 800,
      "Ġasa": 801,
      "Ġnki": 802,
      "Ġekaan": 803,
      "Ġunwá»įá»įn": 804,
      "Ġikike": 805,
      "sefu": 806,
      "sabe": 807,
      "Ġne": 808,
      "Ġjosefu": 809,
      "Ġnsan": 810,
      "Ġich": 811,
      "Ġilá»į": 812,
      "laak": 813,
      "lomá»įn": 814,
      "Ġamá»įn": 815,
      "Ġeririeen": 816,
      "ná»į": 817,
      "Ġesip": 818,
      "rá»įbe": 819,
      "Ġkpá»į": 820,
      "Ġsolomá»įn": 821,
      "Ġiriá»įk": 822,
      "Ġibo": 823,
      "rep": 824,
      "Ġntitiin": 825,
      "Ġá»į": 826,
      "Ġfilisia": 827,
      "Ġoje": 828,
      "Ġebere": 829,
      "Ġotutumu": 830,
      "yo": 831,
      "beek": 832,
      "Ġikpá»įk": 833,
      "Ġfe": 834,
      "Ġpá»į": 835,
      "ik": 836,
      "yen": 837,
      "kwa": 838,
      "kayaka": 839,
      "Ġod": 840,
      "tun": 841,
      "Ġijaan": 842,
      "tutumu": 843,
      "Ġitibi": 844,
      "Ġpá»įá»įlu": 845,
      "kukup": 846,
      "Ġpi": 847,
      "Ġekirá»į": 848,
      "Ġilai": 849,
      "Ġichechieek": 850,
      "Ġfero": 851,
      "Ġugane": 852,
      "Ġá»įf": 853,
      "tetet": 854,
      "Ġebereyam": 855,
      "Ġmbum": 856,
      "Ġewe": 857,
      "Ġonen": 858,
      "Ġichep": 859,
      "Ġifi": 860,
      "Ġikak": 861,
      "Ġorebe": 862,
      "kpukp": 863,
      "Ġikweek": 864,
      "Ġifieek": 865,
      "Ġitim": 866,
      "reke": 867,
      "Ġiyaka": 868,
      "go": 869,
      "ut": 870,
      "Ġiwele": 871,
      "rioon": 872,
      "gu": 873,
      "Ġed": 874,
      "Ġmkpá»įn": 875,
      "Ġbak": 876,
      "turu": 877,
      "suwa": 878,
      "Ġefe": 879,
      "wá»įlá»į": 880,
      "Ġili": 881,
      "Ġinyinyi": 882,
      "Ġataak": 883,
      "Ġorukan": 884,
      "wá»įwá»įp": 885,
      "Ġitá»įn": 886,
      "bin": 887,
      "jibi": 888,
      "Ġkpeki": 889,
      "Ġora": 890,
      "Ġikwu": 891,
      "á»įmfaka": 892,
      "Ġoka": 893,
      "Ġmkpá»įmfaka": 894,
      "nen": 895,
      "rom": 896,
      "Ġolom": 897,
      "Ġsoso": 898,
      "Ġiben": 899,
      "Ġgerep": 900,
      "jak": 901,
      "Ġinama": 902,
      "chaka": 903,
      "Ġosiki": 904,
      "Ġiluk": 905,
      "Ġotubá»įk": 906,
      "Ġfituru": 907,
      "Ġá»įfá»į": 908,
      "iká»į": 909,
      "Ġikpulu": 910,
      "gi": 911,
      "Ġeriá»įá»įn": 912,
      "chechieek": 913,
      "mechieen": 914,
      "dan": 915,
      "ĠâĢĿ": 916,
      "Ġbe": 917,
      "Ġiná»į": 918,
      "Ġnkwukwu": 919,
      "enyi": 920,
      "Ġnre": 921,
      "Ġnji": 922,
      "Ġnroon": 923,
      "Ġimumechieen": 924,
      "Ġpita": 925,
      "emi": 926,
      "Ġikitumu": 927,
      "Ġiweek": 928,
      "Ġokeki": 929,
      "Ġisotu": 930,
      "fá»įá»įk": 931,
      "Ġosi": 932,
      "Ġns": 933,
      "Ġebot": 934,
      "Ġkpebek": 935,
      "Ġuyok": 936,
      "á»įbe": 937,
      "Ġasi": 938,
      "rek": 939,
      "inan": 940,
      "Ġkpan": 941,
      "Ġokpá»įká»į": 942,
      "jeje": 943,
      "Ġewá»įwá»įp": 944,
      "kaya": 945,
      "tutu": 946,
      "kat": 947,
      "Ġinen": 948,
      "Ġolik": 949,
      "lá»įm": 950,
      "Ġuse": 951,
      "omo": 952,
      "gbana": 953,
      "Ġokop": 954,
      "Ġijejeen": 955,
      "du": 956,
      "sulu": 957,
      "ÌĦ?": 958,
      "Ġibak": 959,
      "rekeyi": 960,
      "ÌĦ!": 961,
      "Ġnteme": 962,
      "Ġy": 963,
      "Ġrá»į": 964,
      "Ġogbogbo": 965,
      "Ġekpan": 966,
      "Ġitá»į": 967,
      "Ġitata": 968,
      "Ġjeri": 969,
      "asi": 970,
      "Ġegebe": 971,
      "nyá»įn": 972,
      "kupbe": 973,
      "fat": 974,
      "Ġoduku": 975,
      "Ġoru": 976,
      "Ġomun": 977,
      "Ġmkpukp": 978,
      "Ġef": 979,
      "Ġcherekeyi": 980,
      "gwat": 981,
      "Ġebesa": 982,
      "Ġunen": 983,
      "Ġichen": 984,
      "mgbá»į": 985,
      "ram": 986,
      "Ġemun": 987,
      "Ġototun": 988,
      "ket": 989,
      "Ġjosuwa": 990,
      "oku": 991,
      "wut": 992,
      "bia": 993,
      "okumugwem": 994,
      "eja": 995,
      "Ġenu": 996,
      "Ġtumu": 997,
      "kinyi": 998,
      "Ġogboon": 999,
      "eejit": 1000,
      "Ġirie": 1001,
      "Ġken": 1002,
      "Ġunan": 1003,
      "Ġufieejit": 1004,
      "gak": 1005,
      "Ġikin": 1006,
      "Ġakpan": 1007,
      "Ġnrá»į": 1008,
      "Ġuche": 1009,
      "kin": 1010,
      "jo": 1011,
      "gwuun": 1012,
      "but": 1013,
      "Ġjá»įn": 1014,
      "Ġeru": 1015,
      "Ġowa": 1016,
      "wulu": 1017,
      "Ġikikpá»į": 1018,
      "Ġetap": 1019,
      "Ġatan": 1020,
      "Ġitá»įbá»į": 1021,
      "Ġusá»į": 1022,
      "Ġutop": 1023,
      "yat": 1024,
      "Ġukpá»įk": 1025,
      "saba": 1026,
      "tata": 1027,
      "nye": 1028,
      "owu": 1029,
      "kot": 1030,
      "Ġokirá»į": 1031,
      "Ġuyeke": 1032,
      "Ġiteke": 1033,
      "Ġmkpukpe": 1034,
      "Ġatanga": 1035,
      "Ġikije": 1036,
      "lam": 1037,
      "á»įntiik": 1038,
      "Ġnga": 1039,
      "chili": 1040,
      "kisi": 1041,
      "sasa": 1042,
      "ona": 1043,
      "Ġorá»įmi": 1044,
      "tá»įbe": 1045,
      "Ġorá»įmijá»įn": 1046,
      "Ġewele": 1047,
      "Ġatata": 1048,
      "Ġobebe": 1049,
      "Ġiria": 1050,
      "Ġenan": 1051,
      "Ġefet": 1052,
      "Ġolu": 1053,
      "Ġugbá»į": 1054,
      "Ġsá»įntiik": 1055,
      "Ġojelek": 1056,
      "Ġatalek": 1057,
      "gbugbo": 1058,
      "Ġegep": 1059,
      "Ġonanan": 1060,
      "Ġirom": 1061,
      "Ġbet": 1062,
      "Ġisinyá»įn": 1063,
      "tumube": 1064,
      "Ġekitumu": 1065,
      "Ġta": 1066,
      "kije": 1067,
      "kinu": 1068,
      "Ġmowabu": 1069,
      "Ġjodan": 1070,
      "kpe": 1071,
      "Ġonin": 1072,
      "Ġuseen": 1073,
      "jamin": 1074,
      "lá»įlá»į": 1075,
      "Ġsá»įn": 1076,
      "Ġmu": 1077,
      "Ġofiaan": 1078,
      "Ġewelegwe": 1079,
      "dun": 1080,
      "Ġulá»įk": 1081,
      "fuun": 1082,
      "Ġnnwá»įn": 1083,
      "rak": 1084,
      "dá»į": 1085,
      "bebene": 1086,
      "rem": 1087,
      "jaan": 1088,
      "Ġosabe": 1089,
      "bak": 1090,
      "Ġonenibe": 1091,
      "Ġekupbe": 1092,
      "Ġbenjamin": 1093,
      "Ġegbe": 1094,
      "Ġmbem": 1095,
      "Ġnneni": 1096,
      "soso": 1097,
      "Ġot": 1098,
      "Ġasabá»įn": 1099,
      "kiweek": 1100,
      "Ġaji": 1101,
      "Ġaka": 1102,
      "mumun": 1103,
      "Ġkperiá»įá»įn": 1104,
      "gb": 1105,
      "Ġeluk": 1106,
      "Ġikisa": 1107,
      "Ġitaka": 1108,
      "Ġirá»įn": 1109,
      "nama": 1110,
      "Ġirieen": 1111,
      "ekeke": 1112,
      "Ġiko": 1113,
      "eta": 1114,
      "Ġle": 1115,
      "Ġtele": 1116,
      "Ġim": 1117,
      "Ġgili": 1118,
      "já»į": 1119,
      "Ġiriaak": 1120,
      "wam": 1121,
      "bat": 1122,
      "Ġigbaan": 1123,
      "Ġekwe": 1124,
      "Ġmudim": 1125,
      "Ġmana": 1126,
      "kike": 1127,
      "saak": 1128,
      "Ġjeeta": 1129,
      "Ġagbagba": 1130,
      "Ġititiin": 1131,
      "Ġkpeyaka": 1132,
      "Ġebon": 1133,
      "bá»įbá»įká»į": 1134,
      "kikpá»į": 1135,
      "Ġiká»įt": 1136,
      "Ġpa": 1137,
      "Ġiwa": 1138,
      "Ġikw": 1139,
      "bore": 1140,
      "Ġinisa": 1141,
      "Ġonenido": 1142,
      "Ġiferem": 1143,
      "Ġyá»įk": 1144,
      "Ġulom": 1145,
      "kikpulu": 1146,
      "kpukpo": 1147,
      "Ġda": 1148,
      "Ġokike": 1149,
      "mien": 1150,
      "Ġchini": 1151,
      "Ġubele": 1152,
      "Ġafa": 1153,
      "weekbe": 1154,
      "ká»įtbe": 1155,
      "kpoyaka": 1156,
      "Ġchinichini": 1157,
      "Ġubelejit": 1158,
      "Ġitutumu": 1159,
      "ensi": 1160,
      "ema": 1161,
      "buru": 1162,
      "Ġikasi": 1163,
      "Ġekana": 1164,
      "Ġkarake": 1165,
      "Ġnsensi": 1166,
      "Ġerumun": 1167,
      "Ġayi": 1168,
      "Ġikat": 1169,
      "Ġikakwun": 1170,
      "Ġkpebeká»įt": 1171,
      "ruk": 1172,
      "Ġkenan": 1173,
      "pa": 1174,
      "Ġjio": 1175,
      "Ġmg": 1176,
      "kom": 1177,
      "Ġjona": 1178,
      "Ġpe": 1179,
      "á»įs": 1180,
      "Ġokwukwu": 1181,
      "bokup": 1182,
      "Ġisaba": 1183,
      "Ġkpebeyaka": 1184,
      "Ġoria": 1185,
      "Ġnra": 1186,
      "buwam": 1187,
      "Ġusem": 1188,
      "Ġjeyo": 1189,
      "Ġugbá»įá»įn": 1190,
      "Ġekiket": 1191,
      "Ġukwu": 1192,
      "lobo": 1193,
      "Ġijit": 1194,
      "Ġutele": 1195,
      "rege": 1196,
      "Ġaram": 1197,
      "Ġukwuuk": 1198,
      "Ġutelelek": 1199,
      "mgbugbo": 1200,
      "Ġoluk": 1201,
      "eya": 1202,
      "Ġochak": 1203,
      "Ġnan": 1204,
      "jei": 1205,
      "maya": 1206,
      "Ġujamgbugbo": 1207,
      "Ġoruru": 1208,
      "Ġan": 1209,
      "tatat": 1210,
      "Ġoni": 1211,
      "Ġunyan": 1212,
      "Ġigban": 1213,
      "wá»įá»įk": 1214,
      "Ġtap": 1215,
      "Ġikpukp": 1216,
      "Ġorere": 1217,
      "gbegbe": 1218,
      "Ġesan": 1219,
      "Ġotuchieen": 1220,
      "Ġsayá»įn": 1221,
      "Ġesasa": 1222,
      "yenye": 1223,
      "ju": 1224,
      "men": 1225,
      "Ġt": 1226,
      "Ġnu": 1227,
      "yala": 1228,
      "bá»įp": 1229,
      "gele": 1230,
      "Ġdan": 1231,
      "Ġjowabu": 1232,
      "fan": 1233,
      "jomo": 1234,
      "Ġilibi": 1235,
      "lep": 1236,
      "luluk": 1237,
      "gá»įgá»įá»įk": 1238,
      "Ġmanasi": 1239,
      "reyi": 1240,
      "Ġajiki": 1241,
      "Ġjerimaya": 1242,
      "Ġsibi": 1243,
      "Ġerebe": 1244,
      "gwak": 1245,
      "Ġsamien": 1246,
      "Ġiraraka": 1247,
      "Ġilile": 1248,
      "Ġegwu": 1249,
      "Ġngobo": 1250,
      "Ġikisi": 1251,
      "Ġikam": 1252,
      "nyibe": 1253,
      "kibem": 1254,
      "Ġuna": 1255,
      "Ġmmun": 1256,
      "Ġurá»į": 1257,
      "bidim": 1258,
      "Ġmbubet": 1259,
      "Ġuyá»įt": 1260,
      "kwek": 1261,
      "wene": 1262,
      "Ġota": 1263,
      "Ġurie": 1264,
      "Ġosasa": 1265,
      "gbugbá»į": 1266,
      "lili": 1267,
      "Ġifu": 1268,
      "Ġigbet": 1269,
      "chep": 1270,
      "chieekbe": 1271,
      "mimin": 1272,
      "Ġkechilá»į": 1273,
      "jen": 1274,
      "Ġima": 1275,
      "Ġakpatan": 1276,
      "Ġchereyi": 1277,
      "Ġifiin": 1278,
      "Ġetet": 1279,
      "Ġinwá»į": 1280,
      "Ġikarek": 1281,
      "ali": 1282,
      "eji": 1283,
      "Ġkpekaan": 1284,
      "Ġebibi": 1285,
      "gwut": 1286,
      "kpaka": 1287,
      "tutuku": 1288,
      "Ġleban": 1289,
      "Ġegw": 1290,
      "Ġam": 1291,
      "Ġnriá»įá»įn": 1292,
      "Ġejikaya": 1293,
      "Ġakpabin": 1294,
      "Ġasiria": 1295,
      "Ġet": 1296,
      "Ġoriá»įá»įn": 1297,
      "Ġada": 1298,
      "Ġagwut": 1299,
      "Ġekije": 1300,
      "Ġogbu": 1301,
      "Ġijijaka": 1302,
      "Ġkpeká»įt": 1303,
      "ijá»įn": 1304,
      "Ġurá»įk": 1305,
      "Ġeben": 1306,
      "Ġokwu": 1307,
      "Ġenanan": 1308,
      "Ġonenisa": 1309,
      "Ġogu": 1310,
      "Ġkeyilá»į": 1311,
      "Ġkpunube": 1312,
      "Ġilaija": 1313,
      "Ġnsi": 1314,
      "kiluk": 1315,
      "Ġuná»įn": 1316,
      "gat": 1317,
      "Ġkpasi": 1318,
      "Ġotita": 1319,
      "adi": 1320,
      "Ġ(": 1321,
      "tut": 1322,
      "Ġmbubut": 1323,
      "kpoká»įt": 1324,
      "Ġgiliadi": 1325,
      "aak": 1326,
      "Ġalá»įm": 1327,
      "Ġekek": 1328,
      "Ġayaya": 1329,
      "Ġsá»įnja": 1330,
      "Ġmgbidim": 1331,
      "fila": 1332,
      "á»įrá»į": 1333,
      "Ġubene": 1334,
      "Ġekpa": 1335,
      "lelet": 1336,
      "din": 1337,
      "nlá»į": 1338,
      "Ġdi": 1339,
      "Ġiwá»įp": 1340,
      "Ġuman": 1341,
      "Ġibebene": 1342,
      "Ġefá»įfá»įá»įk": 1343,
      "Ġru": 1344,
      "Ġiya": 1345,
      "Ġmgbu": 1346,
      "Ġorioon": 1347,
      "Ġuri": 1348,
      "Ġikerere": 1349,
      "Ġigobo": 1350,
      "Ġinwan": 1351,
      "iri": 1352,
      "otu": 1353,
      "Ġinitumu": 1354,
      "bá»įká»įbe": 1355,
      "kwakwaan": 1356,
      "Ġnto": 1357,
      "kara": 1358,
      "Ġikayaka": 1359,
      "Ġsame": 1360,
      "Ġebebene": 1361,
      "Ġsameria": 1362,
      "Ġbi": 1363,
      "Ġnkeek": 1364,
      "kikup": 1365,
      "Ġagá»įá»įk": 1366,
      "Ġokoko": 1367,
      "Ġuwele": 1368,
      "gbala": 1369,
      "Ġokwukwut": 1370,
      "yana": 1371,
      "Ġichak": 1372,
      "Ġotetet": 1373,
      "Ġulobo": 1374,
      "jin": 1375,
      "Ġená»įbe": 1376,
      "fuuk": 1377,
      "wen": 1378,
      "taba": 1379,
      "chat": 1380,
      "Ġisulu": 1381,
      "Ġonenire": 1382,
      "kpá»įkpá»įk": 1383,
      "ÌĦ.âĢĻ": 1384,
      "Ġeyabu": 1385,
      "Ġesibi": 1386,
      "Ġonenikana": 1387,
      "Ġedá»įm": 1388,
      "Ġjonatan": 1389,
      "Ġufuk": 1390,
      "Ġafi": 1391,
      "Ġeni": 1392,
      "kariá»įá»įn": 1393,
      "Ġkilo": 1394,
      "Ġjero": 1395,
      "Ġuyá»įrá»į": 1396,
      "Ġokokop": 1397,
      "Ġuyá»įrá»įlek": 1398,
      "má»įá»įn": 1399,
      "Ġnkwu": 1400,
      "Ġonaan": 1401,
      "Ġinitap": 1402,
      "Ġunene": 1403,
      "Ġilaisia": 1404,
      "keki": 1405,
      "Ġimá»įná»į": 1406,
      "Ġetim": 1407,
      "kitap": 1408,
      "Ġmfufuk": 1409,
      "aka": 1410,
      "de": 1411,
      "ika": 1412,
      "ron": 1413,
      "wá»įná»į": 1414,
      "Ġfo": 1415,
      "Ġokpá»įkpá»į": 1416,
      "Ġinene": 1417,
      "kakup": 1418,
      "kijeen": 1419,
      "dia": 1420,
      "ufuun": 1421,
      "Ġenin": 1422,
      "Ġogwugwu": 1423,
      "Ġikikpulu": 1424,
      "Ġekiweek": 1425,
      "Ġsan": 1426,
      "Ġfa": 1427,
      "Ġiban": 1428,
      "Ġigwá»įk": 1429,
      "Ġukpa": 1430,
      "anaan": 1431,
      "lat": 1432,
      "gwegwen": 1433,
      "Ġotitá»įt": 1434,
      "nyenye": 1435,
      "Ġekpá»įkpá»į": 1436,
      "yik": 1437,
      "Ġnkaan": 1438,
      "Ġntap": 1439,
      "rá»įs": 1440,
      "Ġokeke": 1441,
      "Ġbaali": 1442,
      "Ġnebu": 1443,
      "Ġto": 1444,
      "buso": 1445,
      "Ġisá»į": 1446,
      "busolá»įm": 1447,
      "gen": 1448,
      "Ġsai": 1449,
      "Ġitá»įp": 1450,
      "?âĢĻ": 1451,
      "ká»įp": 1452,
      "ntet": 1453,
      "Ġabusolá»įm": 1454,
      "Ġikiweek": 1455,
      "Ġitaba": 1456,
      "melek": 1457,
      "á»įká»įt": 1458,
      "Ġnwakpa": 1459,
      "gan": 1460,
      "gbá»įn": 1461,
      "Ġichieek": 1462,
      "Ġegá»įá»įk": 1463,
      "Ġnsa": 1464,
      "rá»įriá»įá»įn": 1465,
      "Ġoboká»įt": 1466,
      "Ġokpu": 1467,
      "nwá»įnwá»įn": 1468,
      "Ġjerobuwam": 1469,
      "Ġekot": 1470,
      "Ġufe": 1471,
      "Ġonan": 1472,
      "Ġjewu": 1473,
      "Ġonenibon": 1474,
      "Ġirio": 1475,
      "Ġá»įgbá»įn": 1476,
      "Ġko": 1477,
      "Ġinwá»įá»įn": 1478,
      "leke": 1479,
      "risi": 1480,
      "Ġoluku": 1481,
      "iya": 1482,
      "tá»įp": 1483,
      "Ġugbana": 1484,
      "Ġaja": 1485,
      "Ġnjak": 1486,
      "Ġnlelet": 1487,
      "tatap": 1488,
      "Ġmkpat": 1489,
      "Ġoraan": 1490,
      "Ġetapbe": 1491,
      "eyi": 1492,
      "naan": 1493,
      "ĠĠ": 1494,
      "Ġotá»įbe": 1495,
      "Ġnye": 1496,
      "borá»į": 1497,
      "chiaan": 1498,
      "tetele": 1499,
      "raya": 1500,
      "Ġmá»įná»į": 1501,
      "Ġmbeek": 1502,
      "Ġuke": 1503,
      "fiin": 1504,
      "raraka": 1505,
      "Ġoná»įbe": 1506,
      "Ġoneniria": 1507,
      "Ġokitumu": 1508,
      "Ġinwá»įná»į": 1509,
      "Ġukechieen": 1510,
      "Ġri": 1511,
      "Ġodo": 1512,
      "Ġenunu": 1513,
      "Ġgibi": 1514,
      "gbuk": 1515,
      "Ġikwek": 1516,
      "gon": 1517,
      "umu": 1518,
      "Ġeyaka": 1519,
      "Ġnyan": 1520,
      "ÌĤ,": 1521,
      "Ġbara": 1522,
      "kadin": 1523,
      "kis": 1524,
      "Ġofit": 1525,
      "rakabe": 1526,
      "Ġntoron": 1527,
      "kadineja": 1528,
      "Ġntoronyan": 1529,
      "dá»įk": 1530,
      "keme": 1531,
      "ogwook": 1532,
      "Ġegbaan": 1533,
      "Ġotiti": 1534,
      "Ġusaba": 1535,
      "yim": 1536,
      "Ġinwá»įn": 1537,
      "kpá»įchieen": 1538,
      "Ġetetet": 1539,
      "Ġuraa": 1540,
      "Ġolifu": 1541,
      "Ġá»įkpá»įchieen": 1542,
      "neme": 1543,
      "Ġuwop": 1544,
      "Ġari": 1545,
      "sak": 1546,
      "chichini": 1547,
      "Ġisisi": 1548,
      "sefat": 1549,
      "Ġorá»įrá»į": 1550,
      "Ġeká»įk": 1551,
      "Ġjiosefat": 1552,
      "Ġnebukadineja": 1553,
      "lak": 1554,
      "Ġekpulu": 1555,
      "Ġajaka": 1556,
      "Ġigon": 1557,
      "Ġjebu": 1558,
      "Ġokput": 1559,
      "Ġifuun": 1560,
      "Ġajakajak": 1561,
      "dá»įn": 1562,
      "Ġotap": 1563,
      "Ġigá»į": 1564,
      "Ġgban": 1565,
      "mije": 1566,
      "Ġikpá»įchieen": 1567,
      "Ġoneninan": 1568,
      "Ġelukbe": 1569,
      "Ġla": 1570,
      "Ġmfaka": 1571,
      "yiyala": 1572,
      "Ġifon": 1573,
      "benebe": 1574,
      "Ġugumu": 1575,
      "Ġigwak": 1576,
      "Ġonenin": 1577,
      "Ġokakana": 1578,
      "Ġoninin": 1579,
      "mana": 1580,
      "nunu": 1581,
      "Ġorieen": 1582,
      "bieen": 1583,
      "Ġaf": 1584,
      "tuku": 1585,
      "jijen": 1586,
      "fiaan": 1587,
      "Ġijeek": 1588,
      "Ġitat": 1589,
      "Ġkpere": 1590,
      "Ġeberá»į": 1591,
      "kwook": 1592,
      "Ġnka": 1593,
      "kpon": 1594,
      "boká»įt": 1595,
      "fiá»įá»įn": 1596,
      "Ġuneen": 1597,
      "Ġeneninan": 1598,
      "Ġekerá»į": 1599,
      "Ġeden": 1600,
      "Ġfarisi": 1601,
      "ien": 1602,
      "Ġegwa": 1603,
      "Ġokpá»įkpá»įk": 1604,
      "Ġachiaan": 1605,
      "Ġnke": 1606,
      "bá»įm": 1607,
      "kigá»įá»įk": 1608,
      "riya": 1609,
      "Ġkachieek": 1610,
      "Ġilet": 1611,
      "Ġonyinyi": 1612,
      "Ġokukup": 1613,
      "Ġelieja": 1614,
      "Ġigwuun": 1615,
      "ogwukaan": 1616,
      "Ġifiat": 1617,
      "Ġetumube": 1618,
      "mabe": 1619,
      "rudun": 1620,
      "Ġekeke": 1621,
      "Ġokije": 1622,
      "Ġorom": 1623,
      "Ġimumun": 1624,
      "kwak": 1625,
      "Ġmgburudun": 1626,
      "ilaak": 1627,
      "Ġngu": 1628,
      "Ġmkpukan": 1629,
      "Ġijibi": 1630,
      "Ġenenisa": 1631,
      "Ġekpen": 1632,
      "kekeke": 1633,
      "was": 1634,
      "kachieek": 1635,
      "Ġakan": 1636,
      "gwenbe": 1637,
      "Ġinwene": 1638,
      "Ġnjij": 1639,
      "Ġigbana": 1640,
      "Ġbarabat": 1641,
      "!âĢĻ": 1642,
      "gá»įá»įn": 1643,
      "pe": 1644,
      "Ġti": 1645,
      "Ġebu": 1646,
      "Ġerie": 1647,
      "Ġolat": 1648,
      "Ġorakabe": 1649,
      "Ġmeri": 1650,
      "Ġagbá»į": 1651,
      "kinan": 1652,
      "Ġekiluk": 1653,
      "Ġsek": 1654,
      "Ġobebene": 1655,
      "Ġngugá»įá»įn": 1656,
      "Ġige": 1657,
      "wuwu": 1658,
      "Ġukwook": 1659,
      "Ġali": 1660,
      "baak": 1661,
      "Ġogobo": 1662,
      "nenen": 1663,
      "pá»į": 1664,
      "Ġulibi": 1665,
      "Ġnrá»įbe": 1666,
      "Ġikibe": 1667,
      "Ġechichi": 1668,
      "oni": 1669,
      "Ġamá»į": 1670,
      "Ġokputut": 1671,
      "ijo": 1672,
      "Ġra": 1673,
      "Ġibia": 1674,
      "Ġmbin": 1675,
      "sisaak": 1676,
      "Ġntá»įn": 1677,
      "Ġenama": 1678,
      "kakana": 1679,
      "Ġikitaan": 1680,
      "Ġgá»įá»įk": 1681,
      "Ġmkpilaak": 1682,
      "Ġgadi": 1683,
      "Ġgalili": 1684,
      "Ġibook": 1685,
      "nte": 1686,
      "fita": 1687,
      "Ġenyibe": 1688,
      "Ġikitá»įbá»į": 1689,
      "Ġikachieek": 1690,
      "Ġibaan": 1691,
      "Ġbalam": 1692,
      "Ġikpakpan": 1693,
      "Ġekpiri": 1694,
      "Ġruben": 1695,
      "ween": 1696,
      "Ġase": 1697,
      "ret": 1698,
      "Ġeman": 1699,
      "kaká»įt": 1700,
      "Ġisu": 1701,
      "Ġebeben": 1702,
      "Ġekarege": 1703,
      "Ġeburá»įn": 1704,
      "beni": 1705,
      "nwá»į": 1706,
      "Ġimin": 1707,
      "Ġibum": 1708,
      "Ġetumu": 1709,
      "Ġufieek": 1710,
      "sin": 1711,
      "Ġnkupbe": 1712,
      "jijit": 1713,
      "Ġisik": 1714,
      "Ġikijeen": 1715,
      "laba": 1716,
      "Ġjese": 1717,
      "Ġokisa": 1718,
      "Ġechieek": 1719,
      "Ġejeje": 1720,
      "Ġirin": 1721,
      "Ġlilin": 1722,
      "Ġabina": 1723,
      "gbuku": 1724,
      "Ġuraafiá»įá»įn": 1725,
      "Ġmebe": 1726,
      "Ġugwat": 1727,
      "kitet": 1728,
      "chim": 1729,
      "rarak": 1730,
      "Ġinyana": 1731,
      "Ġikirie": 1732,
      "ká»įs": 1733,
      "Ġobosa": 1734,
      "á»įká»įbe": 1735,
      "Ġokolo": 1736,
      "Ġefon": 1737,
      "jojot": 1738,
      "Ġugumulek": 1739,
      "Ġburu": 1740,
      "Ġitip": 1741,
      "Ġmbi": 1742,
      "kito": 1743,
      "bosa": 1744,
      "raria": 1745,
      "Ġsam": 1746,
      "Ġekayaka": 1747,
      "Ġikpá»įkpá»į": 1748,
      "Ġinenitumu": 1749,
      "Ġeká»įká»įk": 1750,
      "Ġekpirikpo": 1751,
      "ilet": 1752,
      "nwa": 1753,
      "yok": 1754,
      "Ġiin": 1755,
      "Ġeto": 1756,
      "Ġkaan": 1757,
      "saya": 1758,
      "Ġowut": 1759,
      "Ġikarege": 1760,
      "Ġonenigwen": 1761,
      "Ġokpibot": 1762,
      "Ġpailet": 1763,
      "Ġikpukpuku": 1764,
      "aya": 1765,
      "owot": 1766,
      "Ġban": 1767,
      "Ġetele": 1768,
      "Ġetoon": 1769,
      "ÌĦ?âĢĿ": 1770,
      "Ġinya": 1771,
      "rirá»į": 1772,
      "ina": 1773,
      "chachak": 1774,
      "Ġeyiyi": 1775,
      "Ġkpechieek": 1776,
      "Ġnriroon": 1777,
      "Ġnjijin": 1778,
      "Ġdanien": 1779,
      "Ġnkwurieen": 1780,
      "Ġburubut": 1781,
      "Ġmá»į": 1782,
      "Ġokpa": 1783,
      "Ġorá»įn": 1784,
      "Ġojot": 1785,
      "yayaka": 1786,
      "kisibi": 1787,
      "Ġikito": 1788,
      "Ġinigwa": 1789,
      "Ġonenisi": 1790,
      "kpolá»įlá»į": 1791,
      "Ġafá»įn": 1792,
      "Ġikinyi": 1793,
      "Ġná»į": 1794,
      "ukot": 1795,
      "kim": 1796,
      "kibe": 1797,
      "kisun": 1798,
      "kput": 1799,
      "Ġonenifá»įá»įk": 1800,
      "diá»įn": 1801,
      "Ġichichini": 1802,
      "Ġnetan": 1803,
      "Ġegwijo": 1804,
      "yu": 1805,
      "Ġibá»įp": 1806,
      "Ġogwa": 1807,
      "Ġukara": 1808,
      "tuuk": 1809,
      "Ġnli": 1810,
      "Ġebiba": 1811,
      "wawa": 1812,
      "kai": 1813,
      "Ġekibe": 1814,
      "Ġogbaan": 1815,
      "Ġokpá»įn": 1816,
      "Ġgidiá»įn": 1817,
      "Ġoraria": 1818,
      "Ġjeriko": 1819,
      "Ġoguga": 1820,
      "Ġukarajit": 1821,
      "dá»įmá»į": 1822,
      "uruk": 1823,
      "Ġilook": 1824,
      "Ġebá»įká»į": 1825,
      "Ġewop": 1826,
      "Ġekom": 1827,
      "Ġawá»į": 1828,
      "Ġikwa": 1829,
      "kará»į": 1830,
      "Ġsimi": 1831,
      "Ġikigá»įá»įk": 1832,
      "Ġerá»įdu": 1833,
      "Ġekariá»įá»įn": 1834,
      "Ġujat": 1835,
      "Ġekpe": 1836,
      "Ġsekem": 1837,
      "mo": 1838,
      "ná»įná»į": 1839,
      "Ġsu": 1840,
      "Ġeká»įt": 1841,
      "chiaak": 1842,
      "Ġonunu": 1843,
      "Ġitaan": 1844,
      "Ġjedi": 1845,
      "Ġokinyi": 1846,
      "nube": 1847,
      "fefieek": 1848,
      "Ġotunwa": 1849,
      "Ġntumube": 1850,
      "Ġoriabe": 1851,
      "Ġiyakwut": 1852,
      "efuuk": 1853,
      "Ġochieekbe": 1854,
      "Ġemu": 1855,
      "Ġeberam": 1856,
      "nanan": 1857,
      "Ġsera": 1858,
      "gugo": 1859,
      "Ġurieek": 1860,
      "Ġach": 1861,
      "Ġikeki": 1862,
      "á»įmá»įná»į": 1863,
      "jajaan": 1864,
      "weweek": 1865,
      "dikai": 1866,
      "Ġijija": 1867,
      "Ġjobu": 1868,
      "Ġjeka": 1869,
      "Ġurak": 1870,
      "Ġebekisa": 1871,
      "Ġabimelek": 1872,
      "Ġá»įdá»į": 1873,
      "Ġoneninyi": 1874,
      "Ġjioya": 1875,
      "Ġokekebe": 1876,
      "Ġmá»įdikai": 1877,
      "no": 1878,
      "sen": 1879,
      "ten": 1880,
      "wo": 1881,
      "Ġifit": 1882,
      "Ġikeek": 1883,
      "rebe": 1884,
      "sisi": 1885,
      "sisibi": 1886,
      "kaweek": 1887,
      "kibele": 1888,
      "Ġikitap": 1889,
      "Ġinido": 1890,
      "Ġibala": 1891,
      "titim": 1892,
      "Ġreyo": 1893,
      "Ġlebaná»įn": 1894,
      "Ġsaimá»įn": 1895,
      "okaan": 1896,
      "Ġibeni": 1897,
      "Ġesun": 1898,
      "ÌĦ!âĢĿ": 1899,
      "kiben": 1900,
      "chiin": 1901,
      "chacha": 1902,
      "Ġmidi": 1903,
      "Ġkpen": 1904,
      "Ġigen": 1905,
      "Ġinanan": 1906,
      "Ġejebe": 1907,
      "sibibe": 1908,
      "Ġitá»įá»įn": 1909,
      "tatana": 1910,
      "wá»įlá»įwá»įlá»į": 1911,
      "Ġbeten": 1912,
      "Ġotin": 1913,
      "Ġmidian": 1914,
      ",âĢĿ": 1915,
      "dá»įm": 1916,
      "ká»įká»įt": 1917,
      "Ġitetet": 1918,
      "Ġnnyibe": 1919,
      "kitaan": 1920,
      "babia": 1921,
      "ralek": 1922,
      "Ġifan": 1923,
      "Ġinibe": 1924,
      "Ġokana": 1925,
      "sobe": 1926,
      "Ġoborá»į": 1927,
      "Ġesita": 1928,
      "Ġotitip": 1929,
      "Ġsamsin": 1930,
      "miin": 1931,
      "uwu": 1932,
      "Ġye": 1933,
      "Ġegwook": 1934,
      "Ġofu": 1935,
      "Ġugwun": 1936,
      "Ġinaan": 1937,
      "Ġnkitumu": 1938,
      "Ġnchat": 1939,
      "chichaka": 1940,
      "bala": 1941,
      "tis": 1942,
      "Ġijeje": 1943,
      "Ġikariá»įá»įn": 1944,
      "Ġibaak": 1945,
      "Ġudá»įk": 1946,
      "gwele": 1947,
      "fet": 1948,
      "Ġichim": 1949,
      "doni": 1950,
      "kweek": 1951,
      "Ġekpá»į": 1952,
      "Ġegba": 1953,
      "Ġefuk": 1954,
      "kamun": 1955,
      "kikeek": 1956,
      "Ġirere": 1957,
      "Ġonanaan": 1958,
      "masi": 1959,
      "lap": 1960,
      "rurá»įn": 1961,
      "Ġekwaan": 1962,
      "Ġijiji": 1963,
      "nenikana": 1964,
      "Ġitá»įká»į": 1965,
      "gobobe": 1966,
      "Ġyu": 1967,
      "Ġokwube": 1968,
      "Ġogobobe": 1969,
      "Ġjekaraya": 1970,
      "awaji": 1971,
      "ada": 1972,
      "sook": 1973,
      "Ġoman": 1974,
      "Ġngi": 1975,
      "sai": 1976,
      "Ġibeek": 1977,
      "Ġotuuk": 1978,
      "Ġikiriaak": 1979,
      "Ġinikana": 1980,
      "Ġisak": 1981,
      "Ġjeen": 1982,
      "Ġokpukp": 1983,
      "Ġugá»įn": 1984,
      "tutuuk": 1985,
      "Ġdamasi": 1986,
      "Ġnuwa": 1987,
      "Ġukpatu": 1988,
      "Ġnlilá»į": 1989,
      "Ġjedikaya": 1990,
      "Ġijijinu": 1991,
      "Ġdamasiká»įs": 1992,
      "otutuuk": 1993,
      "Ġwá»įlá»įwá»įlá»į": 1994,
      "Ġigele": 1995,
      "Ġefieek": 1996,
      "Ġotet": 1997,
      "mumen": 1998,
      "Ġonu": 1999,
      "Ġaga": 2000,
      "dadasi": 2001,
      "riabe": 2002,
      "nenisa": 2003,
      "neniriá»įá»įn": 2004,
      "Ġujaralek": 2005,
      "beka": 2006,
      "Ġakaka": 2007,
      ",âĢĻ": 2008,
      "feen": 2009,
      "mbe": 2010,
      "nwá»įá»įn": 2011,
      "yon": 2012,
      "Ġbo": 2013,
      "Ġte": 2014,
      "Ġuchi": 2015,
      "Ġiná»įná»į": 2016,
      "yaji": 2017,
      "yada": 2018,
      "kiri": 2019,
      "kiká»įp": 2020,
      "Ġinunu": 2021,
      "Ġekinyi": 2022,
      "Ġinigá»įá»įk": 2023,
      "Ġigbu": 2024,
      "Ġokiweek": 2025,
      "Ġukpak": 2026,
      "Ġjosaya": 2027,
      "Ġfigi": 2028,
      "Ġekpulube": 2029,
      "pan": 2030,
      "yá»į": 2031,
      "yem": 2032,
      "yá»įt": 2033,
      "Ġgwu": 2034,
      "retis": 2035,
      "Ġisinu": 2036,
      "Ġkana": 2037,
      "Ġsime": 2038,
      "Ġikiluk": 2039,
      "Ġinimun": 2040,
      "Ġiniben": 2041,
      "Ġigu": 2042,
      "feretis": 2043,
      "juja": 2044,
      "Ġemanbe": 2045,
      "Ġyuferetis": 2046,
      "buku": 2047,
      "fun": 2048,
      "Ġrom": 2049,
      "Ġetitiin": 2050,
      "Ġmbet": 2051,
      "Ġujit": 2052,
      "sisiki": 2053,
      "bá»įbá»įá»įn": 2054,
      "kiriaak": 2055,
      "teen": 2056,
      "Ġisimen": 2057,
      "fifila": 2058,
      "Ġifá»įá»įk": 2059,
      "Ġinikup": 2060,
      "Ġinikeke": 2061,
      "Ġogbuuruk": 2062,
      "Ġinyakpa": 2063,
      "Ġofut": 2064,
      "oket": 2065,
      "Ġgwa": 2066,
      "Ġiye": 2067,
      "Ġiburu": 2068,
      "Ġujuja": 2069,
      "chen": 2070,
      "Ġenek": 2071,
      "kirie": 2072,
      "boni": 2073,
      "Ġisiraka": 2074,
      "Ġsisa": 2075,
      "á»įmá»įbe": 2076,
      "Ġjesi": 2077,
      "Ġilep": 2078,
      "Ġrechen": 2079,
      "Ġmbasa": 2080,
      "Ġichili": 2081,
      "Ġichá»įká»į": 2082,
      "Ġtaya": 2083,
      "Ġbá»įká»į": 2084,
      "Ġibá»įbá»įká»į": 2085,
      "Ġewa": 2086,
      "Ġeta": 2087,
      "Ġnlom": 2088,
      "kafat": 2089,
      "fiak": 2090,
      "Ġsiki": 2091,
      "lim": 2092,
      "Ġekisi": 2093,
      "Ġekigwa": 2094,
      "kpayaka": 2095,
      "Ġonenije": 2096,
      "Ġoke": 2097,
      "Ġokinan": 2098,
      "Ġakpat": 2099,
      "Ġsun": 2100,
      "Ġosisi": 2101,
      "Ġekpakpan": 2102,
      "Ġribeka": 2103,
      "Ġododo": 2104,
      "Ġigá»įgá»įá»įk": 2105,
      "Ġiká»įp": 2106,
      "Ġnru": 2107,
      "kima": 2108,
      "sasan": 2109,
      "Ġibele": 2110,
      "liya": 2111,
      "Ġekikpá»į": 2112,
      "Ġifaka": 2113,
      "tá»įs": 2114,
      "Ġbasan": 2115,
      "Ġalala": 2116,
      "Ġekesi": 2117,
      "Ġinenisa": 2118,
      "Ġasaya": 2119,
      "Ġjeyoyada": 2120,
      "Ġsimiá»įn": 2121,
      "Ġreyobuwam": 2122,
      "Ġigbugbá»į": 2123,
      "Ġnruruk": 2124,
      "ken": 2125,
      "kbe": 2126,
      "wi": 2127,
      "Ġtet": 2128,
      "Ġlibi": 2129,
      "Ġobaak": 2130,
      "Ġmera": 2131,
      "Ġkom": 2132,
      "Ġamin": 2133,
      "kibá»įká»į": 2134,
      "gween": 2135,
      "Ġjadá»įk": 2136,
      "Ġenenitumu": 2137,
      "Ġojeje": 2138,
      "Ġogbugbo": 2139,
      "fitali": 2140,
      "Ġachá»į": 2141,
      "fon": 2142,
      "tana": 2143,
      "Ġedo": 2144,
      "Ġoyaka": 2145,
      "Ġnnyan": 2146,
      "Ġnsabe": 2147,
      "Ġnná»į": 2148,
      "cho": 2149,
      "kire": 2150,
      "tiin": 2151,
      "raan": 2152,
      "Ġamalek": 2153,
      "Ġinikpa": 2154,
      "Ġirá»įriá»įá»įn": 2155,
      "Ġidodo": 2156,
      "Ġkpemun": 2157,
      "Ġkperarak": 2158,
      "Ġokikpulu": 2159,
      "Ġgat": 2160,
      "Ġjowas": 2161,
      "Ġesisi": 2162,
      "Ġogbokot": 2163,
      "Ġigbagban": 2164,
      "Ġnjin": 2165,
      "Ġonube": 2166,
      "Ġogbugboon": 2167,
      "wan": 2168,
      "Ġiwop": 2169,
      "Ġiluluk": 2170,
      "Ġituuk": 2171,
      "Ġelook": 2172,
      "Ġmbe": 2173,
      "jiya": 2174,
      "kidun": 2175,
      "gwá»į": 2176,
      "Ġsie": 2177,
      "Ġoná»įná»į": 2178,
      "Ġkpegban": 2179,
      "Ġejeek": 2180,
      "Ġitana": 2181,
      "Ġnafitali": 2182,
      "Ġigwugwuun": 2183,
      "Ġekpukp": 2184,
      "Ġikwukwu": 2185,
      "Ġogugo": 2186,
      "Ġgibiá»įn": 2187,
      "má»įmá»įná»į": 2188,
      "Ġoyo": 2189,
      "Ġkup": 2190,
      "Ġinyam": 2191,
      "Ġai": 2192,
      "reli": 2193,
      "Ġisá»įká»į": 2194,
      "Ġiniki": 2195,
      "Ġigo": 2196,
      "seba": 2197,
      "fum": 2198,
      "Ġokikpá»į": 2199,
      "kanabe": 2200,
      "Ġagbasi": 2201,
      "Ġininin": 2202,
      "Ġsema": 2203,
      "Ġonineen": 2204,
      "Ġegwogwook": 2205,
      "gana": 2206,
      "gbet": 2207,
      "Ġbu": 2208,
      "Ġeweek": 2209,
      "Ġechechieek": 2210,
      "Ġotoon": 2211,
      "siá»įn": 2212,
      "rá»įká»į": 2213,
      "bojeje": 2214,
      "Ġakwá»įá»įk": 2215,
      "Ġikakup": 2216,
      "Ġikatet": 2217,
      "Ġonenikwu": 2218,
      "jaya": 2219,
      "Ġjudia": 2220,
      "Ġayaji": 2221,
      "Ġiboni": 2222,
      "Ġegwugwu": 2223,
      "sá»įp": 2224,
      "Ġfan": 2225,
      "Ġiti": 2226,
      "Ġosibibe": 2227,
      "wukwu": 2228,
      "Ġaman": 2229,
      "kasa": 2230,
      "iná»į": 2231,
      "bumu": 2232,
      "Ġsilo": 2233,
      "Ġamajiya": 2234,
      "set": 2235,
      "Ġokwun": 2236,
      "Ġebebe": 2237,
      "teleyem": 2238,
      "Ġobokup": 2239,
      "yanan": 2240,
      "Ġejeen": 2241,
      "Ġjudas": 2242,
      "laakbe": 2243,
      "Ġbeteleyem": 2244,
      "Ġtema": 2245,
      "Ġokwukwek": 2246,
      "Ġaligá»į": 2247,
      "Ġjesereli": 2248,
      "Ġmbit": 2249,
      "Ġemumun": 2250,
      "Ġsimei": 2251,
      "ike": 2252,
      "Ġlá»į": 2253,
      "Ġebá»įká»įbe": 2254,
      "Ġosun": 2255,
      "Ġinwaan": 2256,
      "Ġikukup": 2257,
      "Ġkecha": 2258,
      "kigwen": 2259,
      "kitá»įbá»į": 2260,
      "Ġsidá»įn": 2261,
      "Ġibat": 2262,
      "tititiin": 2263,
      "Ġekekitumu": 2264,
      "Ġimeen": 2265,
      "Ġetetbe": 2266,
      "Ġgibiya": 2267,
      "Ġotapbe": 2268,
      "Ġechieekbe": 2269,
      "Ġojotbe": 2270,
      "kek": 2271,
      "Ġowá»į": 2272,
      "Ġomumun": 2273,
      "wuwuuk": 2274,
      "Ġukwek": 2275,
      "Ġnkirá»į": 2276,
      "kabo": 2277,
      "kitaka": 2278,
      "Ġejijaka": 2279,
      "Ġmiji": 2280,
      "Ġirerie": 2281,
      "Ġikido": 2282,
      "liki": 2283,
      "Ġikasa": 2284,
      "Ġitatap": 2285,
      "Ġonenibene": 2286,
      "Ġobore": 2287,
      "Ġenenido": 2288,
      "abas": 2289,
      "Ġelia": 2290,
      "Ġikakana": 2291,
      "Ġenube": 2292,
      "Ġpere": 2293,
      "Ġoriara": 2294,
      "Ġisusun": 2295,
      "Ġbanabas": 2296,
      "Ġigugo": 2297,
      "Ġfanti": 2298,
      "Ġanan": 2299,
      "ekpe": 2300,
      "kiká»įt": 2301,
      "kido": 2302,
      "gwogwook": 2303,
      "Ġisisibi": 2304,
      "Ġmgbá»įlá»į": 2305,
      "Ġgá»į": 2306,
      "Ġmfufiat": 2307,
      "Ġotá»įká»įbe": 2308,
      "Ġomanbe": 2309,
      "ata": 2310,
      "kem": 2311,
      "owa": 2312,
      "us": 2313,
      "Ġetá»įn": 2314,
      "Ġosan": 2315,
      "Ġaba": 2316,
      "Ġikinu": 2317,
      "Ġnnyi": 2318,
      "yas": 2319,
      "ÌĤ.": 2320,
      "Ġená»į": 2321,
      "jebe": 2322,
      "Ġkpo": 2323,
      "Ġikitá»įn": 2324,
      "Ġidá»įmá»į": 2325,
      "Ġikará»į": 2326,
      "kpakpan": 2327,
      "Ġogá»į": 2328,
      "Ġenenije": 2329,
      "Ġayajaya": 2330,
      "Ġolilibi": 2331,
      "Ġsetan": 2332,
      "rombe": 2333,
      "Ġikween": 2334,
      "Ġbie": 2335,
      "Ġkora": 2336,
      "Ġajariya": 2337,
      "Ġjebulá»įn": 2338,
      "Ġorombe": 2339,
      "Ġpereji": 2340,
      "faan": 2341,
      "Ġeche": 2342,
      "Ġoma": 2343,
      "Ġngan": 2344,
      "bá»įt": 2345,
      "Ġkelep": 2346,
      "kam": 2347,
      "Ġisini": 2348,
      "koro": 2349,
      "Ġikigwen": 2350,
      "lilaba": 2351,
      "Ġekirie": 2352,
      "Ġekitá»įbá»į": 2353,
      "Ġekikeek": 2354,
      "Ġusá»įk": 2355,
      "benbe": 2356,
      "kpore": 2357,
      "Ġnriro": 2358,
      "Ġfila": 2359,
      "Ġsodá»įm": 2360,
      "rok": 2361,
      "rorom": 2362,
      "Ġekesa": 2363,
      "Ġbenaya": 2364,
      "Ġikwuun": 2365,
      "sulube": 2366,
      "Ġpesia": 2367,
      "Ġotataan": 2368,
      "Ġkoyat": 2369,
      "Ġrama": 2370,
      "kororok": 2371,
      "oye": 2372,
      "Ġilá»įk": 2373,
      "Ġitetele": 2374,
      "Ġegon": 2375,
      "Ġokpan": 2376,
      "Ġogwegwen": 2377,
      "Ġuwot": 2378,
      "Ġufun": 2379,
      "yiaan": 2380,
      "tutun": 2381,
      "Ġebikaan": 2382,
      "Ġenyan": 2383,
      "katet": 2384,
      "kilibi": 2385,
      "riki": 2386,
      "Ġogwugwa": 2387,
      "boki": 2388,
      "boyaka": 2389,
      "Ġisire": 2390,
      "tobo": 2391,
      "Ġifa": 2392,
      "Ġinigwook": 2393,
      "Ġune": 2394,
      "Ġonenibá»įká»į": 2395,
      "Ġirá»įká»į": 2396,
      "dabu": 2397,
      "Ġerá»įrá»į": 2398,
      "Ġewuukbe": 2399,
      "Ġelisa": 2400,
      "kween": 2401,
      "Ġanyiaan": 2402,
      "Ġnjijan": 2403,
      "Ġnjijoon": 2404,
      "Ġlá»įt": 2405,
      "oyerebet": 2406,
      "Ġufuna": 2407,
      "tem": 2408,
      "Ġtim": 2409,
      "Ġegá»įgá»įá»įk": 2410,
      "Ġomin": 2411,
      "Ġobenebe": 2412,
      "Ġakat": 2413,
      "ukbe": 2414,
      "kifieek": 2415,
      "ris": 2416,
      "Ġisimun": 2417,
      "gbá»įá»įk": 2418,
      "anama": 2419,
      "lia": 2420,
      "Ġekiká»įt": 2421,
      "Ġinirá»į": 2422,
      "Ġinilook": 2423,
      "Ġisaka": 2424,
      "Ġekekeke": 2425,
      "suru": 2426,
      "Ġejet": 2427,
      "Ġitobo": 2428,
      "ninin": 2429,
      "Ġseya": 2430,
      "Ġnkinyi": 2431,
      "kpukpuku": 2432,
      "Ġakajit": 2433,
      "Ġokanabe": 2434,
      "Ġngigá»į": 2435,
      "Ġmerari": 2436,
      "Ġmijipa": 2437,
      "Ġfilafila": 2438,
      "gop": 2439,
      "len": 2440,
      "nene": 2441,
      "Ġiwulu": 2442,
      "Ġetutumu": 2443,
      "Ġobu": 2444,
      "Ġoweekbe": 2445,
      "Ġami": 2446,
      "jijijaka": 2447,
      "katumu": 2448,
      "katele": 2449,
      "kagbe": 2450,
      "kikpukpo": 2451,
      "Ġikigwa": 2452,
      "Ġisá»įk": 2453,
      "lalaak": 2454,
      "Ġitaak": 2455,
      "Ġifin": 2456,
      "Ġjera": 2457,
      "Ġjemi": 2458,
      "daya": 2459,
      "riaan": 2460,
      "Ġekukup": 2461,
      "chechep": 2462,
      "Ġoboni": 2463,
      "Ġbalak": 2464,
      "lomo": 2465,
      "nenire": 2466,
      "Ġefuun": 2467,
      "Ġekerek": 2468,
      "Ġmbará»į": 2469,
      "Ġasasa": 2470,
      "Ġosikibe": 2471,
      "Ġolukbe": 2472,
      "Ġonirá»į": 2473,
      "Ġikpukpo": 2474,
      "Ġimaan": 2475,
      "Ġjebus": 2476,
      "Ġekerekwukwu": 2477,
      "lá»įká»į": 2478,
      "Ġf": 2479,
      "Ġgwook": 2480,
      "Ġiwut": 2481,
      "Ġiyik": 2482,
      "Ġmfi": 2483,
      "Ġnnaan": 2484,
      "jeri": 2485,
      "Ġkeek": 2486,
      "mumana": 2487,
      "kilá»įk": 2488,
      "eman": 2489,
      "Ġikifieek": 2490,
      "Ġekikup": 2491,
      "Ġekigbaan": 2492,
      "Ġofe": 2493,
      "Ġifet": 2494,
      "emebe": 2495,
      "Ġigwugwu": 2496,
      "takabe": 2497,
      "Ġuraya": 2498,
      "Ġasafu": 2499,
      "Ġenamabe": 2500,
      ".)": 2501,
      "buk": 2502,
      "beki": 2503,
      "nwene": 2504,
      "Ġriá»įá»įn": 2505,
      "Ġigwegwen": 2506,
      "Ġefo": 2507,
      "Ġeweekbe": 2508,
      "Ġegop": 2509,
      "Ġmban": 2510,
      "Ġmmumun": 2511,
      "Ġoyayaka": 2512,
      "ÌĢ-": 2513,
      "Ġut": 2514,
      "Ġulu": 2515,
      "Ġntá»įbe": 2516,
      "Ġenye": 2517,
      "kikaan": 2518,
      "kikput": 2519,
      "rim": 2520,
      "kpak": 2521,
      "Ġikigban": 2522,
      "Ġekito": 2523,
      "Ġinigwu": 2524,
      "Ġigá»įm": 2525,
      "Ġgba": 2526,
      "kpá»įge": 2527,
      "wuukbe": 2528,
      "Ġenenisi": 2529,
      "Ġmbat": 2530,
      "Ġmbatumu": 2531,
      "Ġabija": 2532,
      "Ġkpekiká»įt": 2533,
      "tataba": 2534,
      "Ġimá»įá»įn": 2535,
      "des": 2536,
      "Ġjemis": 2537,
      "tbe": 2538,
      "Ġwi": 2539,
      "Ġiwá»į": 2540,
      "Ġiwuuk": 2541,
      "Ġibieen": 2542,
      "Ġetá»į": 2543,
      "Ġetá»įbá»į": 2544,
      "beben": 2545,
      "Ġadoni": 2546,
      "Ġntá»į": 2547,
      "Ġenwá»į": 2548,
      "tam": 2549,
      "Ġkiria": 2550,
      "Ġikikeek": 2551,
      "Ġejitbe": 2552,
      "Ġmbubeek": 2553,
      "Ġonenirá»į": 2554,
      "Ġkpesa": 2555,
      "Ġunyechieen": 2556,
      "Ġakpakpa": 2557,
      "Ġmfuun": 2558,
      "Ġobeben": 2559,
      "Ġfilip": 2560,
      "Ġinwá»įm": 2561,
      "Ġichiaak": 2562,
      "Ġikinwá»į": 2563,
      "Ġgiligan": 2564,
      "juuk": 2565,
      "Ġadam": 2566,
      "Ġjioyakim": 2567,
      "adadi": 2568,
      "mkpá»į": 2569,
      "uuk": 2570,
      "Ġitá»įt": 2571,
      "Ġmgbugbo": 2572,
      "Ġininyi": 2573,
      "Ġiken": 2574,
      "sibe": 2575,
      "yayat": 2576,
      "chon": 2577,
      "jeret": 2578,
      "kigwa": 2579,
      "kibene": 2580,
      "inin": 2581,
      "rá»įrá»įn": 2582,
      "Ġibem": 2583,
      "Ġibeben": 2584,
      "leek": 2585,
      "Ġekitap": 2586,
      "Ġamat": 2587,
      "Ġigbe": 2588,
      "será»įs": 2589,
      "omi": 2590,
      "Ġdo": 2591,
      "kanyi": 2592,
      "Ġjeruba": 2593,
      "timbe": 2594,
      "Ġufiak": 2595,
      "gbugbuku": 2596,
      "Ġlia": 2597,
      "Ġnajeret": 2598,
      "Ġayaserá»įs": 2599,
      "kwá»įá»įk": 2600,
      "gá»įlá»į": 2601,
      "Ġasaak": 2602,
      "Ġibosi": 2603,
      "Ġigá»įbá»į": 2604,
      "Ġikwala": 2605,
      "Ġsemaya": 2606,
      "kpaká»įt": 2607,
      "ebe": 2608,
      "nwá»įná»į": 2609,
      "Ġeti": 2610,
      "Ġegwen": 2611,
      "Ġedim": 2612,
      "Ġoweek": 2613,
      "Ġomabe": 2614,
      "Ġkwu": 2615,
      "wakwaan": 2616,
      "jet": 2617,
      "kitutuku": 2618,
      "bolo": 2619,
      "boset": 2620,
      "Ġibesi": 2621,
      "unun": 2622,
      "Ġikpukot": 2623,
      "lilibi": 2624,
      "Ġsaina": 2625,
      "Ġekoon": 2626,
      "Ġogba": 2627,
      "Ġkpeben": 2628,
      "Ġokitap": 2629,
      "Ġeberie": 2630,
      "dimi": 2631,
      "Ġgasiá»įn": 2632,
      "Ġbali": 2633,
      "Ġjoram": 2634,
      "titibi": 2635,
      "Ġilap": 2636,
      "Ġekakaan": 2637,
      "Ġekakpá»įge": 2638,
      "Ġnrebe": 2639,
      "Ġimá»įm": 2640,
      "jomobe": 2641,
      "Ġekekpá»į": 2642,
      "Ġurimi": 2643,
      "Ġotetbe": 2644,
      "Ġbowaji": 2645,
      "Ġaminá»įn": 2646,
      "),": 2647,
      "Ġram": 2648,
      "á»įri": 2649,
      "Ġegwá»įk": 2650,
      "Ġosobe": 2651,
      "Ġnchi": 2652,
      "kisiki": 2653,
      "tataka": 2654,
      "Ġsiyon": 2655,
      "Ġkpomo": 2656,
      "lai": 2657,
      "kwube": 2658,
      "Ġinitoon": 2659,
      "Ġisasan": 2660,
      "lukwulu": 2661,
      "Ġebesi": 2662,
      "Ġebejeje": 2663,
      "Ġofia": 2664,
      "Ġijin": 2665,
      "Ġesibon": 2666,
      "gbaalek": 2667,
      "Ġekpuk": 2668,
      "Ġojebe": 2669,
      "Ġifiaan": 2670,
      "Ġnjijá»į": 2671,
      "Ġjeyoram": 2672,
      "Ġnkwukwak": 2673,
      "Ġasera": 2674,
      "Ġsieba": 2675,
      "Ġega": 2676,
      "Ġmá»įmá»į": 2677,
      "Ġojit": 2678,
      "Ġojeen": 2679,
      "Ġomumen": 2680,
      "Ġenun": 2681,
      "kiya": 2682,
      "kitoon": 2683,
      "kimin": 2684,
      "kinyan": 2685,
      "bonu": 2686,
      "libe": 2687,
      "las": 2688,
      "Ġekibá»įká»į": 2689,
      "Ġekinu": 2690,
      "Ġinitim": 2691,
      "Ġmaaka": 2692,
      "Ġmaika": 2693,
      "Ġokitaan": 2694,
      "tapbe": 2695,
      "Ġkawuuk": 2696,
      "Ġobon": 2697,
      "Ġiraak": 2698,
      "miri": 2699,
      "Ġenenigbaan": 2700,
      "Ġekakat": 2701,
      "Ġnali": 2702,
      "Ġgiris": 2703,
      "Ġabiata": 2704,
      "kwala": 2705,
      "kpukpulu": 2706,
      "gumu": 2707,
      "Ġnsek": 2708,
      "wuwum": 2709,
      "Ġkwulukwulu": 2710,
      "isi": 2711,
      "jop": 2712,
      "ofi": 2713,
      "Ġtuku": 2714,
      "Ġileke": 2715,
      "Ġefa": 2716,
      "Ġmkpá»į": 2717,
      "Ġobá»įká»įbe": 2718,
      "Ġolaakbe": 2719,
      "Ġkweek": 2720,
      "Ġiká»įá»įk": 2721,
      "Ġnlak": 2722,
      "Ġntutun": 2723,
      "boje": 2724,
      "Ġejira": 2725,
      "Ġijak": 2726,
      "Ġijomo": 2727,
      "Ġaká»įá»įk": 2728,
      "Ġikisibi": 2729,
      "Ġikibem": 2730,
      "Ġikilook": 2731,
      "Ġiniria": 2732,
      "Ġonenito": 2733,
      "Ġogá»įá»įk": 2734,
      "Ġokinu": 2735,
      "Ġkatet": 2736,
      "dido": 2737,
      "kanan": 2738,
      "Ġjotam": 2739,
      "Ġenenigwu": 2740,
      "Ġekakana": 2741,
      "Ġebekpa": 2742,
      "Ġosibe": 2743,
      "Ġmgbet": 2744,
      "sisip": 2745,
      "Ġutá»įá»įk": 2746,
      "Ġwit": 2747,
      "Ġnchicha": 2748,
      "dek": 2749,
      "ruku": 2750,
      "Ġluk": 2751,
      "Ġewá»įp": 2752,
      "Ġmgbaan": 2753,
      "Ġochechieek": 2754,
      "wuku": 2755,
      "wuruku": 2756,
      "Ġiná»įá»įn": 2757,
      "beme": 2758,
      "bini": 2759,
      "Ġnria": 2760,
      "Ġnkisa": 2761,
      "Ġonwá»įn": 2762,
      "Ġonama": 2763,
      "mama": 2764,
      "enia": 2765,
      "Ġikiká»įt": 2766,
      "toto": 2767,
      "kpatele": 2768,
      "Ġokekeke": 2769,
      "Ġsalu": 2770,
      "son": 2771,
      "Ġekan": 2772,
      "Ġkpewá»įlá»į": 2773,
      "Ġifefieek": 2774,
      "unuun": 2775,
      "Ġesibe": 2776,
      "mimiin": 2777,
      "Ġosasan": 2778,
      "Ġitop": 2779,
      "Ġobedi": 2780,
      "Ġujaya": 2781,
      "Ġedá»įmá»įbe": 2782,
      "neneme": 2783,
      "kararak": 2784,
      "Ġodobe": 2785,
      "Ġegwookbe": 2786,
      "Ġegbagbaan": 2787,
      "Ġgbaalek": 2788,
      "fá»įfá»įá»įk": 2789,
      "mkpan": 2790,
      "nyam": 2791,
      "nyana": 2792,
      "renia": 2793,
      "teme": 2794,
      "Ġria": 2795,
      "Ġá»įká»į": 2796,
      "Ġibá»įn": 2797,
      "Ġilo": 2798,
      "Ġichaka": 2799,
      "Ġetá»įt": 2800,
      "Ġoji": 2801,
      "Ġodi": 2802,
      "Ġochieek": 2803,
      "Ġmedi": 2804,
      "Ġufá»įá»įk": 2805,
      "Ġnun": 2806,
      "Ġntim": 2807,
      "gwugwu": 2808,
      "kasan": 2809,
      "kimun": 2810,
      "kisan": 2811,
      "kiná»į": 2812,
      "kifuuk": 2813,
      "Ġyaka": 2814,
      "kut": 2815,
      "chichit": 2816,
      "Ġgeda": 2817,
      "Ġotukot": 2818,
      "Ġemaan": 2819,
      "terenia": 2820,
      "tiá»įk": 2821,
      "Ġejirá»įn": 2822,
      "Ġikisun": 2823,
      "Ġekijeen": 2824,
      "Ġekitutuku": 2825,
      "Ġinikpá»į": 2826,
      "Ġjet": 2827,
      "Ġogbe": 2828,
      "Ġokijeen": 2829,
      "lukbe": 2830,
      "susun": 2831,
      "kanwá»įn": 2832,
      "Ġesiki": 2833,
      "kpokup": 2834,
      "Ġseme": 2835,
      "Ġefumbe": 2836,
      "Ġebekup": 2837,
      "Ġokodi": 2838,
      "Ġotitop": 2839,
      "kinyinyá»įn": 2840,
      "namabe": 2841,
      "já»įrá»įs": 2842,
      "Ġantiá»įk": 2843,
      "liliin": 2844,
      "Ġeninin": 2845,
      "Ġsailas": 2846,
      "Ġkiriat": 2847,
      "Ġtukutuku": 2848,
      "Ġebekpakpan": 2849,
      "Ġmediterenia": 2850,
      "Ġgedaliya": 2851,
      "tá»įká»į": 2852,
      "Ġiwá»įlá»į": 2853,
      "Ġegban": 2854,
      "Ġmmabe": 2855,
      "Ġobá»įbá»įká»į": 2856,
      "Ġkw": 2857,
      "wum": 2858,
      "Ġineme": 2859,
      "Ġakpá»įk": 2860,
      "Ġnk": 2861,
      "Ġnkana": 2862,
      "gwuuk": 2863,
      "kitim": 2864,
      "bonan": 2865,
      "Ġgera": 2866,
      "Ġmikaya": 2867,
      "Ġija": 2868,
      "Ġikikaan": 2869,
      "Ġikitim": 2870,
      "Ġikiwá»įp": 2871,
      "Ġikijijen": 2872,
      "Ġikafieek": 2873,
      "Ġunin": 2874,
      "Ġoneniben": 2875,
      "Ġonenikpá»įk": 2876,
      "Ġorá»įriá»įá»įn": 2877,
      "Ġogban": 2878,
      "Ġkpefuk": 2879,
      "Ġiraria": 2880,
      "Ġenenititiin": 2881,
      "Ġenenijibi": 2882,
      "Ġigbaka": 2883,
      "Ġebekaan": 2884,
      "Ġelilim": 2885,
      "Ġotitá»įn": 2886,
      "Ġilikiya": 2887,
      "Ġkpebekaan": 2888,
      "Ġikinye": 2889,
      "Ġinwá»įnwá»į": 2890,
      "Ġbieseba": 2891,
      "kinyinyá»įná»į": 2892,
      "ega": 2893,
      "ikup": 2894,
      "ká»įk": 2895,
      "nchieek": 2896,
      "opi": 2897,
      "soon": 2898,
      "á»įti": 2899,
      "Ġecha": 2900,
      "Ġelibi": 2901,
      "Ġekpá»įk": 2902,
      "Ġebá»įbá»įká»į": 2903,
      "Ġetatap": 2904,
      "Ġegbugbuku": 2905,
      "Ġotele": 2906,
      "wuwá»įlá»į": 2907,
      "tuun": 2908,
      "kafieek": 2909,
      "ribá»į": 2910,
      "borá»įrá»į": 2911,
      "chibi": 2912,
      "Ġijá»į": 2913,
      "Ġikibá»įká»į": 2914,
      "Ġikibele": 2915,
      "Ġisá»įp": 2916,
      "Ġuwuuk": 2917,
      "Ġekimun": 2918,
      "Ġekiriaak": 2919,
      "Ġmbubak": 2920,
      "sera": 2921,
      "nyinyi": 2922,
      "Ġokitet": 2923,
      "Ġebetumu": 2924,
      "Ġiroon": 2925,
      "dodo": 2926,
      "Ġebeni": 2927,
      "Ġntá»įá»įk": 2928,
      "Ġugbek": 2929,
      "Ġigwagwa": 2930,
      "Ġebekimin": 2931,
      "Ġichip": 2932,
      "Ġosisibi": 2933,
      "kinwá»įá»įn": 2934,
      "kpebe": 2935,
      "Ġnnenimun": 2936,
      "Ġdari": 2937,
      "Ġlajá»įrá»įs": 2938,
      "Ġegwabe": 2939,
      "Ġekekebe": 2940,
      "Ġmbiribá»į": 2941,
      "Ġefukbe": 2942,
      "Ġagam": 2943,
      "Ġegonbe": 2944,
      "Ġtimá»įti": 2945,
      "Ġetiopi": 2946,
      "Ġsalum": 2947,
      "Ġetiopia": 2948,
      "gbin": 2949,
      "meen": 2950,
      "sek": 2951,
      "á»įbá»į": 2952,
      "Ġela": 2953,
      "Ġeria": 2954,
      "Ġelá»į": 2955,
      "Ġego": 2956,
      "Ġelam": 2957,
      "Ġegwenbe": 2958,
      "Ġeraria": 2959,
      "Ġmweek": 2960,
      "Ġokpá»į": 2961,
      "Ġotá»įt": 2962,
      "Ġomá»įmá»įná»į": 2963,
      "Ġosulube": 2964,
      "Ġmesi": 2965,
      "Ġkus": 2966,
      "Ġugwuuk": 2967,
      "Ġabá»įm": 2968,
      "Ġnin": 2969,
      "Ġnnen": 2970,
      "Ġnomi": 2971,
      "gwuku": 2972,
      "kakirá»į": 2973,
      "kajaka": 2974,
      "kige": 2975,
      "kitá»į": 2976,
      "kitá»įt": 2977,
      "bokwukwu": 2978,
      "Ġibeme": 2979,
      "Ġisisik": 2980,
      "Ġejijit": 2981,
      "maan": 2982,
      "Ġikput": 2983,
      "Ġikitet": 2984,
      "liin": 2985,
      "Ġikawuuk": 2986,
      "Ġekikaan": 2987,
      "Ġifá»įfá»įá»įk": 2988,
      "Ġonenigwu": 2989,
      "Ġonenisan": 2990,
      "seya": 2991,
      "Ġsafan": 2992,
      "omega": 2993,
      "yakabe": 2994,
      "Ġokisibi": 2995,
      "lá»įgá»įlá»į": 2996,
      "ranet": 2997,
      "Ġofieek": 2998,
      "Ġkamen": 2999,
      "Ġofifit": 3000,
      "Ġbasa": 3001,
      "kpokaan": 3002,
      "Ġjakajaka": 3003,
      "nenirá»į": 3004,
      "Ġekaká»įt": 3005,
      "Ġpomega": 3006,
      "Ġaraba": 3007,
      "Ġelikana": 3008,
      "Ġkpeberá»į": 3009,
      "Ġseru": 3010,
      "Ġnebá»įt": 3011,
      "Ġikaká»įt": 3012,
      "Ġitá»įtá»įbá»į": 3013,
      "já»įjá»įn": 3014,
      "Ġngobobe": 3015,
      "Ġrufu": 3016,
      "gwá»įgwá»įk": 3017,
      "Ġikakupge": 3018,
      "Ġananiya": 3019,
      "Ġgá»įlá»įgá»įlá»į": 3020,
      "Ġadonija": 3021,
      "Ġpomegaranet": 3022,
      "má»įmá»į": 3023,
      "ngwa": 3024,
      "Ġibon": 3025,
      "Ġiyiyala": 3026,
      "Ġirurá»įn": 3027,
      "Ġegobo": 3028,
      "ÌĦ:": 3029,
      "Ġokwut": 3030,
      "bes": 3031,
      "Ġnge": 3032,
      "gwugwuun": 3033,
      "ineya": 3034,
      "Ġejijibi": 3035,
      "Ġirep": 3036,
      "botoon": 3037,
      "Ġikiben": 3038,
      "Ġikibeek": 3039,
      "Ġikiwut": 3040,
      "Ġisá»įá»įn": 3041,
      "Ġisook": 3042,
      "Ġekigá»įá»įk": 3043,
      "Ġmakiri": 3044,
      "Ġkpetet": 3045,
      "Ġkpeweek": 3046,
      "tá»įtá»įbá»į": 3047,
      "Ġeberi": 3048,
      "Ġebeyaka": 3049,
      "Ġkayaka": 3050,
      "Ġkades": 3051,
      "Ġokpulu": 3052,
      "Ġigbama": 3053,
      "Ġebeká»įt": 3054,
      "Ġnaya": 3055,
      "Ġrefa": 3056,
      "Ġkpekup": 3057,
      "Ġichibi": 3058,
      "Ġá»įfá»įká»į": 3059,
      "Ġikiná»į": 3060,
      "Ġiriaan": 3061,
      "Ġayija": 3062,
      "Ġjeyowa": 3063,
      "Ġjeyowas": 3064,
      "Ġjeseben": 3065,
      "Ġokpukpulu": 3066,
      "Ġogá»įgá»įá»įk": 3067,
      "Ġofefieek": 3068,
      "Ġnká»įm": 3069,
      "ineyas": 3070,
      "eri": 3071,
      "fuku": 3072,
      "gá»įm": 3073,
      "pulu": 3074,
      "Ġetaka": 3075,
      "Ġobum": 3076,
      "Ġotetele": 3077,
      "Ġinwun": 3078,
      "Ġnkwa": 3079,
      "Ġntut": 3080,
      "Ġenwá»įná»į": 3081,
      "kaba": 3082,
      "kikpa": 3083,
      "kitibi": 3084,
      "kimá»įná»į": 3085,
      "kpunu": 3086,
      "kpuku": 3087,
      "taak": 3088,
      "chachiaak": 3089,
      "Ġowuukbe": 3090,
      "Ġsisera": 3091,
      "Ġonyenye": 3092,
      "Ġikimin": 3093,
      "gwaka": 3094,
      "ton": 3095,
      "totoon": 3096,
      "Ġikare": 3097,
      "Ġekisun": 3098,
      "Ġiniyik": 3099,
      "Ġjesuwa": 3100,
      "ká»įbe": 3101,
      "Ġokek": 3102,
      "Ġekwakwaan": 3103,
      "Ġotobe": 3104,
      "fafiat": 3105,
      "Ġesisibi": 3106,
      "Ġogebe": 3107,
      "ná»įbe": 3108,
      "Ġá»įkpá»įkpá»į": 3109,
      "Ġilip": 3110,
      "kisisaak": 3111,
      "Ġugbá»įá»įri": 3112,
      "Ġotatap": 3113,
      "Ġokpukpuk": 3114,
      "Ġefieekbe": 3115,
      "Ġobubot": 3116,
      "Ġfineyas": 3117,
      "Ġjerubaben": 3118,
      "Ġsemes": 3119,
      "Ġichieen": 3120,
      "Ġiyat": 3121,
      "Ġeku": 3122,
      "Ġele": 3123,
      "Ġebene": 3124,
      "Ġedasi": 3125,
      "Ġeriabe": 3126,
      "Ġman": 3127,
      "Ġoche": 3128,
      "Ġogwenbe": 3129,
      "Ġogwogwook": 3130,
      "Ġobenbe": 3131,
      "eka": 3132,
      "Ġusa": 3133,
      "Ġnde": 3134,
      "gegen": 3135,
      "kala": 3136,
      "kasik": 3137,
      "kigban": 3138,
      "Ġogwulá»į": 3139,
      "bosi": 3140,
      "chichili": 3141,
      "Ġenegá»įá»įk": 3142,
      "Ġmidia": 3143,
      "Ġsitibi": 3144,
      "Ġikitaka": 3145,
      "lululuk": 3146,
      "Ġikagbe": 3147,
      "Ġinisi": 3148,
      "Ġinito": 3149,
      "Ġinitá»įbá»į": 3150,
      "Ġigat": 3151,
      "Ġoneniman": 3152,
      "Ġmaliki": 3153,
      "Ġkperá»į": 3154,
      "Ġokitá»į": 3155,
      "wewele": 3156,
      "Ġkat": 3157,
      "Ġkasa": 3158,
      "Ġesak": 3159,
      "Ġbaruk": 3160,
      "Ġikanan": 3161,
      "Ġsem": 3162,
      "Ġikpá»įkpá»įk": 3163,
      "Ġugá»įbá»į": 3164,
      "Ġigwat": 3165,
      "Ġnebat": 3166,
      "Ġififila": 3167,
      "Ġililaba": 3168,
      "Ġtasis": 3169,
      "Ġakara": 3170,
      "Ġetimbe": 3171,
      "Ġajayen": 3172,
      "Ġlakis": 3173,
      "Ġoneninin": 3174,
      "Ġokpakpan": 3175,
      "Ġjioyakin": 3176,
      "Ġramot": 3177,
      "Ġdariá»įs": 3178,
      "Ġsitibin": 3179,
      "akpa": 3180,
      "lem": 3181,
      "ne": 3182,
      "tá»įá»įn": 3183,
      "Ġiwot": 3184,
      "Ġekpá»įkpá»įk": 3185,
      "Ġmesu": 3186,
      "ani": 3187,
      "Ġadi": 3188,
      "Ġiká»įk": 3189,
      "Ġiká»įká»įt": 3190,
      "kama": 3191,
      "kasibi": 3192,
      "katat": 3193,
      "kibu": 3194,
      "book": 3195,
      "bokikpulu": 3196,
      "Ġgeyaji": 3197,
      "Ġibebe": 3198,
      "Ġisirá»į": 3199,
      "Ġisinin": 3200,
      "Ġenesi": 3201,
      "Ġejibi": 3202,
      "Ġonye": 3203,
      "Ġikikup": 3204,
      "Ġikiran": 3205,
      "Ġikitoon": 3206,
      "liá»įs": 3207,
      "Ġererie": 3208,
      "Ġekinan": 3209,
      "Ġekikpulu": 3210,
      "Ġjefita": 3211,
      "Ġonenikpulu": 3212,
      "Ġgomo": 3213,
      "Ġsará»įs": 3214,
      "Ġogaan": 3215,
      "Ġebet": 3216,
      "nisa": 3217,
      "nirá»į": 3218,
      "Ġgaja": 3219,
      "Ġikanye": 3220,
      "Ġjoyanan": 3221,
      "Ġiram": 3222,
      "Ġinyanyan": 3223,
      "gbebe": 3224,
      "Ġifuku": 3225,
      "gbagban": 3226,
      "Ġochichit": 3227,
      "Ġochilibe": 3228,
      "Ġnaban": 3229,
      "Ġinenibe": 3230,
      "Ġnieman": 3231,
      "Ġimumana": 3232,
      "Ġabisai": 3233,
      "Ġodá»įmá»įbe": 3234,
      "Ġefesá»įs": 3235,
      "kinwá»į": 3236,
      "Ġtai": 3237,
      "Ġotabe": 3238,
      "wenwene": 3239,
      "Ġtimin": 3240,
      "Ġisusulu": 3241,
      "Ġewopbe": 3242,
      "Ġsusa": 3243,
      "donia": 3244,
      "Ġejijakabe": 3245,
      "Ġonamabe": 3246,
      "Ġmesidonia": 3247,
      "Ġokpulube": 3248,
      "Ġikagbege": 3249,
      "Ġmesulam": 3250,
      "Ġgomora": 3251,
      "ai": 3252,
      "aji": 3253,
      "fen": 3254,
      "itá»įn": 3255,
      "olom": 3256,
      "Ġgwen": 3257,
      "Ġrek": 3258,
      "Ġgwat": 3259,
      "Ġigween": 3260,
      "Ġewu": 3261,
      "Ġefi": 3262,
      "Ġebenebe": 3263,
      "Ġewuwu": 3264,
      "Ġobi": 3265,
      "Ġká»įn": 3266,
      "Ġate": 3267,
      "res": 3268,
      "sitá»įs": 3269,
      "Ġnti": 3270,
      "Ġnluk": 3271,
      "Ġnná»įná»į": 3272,
      "kalá»į": 3273,
      "kagban": 3274,
      "kagá»įá»įk": 3275,
      "chimi": 3276,
      "fiboset": 3277,
      "Ġmika": 3278,
      "Ġkpukp": 3279,
      "Ġikigwook": 3280,
      "Ġikilibi": 3281,
      "Ġikisiki": 3282,
      "totop": 3283,
      "Ġikafiat": 3284,
      "Ġekiben": 3285,
      "Ġiniluk": 3286,
      "Ġinikpulu": 3287,
      "Ġinichichini": 3288,
      "Ġigana": 3289,
      "á»įpa": 3290,
      "Ġonenikup": 3291,
      "Ġonenisibi": 3292,
      "tetbe": 3293,
      "Ġokikaan": 3294,
      "Ġokiluk": 3295,
      "Ġokinyan": 3296,
      "Ġijijen": 3297,
      "Ġekakwaan": 3298,
      "gbeme": 3299,
      "inife": 3300,
      "gbugbugbá»į": 3301,
      "Ġekemun": 3302,
      "bonunu": 3303,
      "Ġkpebemun": 3304,
      "Ġekekitaan": 3305,
      "Ġotitá»į": 3306,
      "gá»įbá»į": 3307,
      "Ġkpekirá»į": 3308,
      "Ġbeja": 3309,
      "Ġakasia": 3310,
      "Ġten": 3311,
      "Ġeyakabe": 3312,
      "ofifi": 3313,
      "Ġjeyowayaji": 3314,
      ").": 3315,
      "deja": 3316,
      "iliá»įs": 3317,
      "mmun": 3318,
      "sá»įk": 3319,
      "Ġweek": 3320,
      "Ġtoon": 3321,
      "Ġsel": 3322,
      "Ġicha": 3323,
      "Ġibá»įá»įn": 3324,
      "Ġiwá»įá»įk": 3325,
      "Ġititim": 3326,
      "Ġejot": 3327,
      "Ġmbá»įm": 3328,
      "Ġobene": 3329,
      "Ġojijaka": 3330,
      "Ġotata": 3331,
      "Ġmeliki": 3332,
      "biya": 3333,
      "Ġaro": 3334,
      "Ġnchieekbe": 3335,
      "Ġninife": 3336,
      "Ġená»įná»į": 3337,
      "Ġenwá»įá»įn": 3338,
      "Ġkeret": 3339,
      "kitá»įn": 3340,
      "kikpan": 3341,
      "kisis": 3342,
      "inyá»įn": 3343,
      "inyan": 3344,
      "bobene": 3345,
      "bajeje": 3346,
      "Ġisisiki": 3347,
      "bugbuk": 3348,
      "Ġijuuk": 3349,
      "Ġokuba": 3350,
      "Ġkpulu": 3351,
      "Ġjá»įpa": 3352,
      "Ġikikpa": 3353,
      "lileek": 3354,
      "gwagwak": 3355,
      "Ġikatele": 3356,
      "Ġikamá»įná»į": 3357,
      "Ġinibá»įká»į": 3358,
      "Ġagbugbuk": 3359,
      "Ġmbuuk": 3360,
      "Ġonenimun": 3361,
      "Ġonenijibi": 3362,
      "Ġatalia": 3363,
      "Ġmata": 3364,
      "Ġekem": 3365,
      "Ġijojomo": 3366,
      "Ġkpetap": 3367,
      "Ġkpebá»įká»į": 3368,
      "lá»įs": 3369,
      "Ġobosi": 3370,
      "fieekge": 3371,
      "Ġirariaak": 3372,
      "riaakbe": 3373,
      "Ġekará»į": 3374,
      "Ġekachieek": 3375,
      "Ġsukot": 3376,
      "Ġegege": 3377,
      "Ġitem": 3378,
      "tibibe": 3379,
      "bonbe": 3380,
      "Ġnadabu": 3381,
      "Ġsefa": 3382,
      "Ġekekije": 3383,
      "Ġekirá»įká»į": 3384,
      "Ġefefieek": 3385,
      "Ġililibi": 3386,
      "Ġberia": 3387,
      "Ġadadeja": 3388,
      "Ġiyayaka": 3389,
      "kponin": 3390,
      "Ġbani": 3391,
      "Ġsisaria": 3392,
      "Ġnná»įbe": 3393,
      "Ġekpukpulu": 3394,
      "Ġilolook": 3395,
      "Ġekurá»įn": 3396,
      "Ġakarake": 3397,
      "Ġikanyege": 3398,
      "esuuk": 3399,
      "edá»įm": 3400,
      "suk": 3401,
      "utá»įn": 3402,
      "wook": 3403,
      "yot": 3404,
      "Ġfieek": 3405,
      "Ġwele": 3406,
      "Ġelep": 3407,
      "Ġmma": 3408,
      "Ġmwuuk": 3409,
      "Ġmfat": 3410,
      "Ġmfeen": 3411,
      "Ġori": 3412,
      "Ġoda": 3413,
      "Ġogwen": 3414,
      "Ġobele": 3415,
      "Ġmefiboset": 3416,
      "Ġuwá»į": 3417,
      "Ġukut": 3418,
      "Ġinanaan": 3419,
      "Ġikinan": 3420,
      "siti": 3421,
      "Ġnchieek": 3422,
      "bá»įbá»įn": 3423,
      "Ġkeme": 3424,
      "kilook": 3425,
      "kikukup": 3426,
      "Ġgeba": 3427,
      "Ġotuban": 3428,
      "basa": 3429,
      "chachat": 3430,
      "Ġikitá»į": 3431,
      "lilam": 3432,
      "Ġikecha": 3433,
      "lube": 3434,
      "Ġchit": 3435,
      "Ġikala": 3436,
      "Ġikatat": 3437,
      "Ġekifieek": 3438,
      "Ġekimá»įná»į": 3439,
      "Ġitama": 3440,
      "Ġinitet": 3441,
      "Ġiniweek": 3442,
      "Ġinikpan": 3443,
      "Ġinisik": 3444,
      "Ġonenimá»įná»į": 3445,
      "sedek": 3446,
      "Ġgbo": 3447,
      "sá»įru": 3448,
      "sok": 3449,
      "Ġmaseya": 3450,
      "Ġogburu": 3451,
      "Ġofá»įá»įk": 3452,
      "Ġototuuk": 3453,
      "Ġde": 3454,
      "kanu": 3455,
      "Ġidasi": 3456,
      "Ġijiin": 3457,
      "Ġbati": 3458,
      "Ġesia": 3459,
      "kpotele": 3460,
      "Ġirá»įrá»įká»į": 3461,
      "Ġenenire": 3462,
      "Ġenenibene": 3463,
      "Ġininyan": 3464,
      "Ġsen": 3465,
      "gbugbuk": 3466,
      "Ġnayá»į": 3467,
      "Ġinenido": 3468,
      "Ġreya": 3469,
      "Ġneri": 3470,
      "Ġokekije": 3471,
      "Ġokekitumu": 3472,
      "bakbe": 3473,
      "Ġimiin": 3474,
      "já»įjá»į": 3475,
      "Ġayikam": 3476,
      "Ġaná»įn": 3477,
      "Ġifum": 3478,
      "kponan": 3479,
      "Ġetelebe": 3480,
      "Ġnetaniya": 3481,
      "Ġikwak": 3482,
      "Ġemumana": 3483,
      "Ġojitbe": 3484,
      "Ġojijibi": 3485,
      "Ġofieekbe": 3486,
      "Ġseruya": 3487,
      "Ġtimina": 3488,
      "Ġewuwuwum": 3489,
      "Ġobidaya": 3490,
      "Ġbejalen": 3491,
      "Ġikatatge": 3492,
      "Ġogbururu": 3493,
      "ká»įá»įk": 3494,
      "lot": 3495,
      "sana": 3496,
      "sá»įká»į": 3497,
      "usen": 3498,
      "Ġriaak": 3499,
      "Ġetibi": 3500,
      "Ġetitim": 3501,
      "Ġegobobe": 3502,
      "Ġerombe": 3503,
      "Ġmweekbe": 3504,
      "Ġobá»įká»į": 3505,
      "Ġolet": 3506,
      "Ġojijit": 3507,
      "Ġugban": 3508,
      "Ġurot": 3509,
      "Ġinanama": 3510,
      "bebe": 3511,
      "Ġasá»įru": 3512,
      "tubá»įk": 3513,
      "Ġntoon": 3514,
      "Ġngwenbe": 3515,
      "yaak": 3516,
      "bá»įá»įk": 3517,
      "kabe": 3518,
      "kinin": 3519,
      "kifiat": 3520,
      "kimá»įá»įn": 3521,
      "rija": 3522,
      "tataan": 3523,
      "tayim": 3524,
      "bosibi": 3525,
      "Ġibesa": 3526,
      "baya": 3527,
      "titen": 3528,
      "Ġeneje": 3529,
      "rama": 3530,
      "rayim": 3531,
      "Ġkis": 3532,
      "Ġsiba": 3533,
      "Ġkpem": 3534,
      "Ġkpenyi": 3535,
      "Ġikpaan": 3536,
      "Ġikibene": 3537,
      "Ġisoon": 3538,
      "tolek": 3539,
      "Ġekikpa": 3540,
      "Ġekitet": 3541,
      "Ġekitim": 3542,
      "Ġiniriá»įá»įn": 3543,
      "Ġinisan": 3544,
      "Ġinititiin": 3545,
      "Ġigbuku": 3546,
      "Ġirá»įt": 3547,
      "Ġmatan": 3548,
      "Ġngwugwat": 3549,
      "Ġkapan": 3550,
      "Ġanatá»įt": 3551,
      "Ġesasan": 3552,
      "kpoje": 3553,
      "Ġjabes": 3554,
      "Ġenenibe": 3555,
      "Ġenenimun": 3556,
      "Ġeneniben": 3557,
      "Ġifofo": 3558,
      "Ġilaka": 3559,
      "Ġekafieekge": 3560,
      "Ġokpá»įk": 3561,
      "gbagbaan": 3562,
      "kpá»įkbe": 3563,
      "Ġkpebesa": 3564,
      "kakinan": 3565,
      "Ġebekigwa": 3566,
      "Ġabigen": 3567,
      "Ġseraya": 3568,
      "Ġichon": 3569,
      "Ġkpekisa": 3570,
      "Ġosisisik": 3571,
      "dudun": 3572,
      "Ġikinwá»įá»įn": 3573,
      "Ġnnenibe": 3574,
      "Ġnnenitumu": 3575,
      "Ġotemebe": 3576,
      "Ġikatana": 3577,
      "gbugbá»įbe": 3578,
      "Ġmgbugba": 3579,
      "wenween": 3580,
      "Ġoneninama": 3581,
      "Ġeriebe": 3582,
      "Ġetobe": 3583,
      "Ġkpená»į": 3584,
      "Ġenekana": 3585,
      "Ġeliabu": 3586,
      "Ġelisama": 3587,
      "Ġotelebe": 3588,
      "Ġká»įniliá»įs": 3589,
      "Ġekachieekge": 3590,
      "Ġkapaná»įm": 3591,
      "asaak": 3592,
      "den": 3593,
      "jan": 3594,
      "sem": 3595,
      "uru": 3596,
      "wá»įká»į": 3597,
      "Ġichat": 3598,
      "Ġefaka": 3599,
      "Ġegu": 3600,
      "Ġegak": 3601,
      "Ġegat": 3602,
      "ekene": 3603,
      "Ġare": 3604,
      "Ġasu": 3605,
      "rerie": 3606,
      "Ġngwa": 3607,
      "Ġnse": 3608,
      "Ġngá»įm": 3609,
      "kawuuk": 3610,
      "kigwook": 3611,
      "kpekpe": 3612,
      "bobot": 3613,
      "boluk": 3614,
      "bokpá»įkpá»į": 3615,
      "chichi": 3616,
      "teek": 3617,
      "Ġisibene": 3618,
      "bubum": 3619,
      "maji": 3620,
      "anaya": 3621,
      "wuna": 3622,
      "Ġekima": 3623,
      "Ġekitá»įt": 3624,
      "kwuun": 3625,
      "Ġifaan": 3626,
      "Ġamasa": 3627,
      "Ġinije": 3628,
      "Ġiniin": 3629,
      "Ġinimá»įná»į": 3630,
      "jakisis": 3631,
      "Ġsaasaak": 3632,
      "Ġmagi": 3633,
      "Ġokitaba": 3634,
      "Ġkeyila": 3635,
      "Ġebetap": 3636,
      "Ġofaka": 3637,
      "Ġobonin": 3638,
      "Ġeteteen": 3639,
      "nikwu": 3640,
      "Ġeneniria": 3641,
      "Ġitoto": 3642,
      "nenibá»įká»į": 3643,
      "Ġerá»įká»įbe": 3644,
      "Ġmfufe": 3645,
      "Ġarawuna": 3646,
      "sikbe": 3647,
      "Ġelilibi": 3648,
      "beká»įt": 3649,
      "Ġichiin": 3650,
      "Ġibosa": 3651,
      "Ġasidá»į": 3652,
      "kinama": 3653,
      "Ġotana": 3654,
      "Ġayimelek": 3655,
      "Ġegwugwuun": 3656,
      "Ġimaman": 3657,
      "Ġekpabe": 3658,
      "Ġekpakpa": 3659,
      "Ġtobaya": 3660,
      "iyak": 3661,
      "Ġrimá»įn": 3662,
      "Ġtirija": 3663,
      "adap": 3664,
      "Ġlibina": 3665,
      "Ġaminadap": 3666,
      "ikeyi": 3667,
      "Ġifafaka": 3668,
      "Ġmkpá»įtubá»įk": 3669,
      "Ġelá»įlá»įk": 3670,
      "Ġatejakisis": 3671,
      "Ġmikali": 3672,
      "Ġgboi": 3673,
      "Ġikatanage": 3674,
      "Ġnsebe": 3675,
      "Ġasidá»įdu": 3676,
      "arim": 3677,
      "dak": 3678,
      "gá»įn": 3679,
      "ikaan": 3680,
      "ife": 3681,
      "mfi": 3682,
      "mkpa": 3683,
      "mot": 3684,
      "po": 3685,
      "sá»įn": 3686,
      "uwa": 3687,
      "wek": 3688,
      "Ġrie": 3689,
      "Ġlaak": 3690,
      "Ġime": 3691,
      "Ġitutuku": 3692,
      "Ġiweweek": 3693,
      "Ġiwuwum": 3694,
      "Ġesulu": 3695,
      "Ġmgba": 3696,
      "Ġmbele": 3697,
      "Ġobet": 3698,
      "Ġorirá»į": 3699,
      "Ġojomobe": 3700,
      "ÌĢ,": 3701,
      "bidi": 3702,
      "redi": 3703,
      "Ġnje": 3704,
      "Ġnni": 3705,
      "Ġnriaak": 3706,
      "Ġntaan": 3707,
      "Ġnnube": 3708,
      "jim": 3709,
      "wari": 3710,
      "karere": 3711,
      "kititiin": 3712,
      "kijijen": 3713,
      "kifiak": 3714,
      "tabe": 3715,
      "Ġibet": 3716,
      "badi": 3717,
      "Ġisinan": 3718,
      "tiya": 3719,
      "Ġejiik": 3720,
      "Ġsili": 3721,
      "enes": 3722,
      "Ġjom": 3723,
      "Ġikika": 3724,
      "Ġikimun": 3725,
      "Ġikikana": 3726,
      "Ġikigugo": 3727,
      "Ġikechi": 3728,
      "tofen": 3729,
      "Ġidun": 3730,
      "Ġikaki": 3731,
      "Ġinikeme": 3732,
      "Ġonenigá»įá»įk": 3733,
      "Ġatasuk": 3734,
      "jat": 3735,
      "Ġsaba": 3736,
      "Ġmali": 3737,
      "Ġjibi": 3738,
      "Ġjiarim": 3739,
      "Ġokikup": 3740,
      "Ġechicha": 3741,
      "Ġebeek": 3742,
      "Ġebeje": 3743,
      "Ġofa": 3744,
      "Ġobokwu": 3745,
      "Ġjuwen": 3746,
      "Ġetetele": 3747,
      "gagak": 3748,
      "Ġijijijaka": 3749,
      "Ġbarak": 3750,
      "Ġikpaka": 3751,
      "dobe": 3752,
      "kpomun": 3753,
      "kpobá»įká»į": 3754,
      "Ġininwene": 3755,
      "nenisan": 3756,
      "gbele": 3757,
      "Ġfiin": 3758,
      "Ġmfufet": 3759,
      "Ġikpebe": 3760,
      "gbugbu": 3761,
      "Ġekeje": 3762,
      "Ġekeluk": 3763,
      "bonin": 3764,
      "Ġebekirá»į": 3765,
      "Ġinwen": 3766,
      "nyanyan": 3767,
      "Ġekekibe": 3768,
      "Ġnkiweek": 3769,
      "Ġifiá»įk": 3770,
      "Ġorak": 3771,
      "Ġebesasan": 3772,
      "Ġtaba": 3773,
      "Ġekanabe": 3774,
      "Ġayimaji": 3775,
      "Ġayitofen": 3776,
      "Ġtek": 3777,
      "Ġegá»įá»įkbe": 3778,
      "Ġuraamá»įn": 3779,
      "Ġekpete": 3780,
      "Ġserayi": 3781,
      "Ġewabe": 3782,
      "Ġsiela": 3783,
      "Ġominbe": 3784,
      "Ġewá»įpbe": 3785,
      "kibubaan": 3786,
      "Ġmelikisedek": 3787,
      "gá»įká»į": 3788,
      "nra": 3789,
      "Ġ[": 3790,
      "Ġtu": 3791,
      "Ġiyok": 3792,
      "Ġiteen": 3793,
      "Ġeban": 3794,
      "Ġeká»įtbe": 3795,
      "Ġebá»įp": 3796,
      "Ġogwook": 3797,
      "Ġotakabe": 3798,
      "Ġotataba": 3799,
      "Ġuran": 3800,
      "Ġumá»įá»įn": 3801,
      "Ġakis": 3802,
      "Ġawo": 3803,
      "tubu": 3804,
      "Ġnkan": 3805,
      "Ġnnu": 3806,
      "yari": 3807,
      "Ġemá»įná»į": 3808,
      "karie": 3809,
      "kabá»įká»į": 3810,
      "kasiki": 3811,
      "kakat": 3812,
      "kichieek": 3813,
      "rikwu": 3814,
      "saja": 3815,
      "bokana": 3816,
      "Ġkire": 3817,
      "Ġkirá»į": 3818,
      "Ġakwaan": 3819,
      "akeri": 3820,
      "Ġikpekpe": 3821,
      "Ġisut": 3822,
      "Ġiden": 3823,
      "Ġidá»įk": 3824,
      "Ġikaje": 3825,
      "Ġikalá»į": 3826,
      "Ġikagá»įá»įk": 3827,
      "Ġitataan": 3828,
      "Ġsama": 3829,
      "dai": 3830,
      "Ġorá»įk": 3831,
      "Ġorá»įrá»įn": 3832,
      "Ġeneninyi": 3833,
      "Ġyilá»į": 3834,
      "Ġmkpan": 3835,
      "Ġebele": 3836,
      "Ġkare": 3837,
      "Ġkali": 3838,
      "Ġoboki": 3839,
      "Ġanak": 3840,
      "mebe": 3841,
      "kporá»į": 3842,
      "Ġalaga": 3843,
      "Ġnriki": 3844,
      "Ġicheche": 3845,
      "Ġsoba": 3846,
      "nwá»įnwá»įná»į": 3847,
      "Ġujiyen": 3848,
      "Ġmbasi": 3849,
      "Ġebekirie": 3850,
      "Ġegwegwen": 3851,
      "Ġekekisa": 3852,
      "kwá»įká»į": 3853,
      "Ġfesitá»įs": 3854,
      "gogobo": 3855,
      "Ġeferi": 3856,
      "Ġikwurikwu": 3857,
      "Ġbela": 3858,
      "Ġnsá»įá»įn": 3859,
      "Ġbetani": 3860,
      "Ġikpukpulu": 3861,
      "Ġteman": 3862,
      "Ġnsisa": 3863,
      "Ġekeká»įt": 3864,
      "Ġekekpulu": 3865,
      "Ġiyaak": 3866,
      "Ġbiri": 3867,
      "Ġesibibe": 3868,
      "nemebe": 3869,
      "Ġoneniná»į": 3870,
      "Ġisikem": 3871,
      "wowop": 3872,
      "Ġedobe": 3873,
      "Ġowá»įwá»į": 3874,
      "Ġifafiat": 3875,
      "Ġamiram": 3876,
      "Ġkwok": 3877,
      "Ġochebe": 3878,
      "Ġtaitá»įs": 3879,
      "Ġreka": 3880,
      "Ġkpukpunu": 3881,
      "Ġbatiseba": 3882,
      "Ġsenakeri": 3883,
      "Ġmataniya": 3884,
      "Ġofakabe": 3885,
      "Ġinwenwene": 3886,
      "Ġsenakerip": 3887,
      "ere": 3888,
      "ego": 3889,
      "gá»įt": 3890,
      "mem": 3891,
      "neen": 3892,
      "rukp": 3893,
      "tá»įk": 3894,
      "Ġbele": 3895,
      "Ġeraka": 3896,
      "Ġeluluk": 3897,
      "Ġmin": 3898,
      "Ġmak": 3899,
      "Ġmwuukbe": 3900,
      "Ġokpo": 3901,
      "Ġojaan": 3902,
      "Ġobabia": 3903,
      "Ġmesak": 3904,
      "eko": 3905,
      "Ġulook": 3906,
      "bebem": 3907,
      "bedin": 3908,
      "Ġabá»įt": 3909,
      "Ġabedin": 3910,
      "Ġikek": 3911,
      "Ġikem": 3912,
      "rereke": 3913,
      "Ġnkup": 3914,
      "Ġnda": 3915,
      "Ġnyaka": 3916,
      "Ġngwen": 3917,
      "Ġnsun": 3918,
      "wala": 3919,
      "Ġenanaan": 3920,
      "kakan": 3921,
      "kigobo": 3922,
      "kibeek": 3923,
      "kikpaka": 3924,
      "kiká»įk": 3925,
      "sam": 3926,
      "bobe": 3927,
      "bokukup": 3928,
      "bokekeke": 3929,
      "Ġgesuru": 3930,
      "Ġisibe": 3931,
      "Ġisisa": 3932,
      "Ġisiná»į": 3933,
      "tien": 3934,
      "Ġmisi": 3935,
      "Ġmiria": 3936,
      "Ġirem": 3937,
      "rata": 3938,
      "rariaak": 3939,
      "ungwu": 3940,
      "Ġikisan": 3941,
      "Ġikimá»įá»įn": 3942,
      "Ġidek": 3943,
      "Ġikama": 3944,
      "Ġikataka": 3945,
      "Ġekilibi": 3946,
      "Ġusus": 3947,
      "Ġagiri": 3948,
      "Ġjeyi": 3949,
      "Ġjefun": 3950,
      "Ġonenirá»įn": 3951,
      "Ġoneniriaak": 3952,
      "Ġsali": 3953,
      "sosook": 3954,
      "darak": 3955,
      "Ġmaik": 3956,
      "Ġjifu": 3957,
      "Ġjimiri": 3958,
      "Ġenenin": 3959,
      "Ġeneninu": 3960,
      "sá»įsá»įp": 3961,
      "Ġkpegwu": 3962,
      "Ġkpesan": 3963,
      "Ġkpefieek": 3964,
      "Ġokisak": 3965,
      "Ġmkputá»įn": 3966,
      "Ġechit": 3967,
      "Ġebeluk": 3968,
      "Ġofiri": 3969,
      "Ġkatele": 3970,
      "Ġototo": 3971,
      "Ġobotumu": 3972,
      "Ġobonyi": 3973,
      "Ġesaba": 3974,
      "faji": 3975,
      "Ġbaji": 3976,
      "gá»įá»įkbe": 3977,
      "Ġenenibá»įká»į": 3978,
      "Ġenenikpá»įk": 3979,
      "Ġnriá»įk": 3980,
      "nenikup": 3981,
      "ukpuku": 3982,
      "Ġokpin": 3983,
      "Ġokpungwu": 3984,
      "welebe": 3985,
      "libibe": 3986,
      "Ġgosen": 3987,
      "Ġefufuun": 3988,
      "Ġekesun": 3989,
      "Ġinenibon": 3990,
      "Ġeliasi": 3991,
      "Ġonyanyana": 3992,
      "kakitet": 3993,
      "Ġmbala": 3994,
      "Ġfilikis": 3995,
      "Ġnkikpá»į": 3996,
      "Ġkpá»įi": 3997,
      "kwaak": 3998,
      "kpukpá»įt": 3999,
      "Ġorakbe": 4000,
      "Ġbeli": 4001,
      "Ġnkwukwuuk": 4002,
      "tutuun": 4003,
      "Ġikinyan": 4004,
      "kinyam": 4005,
      "Ġdagá»įn": 4006,
      "Ġayitubu": 4007,
      "Ġpeyá»į": 4008,
      "Ġotaba": 4009,
      "Ġetana": 4010,
      "Ġetá»įká»įbe": 4011,
      "Ġadadi": 4012,
      "Ġmgbugban": 4013,
      "Ġokpurukp": 4014,
      "eyiyi": 4015,
      "Ġarika": 4016,
      "dá»įni": 4017,
      "Ġikachieekge": 4018,
      "Ġikekirá»į": 4019,
      "Ġngigo": 4020,
      "Ġetataan": 4021,
      "Ġekpukpo": 4022,
      "Ġowá»įbe": 4023,
      "Ġikará»įge": 4024,
      "Ġmbanyi": 4025,
      "Ġobonbe": 4026,
      "Ġogbanabe": 4027,
      "Ġmalikija": 4028,
      "Ġarowe": 4029,
      "Ġtekowa": 4030,
      "Ġbiridá»įni": 4031,
      "Ġrekabu": 4032,
      "Ġabedinego": 4033,
      "Ġmiriam": 4034,
      "Ġususuk": 4035,
      "Ġagiripa": 4036,
      "Ġjefune": 4037,
      "Ġmaiken": 4038,
      "Ġeliasibu": 4039,
      "Ġokpurukpu": 4040,
      "eli": 4041,
      "gbini": 4042,
      "ikayaka": 4043,
      "lan": 4044,
      "loon": 4045,
      "Ġrieen": 4046,
      "Ġro": 4047,
      "Ġibá»įk": 4048,
      "Ġibu": 4049,
      "Ġeba": 4050,
      "Ġetaan": 4051,
      "Ġebá»įbá»įn": 4052,
      "Ġosibi": 4053,
      "Ġoká»įtbe": 4054,
      "Ġomiri": 4055,
      "Ġkak": 4056,
      "Ġufo": 4057,
      "Ġuká»įá»įk": 4058,
      "Ġaki": 4059,
      "Ġakisa": 4060,
      "reren": 4061,
      "sim": 4062,
      "Ġncha": 4063,
      "Ġnnan": 4064,
      "Ġnsiki": 4065,
      "Ġneko": 4066,
      "yaage": 4067,
      "gwube": 4068,
      "bá»įra": 4069,
      "ÌĤ;": 4070,
      "Ġená»įk": 4071,
      "Ġeniin": 4072,
      "Ġenwá»įn": 4073,
      "Ġenyam": 4074,
      "kaje": 4075,
      "muwen": 4076,
      "kiria": 4077,
      "kitop": 4078,
      "embe": 4079,
      "bokwu": 4080,
      "bomá»įná»į": 4081,
      "chichim": 4082,
      "bas": 4083,
      "Ġemabe": 4084,
      "Ġisisaak": 4085,
      "Ġenere": 4086,
      "chachaka": 4087,
      "Ġmili": 4088,
      "racha": 4089,
      "uni": 4090,
      "Ġmolek": 4091,
      "Ġkpama": 4092,
      "Ġikitibi": 4093,
      "Ġikigbaan": 4094,
      "Ġikigbuk": 4095,
      "liba": 4096,
      "gwagwa": 4097,
      "lut": 4098,
      "lagi": 4099,
      "layat": 4100,
      "Ġikamun": 4101,
      "Ġikarie": 4102,
      "Ġekilook": 4103,
      "Ġekiná»į": 4104,
      "kpasi": 4105,
      "kpalá»įlá»į": 4106,
      "Ġamariya": 4107,
      "Ġinibene": 4108,
      "Ġinigwen": 4109,
      "Ġinitaka": 4110,
      "Ġinijijaka": 4111,
      "Ġinikweek": 4112,
      "Ġunyana": 4113,
      "Ġagá»įm": 4114,
      "Ġjedu": 4115,
      "Ġonenititiin": 4116,
      "Ġokan": 4117,
      "Ġsadu": 4118,
      "dala": 4119,
      "dadi": 4120,
      "Ġeken": 4121,
      "Ġekweek": 4122,
      "Ġkpetat": 4123,
      "Ġokimun": 4124,
      "Ġokiben": 4125,
      "Ġokibem": 4126,
      "Ġokiwut": 4127,
      "Ġokigbuk": 4128,
      "Ġorebu": 4129,
      "Ġeteen": 4130,
      "Ġdu": 4131,
      "Ġdina": 4132,
      "kanye": 4133,
      "nikpá»į": 4134,
      "nitap": 4135,
      "nigá»įá»įk": 4136,
      "Ġgali": 4137,
      "fieekbe": 4138,
      "kwukwulu": 4139,
      "kpotet": 4140,
      "Ġjaya": 4141,
      "Ġjairi": 4142,
      "nenitele": 4143,
      "Ġmkpamkpa": 4144,
      "Ġokpoon": 4145,
      "Ġgolayat": 4146,
      "Ġochichili": 4147,
      "Ġnasiá»įn": 4148,
      "Ġinenisi": 4149,
      "Ġinenirá»į": 4150,
      "Ġkpebetele": 4151,
      "Ġkpebelá»įlá»į": 4152,
      "Ġonyanyan": 4153,
      "lookbe": 4154,
      "Ġkpekeke": 4155,
      "wopbe": 4156,
      "Ġasayen": 4157,
      "Ġodu": 4158,
      "Ġoduuk": 4159,
      "Ġitá»įtá»įn": 4160,
      "Ġkenaji": 4161,
      "dá»įdá»įk": 4162,
      "Ġtá»įp": 4163,
      "Ġikisisaak": 4164,
      "Ġotataka": 4165,
      "Ġnsibe": 4166,
      "Ġdibá»įra": 4167,
      "Ġiyak": 4168,
      "Ġotitim": 4169,
      "kponwá»įná»į": 4170,
      "yudu": 4171,
      "Ġachubá»įk": 4172,
      "Ġsikilagi": 4173,
      "Ġitiik": 4174,
      "Ġgá»įgu": 4175,
      "Ġabayaage": 4176,
      "Ġabaracha": 4177,
      "Ġelisabet": 4178,
      "Ġefofon": 4179,
      "Ġefarata": 4180,
      "Ġetá»įtbe": 4181,
      "Ġmagidala": 4182,
      "Ġotanabe": 4183,
      "Ġkalidia": 4184,
      "Ġaroweri": 4185,
      "Ġjedutun": 4186,
      "Ġsadusi": 4187,
      "Ġdinari": 4188,
      "ala": 4189,
      "duku": 4190,
      "ebek": 4191,
      "echichi": 4192,
      "nrá»į": 4193,
      "Ġlu": 4194,
      "Ġtá»įbá»į": 4195,
      "Ġsuwa": 4196,
      "Ġgwuun": 4197,
      "Ġitititiin": 4198,
      "Ġebá»įn": 4199,
      "Ġewá»į": 4200,
      "Ġefiat": 4201,
      "Ġelaak": 4202,
      "Ġegwuun": 4203,
      "Ġegwak": 4204,
      "Ġefiin": 4205,
      "Ġmgbe": 4206,
      "Ġogbá»į": 4207,
      "Ġobot": 4208,
      "Ġojá»įn": 4209,
      "Ġomá»įná»į": 4210,
      "Ġotibibe": 4211,
      "wuwulu": 4212,
      "ekwut": 4213,
      "yis": 4214,
      "yiyik": 4215,
      "yiyiyala": 4216,
      "bila": 4217,
      "bina": 4218,
      "Ġasen": 4219,
      "Ġawala": 4220,
      "tukot": 4221,
      "Ġnsis": 4222,
      "Ġnriabe": 4223,
      "chan": 4224,
      "gege": 4225,
      "kaso": 4226,
      "kakpan": 4227,
      "kado": 4228,
      "kiyaka": 4229,
      "kiwut": 4230,
      "kililaba": 4231,
      "riga": 4232,
      "tai": 4233,
      "boso": 4234,
      "bogá»įá»įk": 4235,
      "Ġgejeri": 4236,
      "Ġisiboset": 4237,
      "ĠâĢĻ": 4238,
      "Ġenerá»į": 4239,
      "Ġenyinyi": 4240,
      "radan": 4241,
      "Ġsiali": 4242,
      "Ġonire": 4243,
      "lelep": 4244,
      "anayas": 4245,
      "Ġeyiman": 4246,
      "Ġeyiyala": 4247,
      "Ġikima": 4248,
      "Ġikifo": 4249,
      "Ġikisulu": 4250,
      "Ġikitutuku": 4251,
      "Ġikiká»įp": 4252,
      "Ġikisook": 4253,
      "Ġikidido": 4254,
      "Ġchili": 4255,
      "laya": 4256,
      "lari": 4257,
      "Ġikatap": 4258,
      "Ġikalá»įlá»į": 4259,
      "Ġekitá»įn": 4260,
      "Ġekikan": 4261,
      "Ġekini": 4262,
      "Ġekitaan": 4263,
      "Ġekitaka": 4264,
      "Ġekinin": 4265,
      "Ġekilaak": 4266,
      "kpakpa": 4267,
      "Ġinitá»į": 4268,
      "Ġinijeen": 4269,
      "Ġinisiki": 4270,
      "Ġinigobo": 4271,
      "Ġinijibi": 4272,
      "Ġunwan": 4273,
      "Ġmbubuuk": 4274,
      "Ġjeyen": 4275,
      "Ġjefet": 4276,
      "Ġonenikaan": 4277,
      "Ġoneniyaka": 4278,
      "Ġonenitap": 4279,
      "Ġonenitaan": 4280,
      "Ġonenigobo": 4281,
      "jaradan": 4282,
      "Ġmayala": 4283,
      "Ġmayana": 4284,
      "fufuk": 4285,
      "Ġekeek": 4286,
      "Ġeká»įká»į": 4287,
      "Ġekenyi": 4288,
      "Ġeneniná»į": 4289,
      "Ġoga": 4290,
      "Ġokifiak": 4291,
      "Ġkeyin": 4292,
      "Ġebebá»įká»į": 4293,
      "Ġebebele": 4294,
      "Ġebewá»įwá»įp": 4295,
      "Ġobokaan": 4296,
      "Ġobobolo": 4297,
      "Ġireke": 4298,
      "Ġakpatukot": 4299,
      "nisi": 4300,
      "titip": 4301,
      "kporie": 4302,
      "Ġjajeri": 4303,
      "fele": 4304,
      "Ġenenikpa": 4305,
      "Ġininan": 4306,
      "nenikaan": 4307,
      "neniyaka": 4308,
      "Ġerá»įriá»įá»įn": 4309,
      "Ġmkpaka": 4310,
      "Ġpeka": 4311,
      "Ġsana": 4312,
      "Ġsulu": 4313,
      "Ġsowari": 4314,
      "kpulube": 4315,
      "kirá»įká»į": 4316,
      "Ġgogo": 4317,
      "ukube": 4318,
      "gbugbe": 4319,
      "Ġefum": 4320,
      "Ġinenigwen": 4321,
      "chakbe": 4322,
      "Ġeliliin": 4323,
      "Ġelifaji": 4324,
      "kakikaan": 4325,
      "kakijot": 4326,
      "kekebe": 4327,
      "Ġsedarak": 4328,
      "Ġekekirá»į": 4329,
      "Ġnebo": 4330,
      "Ġoneninu": 4331,
      "Ġikakwu": 4332,
      "Ġorariaak": 4333,
      "Ġosiya": 4334,
      "ÌĦ!âĢĻ": 4335,
      "Ġikinunuun": 4336,
      "jojomo": 4337,
      "sabadi": 4338,
      "Ġakalari": 4339,
      "Ġikwá»įká»į": 4340,
      "Ġjonadabu": 4341,
      "Ġetá»įá»įn": 4342,
      "Ġadari": 4343,
      "Ġdilai": 4344,
      "Ġbili": 4345,
      "Ġnebujaradan": 4346,
      "nunuun": 4347,
      "peres": 4348,
      "kitotop": 4349,
      "Ġetoto": 4350,
      "kibeme": 4351,
      "Ġnetanen": 4352,
      "sens": 4353,
      "Ġtera": 4354,
      "Ġedodo": 4355,
      "Ġelookbe": 4356,
      "Ġegwá»įkbe": 4357,
      "Ġogá»įá»įkbe": 4358,
      "Ġmanowa": 4359,
      "Ġonyebe": 4360,
      "Ġewudu": 4361,
      "Ġefie": 4362,
      "Ġreyabu": 4363,
      "Ġmgbugbak": 4364,
      "Ġsilisia": 4365,
      "kiká»įká»įp": 4366,
      "Ġsialitien": 4367,
      "Ġmayanayim": 4368,
      "Ġgogolek": 4369,
      "Ġdilaila": 4370,
      "aran": 4371,
      "beke": 4372,
      "dut": 4373,
      "nwun": 4374,
      "oru": 4375,
      "Ġfuk": 4376,
      "Ġtaka": 4377,
      "Ġlook": 4378,
      "Ġfá»įá»įk": 4379,
      "Ġibá»įbá»įá»įn": 4380,
      "Ġetá»įbe": 4381,
      "Ġejaan": 4382,
      "Ġebakbe": 4383,
      "Ġmfiat": 4384,
      "Ġotim": 4385,
      "Ġosik": 4386,
      "Ġojojot": 4387,
      "Ġolá»įká»į": 4388,
      "wuwut": 4389,
      "Ġuchili": 4390,
      "been": 4391,
      "Ġadu": 4392,
      "Ġakisi": 4393,
      "Ġngá»į": 4394,
      "yadi": 4395,
      "jiin": 4396,
      "Ġemá»įn": 4397,
      "Ġemá»įá»įn": 4398,
      "gebe": 4399,
      "gegele": 4400,
      "Ġkeda": 4401,
      "kari": 4402,
      "kabon": 4403,
      "kabore": 4404,
      "kafiin": 4405,
      "kifuk": 4406,
      "kilaak": 4407,
      "kikat": 4408,
      "kigbuk": 4409,
      "gwá»įt": 4410,
      "botumu": 4411,
      "botap": 4412,
      "Ġgebe": 4413,
      "babu": 4414,
      "teteen": 4415,
      "Ġisije": 4416,
      "tiik": 4417,
      "Ġmigi": 4418,
      "rat": 4419,
      "Ġemiin": 4420,
      "Ġsiperes": 4421,
      "Ġoná»į": 4422,
      "Ġmore": 4423,
      "Ġkpema": 4424,
      "Ġikikwak": 4425,
      "lis": 4426,
      "laka": 4427,
      "Ġikaka": 4428,
      "Ġikatá»įbá»į": 4429,
      "Ġekiwá»įp": 4430,
      "Ġekichak": 4431,
      "Ġekinwá»į": 4432,
      "Ġekinunuun": 4433,
      "Ġiniriaak": 4434,
      "Ġigbini": 4435,
      "Ġagburu": 4436,
      "Ġjedaya": 4437,
      "Ġonenige": 4438,
      "Ġonenikeke": 4439,
      "Ġgbak": 4440,
      "dap": 4441,
      "riebe": 4442,
      "Ġekween": 4443,
      "Ġkpebeki": 4444,
      "Ġokisi": 4445,
      "Ġokitoon": 4446,
      "Ġokifieek": 4447,
      "Ġokinin": 4448,
      "Ġokisisaak": 4449,
      "tá»įtá»įn": 4450,
      "rankin": 4451,
      "Ġebem": 4452,
      "Ġebedi": 4453,
      "Ġebejijijaka": 4454,
      "Ġofiat": 4455,
      "Ġkajit": 4456,
      "Ġeyatbe": 4457,
      "kelá»įn": 4458,
      "kanin": 4459,
      "niyaka": 4460,
      "titiik": 4461,
      "kpochieek": 4462,
      "Ġutibi": 4463,
      "Ġenenifá»įá»įk": 4464,
      "tipbe": 4465,
      "nenitumu": 4466,
      "Ġekat": 4467,
      "Ġekasa": 4468,
      "Ġmfum": 4469,
      "Ġsora": 4470,
      "Ġigbala": 4471,
      "inien": 4472,
      "Ġefurá»įn": 4473,
      "Ġeketet": 4474,
      "Ġeketá»įn": 4475,
      "Ġeketá»įbá»į": 4476,
      "nwá»įnwá»į": 4477,
      "Ġlili": 4478,
      "Ġineniria": 4479,
      "kisasak": 4480,
      "kakichieek": 4481,
      "Ġnimi": 4482,
      "Ġebekisi": 4483,
      "Ġebekitá»įbá»į": 4484,
      "Ġikirá»įká»į": 4485,
      "Ġset": 4486,
      "Ġichiá»įá»įk": 4487,
      "Ġasabiya": 4488,
      "Ġnkije": 4489,
      "Ġnkiriaak": 4490,
      "Ġpisi": 4491,
      "Ġikakan": 4492,
      "jibibe": 4493,
      "Ġokekikpulu": 4494,
      "Ġasikelá»įn": 4495,
      "rekaya": 4496,
      "duru": 4497,
      "Ġitataba": 4498,
      "Ġikinin": 4499,
      "Ġikinama": 4500,
      "Ġsá»įntitiik": 4501,
      "dá»įrá»įn": 4502,
      "Ġimá»įmá»įná»į": 4503,
      "Ġiwak": 4504,
      "Ġanun": 4505,
      "Ġananayas": 4506,
      "Ġanduru": 4507,
      "Ġebenin": 4508,
      "Ġekekaan": 4509,
      "Ġenirom": 4510,
      "Ġfarankin": 4511,
      "Ġbarabas": 4512,
      "kisá»įp": 4513,
      "Ġgbana": 4514,
      "Ġalimá»įn": 4515,
      "Ġetobobe": 4516,
      "Ġogwabe": 4517,
      "yá»įyá»įt": 4518,
      "Ġoyakabe": 4519,
      "Ġigogobo": 4520,
      "Ġititen": 4521,
      "Ġowá»įwá»įá»įk": 4522,
      "Ġetá»įbá»įbe": 4523,
      "Ġodidá»į": 4524,
      "Ġinwunwan": 4525,
      "Ġelesia": 4526,
      "Ġntitaak": 4527,
      "Ġekemin": 4528,
      "Ġwelewele": 4529,
      "Ġkareya": 4530,
      "Ġsanasana": 4531,
      "Ġolá»įká»įrá»į": 4532,
      "Ġfarankinsens": 4533,
      "goon": 4534,
      "ile": 4535,
      "juk": 4536,
      "ná»įn": 4537,
      "ninyi": 4538,
      "ná»įá»įn": 4539,
      "nriá»įá»įn": 4540,
      "osi": 4541,
      "sá»įá»įk": 4542,
      "Ġtaan": 4543,
      "Ġlo": 4544,
      "Ġgwá»įk": 4545,
      "Ġgwak": 4546,
      "Ġyanan": 4547,
      "Ġlem": 4548,
      "Ġibá»įm": 4549,
      "Ġelá»įn": 4550,
      "Ġefifila": 4551,
      "Ġetititiin": 4552,
      "Ġegbugbá»įbe": 4553,
      "Ġebobot": 4554,
      "Ġmben": 4555,
      "Ġmkpá»įkpá»į": 4556,
      "Ġodasi": 4557,
      "Ġokakaan": 4558,
      "Ġogwak": 4559,
      "Ġowelebe": 4560,
      "Ġubu": 4561,
      "Ġuchit": 4562,
      "Ġineen": 4563,
      "Ġiná»įm": 4564,
      "Ġapá»į": 4565,
      "tuwen": 4566,
      "Ġnwá»į": 4567,
      "Ġnnin": 4568,
      "Ġnjá»į": 4569,
      "wak": 4570,
      "wat": 4571,
      "Ġená»įs": 4572,
      "geen": 4573,
      "jejeen": 4574,
      "Ġkeye": 4575,
      "Ġkedes": 4576,
      "kasi": 4577,
      "karia": 4578,
      "katap": 4579,
      "kajit": 4580,
      "kiche": 4581,
      "kitutumu": 4582,
      "kichili": 4583,
      "kiyok": 4584,
      "kilalaak": 4585,
      "kigumu": 4586,
      "sayen": 4587,
      "sadak": 4588,
      "kpá»įká»į": 4589,
      "rá»įdu": 4590,
      "bonyi": 4591,
      "bochechep": 4592,
      "chichiin": 4593,
      "bali": 4594,
      "bará»įrá»į": 4595,
      "Ġisikwu": 4596,
      "Ġisijibi": 4597,
      "fiá»įk": 4598,
      "Ġejijen": 4599,
      "raran": 4600,
      "Ġkiri": 4601,
      "Ġkidá»įrá»įn": 4602,
      "mai": 4603,
      "maman": 4604,
      "maliya": 4605,
      "kon": 4606,
      "âĢĿ?": 4607,
      "Ġikiriá»įá»įn": 4608,
      "Ġikiria": 4609,
      "Ġikikan": 4610,
      "Ġikikpan": 4611,
      "Ġikifit": 4612,
      "Ġikikpukpo": 4613,
      "lien": 4614,
      "tofa": 4615,
      "Ġikakpan": 4616,
      "Ġikafiin": 4617,
      "Ġekitoon": 4618,
      "kpaan": 4619,
      "kpabe": 4620,
      "Ġinikwu": 4621,
      "Ġiniche": 4622,
      "Ġinisun": 4623,
      "Ġinichili": 4624,
      "Ġjebidi": 4625,
      "Ġonenitet": 4626,
      "Ġoneniwut": 4627,
      "Ġonenichichini": 4628,
      "Ġsaya": 4629,
      "Ġsafa": 4630,
      "Ġsawulu": 4631,
      "Ġmami": 4632,
      "Ġjipá»į": 4633,
      "Ġjikiri": 4634,
      "Ġnteek": 4635,
      "Ġogan": 4636,
      "Ġokito": 4637,
      "Ġokitim": 4638,
      "Ġokibumu": 4639,
      "Ġmkput": 4640,
      "susulu": 4641,
      "Ġkakaan": 4642,
      "Ġkakpá»į": 4643,
      "Ġkafieek": 4644,
      "Ġobosan": 4645,
      "Ġeyayaka": 4646,
      "kebe": 4647,
      "nije": 4648,
      "Ġijiyari": 4649,
      "fafaka": 4650,
      "Ġbasiti": 4651,
      "Ġjosabadi": 4652,
      "Ġdebiri": 4653,
      "meli": 4654,
      "kposa": 4655,
      "kpofat": 4656,
      "Ġenenisan": 4657,
      "Ġitotoon": 4658,
      "Ġekamun": 4659,
      "Ġokpot": 4660,
      "Ġmfufiá»įk": 4661,
      "Ġisop": 4662,
      "Ġigbagbana": 4663,
      "Ġitá»įk": 4664,
      "Ġekebem": 4665,
      "Ġnayas": 4666,
      "Ġinenimun": 4667,
      "Ġinenitá»į": 4668,
      "Ġofok": 4669,
      "kisak": 4670,
      "Ġelien": 4671,
      "Ġeliya": 4672,
      "Ġkpebetaka": 4673,
      "kakilá»į": 4674,
      "kakitibi": 4675,
      "Ġuram": 4676,
      "Ġremaliya": 4677,
      "Ġniko": 4678,
      "Ġabiyu": 4679,
      "Ġichimi": 4680,
      "Ġekekido": 4681,
      "Ġnetofa": 4682,
      "Ġicho": 4683,
      "Ġá»įfiá»įá»įn": 4684,
      "Ġeweweek": 4685,
      "Ġedene": 4686,
      "Ġkpekisun": 4687,
      "nenin": 4688,
      "Ġbeti": 4689,
      "Ġberekaya": 4690,
      "Ġokekitaan": 4691,
      "Ġosire": 4692,
      "Ġebotbe": 4693,
      "Ġkpebeká»įká»įt": 4694,
      "tututuku": 4695,
      "Ġineninyi": 4696,
      "Ġmkpukpo": 4697,
      "kinaan": 4698,
      "sasak": 4699,
      "remot": 4700,
      "Ġotinien": 4701,
      "Ġimem": 4702,
      "Ġpasuru": 4703,
      "Ġikwá»įá»įk": 4704,
      "Ġdaina": 4705,
      "Ġikasisaak": 4706,
      "Ġpelet": 4707,
      "Ġonikisi": 4708,
      "Ġamoru": 4709,
      "Ġetá»įp": 4710,
      "Ġrubi": 4711,
      "Ġjewus": 4712,
      "Ġribila": 4713,
      "Ġikwekweek": 4714,
      "kisen": 4715,
      "Ġotitibi": 4716,
      "Ġmeriba": 4717,
      "Ġsekanaya": 4718,
      "Ġalikisen": 4719,
      "Ġraba": 4720,
      "Ġrafa": 4721,
      "dá»įmá»įbe": 4722,
      "Ġsuru": 4723,
      "nowam": 4724,
      "Ġagagi": 4725,
      "Ġewakbe": 4726,
      "Ġetam": 4727,
      "Ġeliakim": 4728,
      "Ġanani": 4729,
      "Ġjerameli": 4730,
      "Ġjerubaali": 4731,
      "Ġogbagban": 4732,
      "Ġetá»įtá»įká»į": 4733,
      "Ġegbanabe": 4734,
      "Ġnneniná»į": 4735,
      "Ġikafiatge": 4736,
      "Ġsefatiya": 4737,
      "Ġegulá»įn": 4738,
      "gbugbut": 4739,
      "Ġtubali": 4740,
      "Ġndali": 4741,
      "Ġjeyien": 4742,
      "Ġbajilai": 4743,
      "Ġekpukpobe": 4744,
      "Ġmilika": 4745,
      "ná»įná»įá»įn": 4746,
      "Ġlemek": 4747,
      "Ġubuja": 4748,
      "Ġapá»įlá»įs": 4749,
      "Ġmamire": 4750,
      "as": 4751,
      "akaan": 4752,
      "ida": 4753,
      "jene": 4754,
      "lon": 4755,
      "mkpulu": 4756,
      "nt": 4757,
      "nkaan": 4758,
      "ngwan": 4759,
      "pá»įk": 4760,
      "pá»įrá»į": 4761,
      "seme": 4762,
      "uti": 4763,
      "uga": 4764,
      "usini": 4765,
      "yá»įs": 4766,
      "Ġwa": 4767,
      "Ġtá»įn": 4768,
      "Ġbem": 4769,
      "Ġitut": 4770,
      "Ġibumu": 4771,
      "Ġiwuku": 4772,
      "Ġeso": 4773,
      "Ġetan": 4774,
      "Ġelá»įk": 4775,
      "Ġerom": 4776,
      "Ġegi": 4777,
      "Ġegbala": 4778,
      "Ġesá»įp": 4779,
      "Ġetataba": 4780,
      "Ġmf": 4781,
      "Ġmbenebe": 4782,
      "Ġoká»įt": 4783,
      "Ġolibi": 4784,
      "Ġotimbe": 4785,
      "Ġotipbe": 4786,
      "Ġmena": 4787,
      "Ġmegi": 4788,
      "Ġku": 4789,
      "Ġukaan": 4790,
      "Ġusai": 4791,
      "Ġaku": 4792,
      "Ġakpá»į": 4793,
      "Ġadin": 4794,
      "Ġabala": 4795,
      "sita": 4796,
      "Ġnene": 4797,
      "Ġnjeen": 4798,
      "Ġnwá»įá»įn": 4799,
      "Ġnlet": 4800,
      "Ġnrom": 4801,
      "Ġnkat": 4802,
      "Ġntuun": 4803,
      "Ġebia": 4804,
      "kajeen": 4805,
      "kika": 4806,
      "kiban": 4807,
      "kida": 4808,
      "kiran": 4809,
      "kigbaan": 4810,
      "kichak": 4811,
      "kifá»įá»įk": 4812,
      "kigwat": 4813,
      "kikpe": 4814,
      "kikwek": 4815,
      "kitaba": 4816,
      "kifiaan": 4817,
      "kigugo": 4818,
      "safu": 4819,
      "Ġogwuun": 4820,
      "inorie": 4821,
      "Ġyala": 4822,
      "kuru": 4823,
      "bokaan": 4824,
      "borie": 4825,
      "boon": 4826,
      "bokirá»į": 4827,
      "bokpe": 4828,
      "boleke": 4829,
      "bokpakpan": 4830,
      "balat": 4831,
      "teri": 4832,
      "Ġisibá»įká»į": 4833,
      "Ġisikari": 4834,
      "ÌĦ,âĢĿ": 4835,
      "Ġenetumu": 4836,
      "Ġeneluk": 4837,
      "á»įkwá»įká»į": 4838,
      "Ġmimin": 4839,
      "Ġmikima": 4840,
      "Ġsin": 4841,
      "ÌĦ.)": 4842,
      "Ġonwenwene": 4843,
      "á»įmá»įs": 4844,
      "Ġkpá»įk": 4845,
      "Ġjan": 4846,
      "Ġikijit": 4847,
      "Ġikichak": 4848,
      "Ġikimá»įná»į": 4849,
      "Ġikitá»įt": 4850,
      "Ġikikpe": 4851,
      "Ġikifiaan": 4852,
      "Ġikep": 4853,
      "Ġererieen": 4854,
      "Ġikachaka": 4855,
      "Ġikalululuk": 4856,
      "Ġekifuk": 4857,
      "Ġekibeek": 4858,
      "Ġekinama": 4859,
      "Ġitataka": 4860,
      "Ġifeen": 4861,
      "kpasa": 4862,
      "Ġinigban": 4863,
      "Ġiniwá»įp": 4864,
      "Ġinigbaan": 4865,
      "Ġigbuk": 4866,
      "Ġonenitele": 4867,
      "Ġonenimin": 4868,
      "Ġonenilook": 4869,
      "Ġonenigbana": 4870,
      "Ġonenichili": 4871,
      "Ġatak": 4872,
      "Ġogak": 4873,
      "Ġkpewuuk": 4874,
      "Ġkpegá»įá»įk": 4875,
      "cherekeyi": 4876,
      "Ġokima": 4877,
      "Ġokitop": 4878,
      "Ġokikpukpo": 4879,
      "Ġkeyinan": 4880,
      "Ġechilibe": 4881,
      "Ġkasi": 4882,
      "Ġofukbe": 4883,
      "Ġoboje": 4884,
      "kaná»į": 4885,
      "nire": 4886,
      "nitumu": 4887,
      "Ġgama": 4888,
      "Ġijijit": 4889,
      "fas": 4890,
      "fafiaan": 4891,
      "Ġjowa": 4892,
      "mim": 4893,
      "kpokwu": 4894,
      "kponyi": 4895,
      "kpoluk": 4896,
      "Ġjari": 4897,
      "Ġjabin": 4898,
      "Ġjakuru": 4899,
      "âĢĻ?": 4900,
      "Ġenenirá»į": 4901,
      "Ġenenigwen": 4902,
      "Ġenenikana": 4903,
      "nenigwu": 4904,
      "neniben": 4905,
      "nenikpulu": 4906,
      "ukpo": 4907,
      "Ġpen": 4908,
      "rotu": 4909,
      "gbagbana": 4910,
      "Ġekegwa": 4911,
      "Ġineniben": 4912,
      "Ġinenikana": 4913,
      "Ġelilam": 4914,
      "Ġobeek": 4915,
      "Ġogegele": 4916,
      "kakiká»įt": 4917,
      "kakiná»į": 4918,
      "kakigwat": 4919,
      "Ġrewen": 4920,
      "dimá»įs": 4921,
      "Ġkpekiná»į": 4922,
      "Ġkpekakaan": 4923,
      "Ġmbakup": 4924,
      "Ġebekiben": 4925,
      "Ġabiram": 4926,
      "Ġabieja": 4927,
      "Ġabidá»įn": 4928,
      "Ġsere": 4929,
      "Ġekekiweek": 4930,
      "Ġekekigá»įá»įk": 4931,
      "jijakabe": 4932,
      "Ġnkige": 4933,
      "Ġnkito": 4934,
      "Ġnkikeek": 4935,
      "Ġkpá»įkpá»į": 4936,
      "Ġeferen": 4937,
      "Ġikwuk": 4938,
      "chakabe": 4939,
      "Ġberi": 4940,
      "Ġbetuwen": 4941,
      "Ġnsook": 4942,
      "Ġasiri": 4943,
      "Ġineninan": 4944,
      "Ġitá»įtá»į": 4945,
      "Ġnrá»įrá»įn": 4946,
      "Ġoluluk": 4947,
      "Ġolulut": 4948,
      "Ġtabá»į": 4949,
      "dá»įdá»įmá»į": 4950,
      "Ġnnenikpá»į": 4951,
      "Ġpadan": 4952,
      "Ġtapenes": 4953,
      "Ġtá»įmá»įs": 4954,
      "lilim": 4955,
      "Ġamá»įs": 4956,
      "Ġogbugbugbá»į": 4957,
      "Ġebenbe": 4958,
      "Ġnsirá»į": 4959,
      "Ġnsinu": 4960,
      "Ġekekin": 4961,
      "Ġdibá»įn": 4962,
      "karake": 4963,
      "Ġbiliya": 4964,
      "Ġjeroyam": 4965,
      "Ġsaipá»įrá»į": 4966,
      "Ġajalá»įn": 4967,
      "Ġarim": 4968,
      "Ġariba": 4969,
      "Ġnkará»į": 4970,
      "Ġabinadap": 4971,
      "Ġboji": 4972,
      "Ġsikisik": 4973,
      "Ġsunem": 4974,
      "Ġecheche": 4975,
      "Ġamiyudu": 4976,
      "Ġotá»įtá»įp": 4977,
      "Ġobumbe": 4978,
      "Ġdedan": 4979,
      "Ġarebia": 4980,
      "Ġimeri": 4981,
      "Ġikalá»įge": 4982,
      "Ġokporotu": 4983,
      "Ġdum": 4984,
      "Ġeyiyalabe": 4985,
      "Ġadulam": 4986,
      "Ġsafaya": 4987,
      "Ġmegido": 4988,
      "Ġabalara": 4989,
      "Ġyalayala": 4990,
      "Ġisikariá»įt": 4991,
      "Ġmikimas": 4992,
      "Ġsaipá»įrá»įs": 4993,
      "am": 4994,
      "erieen": 4995,
      "imi": 4996,
      "jek": 4997,
      "non": 4998,
      "nween": 4999,
      "umun": 5000,
      "ugbana": 5001,
      "uuruk": 5002,
      "Ġtá»į": 5003,
      "Ġbuku": 5004,
      "Ġwuku": 5005,
      "Ġlot": 5006,
      "Ġigbá»į": 5007,
      "Ġigwá»įgwá»įk": 5008,
      "Ġiwook": 5009,
      "Ġegbá»į": 5010,
      "Ġeda": 5011,
      "Ġewá»įlá»į": 5012,
      "Ġebabia": 5013,
      "Ġetakabe": 5014,
      "Ġmbene": 5015,
      "Ġmbá»įká»į": 5016,
      "Ġoben": 5017,
      "Ġotá»įbá»į": 5018,
      "Ġowo": 5019,
      "Ġoriaakbe": 5020,
      "Ġopo": 5021,
      "Ġká»įri": 5022,
      "yiy": 5023,
      "Ġikekeke": 5024,
      "reyam": 5025,
      "Ġndi": 5026,
      "Ġnkakup": 5027,
      "Ġnson": 5028,
      "Ġnnamabe": 5029,
      "jijibi": 5030,
      "kakpa": 5031,
      "kajá»įn": 5032,
      "kakitumu": 5033,
      "katutumu": 5034,
      "kachaka": 5035,
      "kawuwuuk": 5036,
      "kitele": 5037,
      "kiwá»įp": 5038,
      "kiwop": 5039,
      "kijak": 5040,
      "kimumun": 5041,
      "kichiin": 5042,
      "rika": 5043,
      "riak": 5044,
      "riá»įká»į": 5045,
      "sadai": 5046,
      "bogwa": 5047,
      "bobet": 5048,
      "bowele": 5049,
      "ÌĦ,âĢĻ": 5050,
      "tisaja": 5051,
      "gbá»įá»įn": 5052,
      "fifiin": 5053,
      "Ġenemun": 5054,
      "Ġenetap": 5055,
      "Ġenetim": 5056,
      "Ġenetitiin": 5057,
      "chabe": 5058,
      "bun": 5059,
      "rai": 5060,
      "Ġsii": 5061,
      "mabet": 5062,
      "enerieen": 5063,
      "Ġikibá»įn": 5064,
      "Ġikiyaka": 5065,
      "Ġikiraka": 5066,
      "Ġikijop": 5067,
      "wunu": 5068,
      "Ġise": 5069,
      "labe": 5070,
      "Ġikato": 5071,
      "Ġikaluk": 5072,
      "Ġikabá»įká»į": 5073,
      "Ġikado": 5074,
      "Ġekigwu": 5075,
      "Ġekitá»į": 5076,
      "Ġekimin": 5077,
      "Ġekikpan": 5078,
      "Ġekibele": 5079,
      "Ġekikwaan": 5080,
      "Ġekibak": 5081,
      "Ġekikpukpo": 5082,
      "Ġekisisaak": 5083,
      "Ġekinyam": 5084,
      "Ġinikirá»į": 5085,
      "Ġinibeek": 5086,
      "Ġinikpe": 5087,
      "Ġjelo": 5088,
      "Ġjesaya": 5089,
      "Ġjebadi": 5090,
      "bá»įná»į": 5091,
      "ekeli": 5092,
      "Ġgbaan": 5093,
      "Ġgobo": 5094,
      "Ġokweekbe": 5095,
      "Ġokemebe": 5096,
      "Ġatafi": 5097,
      "jajak": 5098,
      "Ġmare": 5099,
      "Ġmayon": 5100,
      "Ġekeme": 5101,
      "Ġkpetumu": 5102,
      "Ġkpelá»į": 5103,
      "chechieen": 5104,
      "Ġokibá»įká»į": 5105,
      "Ġokiriaak": 5106,
      "rankat": 5107,
      "Ġkatumu": 5108,
      "Ġoboyaka": 5109,
      "Ġobonama": 5110,
      "Ġeyayat": 5111,
      "gadi": 5112,
      "Ġgale": 5113,
      "wá»įwá»į": 5114,
      "fafan": 5115,
      "Ġbayala": 5116,
      "emeya": 5117,
      "Ġesisiki": 5118,
      "Ġesikibe": 5119,
      "Ġikpakpa": 5120,
      "kpota": 5121,
      "kposibi": 5122,
      "Ġjakin": 5123,
      "Ġjayat": 5124,
      "Ġjayaji": 5125,
      "feyadi": 5126,
      "Ġosakbe": 5127,
      "Ġenenikup": 5128,
      "Ġenenikpulu": 5129,
      "selona": 5130,
      "nenita": 5131,
      "Ġekagá»įá»įk": 5132,
      "Ġsekeli": 5133,
      "Ġarabu": 5134,
      "Ġsoban": 5135,
      "kirá»įrá»į": 5136,
      "rolo": 5137,
      "gbama": 5138,
      "Ġochili": 5139,
      "Ġochichini": 5140,
      "Ġigwaka": 5141,
      "Ġegegele": 5142,
      "Ġeketumu": 5143,
      "Ġiriak": 5144,
      "Ġebekwaan": 5145,
      "bonyan": 5146,
      "Ġinenitap": 5147,
      "Ġinenisan": 5148,
      "kisadi": 5149,
      "Ġeliyu": 5150,
      "Ġkpeberie": 5151,
      "Ġobebele": 5152,
      "Ġigwuku": 5153,
      "kakima": 5154,
      "kakinyi": 5155,
      "Ġebekikpá»į": 5156,
      "Ġebekigwen": 5157,
      "Ġinween": 5158,
      "Ġekekikpá»į": 5159,
      "Ġekekidido": 5160,
      "Ġotiton": 5161,
      "Ġnkisi": 5162,
      "Ġneriya": 5163,
      "beekbe": 5164,
      "kpukpukpuku": 5165,
      "Ġkpekisi": 5166,
      "Ġbeyá»į": 5167,
      "Ġnkwukwulube": 5168,
      "Ġosirá»į": 5169,
      "Ġinenene": 5170,
      "Ġefan": 5171,
      "chilibe": 5172,
      "onaya": 5173,
      "Ġmusi": 5174,
      "Ġnnenido": 5175,
      "Ġajiri": 5176,
      "Ġajimabet": 5177,
      "Ġlebo": 5178,
      "Ġimen": 5179,
      "Ġparan": 5180,
      "Ġdatan": 5181,
      "Ġafakisadi": 5182,
      "jujuk": 5183,
      "Ġurá»įt": 5184,
      "Ġebenan": 5185,
      "Ġebenwá»į": 5186,
      "aakbe": 5187,
      "Ġekekeek": 5188,
      "ikatet": 5189,
      "Ġtobo": 5190,
      "Ġtola": 5191,
      "Ġeká»įkbe": 5192,
      "Ġeká»įká»įp": 5193,
      "Ġafek": 5194,
      "Ġnkarankat": 5195,
      "Ġsambalat": 5196,
      "yum": 5197,
      "Ġogwagwat": 5198,
      "Ġnlik": 5199,
      "Ġegbagban": 5200,
      "saimá»įn": 5201,
      "Ġteselona": 5202,
      "ikerere": 5203,
      "kekeek": 5204,
      "Ġbierot": 5205,
      "Ġonwá»įnbe": 5206,
      "Ġkwek": 5207,
      "Ġegogon": 5208,
      "Ġnneninyi": 5209,
      "Ġngebe": 5210,
      "Ġselomi": 5211,
      "Ġselemeya": 5212,
      "Ġbania": 5213,
      "Ġoletbe": 5214,
      "Ġojá»įngwu": 5215,
      "Ġkeyefas": 5216,
      "Ġmfem": 5217,
      "Ġgamalien": 5218,
      "Ġbukubuku": 5219,
      "Ġwukuwuku": 5220,
      "Ġoporolo": 5221,
      "Ġndide": 5222,
      "Ġjelofeyadi": 5223,
      "Ġjebadiya": 5224,
      "Ġteselonaika": 5225,
      "fá»į": 5226,
      "gbidim": 5227,
      "it": 5228,
      "ikpo": 5229,
      "kwun": 5230,
      "nwaan": 5231,
      "nanaan": 5232,
      "ute": 5233,
      "wá»įk": 5234,
      "yona": 5235,
      "yema": 5236,
      "Ġtitiin": 5237,
      "Ġlet": 5238,
      "Ġraya": 5239,
      "Ġituku": 5240,
      "Ġichachak": 5241,
      "Ġigbá»įá»įk": 5242,
      "Ġekwu": 5243,
      "Ġelin": 5244,
      "Ġewawa": 5245,
      "Ġebala": 5246,
      "Ġecho": 5247,
      "Ġmfá»įfá»įá»įk": 5248,
      "Ġochit": 5249,
      "Ġomimin": 5250,
      "Ġotá»įtá»įbá»į": 5251,
      "Ġochachiaak": 5252,
      "Ġmeyi": 5253,
      "Ġmesek": 5254,
      "Ġafuk": 5255,
      "Ġakaya": 5256,
      "sip": 5257,
      "siá»įm": 5258,
      "sipa": 5259,
      "Ġnen": 5260,
      "Ġnjit": 5261,
      "Ġnama": 5262,
      "Ġnyen": 5263,
      "Ġnkukup": 5264,
      "Ġnkariá»įá»įn": 5265,
      "Ġnchiaak": 5266,
      "yak": 5267,
      "jisá»įs": 5268,
      "chá»įk": 5269,
      "Ġemá»įs": 5270,
      "Ġenanama": 5271,
      "Ġenwenween": 5272,
      "Ġkeba": 5273,
      "Ġkemo": 5274,
      "kato": 5275,
      "kakwu": 5276,
      "katoon": 5277,
      "kajot": 5278,
      "kagegen": 5279,
      "uká»į": 5280,
      "kikan": 5281,
      "kini": 5282,
      "kitip": 5283,
      "kikeke": 5284,
      "kilet": 5285,
      "kijijaka": 5286,
      "kichaka": 5287,
      "kisulu": 5288,
      "kibaak": 5289,
      "kilomo": 5290,
      "sabum": 5291,
      "tak": 5292,
      "boman": 5293,
      "bobá»įká»į": 5294,
      "bosiki": 5295,
      "bobook": 5296,
      "Ġgede": 5297,
      "Ġgesiá»įm": 5298,
      "Ġisiso": 5299,
      "Ġisiyaka": 5300,
      "Ġisiben": 5301,
      "Ġisikwaan": 5302,
      "Ġkanaan": 5303,
      "tia": 5304,
      "timi": 5305,
      "fiá»įá»įk": 5306,
      "Ġenebá»įká»į": 5307,
      "Ġejijijaka": 5308,
      "Ġmiki": 5309,
      "Ġmisayen": 5310,
      "raraan": 5311,
      "Ġkisi": 5312,
      "Ġkitumu": 5313,
      "Ġkison": 5314,
      "Ġsiria": 5315,
      "Ġsikam": 5316,
      "Ġone": 5317,
      "Ġakwi": 5318,
      "Ġakuká»į": 5319,
      "Ġikpi": 5320,
      "Ġjuni": 5321,
      "Ġikigwu": 5322,
      "Ġikiche": 5323,
      "Ġikilá»į": 5324,
      "Ġikigbo": 5325,
      "Ġikigobo": 5326,
      "Ġikiwop": 5327,
      "Ġikiraan": 5328,
      "Ġikikween": 5329,
      "limun": 5330,
      "Ġchichini": 5331,
      "toret": 5332,
      "Ġikakpá»į": 5333,
      "Ġikagban": 5334,
      "Ġikasik": 5335,
      "Ġikachep": 5336,
      "Ġekisan": 5337,
      "Ġekisibi": 5338,
      "Ġekisiki": 5339,
      "Ġekikpe": 5340,
      "Ġekifuun": 5341,
      "Ġekifeen": 5342,
      "Ġekiriki": 5343,
      "Ġekichimi": 5344,
      "Ġitai": 5345,
      "Ġusu": 5346,
      "Ġinirieen": 5347,
      "Ġinirie": 5348,
      "Ġinichieek": 5349,
      "Ġinirá»įn": 5350,
      "Ġiniraka": 5351,
      "Ġinichak": 5352,
      "Ġinitobo": 5353,
      "Ġinisá»įá»įk": 5354,
      "Ġisaak": 5355,
      "Ġjere": 5356,
      "Ġjeba": 5357,
      "Ġjeteri": 5358,
      "Ġjeyona": 5359,
      "Ġonenikpa": 5360,
      "Ġonenijeen": 5361,
      "Ġirá»įrá»įn": 5362,
      "Ġgbala": 5363,
      "Ġokembe": 5364,
      "Ġibabia": 5365,
      "jajat": 5366,
      "Ġsami": 5367,
      "Ġmaki": 5368,
      "Ġmasa": 5369,
      "Ġmatiti": 5370,
      "fufum": 5371,
      "Ġeká»įp": 5372,
      "Ġjin": 5373,
      "Ġjijaka": 5374,
      "Ġenenyi": 5375,
      "Ġogo": 5376,
      "Ġkpesun": 5377,
      "Ġkperá»įriá»įá»įn": 5378,
      "cheche": 5379,
      "chereyi": 5380,
      "Ġokibe": 5381,
      "Ġokiká»įt": 5382,
      "Ġokido": 5383,
      "Ġokigá»įá»įk": 5384,
      "Ġokibele": 5385,
      "Ġokikeek": 5386,
      "Ġokitaka": 5387,
      "Ġokiwulu": 5388,
      "weekge": 5389,
      "wegi": 5390,
      "Ġkam": 5391,
      "Ġkabá»įká»į": 5392,
      "Ġkami": 5393,
      "Ġkakpá»įkpá»į": 5394,
      "Ġototoon": 5395,
      "Ġobobá»įká»į": 5396,
      "Ġobokana": 5397,
      "Ġobosibi": 5398,
      "Ġorep": 5399,
      "Ġorerie": 5400,
      "Ġiruk": 5401,
      "kanwá»į": 5402,
      "nikup": 5403,
      "nibá»įká»į": 5404,
      "Ġbala": 5405,
      "Ġbayana": 5406,
      "Ġikanin": 5407,
      "Ġjobabu": 5408,
      "Ġesik": 5409,
      "kpodo": 5410,
      "kpogá»įá»įk": 5411,
      "kposik": 5412,
      "kpochep": 5413,
      "Ġjai": 5414,
      "Ġjafi": 5415,
      "Ġjalimun": 5416,
      "Ġeneniki": 5417,
      "Ġeneniweek": 5418,
      "Ġenenigá»įá»įk": 5419,
      "Ġeneniká»įp": 5420,
      "Ġininama": 5421,
      "nenije": 5422,
      "nenikpá»įk": 5423,
      "wá»įnwá»į": 5424,
      "Ġerá»įdia": 5425,
      "Ġekabe": 5426,
      "Ġekasi": 5427,
      "Ġekatumu": 5428,
      "Ġekakpa": 5429,
      "Ġekarie": 5430,
      "Ġsemi": 5431,
      "Ġsoko": 5432,
      "sikibe": 5433,
      "Ġochimbe": 5434,
      "Ġochiaakbe": 5435,
      "fukbe": 5436,
      "Ġitá»įm": 5437,
      "Ġiteme": 5438,
      "Ġekegwen": 5439,
      "Ġekesiki": 5440,
      "Ġlisiti": 5441,
      "Ġebekpe": 5442,
      "Ġebekpá»į": 5443,
      "Ġebekpan": 5444,
      "Ġnayá»įt": 5445,
      "Ġinenikpulu": 5446,
      "Ġelileek": 5447,
      "Ġelililiin": 5448,
      "Ġkpebeje": 5449,
      "Ġigwuk": 5450,
      "niniin": 5451,
      "ogwugwu": 5452,
      "kakito": 5453,
      "kakifieek": 5454,
      "kakinwene": 5455,
      "lolobo": 5456,
      "Ġrejin": 5457,
      "Ġebekiká»įká»įt": 5458,
      "nyanyam": 5459,
      "tá»įtbe": 5460,
      "Ġsela": 5461,
      "Ġsebina": 5462,
      "Ġichichit": 5463,
      "Ġichichaka": 5464,
      "Ġnkigwen": 5465,
      "Ġnkibá»įká»į": 5466,
      "Ġikikebe": 5467,
      "Ġneyema": 5468,
      "yoyok": 5469,
      "Ġpá»įti": 5470,
      "Ġonenene": 5471,
      "gogon": 5472,
      "Ġililam": 5473,
      "Ġililiin": 5474,
      "Ġokabe": 5475,
      "Ġnsá»įn": 5476,
      "Ġnseen": 5477,
      "Ġkpebekup": 5478,
      "Ġasitoret": 5479,
      "ÌĦ?âĢĻ": 5480,
      "Ġoruma": 5481,
      "kinye": 5482,
      "Ġowabe": 5483,
      "Ġtayat": 5484,
      "Ġlep": 5485,
      "Ġsibiá»įn": 5486,
      "Ġilileek": 5487,
      "Ġegwube": 5488,
      "Ġimama": 5489,
      "Ġebibilá»į": 5490,
      "Ġetá»įká»į": 5491,
      "Ġebenama": 5492,
      "Ġekpakpaka": 5493,
      "Ġdison": 5494,
      "Ġbigi": 5495,
      "Ġbikiri": 5496,
      "Ġenibene": 5497,
      "kekitumu": 5498,
      "deba": 5499,
      "derek": 5500,
      "Ġajaya": 5501,
      "Ġlayis": 5502,
      "Ġafen": 5503,
      "Ġigege": 5504,
      "Ġreyobu": 5505,
      "Ġibenitet": 5506,
      "Ġibenitim": 5507,
      "Ġesitayon": 5508,
      "saida": 5509,
      "Ġagai": 5510,
      "Ġlibini": 5511,
      "Ġmbebe": 5512,
      "Ġekpukpukube": 5513,
      "Ġoyoliba": 5514,
      "Ġeliasa": 5515,
      "Ġkpoká»įtbe": 5516,
      "buki": 5517,
      "Ġetá»įtá»įt": 5518,
      "Ġigbegbe": 5519,
      "Ġogbagbana": 5520,
      "Ġkpebenin": 5521,
      "isinyá»įn": 5522,
      "ofia": 5523,
      "Ġodidim": 5524,
      "Ġegogobo": 5525,
      "Ġotá»įtbe": 5526,
      "Ġnayama": 5527,
      "Ġmanderek": 5528,
      "Ġejibibe": 5529,
      "Ġodada": 5530,
      "Ġobelebe": 5531,
      "Ġefakabe": 5532,
      "memem": 5533,
      "Ġkakeke": 5534,
      "Ġenyambe": 5535,
      "Ġefiatbe": 5536,
      "Ġmayalalen": 5537,
      "Ġogagana": 5538,
      "Ġgeberi": 5539,
      "Ġnimirá»įdu": 5540,
      "Ġpisiga": 5541,
      "Ġbetisaida": 5542,
      "Ġelá»įkbe": 5543,
      "Ġmenayem": 5544,
      "Ġakubu": 5545,
      "Ġjanowa": 5546,
      "Ġserebiya": 5547,
      "Ġbojira": 5548,
      "Ġká»įrint": 5549,
      "Ġmaresa": 5550,
      "Ġselomit": 5551,
      "ikpoko": 5552,
      "Ġkemos": 5553,
      "Ġsikamá»į": 5554,
      "Ġakwila": 5555,
      "Ġekirikit": 5556,
      "Ġmatitiya": 5557,
      "Ġjalimuna": 5558,
      "Ġerá»įdias": 5559,
      "Ġlisitira": 5560,
      "Ġneyemaya": 5561,
      "Ġoyolibama": 5562,
      ".]": 5563,
      "atan": 5564,
      "fanaya": 5565,
      "já»įbe": 5566,
      "jeka": 5567,
      "keen": 5568,
      "loni": 5569,
      "nga": 5570,
      "nanama": 5571,
      "oyen": 5572,
      "okike": 5573,
      "tin": 5574,
      "tá»įká»įbe": 5575,
      "ufieek": 5576,
      "uwen": 5577,
      "weke": 5578,
      "Ġfuun": 5579,
      "Ġibek": 5580,
      "Ġituun": 5581,
      "Ġiyiyik": 5582,
      "Ġigwá»įt": 5583,
      "Ġeriaak": 5584,
      "Ġeroon": 5585,
      "Ġebak": 5586,
      "Ġepa": 5587,
      "Ġetaba": 5588,
      "Ġelat": 5589,
      "Ġeraraka": 5590,
      "Ġefiaan": 5591,
      "Ġegbet": 5592,
      "Ġeriaakbe": 5593,
      "Ġerariaak": 5594,
      "Ġmman": 5595,
      "Ġmbá»įká»įbe": 5596,
      "Ġmbieen": 5597,
      "Ġoká»į": 5598,
      "Ġosia": 5599,
      "Ġosulu": 5600,
      "Ġobak": 5601,
      "Ġolep": 5602,
      "Ġoyok": 5603,
      "Ġobakbe": 5604,
      "Ġososook": 5605,
      "Ġowopbe": 5606,
      "Ġmetu": 5607,
      "Ġmemfi": 5608,
      "Ġká»įt": 5609,
      "Ġuchieen": 5610,
      "Ġugwaka": 5611,
      "yinyi": 5612,
      "Ġawu": 5613,
      "Ġamu": 5614,
      "Ġaye": 5615,
      "Ġame": 5616,
      "Ġaten": 5617,
      "Ġno": 5618,
      "Ġnrá»įn": 5619,
      "Ġnkeke": 5620,
      "Ġnkayaka": 5621,
      "Ġnkeki": 5622,
      "Ġndudun": 5623,
      "Ġnden": 5624,
      "Ġngá»įá»įkbe": 5625,
      "bá»įru": 5626,
      "bá»įbá»įá»įk": 5627,
      "jibun": 5628,
      "Ġeme": 5629,
      "Ġemin": 5630,
      "waka": 5631,
      "Ġena": 5632,
      "Ġenene": 5633,
      "Ġenire": 5634,
      "Ġenekeke": 5635,
      "kagwu": 5636,
      "kata": 5637,
      "kakpá»į": 5638,
      "kagwen": 5639,
      "kabum": 5640,
      "kagbaan": 5641,
      "kagobo": 5642,
      "kakisa": 5643,
      "kakpá»įkpá»į": 5644,
      "kataka": 5645,
      "kamá»įná»į": 5646,
      "kakakaan": 5647,
      "kafiat": 5648,
      "kafá»įá»įk": 5649,
      "kará»įriá»įá»įn": 5650,
      "kadá»įk": 5651,
      "kasak": 5652,
      "kibá»įn": 5653,
      "kiriá»įá»įn": 5654,
      "kibum": 5655,
      "kigba": 5656,
      "kikpá»įk": 5657,
      "kikakaan": 5658,
      "kisisik": 5659,
      "kijibi": 5660,
      "kiwulu": 5661,
      "kitata": 5662,
      "kibak": 5663,
      "kiá»įs": 5664,
      "kikeme": 5665,
      "kibá»įm": 5666,
      "kikwak": 5667,
      "kibumu": 5668,
      "kitem": 5669,
      "ine": 5670,
      "inwá»į": 5671,
      "Ġinyiaan": 5672,
      "bowa": 5673,
      "botet": 5674,
      "bodo": 5675,
      "botaka": 5676,
      "bosisik": 5677,
      "botataka": 5678,
      "Ġgedo": 5679,
      "Ġibeen": 5680,
      "basasa": 5681,
      "bayot": 5682,
      "Ġisikup": 5683,
      "Ġisisan": 5684,
      "baniya": 5685,
      "tik": 5686,
      "titeek": 5687,
      "gbá»įgbá»įá»įn": 5688,
      "fira": 5689,
      "Ġenerie": 5690,
      "Ġenechieek": 5691,
      "bubuku": 5692,
      "Ġowuwut": 5693,
      "Ġiju": 5694,
      "Ġijat": 5695,
      "unye": 5696,
      "unukp": 5697,
      "Ġsisini": 5698,
      "Ġsisak": 5699,
      "Ġonwenween": 5700,
      "Ġako": 5701,
      "Ġkpeme": 5702,
      "Ġikpá»įká»į": 5703,
      "koni": 5704,
      "Ġjá»į": 5705,
      "Ġjen": 5706,
      "Ġikichit": 5707,
      "Ġikichieek": 5708,
      "Ġikifaka": 5709,
      "Ġikikpá»įk": 5710,
      "Ġikifiat": 5711,
      "Ġikigwá»įk": 5712,
      "Ġikilaak": 5713,
      "Ġikirep": 5714,
      "Ġikiwulu": 5715,
      "Ġikitaba": 5716,
      "Ġikilomo": 5717,
      "Ġikimumana": 5718,
      "Ġikigumu": 5719,
      "Ġikigbin": 5720,
      "Ġerere": 5721,
      "gwagwat": 5722,
      "Ġidut": 5723,
      "Ġikatumu": 5724,
      "Ġikaben": 5725,
      "Ġikasibi": 5726,
      "Ġikachak": 5727,
      "Ġikakpá»įkpá»į": 5728,
      "Ġekichieek": 5729,
      "Ġekiwuuk": 5730,
      "Ġekido": 5731,
      "Ġekititiin": 5732,
      "Ġekifiat": 5733,
      "Ġekinwá»įá»įn": 5734,
      "Ġekisá»įp": 5735,
      "Ġekilileek": 5736,
      "kpato": 5737,
      "kpachep": 5738,
      "á»įá»įkbe": 5739,
      "Ġinikaan": 5740,
      "Ġiniyaka": 5741,
      "Ġinifieek": 5742,
      "Ġinifiat": 5743,
      "Ġinigwuun": 5744,
      "Ġinikiweek": 5745,
      "Ġinigele": 5746,
      "Ġigbo": 5747,
      "Ġmbubuk": 5748,
      "Ġjeturu": 5749,
      "Ġjeremot": 5750,
      "Ġjefanaya": 5751,
      "Ġoneniweek": 5752,
      "Ġonenitoon": 5753,
      "Ġonenifieek": 5754,
      "Ġonenisiki": 5755,
      "Ġonenikitumu": 5756,
      "Ġonenibeek": 5757,
      "Ġonenikije": 5758,
      "Ġgbe": 5759,
      "Ġsafat": 5760,
      "dada": 5761,
      "Ġmaya": 5762,
      "Ġmaluk": 5763,
      "fufuku": 5764,
      "Ġijojot": 5765,
      "Ġkpege": 5766,
      "Ġkperie": 5767,
      "Ġkpetele": 5768,
      "Ġkpegwá»įk": 5769,
      "Ġkpeweweek": 5770,
      "Ġkperaraan": 5771,
      "Ġokiria": 5772,
      "Ġokibene": 5773,
      "Ġokikpan": 5774,
      "Ġokilibi": 5775,
      "Ġokisiki": 5776,
      "Ġokichaka": 5777,
      "Ġokisulu": 5778,
      "Ġokinama": 5779,
      "Ġokilomo": 5780,
      "tá»įtá»į": 5781,
      "lá»įlá»įk": 5782,
      "Ġechitbe": 5783,
      "Ġebesibi": 5784,
      "Ġebetatap": 5785,
      "Ġkará»į": 5786,
      "Ġkada": 5787,
      "Ġkadi": 5788,
      "Ġkakpan": 5789,
      "Ġkalet": 5790,
      "Ġkachiin": 5791,
      "telebe": 5792,
      "Ġofaak": 5793,
      "Ġoborie": 5794,
      "Ġobobene": 5795,
      "Ġobonu": 5796,
      "Ġobokisa": 5797,
      "Ġobomá»įná»į": 5798,
      "Ġukput": 5799,
      "Ġjuuk": 5800,
      "Ġorerieen": 5801,
      "kanyan": 5802,
      "kanwene": 5803,
      "Ġuduk": 5804,
      "niin": 5805,
      "niria": 5806,
      "nikpá»įk": 5807,
      "gawaji": 5808,
      "wá»įwá»įá»įk": 5809,
      "nuwi": 5810,
      "Ġesiá»įn": 5811,
      "Ġesisik": 5812,
      "mian": 5813,
      "kpogwu": 5814,
      "kpokeke": 5815,
      "Ġjabá»įk": 5816,
      "Ġjasu": 5817,
      "Ġjamin": 5818,
      "Ġjayen": 5819,
      "Ġjasin": 5820,
      "Ġjayas": 5821,
      "feri": 5822,
      "felet": 5823,
      "Ġenenibem": 5824,
      "Ġenenitá»įt": 5825,
      "Ġeririki": 5826,
      "nenitet": 5827,
      "neniluk": 5828,
      "nenitoon": 5829,
      "nenigwugwuun": 5830,
      "Ġmfufá»į": 5831,
      "Ġput": 5832,
      "Ġsenes": 5833,
      "Ġsowan": 5834,
      "Ġuyá»į": 5835,
      "rowas": 5836,
      "Ġgoma": 5837,
      "Ġokwakwaan": 5838,
      "Ġigwagwat": 5839,
      "Ġegele": 5840,
      "wá»įpbe": 5841,
      "Ġiriki": 5842,
      "Ġebekinyi": 5843,
      "Ġebekwakwaan": 5844,
      "Ġelioyen": 5845,
      "Ġelifelet": 5846,
      "Ġkpebere": 5847,
      "Ġkpebechieek": 5848,
      "má»įná»įbe": 5849,
      "kakire": 5850,
      "kakisan": 5851,
      "kakigban": 5852,
      "kakilibi": 5853,
      "lolomo": 5854,
      "Ġrewu": 5855,
      "Ġkpekpá»į": 5856,
      "Ġmbayaka": 5857,
      "Ġebekiluk": 5858,
      "Ġebekitap": 5859,
      "Ġfilipa": 5860,
      "Ġabila": 5861,
      "Ġsebaniya": 5862,
      "Ġisasaba": 5863,
      "Ġekpuuruk": 5864,
      "Ġasari": 5865,
      "Ġnkitá»įn": 5866,
      "Ġnkitaan": 5867,
      "Ġnkilook": 5868,
      "Ġnkibeek": 5869,
      "Ġnkikek": 5870,
      "Ġibodo": 5871,
      "Ġodá»įmá»į": 5872,
      "Ġedere": 5873,
      "bineya": 5874,
      "Ġkpekitumu": 5875,
      "Ġkpekimá»įá»įn": 5876,
      "Ġokakat": 5877,
      "neninyi": 5878,
      "danien": 5879,
      "Ġbejibun": 5880,
      "Ġokekisa": 5881,
      "Ġokekirá»į": 5882,
      "Ġokekitoon": 5883,
      "Ġkpebekwaan": 5884,
      "katana": 5885,
      "Ġebesaba": 5886,
      "Ġkena": 5887,
      "Ġikinaan": 5888,
      "Ġikinyam": 5889,
      "kineme": 5890,
      "kinunuun": 5891,
      "jobu": 5892,
      "Ġerurá»įn": 5893,
      "Ġnnenibene": 5894,
      "Ġgilibowa": 5895,
      "Ġayinowam": 5896,
      "Ġpedaya": 5897,
      "Ġjeyoyanan": 5898,
      "Ġochakbe": 5899,
      "Ġaná»įk": 5900,
      "Ġtapuwa": 5901,
      "Ġikpukpá»įt": 5902,
      "Ġnuunuun": 5903,
      "kwekweek": 5904,
      "Ġifuuk": 5905,
      "kpakabe": 5906,
      "Ġadaya": 5907,
      "Ġogbugbá»į": 5908,
      "Ġebenyi": 5909,
      "Ġogula": 5910,
      "Ġntobe": 5911,
      "Ġbinuwi": 5912,
      "kekitaan": 5913,
      "Ġntapbe": 5914,
      "Ġtofet": 5915,
      "Ġtorowas": 5916,
      "Ġnyanya": 5917,
      "kisook": 5918,
      "Ġariá»įk": 5919,
      "chichinibe": 5920,
      "yiyalabe": 5921,
      "Ġeberá»įká»į": 5922,
      "Ġnkakana": 5923,
      "Ġtigi": 5924,
      "Ġisuuk": 5925,
      "chimbe": 5926,
      "Ġikinyinya": 5927,
      "kibeben": 5928,
      "Ġikwakwaan": 5929,
      "Ġsimiron": 5930,
      "nore": 5931,
      "Ġkpenan": 5932,
      "Ġekpá»įbe": 5933,
      "Ġegbaalek": 5934,
      "Ġagagawaji": 5935,
      "Ġteli": 5936,
      "Ġenekaan": 5937,
      "limon": 5938,
      "Ġmerayot": 5939,
      "rá»įká»įbe": 5940,
      "Ġitiki": 5941,
      "kekem": 5942,
      "Ġisinire": 5943,
      "Ġofera": 5944,
      "Ġmbani": 5945,
      "Ġinigwugwuun": 5946,
      "Ġetá»įtá»į": 5947,
      "Ġkiriatayim": 5948,
      "Ġdowegi": 5949,
      "kanyinyi": 5950,
      "ebereyam": 5951,
      "bolobe": 5952,
      "Ġkpebenyi": 5953,
      "totolek": 5954,
      "Ġikaká»įtge": 5955,
      "Ġrefaya": 5956,
      "Ġelepbe": 5957,
      "Ġoririki": 5958,
      "Ġdelaya": 5959,
      "Ġokpá»įkbe": 5960,
      "Ġoboninama": 5961,
      "Ġebeekbe": 5962,
      "Ġofafan": 5963,
      "Ġikekeek": 5964,
      "Ġsalimá»įn": 5965,
      "Ġbelisaja": 5966,
      "Ġbelitisaja": 5967,
      "Ġebabala": 5968,
      "Ġakibá»įru": 5969,
      "Ġmigidá»įn": 5970,
      "Ġefifilabe": 5971,
      "Ġnikodimá»įs": 5972,
      "Ġalikisenda": 5973,
      "Ġegiriga": 5974,
      "Ġesá»įpbe": 5975,
      "Ġberin": 5976,
      "Ġlotan": 5977,
      "yiyeek": 5978,
      "Ġnkakupge": 5979,
      "Ġgalesia": 5980,
      "Ġjayajien": 5981,
      "Ġelinatan": 5982,
      "Ġjunipa": 5983,
      "Ġjeyonadabu": 5984,
      "Ġelileekbe": 5985,
      "lonia": 5986,
      "Ġmemfis": 5987,
      "Ġatens": 5988,
      "Ġgedoru": 5989,
      "Ġkadimien": 5990,
      "Ġsenesene": 5991,
      "Ġelioyenai": 5992,
      "Ġfilipai": 5993,
      "Ġederei": 5994,
      "acha": 5995,
      "dom": 5996,
      "ege": 5997,
      "eda": 5998,
      "ewuuk": 5999,
      "erá»įn": 6000,
      "edim": 6001,
      "ii": 6002,
      "ikp": 6003,
      "ikan": 6004,
      "ido": 6005,
      "já»įk": 6006,
      "leen": 6007,
      "nsi": 6008,
      "nneni": 6009,
      "sá»įntiik": 6010,
      "wana": 6011,
      "Ġtip": 6012,
      "Ġbeek": 6013,
      "Ġtun": 6014,
      "Ġbeke": 6015,
      "Ġibi": 6016,
      "Ġite": 6017,
      "Ġiren": 6018,
      "Ġiran": 6019,
      "Ġichacha": 6020,
      "Ġilomo": 6021,
      "Ġiwuwá»įlá»į": 6022,
      "Ġitututuku": 6023,
      "á»įlá»į": 6024,
      "Ġelet": 6025,
      "Ġejak": 6026,
      "Ġegwat": 6027,
      "Ġewá»įá»įk": 6028,
      "Ġegugo": 6029,
      "Ġechon": 6030,
      "Ġesá»įk": 6031,
      "Ġmfieek": 6032,
      "Ġmbia": 6033,
      "Ġmmemem": 6034,
      "Ġosis": 6035,
      "Ġolalaak": 6036,
      "Ġosoon": 6037,
      "Ġolookbe": 6038,
      "Ġojojomo": 6039,
      "Ġmero": 6040,
      "ekaya": 6041,
      "Ġulep": 6042,
      "Ġutut": 6043,
      "yima": 6044,
      "berie": 6045,
      "Ġaru": 6046,
      "Ġado": 6047,
      "Ġayo": 6048,
      "Ġabak": 6049,
      "Ġamien": 6050,
      "Ġasuru": 6051,
      "Ġajeka": 6052,
      "tus": 6053,
      "Ġnwá»įn": 6054,
      "Ġnrá»įrá»į": 6055,
      "Ġnsasa": 6056,
      "Ġnken": 6057,
      "Ġnkwá»įá»įk": 6058,
      "Ġnlukbe": 6059,
      "yaba": 6060,
      "yali": 6061,
      "yayen": 6062,
      "bá»įbá»įp": 6063,
      "jijin": 6064,
      "waak": 6065,
      "Ġenwenwene": 6066,
      "Ġkep": 6067,
      "Ġkeri": 6068,
      "kage": 6069,
      "kabene": 6070,
      "kabele": 6071,
      "kakeek": 6072,
      "kalet": 6073,
      "kakukup": 6074,
      "katata": 6075,
      "kachili": 6076,
      "kakem": 6077,
      "mut": 6078,
      "kitan": 6079,
      "kifaka": 6080,
      "kikpá»įkpá»į": 6081,
      "kiroon": 6082,
      "kigwá»įk": 6083,
      "kitetet": 6084,
      "kikpukp": 6085,
      "kijeje": 6086,
      "kibia": 6087,
      "kifeen": 6088,
      "kikween": 6089,
      "kigbugbuk": 6090,
      "kiwuwulu": 6091,
      "ribu": 6092,
      "rifa": 6093,
      "sayi": 6094,
      "kpu": 6095,
      "kpot": 6096,
      "boben": 6097,
      "bokisa": 6098,
      "bojibi": 6099,
      "boyim": 6100,
      "boyayat": 6101,
      "Ġgema": 6102,
      "Ġibedo": 6103,
      "Ġotut": 6104,
      "basi": 6105,
      "babak": 6106,
      "bajijijaka": 6107,
      "Ġisita": 6108,
      "Ġisinyi": 6109,
      "Ġisitet": 6110,
      "Ġisido": 6111,
      "Ġisitaan": 6112,
      "Ġisigwá»įk": 6113,
      "tiyas": 6114,
      "fim": 6115,
      "fidim": 6116,
      "Ġenetet": 6117,
      "Ġmibi": 6118,
      "Ġirerieen": 6119,
      "Ġowuwulu": 6120,
      "ragba": 6121,
      "raton": 6122,
      "Ġijene": 6123,
      "Ġkisa": 6124,
      "Ġkikpá»į": 6125,
      "une": 6126,
      "lebe": 6127,
      "lesa": 6128,
      "legi": 6129,
      "enien": 6130,
      "Ġeyilá»į": 6131,
      "Ġeyiyiyala": 6132,
      "Ġjoon": 6133,
      "Ġikirieen": 6134,
      "Ġikifuk": 6135,
      "Ġikikeke": 6136,
      "Ġikifá»įá»įk": 6137,
      "Ġikikat": 6138,
      "Ġikidun": 6139,
      "Ġikikput": 6140,
      "Ġikibumu": 6141,
      "Ġikikwukwulu": 6142,
      "lipa": 6143,
      "Ġisek": 6144,
      "lalap": 6145,
      "tobe": 6146,
      "Ġikagbaan": 6147,
      "Ġikasisik": 6148,
      "Ġekijit": 6149,
      "Ġekigwá»įk": 6150,
      "Ġekitetet": 6151,
      "Ġekijin": 6152,
      "Ġekigen": 6153,
      "Ġekifiin": 6154,
      "kpajit": 6155,
      "kpagban": 6156,
      "kpajijaka": 6157,
      "yet": 6158,
      "yera": 6159,
      "Ġinibum": 6160,
      "Ġinitaan": 6161,
      "Ġinifaka": 6162,
      "Ġinitaba": 6163,
      "Ġinisisaak": 6164,
      "Ġigoon": 6165,
      "Ġonenima": 6166,
      "Ġonenifuk": 6167,
      "Ġonenitá»įt": 6168,
      "Ġonenisaba": 6169,
      "Ġonenitaba": 6170,
      "seri": 6171,
      "Ġgana": 6172,
      "Ġgon": 6173,
      "data": 6174,
      "Ġmala": 6175,
      "Ġekweekbe": 6176,
      "Ġjilipa": 6177,
      "Ġenenyan": 6178,
      "Ġeneninin": 6179,
      "Ġntetbe": 6180,
      "Ġyik": 6181,
      "Ġyiyala": 6182,
      "sá»įsá»įá»įk": 6183,
      "Ġkpesi": 6184,
      "Ġkpegbe": 6185,
      "Ġkpebele": 6186,
      "Ġkpefat": 6187,
      "Ġkpedodo": 6188,
      "chebe": 6189,
      "Ġokikwu": 6190,
      "Ġokichit": 6191,
      "Ġokisan": 6192,
      "Ġokibum": 6193,
      "Ġokitá»įbá»į": 6194,
      "Ġokitibi": 6195,
      "Ġokijot": 6196,
      "Ġokikeme": 6197,
      "Ġokigbin": 6198,
      "lá»įbe": 6199,
      "Ġmkpá»įk": 6200,
      "Ġebewa": 6201,
      "Ġebetá»į": 6202,
      "Ġebejeen": 6203,
      "Ġebetá»įbá»į": 6204,
      "Ġebefuk": 6205,
      "Ġebefaka": 6206,
      "Ġeberá»įrá»į": 6207,
      "Ġofiin": 6208,
      "Ġofiik": 6209,
      "oniin": 6210,
      "Ġkabe": 6211,
      "Ġkari": 6212,
      "Ġkagá»įá»įk": 6213,
      "Ġkagbaan": 6214,
      "disia": 6215,
      "diden": 6216,
      "Ġofan": 6217,
      "jitbe": 6218,
      "Ġoborieen": 6219,
      "Ġobofieek": 6220,
      "Ġobokpan": 6221,
      "Ġobonyan": 6222,
      "kanwá»įná»į": 6223,
      "nikpa": 6224,
      "nibene": 6225,
      "nitet": 6226,
      "nitaka": 6227,
      "nisulu": 6228,
      "nikeme": 6229,
      "gam": 6230,
      "Ġgayá»įs": 6231,
      "Ġbasem": 6232,
      "Ġjoya": 6233,
      "minbe": 6234,
      "Ġesikon": 6235,
      "pim": 6236,
      "pilesa": 6237,
      "mege": 6238,
      "Ġjaredi": 6239,
      "Ġjasipa": 6240,
      "Ġjakiá»įs": 6241,
      "fegi": 6242,
      "Ġenenigobo": 6243,
      "Ġeneniroon": 6244,
      "Ġenenimá»įná»į": 6245,
      "Ġenenikeke": 6246,
      "Ġenenilook": 6247,
      "Ġenenisaba": 6248,
      "Ġenenikije": 6249,
      "Ġenenichichini": 6250,
      "Ġenenikido": 6251,
      "Ġininiin": 6252,
      "Ġkaraso": 6253,
      "nenikeke": 6254,
      "nenifá»įá»įk": 6255,
      "Ġatisi": 6256,
      "Ġerá»įká»į": 6257,
      "Ġerá»įrá»įn": 6258,
      "Ġekalá»į": 6259,
      "Ġekawuuk": 6260,
      "Ġekado": 6261,
      "Ġekará»įn": 6262,
      "Ġekafiat": 6263,
      "Ġekatbe": 6264,
      "Ġekakala": 6265,
      "Ġpu": 6266,
      "Ġpekaya": 6267,
      "Ġpenien": 6268,
      "Ġoruk": 6269,
      "Ġarak": 6270,
      "Ġaradi": 6271,
      "Ġsofa": 6272,
      "ros": 6273,
      "Ġogbolo": 6274,
      "Ġochichim": 6275,
      "Ġigbagbaan": 6276,
      "Ġeketap": 6277,
      "Ġlidia": 6278,
      "bonyenye": 6279,
      "Ġnayat": 6280,
      "Ġinenigwu": 6281,
      "Ġinenije": 6282,
      "Ġinenimá»įná»į": 6283,
      "Ġinenijijaka": 6284,
      "Ġjekonaya": 6285,
      "Ġelim": 6286,
      "Ġelimelek": 6287,
      "Ġelisuru": 6288,
      "Ġkpebejomo": 6289,
      "eten": 6290,
      "kakita": 6291,
      "kakirie": 6292,
      "kakiben": 6293,
      "kakitele": 6294,
      "kakisun": 6295,
      "Ġgiyá»įn": 6296,
      "Ġgiriga": 6297,
      "lolook": 6298,
      "Ġoriebe": 6299,
      "Ġreyum": 6300,
      "Ġrefidim": 6301,
      "Ġeseri": 6302,
      "Ġnim": 6303,
      "Ġosusulu": 6304,
      "Ġkpekpa": 6305,
      "Ġkpekpan": 6306,
      "Ġmbado": 6307,
      "Ġebekije": 6308,
      "Ġebekikpulu": 6309,
      "Ġbabilonia": 6310,
      "Ġabisuwa": 6311,
      "Ġabiyali": 6312,
      "tá»įtá»įp": 6313,
      "Ġselu": 6314,
      "Ġseferi": 6315,
      "Ġekekiluk": 6316,
      "Ġekekiben": 6317,
      "Ġekekitá»įbá»į": 6318,
      "kwo": 6319,
      "kwá»įkwá»įká»į": 6320,
      "gwá»įkbe": 6321,
      "Ġnkimun": 6322,
      "Ġnkiká»įt": 6323,
      "Ġnkido": 6324,
      "Ġichan": 6325,
      "Ġilá»įbá»į": 6326,
      "Ġibolo": 6327,
      "Ġá»įsá»į": 6328,
      "Ġojejeen": 6329,
      "Ġpirisi": 6330,
      "Ġpiraton": 6331,
      "Ġikakeke": 6332,
      "Ġedá»įmá»į": 6333,
      "turus": 6334,
      "Ġkpekigban": 6335,
      "Ġkpekikeek": 6336,
      "Ġoraraka": 6337,
      "Ġoraraan": 6338,
      "Ġokakan": 6339,
      "Ġbebai": 6340,
      "Ġokekiluk": 6341,
      "Ġokekido": 6342,
      "fá»įá»įkbe": 6343,
      "Ġkpebekpan": 6344,
      "Ġinenin": 6345,
      "Ġjerimot": 6346,
      "Ġebesasa": 6347,
      "kinyinya": 6348,
      "Ġikinene": 6349,
      "Ġikinwene": 6350,
      "kinunu": 6351,
      "Ġatantan": 6352,
      "Ġtali": 6353,
      "Ġtayana": 6354,
      "Ġnnenisi": 6355,
      "Ġnnenikeek": 6356,
      "Ġleyi": 6357,
      "Ġpara": 6358,
      "Ġpalu": 6359,
      "Ġparos": 6360,
      "Ġpaturus": 6361,
      "Ġiwaka": 6362,
      "Ġayio": 6363,
      "Ġayira": 6364,
      "padi": 6365,
      "Ġpeda": 6366,
      "Ġpelegi": 6367,
      "Ġjeyosadak": 6368,
      "juru": 6369,
      "lilileek": 6370,
      "Ġegween": 6371,
      "Ġokwuun": 6372,
      "Ġdii": 6373,
      "Ġurim": 6374,
      "irini": 6375,
      "Ġenikup": 6376,
      "kekirá»į": 6377,
      "Ġajaren": 6378,
      "Ġaripadi": 6379,
      "Ġladan": 6380,
      "Ġlawo": 6381,
      "Ġoneninene": 6382,
      "Ġoneninyan": 6383,
      "kponu": 6384,
      "Ġegwagwa": 6385,
      "Ġtiten": 6386,
      "Ġtisibe": 6387,
      "Ġefonbe": 6388,
      "Ġetotoon": 6389,
      "Ġowutbe": 6390,
      "kibeen": 6391,
      "Ġekibeme": 6392,
      "Ġekpebe": 6393,
      "mosis": 6394,
      "Ġsuri": 6395,
      "Ġjediyayen": 6396,
      "Ġjioyaribu": 6397,
      "Ġkpenye": 6398,
      "Ġkpenama": 6399,
      "Ġtebes": 6400,
      "Ġsimeya": 6401,
      "Ġenekup": 6402,
      "kimalek": 6403,
      "Ġmbeben": 6404,
      "Ġoyolia": 6405,
      "Ġitimi": 6406,
      "ikeya": 6407,
      "Ġikasage": 6408,
      "Ġabarim": 6409,
      "Ġkpoyakabe": 6410,
      "Ġomama": 6411,
      "Ġomaman": 6412,
      "Ġisinirá»į": 6413,
      "Ġutek": 6414,
      "Ġuluda": 6415,
      "Ġetá»įtá»įbá»į": 6416,
      "Ġdoru": 6417,
      "nwá»įná»įbe": 6418,
      "Ġogbaragba": 6419,
      "Ġiloma": 6420,
      "Ġodiya": 6421,
      "Ġekaká»įtge": 6422,
      "Ġserugu": 6423,
      "Ġrefayim": 6424,
      "Ġokekinyi": 6425,
      "Ġadima": 6426,
      "Ġrekem": 6427,
      "Ġewuwut": 6428,
      "Ġntikwo": 6429,
      "Ġodabia": 6430,
      "urum": 6431,
      "Ġogwookbe": 6432,
      "Ġsamayi": 6433,
      "Ġminwá»įn": 6434,
      "Ġmakeda": 6435,
      "Ġmisip": 6436,
      "Ġeneninama": 6437,
      "simá»įs": 6438,
      "Ġnsikikeek": 6439,
      "Ġenwá»įnwá»į": 6440,
      "Ġokanbe": 6441,
      "Ġluju": 6442,
      "Ġomá»įná»įbe": 6443,
      "Ġnsisulu": 6444,
      "Ġofiatbe": 6445,
      "Ġogwakbe": 6446,
      "Ġeliyakim": 6447,
      "Ġogakbe": 6448,
      "Ġjarimut": 6449,
      "Ġelilambe": 6450,
      "Ġobeekbe": 6451,
      "Ġnkará»įge": 6452,
      "Ġajirikam": 6453,
      "Ġebalabe": 6454,
      "Ġonesimá»įs": 6455,
      "Ġjairá»įs": 6456,
      "Ġebekpá»įkpá»į": 6457,
      "Ġtigilat": 6458,
      "Ġbekeri": 6459,
      "Ġmerodak": 6460,
      "rifayim": 6461,
      "Ġbasemat": 6462,
      "Ġogbolodom": 6463,
      "Ġgirigas": 6464,
      "Ġpirisila": 6465,
      "Ġtayanak": 6466,
      "Ġlawodisia": 6467,
      "Ġoyoliabu": 6468,
      "Ġogbaragbat": 6469,
      ");": 6470,
      "ati": 6471,
      "afi": 6472,
      "egwe": 6473,
      "ejen": 6474,
      "itat": 6475,
      "irek": 6476,
      "já»įá»įk": 6477,
      "mon": 6478,
      "nem": 6479,
      "nwan": 6480,
      "ochichim": 6481,
      "pen": 6482,
      "pbe": 6483,
      "pá»įs": 6484,
      "yá»įá»įk": 6485,
      "Ġsá»į": 6486,
      "Ġwe": 6487,
      "Ġraka": 6488,
      "Ġfaka": 6489,
      "Ġtat": 6490,
      "Ġtop": 6491,
      "Ġbá»įp": 6492,
      "Ġlen": 6493,
      "Ġbuki": 6494,
      "Ġimi": 6495,
      "Ġimimin": 6496,
      "Ġibuk": 6497,
      "Ġiwuwut": 6498,
      "Ġebá»įá»įn": 6499,
      "Ġechak": 6500,
      "Ġebat": 6501,
      "Ġechep": 6502,
      "Ġetutuku": 6503,
      "Ġechachak": 6504,
      "Ġelap": 6505,
      "Ġedadasi": 6506,
      "Ġesulube": 6507,
      "Ġelalaak": 6508,
      "Ġeriaan": 6509,
      "Ġesusun": 6510,
      "Ġewowop": 6511,
      "Ġekpakabe": 6512,
      "Ġmini": 6513,
      "Ġmmá»įná»į": 6514,
      "Ġmbebene": 6515,
      "Ġmfieekbe": 6516,
      "ÌĦâĢĿ": 6517,
      "Ġoban": 6518,
      "Ġotá»į": 6519,
      "Ġowop": 6520,
      "Ġochachak": 6521,
      "Ġolap": 6522,
      "Ġocho": 6523,
      "Ġojá»įjá»į": 6524,
      "Ġowá»įpbe": 6525,
      "Ġmesaya": 6526,
      "Ġká»įlá»į": 6527,
      "ekwukwu": 6528,
      "Ġuwa": 6529,
      "Ġuchá»įk": 6530,
      "yige": 6531,
      "beton": 6532,
      "bilá»į": 6533,
      "Ġabo": 6534,
      "Ġaben": 6535,
      "Ġasan": 6536,
      "Ġalo": 6537,
      "Ġatem": 6538,
      "Ġatus": 6539,
      "Ġikwun": 6540,
      "rerieen": 6541,
      "siya": 6542,
      "siba": 6543,
      "Ġnsibi": 6544,
      "Ġntá»įbá»į": 6545,
      "Ġnsik": 6546,
      "Ġnyam": 6547,
      "Ġnjijaka": 6548,
      "Ġnjebe": 6549,
      "Ġnlibibe": 6550,
      "Ġndá»įmá»įbe": 6551,
      "Ġntá»įtbe": 6552,
      "jiji": 6553,
      "Ġemeen": 6554,
      "Ġemá»įmá»įná»į": 6555,
      "Ġená»įá»įn": 6556,
      "Ġeninan": 6557,
      "Ġenyenye": 6558,
      "jebu": 6559,
      "Ġked": 6560,
      "Ġkebilá»į": 6561,
      "kaka": 6562,
      "kabet": 6563,
      "kachit": 6564,
      "kaman": 6565,
      "kamin": 6566,
      "katibi": 6567,
      "kafo": 6568,
      "kajijaka": 6569,
      "kasulu": 6570,
      "kagwat": 6571,
      "kalá»įlá»į": 6572,
      "kamumun": 6573,
      "kajomo": 6574,
      "kachep": 6575,
      "kagan": 6576,
      "kafeen": 6577,
      "kayá»įt": 6578,
      "kasoon": 6579,
      "kiji": 6580,
      "kita": 6581,
      "kiwuuk": 6582,
      "kirá»įn": 6583,
      "kirep": 6584,
      "kirom": 6585,
      "kigbana": 6586,
      "kigwuun": 6587,
      "kitatat": 6588,
      "kigwak": 6589,
      "kigbala": 6590,
      "kileke": 6591,
      "kibieen": 6592,
      "kinenen": 6593,
      "kiká»įs": 6594,
      "kichachak": 6595,
      "kimumen": 6596,
      "kifum": 6597,
      "kililibi": 6598,
      "kiteme": 6599,
      "kisusun": 6600,
      "kigbin": 6601,
      "kifafiat": 6602,
      "kikala": 6603,
      "kijá»įjá»į": 6604,
      "kibá»įá»įk": 6605,
      "kiraran": 6606,
      "riraan": 6607,
      "Ġogwube": 6608,
      "ineni": 6609,
      "tarot": 6610,
      "kube": 6611,
      "emis": 6612,
      "botibi": 6613,
      "borot": 6614,
      "botata": 6615,
      "bokije": 6616,
      "boluluk": 6617,
      "bokitap": 6618,
      "bojojot": 6619,
      "bogwá»įgwá»įk": 6620,
      "Ġgesem": 6621,
      "batumu": 6622,
      "babaak": 6623,
      "bagwagwak": 6624,
      "tere": 6625,
      "tela": 6626,
      "Ġisiyi": 6627,
      "Ġisitumu": 6628,
      "Ġisirie": 6629,
      "Ġisiweek": 6630,
      "Ġisitap": 6631,
      "Ġisikana": 6632,
      "Ġisiwele": 6633,
      "Ġisikirá»į": 6634,
      "Ġisiwop": 6635,
      "Ġisiwut": 6636,
      "Ġisinama": 6637,
      "Ġisinaan": 6638,
      "tiki": 6639,
      "tiri": 6640,
      "tirá»įs": 6641,
      "fiik": 6642,
      "Ġenegwu": 6643,
      "Ġenesa": 6644,
      "Ġenefieek": 6645,
      "Ġenegbaan": 6646,
      "Ġenesaba": 6647,
      "á»įkwá»į": 6648,
      "bubeek": 6649,
      "ras": 6650,
      "rajim": 6651,
      "Ġkije": 6652,
      "Ġkijeen": 6653,
      "Ġkiborot": 6654,
      "Ġsitim": 6655,
      "Ġsina": 6656,
      "Ġoneme": 6657,
      "Ġonanama": 6658,
      "Ġmoja": 6659,
      "matia": 6660,
      "anam": 6661,
      "Ġkpom": 6662,
      "Ġeyikbe": 6663,
      "kolu": 6664,
      "Ġikicha": 6665,
      "Ġikime": 6666,
      "Ġikisisik": 6667,
      "Ġikiwá»įlá»į": 6668,
      "Ġikikpaka": 6669,
      "Ġikigbala": 6670,
      "Ġikibieen": 6671,
      "Ġikibaak": 6672,
      "Ġikimumen": 6673,
      "Ġikigana": 6674,
      "Ġikisá»įp": 6675,
      "Ġikigbá»įá»įk": 6676,
      "Ġikimeen": 6677,
      "Ġikititen": 6678,
      "Ġikigá»įt": 6679,
      "Ġikitiik": 6680,
      "lita": 6681,
      "gwabe": 6682,
      "Ġisá»įá»įk": 6683,
      "Ġchilá»į": 6684,
      "Ġidimi": 6685,
      "Ġikaweek": 6686,
      "Ġikachit": 6687,
      "Ġikasan": 6688,
      "Ġikajijaka": 6689,
      "Ġikarep": 6690,
      "Ġikajá»į": 6691,
      "Ġikayaak": 6692,
      "Ġekiriá»įá»įn": 6693,
      "Ġekiria": 6694,
      "Ġekigwook": 6695,
      "Ġekibum": 6696,
      "Ġekiraka": 6697,
      "Ġekibem": 6698,
      "Ġekigobo": 6699,
      "Ġekilet": 6700,
      "Ġekijak": 6701,
      "Ġekinye": 6702,
      "Ġekilep": 6703,
      "Ġekijijen": 6704,
      "Ġekichachak": 6705,
      "Ġekiweweek": 6706,
      "Ġekililibi": 6707,
      "Ġitali": 6708,
      "Ġifeme": 6709,
      "kpabá»įká»į": 6710,
      "kpasan": 6711,
      "kpagá»įá»įk": 6712,
      "kpakpaka": 6713,
      "Ġinisibi": 6714,
      "Ġinifuk": 6715,
      "Ġinikitumu": 6716,
      "Ġinikisa": 6717,
      "Ġinigwá»įk": 6718,
      "Ġinifuun": 6719,
      "Ġinidá»įmá»į": 6720,
      "Ġinigwá»į": 6721,
      "Ġinichibi": 6722,
      "Ġiga": 6723,
      "Ġigan": 6724,
      "Ġigbidim": 6725,
      "Ġmbubek": 6726,
      "otan": 6727,
      "Ġoneniche": 6728,
      "Ġonenikpan": 6729,
      "Ġonenitim": 6730,
      "Ġonenidá»įmá»į": 6731,
      "Ġonenifiak": 6732,
      "Ġonenikama": 6733,
      "ses": 6734,
      "sela": 6735,
      "Ġirá»įá»įn": 6736,
      "Ġgbu": 6737,
      "Ġgbet": 6738,
      "Ġgbuku": 6739,
      "Ġokeek": 6740,
      "Ġokwek": 6741,
      "Ġatarot": 6742,
      "Ġatayaba": 6743,
      "Ġsabi": 6744,
      "Ġsare": 6745,
      "Ġsalek": 6746,
      "Ġsará»įn": 6747,
      "Ġsairini": 6748,
      "Ġmara": 6749,
      "Ġmagá»į": 6750,
      "Ġekwek": 6751,
      "Ġenenama": 6752,
      "Ġntet": 6753,
      "Ġntetet": 6754,
      "Ġogen": 6755,
      "Ġkpeje": 6756,
      "Ġkperere": 6757,
      "Ġkpetá»įbá»į": 6758,
      "Ġkpechak": 6759,
      "Ġkpejeje": 6760,
      "Ġkpelá»įlá»į": 6761,
      "Ġokirie": 6762,
      "Ġokigban": 6763,
      "Ġokigbaan": 6764,
      "Ġokimá»įná»į": 6765,
      "Ġokisisik": 6766,
      "Ġokiná»į": 6767,
      "Ġokiyok": 6768,
      "Ġokimumen": 6769,
      "tá»įtá»įt": 6770,
      "lá»įlá»įká»į": 6771,
      "Ġkeyiyi": 6772,
      "Ġechilá»į": 6773,
      "Ġechimbe": 6774,
      "Ġebetaka": 6775,
      "Ġebebeek": 6776,
      "Ġebejibi": 6777,
      "Ġofiak": 6778,
      "Ġkaje": 6779,
      "Ġkaki": 6780,
      "Ġkala": 6781,
      "Ġkarie": 6782,
      "Ġkatoon": 6783,
      "Ġkafuk": 6784,
      "Ġkamá»įná»į": 6785,
      "Ġkasisaak": 6786,
      "Ġkafefieek": 6787,
      "Ġkariaan": 6788,
      "diá»įs": 6789,
      "diuru": 6790,
      "Ġofini": 6791,
      "Ġikanaan": 6792,
      "Ġoboria": 6793,
      "Ġobotet": 6794,
      "Ġoboben": 6795,
      "Ġobotap": 6796,
      "Ġoboman": 6797,
      "Ġobonan": 6798,
      "Ġobotip": 6799,
      "Ġobokpulu": 6800,
      "Ġobokirá»į": 6801,
      "Ġobodasi": 6802,
      "Ġobokikpulu": 6803,
      "Ġdeme": 6804,
      "Ġdotan": 6805,
      "ebibi": 6806,
      "Ġanat": 6807,
      "Ġesasaba": 6808,
      "Ġesakbe": 6809,
      "nigwu": 6810,
      "nimun": 6811,
      "niriá»įá»įn": 6812,
      "nirie": 6813,
      "niluk": 6814,
      "niben": 6815,
      "nitoon": 6816,
      "nigban": 6817,
      "nilep": 6818,
      "gama": 6819,
      "wá»įwá»įlá»į": 6820,
      "Ġijijibi": 6821,
      "fafiak": 6822,
      "fafaan": 6823,
      "Ġbayu": 6824,
      "Ġikanwá»į": 6825,
      "Ġikanwá»įn": 6826,
      "Ġjosadak": 6827,
      "Ġesitem": 6828,
      "meri": 6829,
      "meses": 6830,
      "miá»įs": 6831,
      "kposi": 6832,
      "kpotumu": 6833,
      "kporiá»įá»įn": 6834,
      "kpojit": 6835,
      "kpogban": 6836,
      "kpofieek": 6837,
      "kpofiat": 6838,
      "Ġjatu": 6839,
      "Ġjafan": 6840,
      "Ġjabidi": 6841,
      "Ġjabadi": 6842,
      "fera": 6843,
      "Ġenenirie": 6844,
      "Ġenenitet": 6845,
      "Ġenenitap": 6846,
      "Ġenenidá»įmá»į": 6847,
      "nenisi": 6848,
      "nenigwa": 6849,
      "nenibene": 6850,
      "nenikpan": 6851,
      "nenisibi": 6852,
      "nenigbaan": 6853,
      "nenigwá»įk": 6854,
      "Ġekatap": 6855,
      "Ġekabá»įká»į": 6856,
      "Ġekakpan": 6857,
      "Ġekamá»įná»į": 6858,
      "Ġekabat": 6859,
      "Ġokpekpe": 6860,
      "Ġpo": 6861,
      "Ġpuwa": 6862,
      "Ġsá»įká»į": 6863,
      "Ġarari": 6864,
      "roroon": 6865,
      "tanien": 6866,
      "Ġgojan": 6867,
      "Ġugen": 6868,
      "Ġugot": 6869,
      "gbut": 6870,
      "Ġefufum": 6871,
      "Ġegegen": 6872,
      "Ġekeriá»įá»įn": 6873,
      "Ġekeran": 6874,
      "Ġekeben": 6875,
      "Ġekebá»įká»į": 6876,
      "Ġekegá»įá»įk": 6877,
      "Ġekesibi": 6878,
      "Ġeketip": 6879,
      "nwá»įnbe": 6880,
      "Ġekwukwulube": 6881,
      "Ġnatanien": 6882,
      "Ġinenire": 6883,
      "Ġinenikup": 6884,
      "Ġinenisibi": 6885,
      "Ġinenititiin": 6886,
      "Ġinenigobo": 6887,
      "Ġinenifá»įá»įk": 6888,
      "Ġokom": 6889,
      "kisasa": 6890,
      "Ġkpeberiá»įá»įn": 6891,
      "Ġkpebeluk": 6892,
      "Ġkpebetap": 6893,
      "Ġkpebebá»įká»į": 6894,
      "Ġkpebewuuk": 6895,
      "Ġogege": 6896,
      "ninan": 6897,
      "Ġisikije": 6898,
      "kakikup": 6899,
      "kakimun": 6900,
      "kakiriá»įá»įn": 6901,
      "kakikpá»į": 6902,
      "kakiyaka": 6903,
      "kakibá»įká»į": 6904,
      "kakijeen": 6905,
      "kakinin": 6906,
      "kakikeke": 6907,
      "kakilá»įlá»į": 6908,
      "Ġgibeton": 6909,
      "sutbe": 6910,
      "Ġkpekeek": 6911,
      "Ġkpekwaan": 6912,
      "Ġekisasa": 6913,
      "Ġmbakpá»į": 6914,
      "Ġmbagá»įá»įk": 6915,
      "Ġebekire": 6916,
      "Ġebekitumu": 6917,
      "Ġebekiwá»įp": 6918,
      "Ġebekisun": 6919,
      "Ġebekiwut": 6920,
      "Ġebekikwak": 6921,
      "Ġabibu": 6922,
      "Ġabidan": 6923,
      "Ġseta": 6924,
      "Ġseba": 6925,
      "Ġseboyim": 6926,
      "Ġsediuru": 6927,
      "Ġekekikpa": 6928,
      "Ġekekiran": 6929,
      "Ġekekitá»įn": 6930,
      "Ġekekiká»įt": 6931,
      "Ġekekigban": 6932,
      "Ġekekikeek": 6933,
      "rá»įrá»įt": 6934,
      "Ġnkitap": 6935,
      "Ġnkijeen": 6936,
      "Ġnkirika": 6937,
      "Ġnebayot": 6938,
      "Ġilá»įlá»įk": 6939,
      "gugá»įlá»į": 6940,
      "Ġederi": 6941,
      "Ġkpekirie": 6942,
      "Ġkpekiyaka": 6943,
      "Ġkpekitet": 6944,
      "Ġkpekichieek": 6945,
      "Ġokaka": 6946,
      "nentumu": 6947,
      "neninu": 6948,
      "nenlook": 6949,
      "neninan": 6950,
      "Ġibenin": 6951,
      "Ġosikije": 6952,
      "gien": 6953,
      "Ġokekikpá»į": 6954,
      "Ġokekisisik": 6955,
      "Ġokekigbuk": 6956,
      "Ġokekitana": 6957,
      "Ġosibá»įká»į": 6958,
      "Ġnsulu": 6959,
      "Ġasitarot": 6960,
      "Ġrá»įká»į": 6961,
      "Ġmkpukpuku": 6962,
      "kinyana": 6963,
      "Ġerururá»įn": 6964,
      "Ġowawa": 6965,
      "nyebe": 6966,
      "Ġtasá»įs": 6967,
      "Ġtalimon": 6968,
      "Ġnnenisa": 6969,
      "Ġnnenikpá»įk": 6970,
      "Ġnnenimá»įná»į": 6971,
      "Ġpamfi": 6972,
      "Ġpagien": 6973,
      "Ġdabi": 6974,
      "Ġayin": 6975,
      "Ġonikup": 6976,
      "Ġonikwu": 6977,
      "Ġonigwen": 6978,
      "Ġonimbe": 6979,
      "juda": 6980,
      "Ġtem": 6981,
      "Ġtá»įkwá»į": 6982,
      "Ġsibima": 6983,
      "Ġetembe": 6984,
      "Ġebenu": 6985,
      "Ġubenelek": 6986,
      "Ġuriyen": 6987,
      "Ġenije": 6988,
      "Ġeniká»įt": 6989,
      "kekigbuk": 6990,
      "dedek": 6991,
      "Ġibani": 6992,
      "yikbe": 6993,
      "Ġofitbe": 6994,
      "Ġotititiin": 6995,
      "Ġarien": 6996,
      "Ġaridi": 6997,
      "Ġnkasa": 6998,
      "Ġnkaká»įt": 6999,
      "Ġegwagwat": 7000,
      "pela": 7001,
      "Ġigegele": 7002,
      "onisia": 7003,
      "Ġrameses": 7004,
      "nwá»įbe": 7005,
      "Ġimina": 7006,
      "lababe": 7007,
      "gbukube": 7008,
      "Ġmá»įsita": 7009,
      "Ġokpatu": 7010,
      "Ġogwagwa": 7011,
      "Ġikwakwak": 7012,
      "Ġsutela": 7013,
      "Ġikekisa": 7014,
      "wowook": 7015,
      "Ġkpenin": 7016,
      "Ġkpená»įná»į": 7017,
      "Ġofufuk": 7018,
      "Ġngigen": 7019,
      "Ġwá»įlá»įwá»įlá»įwá»įlá»į": 7020,
      "Ġteyima": 7021,
      "Ġenekpan": 7022,
      "bonirá»į": 7023,
      "Ġetaak": 7024,
      "Ġmbese": 7025,
      "Ġaikoni": 7026,
      "Ġbuju": 7027,
      "Ġibonikpá»į": 7028,
      "kekeme": 7029,
      "Ġmijirayim": 7030,
      "Ġeliale": 7031,
      "Ġkpotabe": 7032,
      "Ġobubumu": 7033,
      "Ġobonire": 7034,
      "Ġfonisia": 7035,
      "Ġwilo": 7036,
      "Ġiwá»įwá»įá»įk": 7037,
      "Ġegayi": 7038,
      "Ġefafiat": 7039,
      "Ġefafan": 7040,
      "Ġojijá»įá»įk": 7041,
      "Ġegbanbe": 7042,
      "Ġikafieekge": 7043,
      "Ġogbanbe": 7044,
      "Ġekpá»įkbe": 7045,
      "Ġelalap": 7046,
      "Ġokekinan": 7047,
      "Ġeles": 7048,
      "Ġmalikien": 7049,
      "ania": 7050,
      "Ġtaikiká»įs": 7051,
      "Ġojijakabe": 7052,
      "Ġekará»įge": 7053,
      "Ġsefarifayim": 7054,
      "Ġofá»įá»įkbe": 7055,
      "Ġreyaya": 7056,
      "Ġkpemek": 7057,
      "Ġareset": 7058,
      "Ġasum": 7059,
      "Ġasubu": 7060,
      "polis": 7061,
      "sá»įnja": 7062,
      "Ġtumim": 7063,
      "Ġebá»įpbe": 7064,
      "Ġnsisaan": 7065,
      "memeen": 7066,
      "Ġmisima": 7067,
      "Ġotababe": 7068,
      "Ġibubeek": 7069,
      "Ġnchabe": 7070,
      "Ġekenbe": 7071,
      "Ġgalio": 7072,
      "Ġewá»įwá»įá»įk": 7073,
      "Ġegwakbe": 7074,
      "Ġogbá»įgbá»įá»įk": 7075,
      "Ġmayalat": 7076,
      "Ġogagak": 7077,
      "Ġbilidadi": 7078,
      "Ġkpemaman": 7079,
      "Ġeliyasafu": 7080,
      "Ġitutá»įmá»į": 7081,
      "Ġadina": 7082,
      "Ġpenina": 7083,
      "Ġegbá»įgbá»įá»įk": 7084,
      "Ġikadoge": 7085,
      "Ġrayama": 7086,
      "Ġewawak": 7087,
      "Ġochitbe": 7088,
      "Ġmakipela": 7089,
      "Ġogogobo": 7090,
      "Ġbigibai": 7091,
      "Ġoká»įbá»įm": 7092,
      "Ġoyokbe": 7093,
      "Ġmetusela": 7094,
      "Ġawudu": 7095,
      "Ġayejeri": 7096,
      "Ġijujuuk": 7097,
      "Ġjá»įkitan": 7098,
      "Ġgbegbegbe": 7099,
      "Ġjasubu": 7100,
      "Ġtuntun": 7101,
      "Ġosisem": 7102,
      "Ġadoram": 7103,
      "Ġayoyi": 7104,
      "Ġgemariya": 7105,
      "Ġkarasolet": 7106,
      "Ġnimsi": 7107,
      "Ġselumien": 7108,
      "Ġpedajuru": 7109,
      "Ġsurisadai": 7110,
      "Ġtopaji": 7111,
      "Ġlentin": 7112,
      "Ġatemis": 7113,
      "Ġmagá»įgu": 7114,
      "Ġdemetirá»įs": 7115,
      "Ġbayurim": 7116,
      "Ġikanwá»įnge": 7117,
      "Ġesitemowa": 7118,
      "Ġpamfilia": 7119,
      "Ġtá»įkwá»įyis": 7120,
      "Ġmá»įsitadi": 7121,
      "Ġaikoniá»įm": 7122,
      ";âĢĻ": 7123,
      "ayi": 7124,
      "abi": 7125,
      "ais": 7126,
      "ayim": 7127,
      "akarake": 7128,
      "deke": 7129,
      "don": 7130,
      "debi": 7131,
      "deya": 7132,
      "ese": 7133,
      "eyam": 7134,
      "fá»įn": 7135,
      "fá»įs": 7136,
      "im": 7137,
      "ije": 7138,
      "imu": 7139,
      "ikpa": 7140,
      "ifieek": 7141,
      "ikpe": 7142,
      "igen": 7143,
      "ilai": 7144,
      "jook": 7145,
      "jania": 7146,
      "kweekbe": 7147,
      "leme": 7148,
      "nyen": 7149,
      "oge": 7150,
      "olis": 7151,
      "rook": 7152,
      "seke": 7153,
      "tá»įm": 7154,
      "temebe": 7155,
      "uji": 7156,
      "udu": 7157,
      "Ġbum": 7158,
      "Ġdasi": 7159,
      "Ġtibi": 7160,
      "Ġyo": 7161,
      "Ġfaan": 7162,
      "Ġriaan": 7163,
      "Ġbineya": 7164,
      "Ġitu": 7165,
      "Ġiru": 7166,
      "Ġigwele": 7167,
      "Ġiyá»įt": 7168,
      "Ġigwogwook": 7169,
      "Ġibá»įá»įk": 7170,
      "Ġiteek": 7171,
      "Ġitutuun": 7172,
      "á»įge": 7173,
      "á»įdá»įmá»į": 7174,
      "Ġedi": 7175,
      "Ġejá»įn": 7176,
      "Ġegbugbá»į": 7177,
      "Ġechacha": 7178,
      "Ġewuwuuk": 7179,
      "Ġeká»įbe": 7180,
      "Ġechakbe": 7181,
      "Ġeboon": 7182,
      "Ġechakabe": 7183,
      "Ġebolobe": 7184,
      "Ġefá»įá»įkbe": 7185,
      "Ġejook": 7186,
      "Ġmmin": 7187,
      "Ġmwopbe": 7188,
      "Ġome": 7189,
      "Ġotitiin": 7190,
      "Ġotaan": 7191,
      "Ġolá»įn": 7192,
      "Ġotaka": 7193,
      "Ġolelet": 7194,
      "Ġomá»įá»įn": 7195,
      "Ġolak": 7196,
      "Ġobieen": 7197,
      "Ġogwá»į": 7198,
      "Ġojuuk": 7199,
      "Ġowewele": 7200,
      "Ġoteteen": 7201,
      "Ġotá»įtá»įn": 7202,
      "Ġojibibe": 7203,
      "Ġochakabe": 7204,
      "ÌĢ.": 7205,
      "Ġmey": 7206,
      "Ġmefa": 7207,
      "Ġmeyo": 7208,
      "Ġmeremot": 7209,
      "Ġmedeba": 7210,
      "Ġká»įp": 7211,
      "Ġkine": 7212,
      "wumu": 7213,
      "wuun": 7214,
      "wuwá»į": 7215,
      "enyen": 7216,
      "enai": 7217,
      "Ġuba": 7218,
      "Ġuban": 7219,
      "Ġufit": 7220,
      "Ġugwá»įk": 7221,
      "Ġuleke": 7222,
      "Ġukama": 7223,
      "Ġusim": 7224,
      "Ġugeen": 7225,
      "yieen": 7226,
      "yirot": 7227,
      "besi": 7228,
      "beya": 7229,
      "beji": 7230,
      "beli": 7231,
      "bebeek": 7232,
      "bechechep": 7233,
      "bim": 7234,
      "Ġaju": 7235,
      "Ġafila": 7236,
      "Ġarisi": 7237,
      "Ġakim": 7238,
      "Ġapulu": 7239,
      "Ġaleme": 7240,
      "Ġikook": 7241,
      "sien": 7242,
      "tuk": 7243,
      "tulu": 7244,
      "Ġndo": 7245,
      "Ġngá»įá»įk": 7246,
      "Ġnkare": 7247,
      "Ġnkakaan": 7248,
      "Ġnchili": 7249,
      "Ġnwene": 7250,
      "Ġnnanan": 7251,
      "Ġnlaakbe": 7252,
      "Ġnrombe": 7253,
      "Ġntataan": 7254,
      "Ġnkekebe": 7255,
      "Ġebiya": 7256,
      "Ġebilá»į": 7257,
      "yati": 7258,
      "yayaak": 7259,
      "gwuk": 7260,
      "ÌĤ.âĢĿ": 7261,
      "Ġenge": 7262,
      "Ġenwun": 7263,
      "Ġenwene": 7264,
      "Ġenadadi": 7265,
      "Ġkedo": 7266,
      "kaban": 7267,
      "kaluk": 7268,
      "kariaak": 7269,
      "kalibi": 7270,
      "kadasi": 7271,
      "kafuk": 7272,
      "kagwá»įk": 7273,
      "kabeek": 7274,
      "katetet": 7275,
      "kakpe": 7276,
      "kasoso": 7277,
      "kakpaka": 7278,
      "kaborá»į": 7279,
      "kamabe": 7280,
      "kajijit": 7281,
      "kafet": 7282,
      "kadodo": 7283,
      "uko": 7284,
      "uká»įná»į": 7285,
      "uká»įbe": 7286,
      "mumá»įá»įn": 7287,
      "mumumen": 7288,
      "kigwu": 7289,
      "kikana": 7290,
      "kikwukwu": 7291,
      "kifo": 7292,
      "kinya": 7293,
      "kikekeke": 7294,
      "kiweweek": 7295,
      "kigbet": 7296,
      "kitataka": 7297,
      "kifuku": 7298,
      "kilileek": 7299,
      "kigá»įká»į": 7300,
      "kilá»įlá»įk": 7301,
      "rijim": 7302,
      "sabi": 7303,
      "Ġogwukube": 7304,
      "kpá»įn": 7305,
      "kpom": 7306,
      "kpit": 7307,
      "inwá»įá»įn": 7308,
      "rá»įk": 7309,
      "Ġyayirot": 7310,
      "taká»įs": 7311,
      "emá»įt": 7312,
      "bota": 7313,
      "bomun": 7314,
      "botele": 7315,
      "bogwook": 7316,
      "bokpan": 7317,
      "borá»įn": 7318,
      "bolet": 7319,
      "bojijaka": 7320,
      "bojen": 7321,
      "bosak": 7322,
      "bochim": 7323,
      "bokire": 7324,
      "bokpekpe": 7325,
      "bofufuk": 7326,
      "chichichini": 7327,
      "Ġgerijim": 7328,
      "Ġibebele": 7329,
      "Ġibebeme": 7330,
      "bata": 7331,
      "bakup": 7332,
      "bayaka": 7333,
      "Ġisiya": 7334,
      "Ġisigwu": 7335,
      "Ġisitoon": 7336,
      "Ġisifieek": 7337,
      "Ġisikitumu": 7338,
      "Ġisisaba": 7339,
      "Ġisinwá»į": 7340,
      "fis": 7341,
      "fitá»į": 7342,
      "fiala": 7343,
      "Ġeneen": 7344,
      "Ġenedo": 7345,
      "Ġenesibi": 7346,
      "Ġenejibi": 7347,
      "Ġenyinya": 7348,
      "chachan": 7349,
      "á»įmbe": 7350,
      "buban": 7351,
      "bubat": 7352,
      "Ġejin": 7353,
      "Ġmikaan": 7354,
      "Ġmiriá»įá»įn": 7355,
      "Ġmilo": 7356,
      "Ġmijamin": 7357,
      "Ġmikitop": 7358,
      "Ġowuuk": 7359,
      "Ġowuwuuk": 7360,
      "rakima": 7361,
      "Ġkili": 7362,
      "Ġkitim": 7363,
      "Ġkisun": 7364,
      "Ġsidim": 7365,
      "Ġsiyo": 7366,
      "Ġsibeka": 7367,
      "Ġono": 7368,
      "Ġoneen": 7369,
      "Ġonwá»į": 7370,
      "Ġoninu": 7371,
      "Ġoninan": 7372,
      "Ġonwene": 7373,
      "Ġonwá»įná»į": 7374,
      "Ġonam": 7375,
      "á»įmá»įá»įn": 7376,
      "Ġmorá»į": 7377,
      "Ġmoni": 7378,
      "leleke": 7379,
      "malek": 7380,
      "mage": 7381,
      "maris": 7382,
      "botá»įn": 7383,
      "Ġaká»į": 7384,
      "eniri": 7385,
      "Ġkpon": 7386,
      "Ġkpunukp": 7387,
      "aká»įp": 7388,
      "akwut": 7389,
      "Ġchak": 7390,
      "Ġeyim": 7391,
      "korá»į": 7392,
      "kokpulu": 7393,
      "Ġjot": 7394,
      "Ġikida": 7395,
      "Ġikitele": 7396,
      "Ġikirá»įn": 7397,
      "Ġikitip": 7398,
      "Ġikirá»įá»įn": 7399,
      "Ġikititiin": 7400,
      "Ġikigba": 7401,
      "Ġikisut": 7402,
      "Ġikilet": 7403,
      "Ġikijijaka": 7404,
      "Ġikitop": 7405,
      "Ġikijak": 7406,
      "Ġikisaba": 7407,
      "Ġikichili": 7408,
      "Ġikirak": 7409,
      "Ġikibak": 7410,
      "Ġikigele": 7411,
      "Ġikilep": 7412,
      "Ġikigen": 7413,
      "Ġikibá»įm": 7414,
      "Ġikiyok": 7415,
      "Ġikigwele": 7416,
      "Ġikilap": 7417,
      "Ġikidimi": 7418,
      "Ġikisek": 7419,
      "Ġikigbeme": 7420,
      "Ġikigoon": 7421,
      "Ġikigbugbut": 7422,
      "Ġikitik": 7423,
      "Ġikididen": 7424,
      "wunun": 7425,
      "wunwunu": 7426,
      "Ġeres": 7427,
      "ludu": 7428,
      "Ġchim": 7429,
      "Ġchieek": 7430,
      "lawo": 7431,
      "latiya": 7432,
      "Ġidi": 7433,
      "Ġuwuk": 7434,
      "Ġikakirá»į": 7435,
      "Ġikaraka": 7436,
      "Ġikatibi": 7437,
      "Ġikará»įrá»į": 7438,
      "Ġikakat": 7439,
      "Ġikafiaan": 7440,
      "Ġikakput": 7441,
      "Ġikafifila": 7442,
      "Ġikatoto": 7443,
      "Ġekige": 7444,
      "Ġekitele": 7445,
      "Ġekigban": 7446,
      "Ġekirá»įá»įn": 7447,
      "Ġekitibi": 7448,
      "Ġekikeke": 7449,
      "Ġekilo": 7450,
      "Ġekirá»įrá»į": 7451,
      "Ġekinen": 7452,
      "Ġekiká»įp": 7453,
      "Ġekibá»įm": 7454,
      "Ġekikput": 7455,
      "Ġekifefieek": 7456,
      "Ġekichacha": 7457,
      "Ġekidimi": 7458,
      "Ġekililiin": 7459,
      "Ġekigbin": 7460,
      "Ġekikala": 7461,
      "Ġekigbagbaan": 7462,
      "Ġekikpekpe": 7463,
      "kpata": 7464,
      "kpatumu": 7465,
      "kpakup": 7466,
      "kpakaan": 7467,
      "kparie": 7468,
      "kpachieek": 7469,
      "Ġamaan": 7470,
      "Ġinichit": 7471,
      "Ġinitá»įn": 7472,
      "Ġinijot": 7473,
      "Ġinikeek": 7474,
      "Ġinikpá»įk": 7475,
      "Ġinilet": 7476,
      "Ġinigbana": 7477,
      "Ġinibak": 7478,
      "Ġinikikpulu": 7479,
      "Ġinilep": 7480,
      "Ġinifiaan": 7481,
      "Ġinichiin": 7482,
      "Ġinitá»įká»į": 7483,
      "Ġinimeen": 7484,
      "Ġigigen": 7485,
      "Ġagi": 7486,
      "Ġagit": 7487,
      "Ġmbuuruk": 7488,
      "rum": 7489,
      "rufu": 7490,
      "Ġjeres": 7491,
      "Ġjeredi": 7492,
      "Ġoneniriá»įá»įn": 7493,
      "Ġonenichieek": 7494,
      "Ġonenikan": 7495,
      "Ġonenitibi": 7496,
      "Ġonenibele": 7497,
      "Ġonenikeek": 7498,
      "Ġonenikikpulu": 7499,
      "Ġonenikpaka": 7500,
      "Ġonenigween": 7501,
      "Ġoneniteme": 7502,
      "Ġonenikikpa": 7503,
      "Ġonenikijijen": 7504,
      ".âĢĿ]": 7505,
      "Ġirá»įk": 7506,
      "Ġgen": 7507,
      "Ġgbini": 7508,
      "Ġguni": 7509,
      "Ġokeme": 7510,
      "Ġsabe": 7511,
      "Ġsafira": 7512,
      "daan": 7513,
      "Ġmatat": 7514,
      "Ġmalá»įn": 7515,
      "Ġmadim": 7516,
      "fumbe": 7517,
      "Ġekanan": 7518,
      "Ġekuká»įbe": 7519,
      "Ġjiya": 7520,
      "Ġjija": 7521,
      "Ġenenene": 7522,
      "nyinya": 7523,
      "Ġogana": 7524,
      "Ġogon": 7525,
      "Ġogbet": 7526,
      "Ġkpewa": 7527,
      "Ġkpejit": 7528,
      "Ġkpetoon": 7529,
      "Ġkpetim": 7530,
      "Ġkpesaba": 7531,
      "Ġkpegbugbá»į": 7532,
      "chei": 7533,
      "Ġokire": 7534,
      "Ġokibá»įá»įn": 7535,
      "Ġokikpa": 7536,
      "Ġokitá»įn": 7537,
      "Ġokigwook": 7538,
      "Ġokifuk": 7539,
      "Ġokinya": 7540,
      "Ġokifiat": 7541,
      "Ġokijijaka": 7542,
      "Ġokikat": 7543,
      "Ġokichili": 7544,
      "Ġokimá»įá»įn": 7545,
      "Ġokikweek": 7546,
      "Ġokisook": 7547,
      "Ġmkpikp": 7548,
      "susá»įn": 7549,
      "Ġechiin": 7550,
      "Ġebemun": 7551,
      "Ġebegwen": 7552,
      "Ġebeman": 7553,
      "Ġebeme": 7554,
      "Ġebegá»įá»įk": 7555,
      "Ġebelibi": 7556,
      "Ġebegobo": 7557,
      "Ġeberoon": 7558,
      "Ġebejijaka": 7559,
      "Ġebelaak": 7560,
      "Ġebegwugwuun": 7561,
      "Ġebegbagbaan": 7562,
      "benu": 7563,
      "Ġkamun": 7564,
      "Ġkatap": 7565,
      "Ġkagban": 7566,
      "Ġkachak": 7567,
      "Ġkafiat": 7568,
      "Ġkajijaka": 7569,
      "Ġkalá»įlá»į": 7570,
      "Ġkagan": 7571,
      "Ġkalululuk": 7572,
      "Ġkafitá»į": 7573,
      "dis": 7574,
      "dien": 7575,
      "dira": 7576,
      "ditá»įs": 7577,
      "Ġofen": 7578,
      "Ġofuk": 7579,
      "Ġofet": 7580,
      "Ġobokpá»įk": 7581,
      "Ġobofá»įá»įk": 7582,
      "Ġobosulu": 7583,
      "Ġobokinyi": 7584,
      "Ġobosaba": 7585,
      "Ġobonye": 7586,
      "Ġobokikpá»į": 7587,
      "manbe": 7588,
      "Ġjuru": 7589,
      "Ġjuwari": 7590,
      "Ġeyat": 7591,
      "kep": 7592,
      "Ġakparalek": 7593,
      "kaná»įná»į": 7594,
      "kaninin": 7595,
      "niki": 7596,
      "nigwa": 7597,
      "niká»įt": 7598,
      "nikpan": 7599,
      "nikana": 7600,
      "nititiin": 7601,
      "nikpulu": 7602,
      "nisiki": 7603,
      "niraka": 7604,
      "nigbaan": 7605,
      "nifo": 7606,
      "Ġgayas": 7607,
      "gbanabe": 7608,
      "Ġijiki": 7609,
      "Ġijijo": 7610,
      "fam": 7611,
      "fadi": 7612,
      "Ġbaya": 7613,
      "Ġbamot": 7614,
      "Ġikanu": 7615,
      "Ġikaná»į": 7616,
      "Ġikanene": 7617,
      "Ġjosa": 7618,
      "Ġjoyada": 7619,
      "Ġjokebe": 7620,
      "Ġiraraan": 7621,
      "pita": 7622,
      "kposan": 7623,
      "kpojá»įn": 7624,
      "kpojot": 7625,
      "kpofiin": 7626,
      "kposak": 7627,
      "kpoká»įká»įt": 7628,
      "Ġjalam": 7629,
      "Ġjasobe": 7630,
      "Ġjatiri": 7631,
      "Ġjabeji": 7632,
      "Ġosaba": 7633,
      "âĢĻ,": 7634,
      "âĢĻ?âĢĿ": 7635,
      "Ġenenige": 7636,
      "Ġeneniyaka": 7637,
      "Ġenenitoon": 7638,
      "Ġeneniriaak": 7639,
      "Ġenenisibi": 7640,
      "Ġenenitaan": 7641,
      "Ġenenikitumu": 7642,
      "Ġenenikisa": 7643,
      "Ġenenichili": 7644,
      "Ġenenigbuku": 7645,
      "Ġininu": 7646,
      "Ġininwaan": 7647,
      "Ġininimi": 7648,
      "lomi": 7649,
      "Ġeriook": 7650,
      "nenimun": 7651,
      "nenitap": 7652,
      "neniká»įt": 7653,
      "neniwá»įp": 7654,
      "nenikeek": 7655,
      "nenimá»įná»į": 7656,
      "nenijibi": 7657,
      "Ġinyanyam": 7658,
      "Ġinyanyana": 7659,
      "Ġerá»įrá»įká»į": 7660,
      "Ġekaje": 7661,
      "Ġekaka": 7662,
      "Ġekakup": 7663,
      "Ġekaluk": 7664,
      "Ġekasisaak": 7665,
      "Ġekalabe": 7666,
      "gbegbet": 7667,
      "Ġokpebe": 7668,
      "Ġmfurufu": 7669,
      "Ġntá»įá»įn": 7670,
      "Ġntá»įká»į": 7671,
      "Ġsook": 7672,
      "Ġseniri": 7673,
      "Ġarasa": 7674,
      "Ġararat": 7675,
      "Ġetipbe": 7676,
      "Ġileek": 7677,
      "Ġilelet": 7678,
      "Ġileleke": 7679,
      "roditá»įs": 7680,
      "Ġgolan": 7681,
      "gbasi": 7682,
      "gbagbala": 7683,
      "Ġochiin": 7684,
      "Ġekerie": 7685,
      "Ġekejeen": 7686,
      "Ġeketim": 7687,
      "Ġeketibi": 7688,
      "Ġekelook": 7689,
      "Ġeketá»įp": 7690,
      "Ġiriá»įká»į": 7691,
      "Ġlida": 7692,
      "Ġlisia": 7693,
      "Ġebekp": 7694,
      "Ġebekana": 7695,
      "Ġebekeke": 7696,
      "Ġebekinin": 7697,
      "gbogbo": 7698,
      "bonye": 7699,
      "bonama": 7700,
      "boninin": 7701,
      "Ġineniche": 7702,
      "Ġinenigwak": 7703,
      "Ġelima": 7704,
      "Ġeliop": 7705,
      "Ġeliada": 7706,
      "Ġelilababe": 7707,
      "Ġkpebeto": 7708,
      "Ġkpebeweek": 7709,
      "Ġkpebegban": 7710,
      "Ġkpebechak": 7711,
      "Ġogele": 7712,
      "foroditá»įs": 7713,
      "kakikan": 7714,
      "kakimin": 7715,
      "kakikpá»įkpá»į": 7716,
      "kakigá»įká»į": 7717,
      "Ġgilo": 7718,
      "Ġgiden": 7719,
      "Ġrejá»įn": 7720,
      "Ġkpekinyi": 7721,
      "Ġkpeká»įká»įt": 7722,
      "Ġmbaria": 7723,
      "Ġmbaluk": 7724,
      "Ġmbabá»įká»į": 7725,
      "Ġmbaká»įt": 7726,
      "Ġmbafá»įá»įk": 7727,
      "Ġebekikup": 7728,
      "Ġebekitet": 7729,
      "Ġebekibem": 7730,
      "Ġebekililam": 7731,
      "Ġebekitá»įtá»įn": 7732,
      "Ġfilimá»įn": 7733,
      "Ġoronayim": 7734,
      "Ġabida": 7735,
      "Ġabinowam": 7736,
      "tá»įtá»įká»į": 7737,
      "Ġsele": 7738,
      "Ġsesan": 7739,
      "Ġsefo": 7740,
      "wopge": 7741,
      "Ġegwegween": 7742,
      "Ġichichim": 7743,
      "Ġekekikup": 7744,
      "Ġekekifá»įá»įk": 7745,
      "Ġekekikwak": 7746,
      "Ġekpá»įá»įk": 7747,
      "gá»įgá»įbá»į": 7748,
      "gwá»įkge": 7749,
      "Ġnkiluk": 7750,
      "Ġnkilibi": 7751,
      "Ġnkinin": 7752,
      "Ġnkiná»į": 7753,
      "Ġnkijijen": 7754,
      "Ġnemuwen": 7755,
      "Ġibokwu": 7756,
      "kwakwala": 7757,
      "Ġifiak": 7758,
      "Ġifiá»įá»įk": 7759,
      "Ġififiin": 7760,
      "Ġifiala": 7761,
      "gobu": 7762,
      "Ġkpekikaan": 7763,
      "Ġkpekitap": 7764,
      "Ġkpekibá»įká»į": 7765,
      "Ġkpekitá»įbá»į": 7766,
      "Ġkpekifiat": 7767,
      "Ġikwut": 7768,
      "Ġokat": 7769,
      "Ġokará»į": 7770,
      "Ġokariá»įá»įn": 7771,
      "Ġokaran": 7772,
      "nensa": 7773,
      "nenluk": 7774,
      "neninin": 7775,
      "gigam": 7776,
      "Ġbeso": 7777,
      "Ġbeseri": 7778,
      "Ġnkwukwuun": 7779,
      "Ġokekimin": 7780,
      "Ġokekigá»įá»įk": 7781,
      "Ġokekimumen": 7782,
      "Ġokekibumu": 7783,
      "Ġokekikebe": 7784,
      "Ġosisiki": 7785,
      "Ġosiwut": 7786,
      "Ġosisisaak": 7787,
      "Ġkpebekeek": 7788,
      "Ġasiben": 7789,
      "Ġasiyu": 7790,
      "kayat": 7791,
      "Ġineninyan": 7792,
      "Ġjeriya": 7793,
      "Ġmkpukput": 7794,
      "Ġefeen": 7795,
      "ramot": 7796,
      "ramgbasi": 7797,
      "wutbe": 7798,
      "Ġikinen": 7799,
      "Ġnrá»įká»į": 7800,
      "kinyenye": 7801,
      "kinwene": 7802,
      "Ġtara": 7803,
      "Ġtayan": 7804,
      "Ġnneniria": 7805,
      "Ġnneniriaak": 7806,
      "Ġotá»įá»įn": 7807,
      "Ġotá»įká»į": 7808,
      "Ġajigadi": 7809,
      "Ġikisak": 7810,
      "Ġmanayat": 7811,
      "Ġpayat": 7812,
      "Ġpaseya": 7813,
      "Ġiwat": 7814,
      "Ġdarakima": 7815,
      "emas": 7816,
      "Ġayisa": 7817,
      "Ġayiman": 7818,
      "Ġayiludu": 7819,
      "Ġpelatiya": 7820,
      "Ġnrariaak": 7821,
      "Ġnraraan": 7822,
      "Ġonibe": 7823,
      "Ġonisa": 7824,
      "Ġonitumu": 7825,
      "Ġonikana": 7826,
      "wá»įá»įkbe": 7827,
      "juukbe": 7828,
      "jujuuk": 7829,
      "jujujuk": 7830,
      "Ġtana": 7831,
      "lepbe": 7832,
      "lililaba": 7833,
      "Ġifufuku": 7834,
      "Ġimalek": 7835,
      "Ġegwá»į": 7836,
      "Ġetemebe": 7837,
      "Ġogbugbuku": 7838,
      "Ġebenyan": 7839,
      "Ġnsisi": 7840,
      "Ġnsitumu": 7841,
      "Ġnsiik": 7842,
      "Ġekekinu": 7843,
      "Ġekekinan": 7844,
      "Ġdisan": 7845,
      "Ġenimun": 7846,
      "Ġeniweek": 7847,
      "Ġenichieek": 7848,
      "kekisa": 7849,
      "kekikup": 7850,
      "kekiluk": 7851,
      "ikatele": 7852,
      "ikagban": 7853,
      "ikafieek": 7854,
      "Ġogwugwuku": 7855,
      "Ġtowu": 7856,
      "Ġtobu": 7857,
      "Ġnsak": 7858,
      "Ġjewudi": 7859,
      "Ġkore": 7860,
      "iyakwut": 7861,
      "borá»įká»į": 7862,
      "Ġarimatia": 7863,
      "Ġarifadi": 7864,
      "Ġarigobu": 7865,
      "Ġjebun": 7866,
      "Ġoneninween": 7867,
      "Ġnkakwu": 7868,
      "Ġnkaweekge": 7869,
      "kponye": 7870,
      "kponyan": 7871,
      "kponwá»į": 7872,
      "kponwá»įn": 7873,
      "peli": 7874,
      "perajim": 7875,
      "Ġtiyati": 7876,
      "Ġebubum": 7877,
      "Ġikibeme": 7878,
      "Ġechichibi": 7879,
      "Ġechichiin": 7880,
      "Ġraan": 7881,
      "Ġekpirikpit": 7882,
      "Ġaserot": 7883,
      "Ġokpakpa": 7884,
      "Ġná»įbu": 7885,
      "kimeen": 7886,
      "Ġsimiri": 7887,
      "Ġsimisayi": 7888,
      "mowabu": 7889,
      "Ġsufu": 7890,
      "sisiik": 7891,
      "Ġreyobot": 7892,
      "Ġibenigá»įá»įk": 7893,
      "sookbe": 7894,
      "Ġokpukpuku": 7895,
      "Ġakakam": 7896,
      "Ġbolo": 7897,
      "kiriak": 7898,
      "Ġigbugbugbá»į": 7899,
      "yá»įtbe": 7900,
      "Ġigugumu": 7901,
      "Ġigugá»įbá»į": 7902,
      "Ġjesimot": 7903,
      "Ġlibia": 7904,
      "Ġlibiya": 7905,
      "Ġmerabu": 7906,
      "chochon": 7907,
      "Ġsemariya": 7908,
      "Ġibonikana": 7909,
      "Ġebebeen": 7910,
      "keken": 7911,
      "Ġananeli": 7912,
      "ataak": 7913,
      "kembe": 7914,
      "Ġechebe": 7915,
      "Ġomaan": 7916,
      "bokinin": 7917,
      "Ġelisafan": 7918,
      "Ġobubum": 7919,
      "Ġobubat": 7920,
      "Ġamisadai": 7921,
      "jerimaya": 7922,
      "bekikpá»į": 7923,
      "Ġenyebe": 7924,
      "Ġadoniram": 7925,
      "Ġigbeme": 7926,
      "Ġdodo": 7927,
      "Ġkpebenan": 7928,
      "Ġkpebenwá»į": 7929,
      "Ġbalisam": 7930,
      "Ġkpomokup": 7931,
      "Ġegagana": 7932,
      "Ġmkpá»įbe": 7933,
      "Ġekanin": 7934,
      "nyambe": 7935,
      "Ġogbana": 7936,
      "Ġechabe": 7937,
      "Ġelibibe": 7938,
      "Ġebenije": 7939,
      "Ġerariaan": 7940,
      "Ġnayara": 7941,
      "Ġnayarayim": 7942,
      "Ġokekin": 7943,
      "Ġmalikisuwa": 7944,
      "nerie": 7945,
      "kibubat": 7946,
      "Ġateri": 7947,
      "Ġejotbe": 7948,
      "Ġmatatiyas": 7949,
      "Ġgebali": 7950,
      "Ġbatimiá»įs": 7951,
      "kinina": 7952,
      "Ġkpemá»įná»į": 7953,
      "mfiik": 7954,
      "uwai": 7955,
      "Ġmgbaramgbasi": 7956,
      "Ġisiberiaak": 7957,
      "Ġikamage": 7958,
      "Ġrogen": 7959,
      "Ġibubuku": 7960,
      "Ġebabak": 7961,
      "Ġduma": 7962,
      "Ġjayakan": 7963,
      "Ġoduduku": 7964,
      "Ġludu": 7965,
      "Ġnsiseen": 7966,
      "Ġekeekbe": 7967,
      "Ġbiliyan": 7968,
      "Ġgeberen": 7969,
      "Ġlodi": 7970,
      "Ġnninaan": 7971,
      "Ġjipá»įra": 7972,
      "Ġalikisendira": 7973,
      "Ġkumi": 7974,
      "Ġasirien": 7975,
      "nonu": 7976,
      "Ġotá»įbá»įbe": 7977,
      "Ġowola": 7978,
      "Ġowoliba": 7979,
      "Ġbayalat": 7980,
      "Ġochichinibe": 7981,
      "wá»įkwá»įá»įk": 7982,
      "Ġekwukbe": 7983,
      "Ġjerefat": 7984,
      "Ġbaladan": 7985,
      "Ġjafiya": 7986,
      "Ġjafilet": 7987,
      "Ġsemida": 7988,
      "Ġsemiramot": 7989,
      "Ġpá»įtifa": 7990,
      "Ġpá»įtifera": 7991,
      "Ġibekpan": 7992,
      "Ġepaforoditá»įs": 7993,
      "Ġamulu": 7994,
      "Ġamedata": 7995,
      "Ġemeran": 7996,
      "Ġakoji": 7997,
      "Ġkenayana": 7998,
      "Ġibijan": 7999,
      "Ġeletbe": 8000,
      "Ġkeriyot": 8001,
      "Ġmibisam": 8002,
      "Ġjoyakim": 8003,
      "Ġekalá»įge": 8004,
      "Ġpurim": 8005,
      "Ġsofari": 8006,
      "Ġikakekege": 8007,
      "Ġwewe": 8008,
      "Ġtatenai": 8009,
      "Ġimila": 8010,
      "jebup": 8011,
      "Ġkedemá»įt": 8012,
      "Ġsinamá»įn": 8013,
      "Ġsaleka": 8014,
      "Ġekatapge": 8015,
      "Ġsá»įká»įsá»įká»į": 8016,
      "debit": 8017,
      "ijeren": 8018,
      "imumechieen": 8019,
      "ikpele": 8020,
      "Ġedidimi": 8021,
      "Ġolá»įnjin": 8022,
      "Ġmefayat": 8023,
      "Ġmeyola": 8024,
      "Ġkineret": 8025,
      "Ġajuba": 8026,
      "Ġafilafa": 8027,
      "Ġarisitaká»įs": 8028,
      "Ġalemet": 8029,
      "Ġnkarege": 8030,
      "Ġebiyasafu": 8031,
      "Ġengedi": 8032,
      "Ġkedolawo": 8033,
      "bojenai": 8034,
      "Ġsiyoru": 8035,
      "Ġsibekai": 8036,
      "Ġogbetbe": 8037,
      "Ġmkpikpi": 8038,
      "Ġjokebedi": 8039,
      "Ġjasobeyam": 8040,
      "Ġeliopolis": 8041,
      "Ġasiyuru": 8042,
      "Ġtiyatira": 8043,
      "Ġkedolawoma": 8044,
      "ase": 8045,
      "amin": 8046,
      "adasi": 8047,
      "abina": 8048,
      "es": 8049,
      "ewele": 8050,
      "fana": 8051,
      "feme": 8052,
      "gbi": 8053,
      "ifi": 8054,
      "ikwaan": 8055,
      "ibebe": 8056,
      "já»įká»į": 8057,
      "ká»įn": 8058,
      "ká»įá»įn": 8059,
      "mkp": 8060,
      "mfu": 8061,
      "mbet": 8062,
      "mwuuk": 8063,
      "mukan": 8064,
      "nek": 8065,
      "nnyi": 8066,
      "ntim": 8067,
      "nná»į": 8068,
      "nwenwene": 8069,
      "oron": 8070,
      "oyim": 8071,
      "owo": 8072,
      "osana": 8073,
      "paan": 8074,
      "pukpo": 8075,
      "seen": 8076,
      "tá»įá»įk": 8077,
      "tini": 8078,
      "ucha": 8079,
      "utoon": 8080,
      "ugan": 8081,
      "yook": 8082,
      "Ġfu": 8083,
      "Ġrá»įn": 8084,
      "Ġwá»įp": 8085,
      "Ġwá»įlá»į": 8086,
      "Ġwá»įá»įk": 8087,
      "Ġwo": 8088,
      "Ġlá»įká»į": 8089,
      "Ġwá»įká»į": 8090,
      "Ġtutuun": 8091,
      "Ġilom": 8092,
      "Ġitun": 8093,
      "Ġiwá»įwá»įp": 8094,
      "Ġilobo": 8095,
      "Ġiwuwuuk": 8096,
      "Ġilen": 8097,
      "Ġilá»įká»į": 8098,
      "Ġititibi": 8099,
      "Ġiwewele": 8100,
      "Ġibá»įbá»įn": 8101,
      "Ġibubum": 8102,
      "Ġiwowop": 8103,
      "Ġiloon": 8104,
      "Ġiwuwulu": 8105,
      "Ġititip": 8106,
      "Ġibá»įbá»įá»įk": 8107,
      "á»įdu": 8108,
      "á»įfiá»įá»įk": 8109,
      "Ġelek": 8110,
      "Ġeran": 8111,
      "Ġetat": 8112,
      "Ġetutu": 8113,
      "Ġegbana": 8114,
      "Ġeleke": 8115,
      "Ġeroroon": 8116,
      "Ġmbá»įá»įn": 8117,
      "Ġmfe": 8118,
      "Ġmwá»įlá»į": 8119,
      "Ġmwulu": 8120,
      "Ġmbá»įbá»įká»į": 8121,
      "Ġmbenbe": 8122,
      "ÌĦâĢĿ?": 8123,
      "Ġobá»įá»įn": 8124,
      "Ġoren": 8125,
      "Ġoso": 8126,
      "Ġotá»įn": 8127,
      "Ġogwe": 8128,
      "Ġowele": 8129,
      "Ġoraka": 8130,
      "Ġobem": 8131,
      "Ġokayaka": 8132,
      "Ġojibi": 8133,
      "Ġojomo": 8134,
      "Ġochep": 8135,
      "Ġochat": 8136,
      "Ġojijen": 8137,
      "Ġosá»įp": 8138,
      "Ġojijijaka": 8139,
      "Ġosá»įsá»įp": 8140,
      "Ġolibibe": 8141,
      "Ġolon": 8142,
      "Ġochabe": 8143,
      "Ġolá»įlá»įká»į": 8144,
      "Ġmerá»į": 8145,
      "Ġmela": 8146,
      "Ġmese": 8147,
      "Ġmeso": 8148,
      "Ġmeselem": 8149,
      "Ġmeyu": 8150,
      "Ġmeyon": 8151,
      "Ġmene": 8152,
      "Ġmeredi": 8153,
      "Ġmemukan": 8154,
      "Ġkwaan": 8155,
      "Ġkween": 8156,
      "Ġkiná»į": 8157,
      "Ġkonaya": 8158,
      "wuwá»įk": 8159,
      "enye": 8160,
      "Ġubot": 8161,
      "Ġutun": 8162,
      "Ġulam": 8163,
      "Ġujan": 8164,
      "Ġubá»įná»į": 8165,
      "Ġupim": 8166,
      "beri": 8167,
      "besa": 8168,
      "berebet": 8169,
      "bebele": 8170,
      "berat": 8171,
      "bejek": 8172,
      "Ġage": 8173,
      "Ġayu": 8174,
      "Ġapo": 8175,
      "Ġará»įdu": 8176,
      "Ġadon": 8177,
      "Ġayook": 8178,
      "á»įntá»įs": 8179,
      "siá»įs": 8180,
      "tura": 8181,
      "Ġnká»įt": 8182,
      "Ġnlibi": 8183,
      "Ġntutumu": 8184,
      "Ġnjeje": 8185,
      "Ġndun": 8186,
      "Ġnká»įtbe": 8187,
      "Ġnjei": 8188,
      "Ġnyana": 8189,
      "Ġntaba": 8190,
      "Ġnleke": 8191,
      "Ġnkekeke": 8192,
      "Ġnyayaka": 8193,
      "Ġndá»įmá»į": 8194,
      "Ġnkween": 8195,
      "Ġnnene": 8196,
      "Ġnchon": 8197,
      "Ġndodo": 8198,
      "Ġnlookbe": 8199,
      "Ġnlá»įbe": 8200,
      "Ġnwunun": 8201,
      "Ġebieen": 8202,
      "yaya": 8203,
      "yabu": 8204,
      "yariya": 8205,
      "jia": 8206,
      "jip": 8207,
      "jipa": 8208,
      "jijijen": 8209,
      "jijop": 8210,
      "jijiin": 8211,
      "chá»įká»į": 8212,
      "Ġendá»į": 8213,
      "Ġenween": 8214,
      "jeek": 8215,
      "jeji": 8216,
      "jeba": 8217,
      "Ġkemuwen": 8218,
      "Ġkefira": 8219,
      "Ġkelita": 8220,
      "Ġketura": 8221,
      "kawa": 8222,
      "kacha": 8223,
      "katá»į": 8224,
      "kaben": 8225,
      "kawá»į": 8226,
      "kakwukwu": 8227,
      "kagba": 8228,
      "kasun": 8229,
      "kachak": 8230,
      "karom": 8231,
      "kajeje": 8232,
      "kabak": 8233,
      "kagwak": 8234,
      "kagbugbá»į": 8235,
      "katutuku": 8236,
      "kataba": 8237,
      "kasisi": 8238,
      "kagana": 8239,
      "katobo": 8240,
      "kamama": 8241,
      "kagwaka": 8242,
      "kalululuk": 8243,
      "kakekeek": 8244,
      "muwa": 8245,
      "kiba": 8246,
      "kigbá»į": 8247,
      "kicha": 8248,
      "kirieen": 8249,
      "kibet": 8250,
      "kime": 8251,
      "kifit": 8252,
      "kiraka": 8253,
      "kisut": 8254,
      "kikwaan": 8255,
      "kikwa": 8256,
      "kigak": 8257,
      "kibá»įbá»įká»į": 8258,
      "kijomo": 8259,
      "kilep": 8260,
      "kijin": 8261,
      "kigen": 8262,
      "kitá»įp": 8263,
      "kitetele": 8264,
      "kichichini": 8265,
      "kigbuku": 8266,
      "kichim": 8267,
      "kikweek": 8268,
      "kitana": 8269,
      "kikpakpan": 8270,
      "kikpukpuku": 8271,
      "kijuuk": 8272,
      "kitá»įká»į": 8273,
      "kiwuwá»įlá»į": 8274,
      "kigwugwuun": 8275,
      "kichichili": 8276,
      "kigbeme": 8277,
      "kijim": 8278,
      "kitá»įk": 8279,
      "kigbugbe": 8280,
      "kikekebe": 8281,
      "kiyá»įyá»įt": 8282,
      "kitimi": 8283,
      "kiyá»įá»įk": 8284,
      "ribi": 8285,
      "riri": 8286,
      "riá»įk": 8287,
      "sali": 8288,
      "samien": 8289,
      "kpeki": 8290,
      "inunu": 8291,
      "rá»įt": 8292,
      "rá»įriá»įká»į": 8293,
      "tali": 8294,
      "kun": 8295,
      "kubuki": 8296,
      "Ġinyiá»įá»įn": 8297,
      "emen": 8298,
      "boo": 8299,
      "boka": 8300,
      "borieen": 8301,
      "bosan": 8302,
      "bofieek": 8303,
      "bodasi": 8304,
      "boraka": 8305,
      "bosik": 8306,
      "bochak": 8307,
      "bofo": 8308,
      "bokeke": 8309,
      "bowop": 8310,
      "botetet": 8311,
      "bofá»įá»įk": 8312,
      "bobia": 8313,
      "bojomo": 8314,
      "bolep": 8315,
      "bokikup": 8316,
      "bonwá»įnwá»įn": 8317,
      "boraraka": 8318,
      "boká»įká»įt": 8319,
      "bodadasi": 8320,
      "bokirie": 8321,
      "bobolo": 8322,
      "bochichit": 8323,
      "bogbugbugbá»į": 8324,
      "bogbagbana": 8325,
      "chiá»įá»įk": 8326,
      "Ġgele": 8327,
      "Ġgetam": 8328,
      "Ġiberie": 8329,
      "Ġibebem": 8330,
      "Ġibebeek": 8331,
      "Ġibelam": 8332,
      "Ġibebieen": 8333,
      "basá»įs": 8334,
      "babaan": 8335,
      "bakisa": 8336,
      "bayen": 8337,
      "baali": 8338,
      "batatap": 8339,
      "bakpakpan": 8340,
      "bakpekpe": 8341,
      "Ġemayá»įs": 8342,
      "Ġisip": 8343,
      "Ġisiba": 8344,
      "Ġisiren": 8345,
      "Ġisigwook": 8346,
      "Ġisiká»įt": 8347,
      "Ġisimin": 8348,
      "Ġisirá»įn": 8349,
      "Ġisifuk": 8350,
      "Ġisinye": 8351,
      "Ġisijomo": 8352,
      "Ġisigbugbá»į": 8353,
      "Ġisifuuk": 8354,
      "Ġisigen": 8355,
      "Ġisiná»įná»į": 8356,
      "Ġisisook": 8357,
      "Ġisichimi": 8358,
      "banbe": 8359,
      "Ġkanyinyi": 8360,
      "tiká»įs": 8361,
      "tibata": 8362,
      "tifana": 8363,
      "fia": 8364,
      "fiá»įs": 8365,
      "Ġenerá»įká»į": 8366,
      "á»įká»įná»į": 8367,
      "á»įká»įf": 8368,
      "bubut": 8369,
      "Ġejim": 8370,
      "Ġmiti": 8371,
      "Ġmija": 8372,
      "Ġmikin": 8373,
      "Ġmiai": 8374,
      "Ġmitere": 8375,
      "Ġmitulu": 8376,
      "Ġowulu": 8377,
      "radá»įn": 8378,
      "Ġkimi": 8379,
      "Ġkibem": 8380,
      "Ġemian": 8381,
      "Ġsifi": 8382,
      "Ġsilem": 8383,
      "Ġsipen": 8384,
      "Ġsitifana": 8385,
      "Ġonemebe": 8386,
      "Ġmokup": 8387,
      "letai": 8388,
      "mak": 8389,
      "mat": 8390,
      "mayi": 8391,
      "boto": 8392,
      "Ġakwana": 8393,
      "Ġkpu": 8394,
      "Ġkpoo": 8395,
      "Ġkpiri": 8396,
      "aká»įn": 8397,
      "Ġinyenye": 8398,
      "enese": 8399,
      "Ġeyiya": 8400,
      "kop": 8401,
      "kosa": 8402,
      "Ġjana": 8403,
      "Ġjaan": 8404,
      "Ġikiwa": 8405,
      "Ġikige": 8406,
      "Ġikiban": 8407,
      "Ġikibá»įá»įn": 8408,
      "Ġikiwele": 8409,
      "Ġikitan": 8410,
      "Ġikilá»įk": 8411,
      "Ġikiyat": 8412,
      "Ġikijaan": 8413,
      "Ġikigwak": 8414,
      "Ġikikwek": 8415,
      "Ġikifuuk": 8416,
      "Ġikitá»įp": 8417,
      "Ġikichim": 8418,
      "Ġikidá»įmá»į": 8419,
      "Ġikichiin": 8420,
      "Ġikibala": 8421,
      "Ġikikweek": 8422,
      "Ġikirurá»įn": 8423,
      "Ġikifeen": 8424,
      "Ġikifiak": 8425,
      "Ġikigween": 8426,
      "Ġikitana": 8427,
      "Ġikitutun": 8428,
      "Ġikikwala": 8429,
      "Ġikililiin": 8430,
      "Ġikifuku": 8431,
      "Ġikitaak": 8432,
      "Ġikilileek": 8433,
      "Ġikiteek": 8434,
      "Ġikigbini": 8435,
      "Ġikigbugbe": 8436,
      "Ġikitak": 8437,
      "Ġikileen": 8438,
      "Ġikiriraan": 8439,
      "Ġikigugá»įlá»į": 8440,
      "liti": 8441,
      "ligá»į": 8442,
      "lilá»įká»į": 8443,
      "wunwan": 8444,
      "Ġison": 8445,
      "Ġchibi": 8446,
      "tolomi": 8447,
      "Ġideke": 8448,
      "Ġidaan": 8449,
      "Ġiduku": 8450,
      "Ġikawa": 8451,
      "Ġikaak": 8452,
      "Ġikada": 8453,
      "Ġikajit": 8454,
      "Ġikatoon": 8455,
      "Ġikatiti": 8456,
      "Ġikatip": 8457,
      "Ġikajá»įn": 8458,
      "Ġikakpulu": 8459,
      "Ġikalibi": 8460,
      "Ġikabele": 8461,
      "Ġikarom": 8462,
      "Ġikachechieek": 8463,
      "Ġikasasa": 8464,
      "Ġikagwak": 8465,
      "Ġikasak": 8466,
      "Ġikachachak": 8467,
      "Ġikagugo": 8468,
      "Ġikariki": 8469,
      "Ġikakpá»įge": 8470,
      "Ġekika": 8471,
      "Ġekiman": 8472,
      "Ġekifaka": 8473,
      "Ġekikpá»įkpá»į": 8474,
      "Ġekinyan": 8475,
      "Ġekiwop": 8476,
      "Ġekisisik": 8477,
      "Ġekiwá»įwá»įp": 8478,
      "Ġekisulu": 8479,
      "Ġekiruk": 8480,
      "Ġekitaba": 8481,
      "Ġekimá»įá»įn": 8482,
      "Ġekifiaan": 8483,
      "Ġekikwak": 8484,
      "Ġekigbuku": 8485,
      "Ġekigugo": 8486,
      "Ġekibala": 8487,
      "Ġekisook": 8488,
      "Ġekiteen": 8489,
      "Ġekitobo": 8490,
      "Ġekinene": 8491,
      "Ġekikpukpulu": 8492,
      "Ġekigumu": 8493,
      "Ġekimaan": 8494,
      "Ġekisá»įk": 8495,
      "Ġekigá»įká»į": 8496,
      "Ġekigbugbe": 8497,
      "Ġekirika": 8498,
      "kpare": 8499,
      "kpawuuk": 8500,
      "kpado": 8501,
      "kpasaba": 8502,
      "kpatetele": 8503,
      "kpalap": 8504,
      "kpariaan": 8505,
      "Ġamasai": 8506,
      "Ġinige": 8507,
      "Ġinita": 8508,
      "Ġinima": 8509,
      "Ġinitele": 8510,
      "Ġinigba": 8511,
      "Ġiniroon": 8512,
      "Ġinifá»įá»įk": 8513,
      "Ġinikinyi": 8514,
      "Ġinigak": 8515,
      "Ġinisaba": 8516,
      "Ġinikisi": 8517,
      "Ġinikpukpo": 8518,
      "Ġinigwak": 8519,
      "Ġinibieen": 8520,
      "Ġiniteen": 8521,
      "Ġiniken": 8522,
      "Ġinirá»įká»į": 8523,
      "Ġinisoon": 8524,
      "Ġinimaan": 8525,
      "Ġinisá»įká»į": 8526,
      "Ġuni": 8527,
      "Ġigumu": 8528,
      "Ġagoyim": 8529,
      "rugwu": 8530,
      "ruwa": 8531,
      "rururá»įn": 8532,
      "Ġjeraya": 8533,
      "Ġjesana": 8534,
      "Ġonenika": 8535,
      "Ġonenigwa": 8536,
      "Ġoneniká»įt": 8537,
      "Ġonenikirá»į": 8538,
      "Ġonenigbaan": 8539,
      "Ġonenichak": 8540,
      "Ġonenijot": 8541,
      "Ġonenitaka": 8542,
      "Ġonenikat": 8543,
      "Ġonenijaan": 8544,
      "Ġoneniwá»įá»įk": 8545,
      "Ġonenikikeek": 8546,
      "Ġonenikwala": 8547,
      "sefon": 8548,
      "seseme": 8549,
      "ekebe": 8550,
      "Ġgine": 8551,
      "Ġgenese": 8552,
      "Ġatai": 8553,
      "Ġatat": 8554,
      "Ġibabat": 8555,
      "jaben": 8556,
      "jayen": 8557,
      "jabadi": 8558,
      "Ġsara": 8559,
      "Ġsafu": 8560,
      "Ġsayanan": 8561,
      "Ġsamiri": 8562,
      "Ġsalem": 8563,
      "Ġsadis": 8564,
      "Ġsamuwa": 8565,
      "solomá»įn": 8566,
      "dat": 8567,
      "dais": 8568,
      "Ġmará»į": 8569,
      "Ġmati": 8570,
      "Ġmatata": 8571,
      "Ġmayim": 8572,
      "Ġmayaji": 8573,
      "Ġmadai": 8574,
      "Ġorá»įká»įbe": 8575,
      "omot": 8576,
      "Ġekwa": 8577,
      "Ġekema": 8578,
      "Ġekwá»įká»į": 8579,
      "Ġjiki": 8580,
      "Ġjima": 8581,
      "Ġjila": 8582,
      "Ġjifita": 8583,
      "Ġeneninyan": 8584,
      "Ġijojop": 8585,
      "nyiaan": 8586,
      "Ġntele": 8587,
      "Ġyira": 8588,
      "tetge": 8589,
      "Ġkperieen": 8590,
      "Ġkpegwen": 8591,
      "Ġkpedo": 8592,
      "Ġkpetip": 8593,
      "Ġkpewá»įp": 8594,
      "Ġkpebon": 8595,
      "Ġkpebem": 8596,
      "Ġkpetaka": 8597,
      "Ġkpefiat": 8598,
      "Ġkpelet": 8599,
      "Ġkpefuun": 8600,
      "Ġkpemumun": 8601,
      "Ġkpebá»įp": 8602,
      "Ġkpetetele": 8603,
      "Ġkpegwugwu": 8604,
      "Ġkpegegen": 8605,
      "Ġkpewak": 8606,
      "Ġokiwa": 8607,
      "Ġokige": 8608,
      "Ġokigwa": 8609,
      "Ġokiche": 8610,
      "Ġokigwen": 8611,
      "Ġokitele": 8612,
      "Ġokini": 8613,
      "Ġokirá»įn": 8614,
      "Ġokifaka": 8615,
      "Ġokikpá»įk": 8616,
      "Ġokilet": 8617,
      "Ġokitá»įt": 8618,
      "Ġokigwá»įk": 8619,
      "Ġokirep": 8620,
      "Ġokigwat": 8621,
      "Ġokijijen": 8622,
      "Ġokikput": 8623,
      "Ġokifet": 8624,
      "Ġokililaba": 8625,
      "Ġokiteme": 8626,
      "Ġokititen": 8627,
      "Ġokigá»įt": 8628,
      "Ġokigbugbut": 8629,
      "lá»įbá»į": 8630,
      "susut": 8631,
      "Ġechieen": 8632,
      "Ġechili": 8633,
      "Ġechichit": 8634,
      "Ġechichini": 8635,
      "Ġechiá»įá»įkbe": 8636,
      "Ġebeen": 8637,
      "Ġebegwu": 8638,
      "Ġebegwa": 8639,
      "Ġebetele": 8640,
      "Ġebetá»įn": 8641,
      "Ġebesan": 8642,
      "Ġebetoon": 8643,
      "Ġebetim": 8644,
      "Ġebesiki": 8645,
      "Ġebegbaan": 8646,
      "Ġebegwá»įk": 8647,
      "Ġebefá»įá»įk": 8648,
      "Ġebebieen": 8649,
      "Ġebetataka": 8650,
      "Ġebegwá»įgwá»įk": 8651,
      "Ġebeteteen": 8652,
      "Ġebetá»įtá»įp": 8653,
      "onan": 8654,
      "benan": 8655,
      "Ġkakup": 8656,
      "Ġkachit": 8657,
      "Ġkamin": 8658,
      "Ġkalin": 8659,
      "Ġkasisik": 8660,
      "Ġkarek": 8661,
      "Ġkasulu": 8662,
      "Ġkatá»įp": 8663,
      "Ġofaan": 8664,
      "chitbe": 8665,
      "Ġototolek": 8666,
      "Ġobota": 8667,
      "Ġobomun": 8668,
      "Ġobogban": 8669,
      "Ġobotim": 8670,
      "Ġobokitumu": 8671,
      "Ġobook": 8672,
      "Ġobotaka": 8673,
      "Ġobokeke": 8674,
      "Ġobolá»įk": 8675,
      "Ġobogbana": 8676,
      "Ġobokpe": 8677,
      "Ġobochep": 8678,
      "Ġobonene": 8679,
      "Ġobobeme": 8680,
      "Ġores": 8681,
      "Ġdemas": 8682,
      "yanya": 8683,
      "yanyam": 8684,
      "ebirieen": 8685,
      "kaneme": 8686,
      "Ġanas": 8687,
      "Ġanaya": 8688,
      "Ġofifilabe": 8689,
      "Ġesaradá»įn": 8690,
      "nibe": 8691,
      "nika": 8692,
      "niweek": 8693,
      "nido": 8694,
      "nitim": 8695,
      "nifit": 8696,
      "nimá»įná»į": 8697,
      "nijijaka": 8698,
      "nigak": 8699,
      "nisaba": 8700,
      "nigwak": 8701,
      "nichep": 8702,
      "nichichini": 8703,
      "nifiaan": 8704,
      "nikido": 8705,
      "Ġidadasi": 8706,
      "gagat": 8707,
      "gagana": 8708,
      "Ġgalan": 8709,
      "Ġanameli": 8710,
      "faras": 8711,
      "Ġbakubuki": 8712,
      "Ġbatolomi": 8713,
      "Ġikanyige": 8714,
      "Ġjokin": 8715,
      "Ġjoii": 8716,
      "Ġjotibata": 8717,
      "Ġirama": 8718,
      "Ġirariaan": 8719,
      "kpanyi": 8720,
      "Ġimanuwen": 8721,
      "Ġikpakpaka": 8722,
      "meyon": 8723,
      "kwukwulube": 8724,
      "kposo": 8725,
      "kpoben": 8726,
      "kpochit": 8727,
      "kporere": 8728,
      "kpokpan": 8729,
      "kpowuuk": 8730,
      "kpolibi": 8731,
      "kposiki": 8732,
      "kporaka": 8733,
      "kpofuk": 8734,
      "kpojijaka": 8735,
      "kporep": 8736,
      "kpofá»įá»įk": 8737,
      "kposaba": 8738,
      "kpoboki": 8739,
      "kpoborie": 8740,
      "Ġjaban": 8741,
      "Ġjada": 8742,
      "Ġjadu": 8743,
      "Ġjariya": 8744,
      "Ġjakisis": 8745,
      "fefeen": 8746,
      "Ġosak": 8747,
      "Ġosaya": 8748,
      "Ġejeri": 8749,
      "Ġejejeen": 8750,
      "Ġenenito": 8751,
      "Ġeneniriá»įá»įn": 8752,
      "Ġenenitele": 8753,
      "Ġeneniká»įt": 8754,
      "Ġenenichieek": 8755,
      "Ġenenikpan": 8756,
      "Ġenenitim": 8757,
      "Ġenenikeek": 8758,
      "Ġenenigwá»įk": 8759,
      "Ġenenikpe": 8760,
      "Ġeneniyik": 8761,
      "Ġenenimaan": 8762,
      "Ġininá»į": 8763,
      "Ġinineen": 8764,
      "Ġininwá»į": 8765,
      "Ġininyam": 8766,
      "Ġilalaak": 8767,
      "Ġilalap": 8768,
      "neniria": 8769,
      "nenirie": 8770,
      "nenigwook": 8771,
      "nenifieek": 8772,
      "nenido": 8773,
      "nenijeen": 8774,
      "nenisun": 8775,
      "nenileke": 8776,
      "nenitana": 8777,
      "nenigwá»į": 8778,
      "nenikigwen": 8779,
      "nenitolek": 8780,
      "Ġekagwu": 8781,
      "Ġekaben": 8782,
      "Ġekawá»į": 8783,
      "Ġekagbaan": 8784,
      "Ġekakpá»įkpá»į": 8785,
      "Ġekataka": 8786,
      "Ġekachaka": 8787,
      "Ġekasaba": 8788,
      "Ġekakpe": 8789,
      "Ġekalá»įlá»į": 8790,
      "Ġekamumun": 8791,
      "Ġekatana": 8792,
      "Ġekagege": 8793,
      "Ġekagwá»įkge": 8794,
      "Ġekatetge": 8795,
      "Ġfikolu": 8796,
      "Ġpá»įnti": 8797,
      "Ġpeta": 8798,
      "Ġpuru": 8799,
      "Ġpá»įntá»įs": 8800,
      "Ġsá»įk": 8801,
      "Ġoroon": 8802,
      "Ġichechep": 8803,
      "Ġsomeri": 8804,
      "ukufuku": 8805,
      "gbagba": 8806,
      "Ġugana": 8807,
      "Ġokwakwala": 8808,
      "Ġigbagba": 8809,
      "init": 8810,
      "Ġnyiyala": 8811,
      "fukge": 8812,
      "karep": 8813,
      "karerieen": 8814,
      "Ġekebe": 8815,
      "Ġeketá»į": 8816,
      "Ġeketoon": 8817,
      "Ġekegban": 8818,
      "Ġekedo": 8819,
      "Ġekeriaak": 8820,
      "Ġekechili": 8821,
      "Ġebekinu": 8822,
      "Ġebekini": 8823,
      "bona": 8824,
      "Ġnawum": 8825,
      "Ġinenikwu": 8826,
      "Ġinenibá»įká»į": 8827,
      "Ġinenigban": 8828,
[...]
