{
  "version": "1.0",
  "truncation": null,
  "padding": null,
  "added_tokens": [
    {
      "id": 0,
      "content": "[UNK]",
      "single_word": false,
      "lstrip": false,
      "rstrip": false,
      "normalized": false,
      "special": true
    },
    {
      "id": 1,
      "content": "[CLS]",
      "single_word": false,
      "lstrip": false,
      "rstrip": false,
      "normalized": false,
      "special": true
    },
    {
      "id": 2,
      "content": "[SEP]",
      "single_word": false,
      "lstrip": false,
      "rstrip": false,
      "normalized": false,
      "special": true
    },
    {
      "id": 3,
      "content": "[PAD]",
      "single_word": false,
      "lstrip": false,
      "rstrip": false,
      "normalized": false,
      "special": true
    },
    {
      "id": 4,
      "content": "[MASK]",
      "single_word": false,
      "lstrip": false,
      "rstrip": false,
      "normalized": false,
      "special": true
    }
  ],
  "normalizer": null,
  "pre_tokenizer": {
    "type": "Whitespace"
  },
  "post_processor": null,
  "decoder": {
    "type": "WordPiece",
    "prefix": "##",
    "cleanup": true
  },
  "model": {
    "type": "WordPiece",
    "unk_token": "[UNK]",
    "continuing_subword_prefix": "##",
    "max_input_chars_per_word": 100,
    "vocab": {
      "[UNK]": 0,
      "[CLS]": 1,
      "[SEP]": 2,
      "[PAD]": 3,
      "[MASK]": 4,
      "!": 5,
      "(": 6,
      ")": 7,
      ",": 8,
      "-": 9,
      ".": 10,
      ":": 11,
      ";": 12,
      "?": 13,
      "[": 14,
      "]": 15,
      "a": 16,
      "b": 17,
      "c": 18,
      "d": 19,
      "e": 20,
      "f": 21,
      "g": 22,
      "h": 23,
      "i": 24,
      "j": 25,
      "k": 26,
      "l": 27,
      "m": 28,
      "n": 29,
      "o": 30,
      "p": 31,
      "r": 32,
      "s": 33,
      "t": 34,
      "u": 35,
      "w": 36,
      "y": 37,
      "̀": 38,
      "̂": 39,
      "̄": 40,
      "ọ": 41,
      "‘": 42,
      "’": 43,
      "“": 44,
      "”": 45,
      "##̀": 46,
      "##k": 47,
      "##e": 48,
      "##p": 49,
      "##f": 50,
      "##a": 51,
      "##i": 52,
      "##̂": 53,
      "##l": 54,
      "##o": 55,
      "##g": 56,
      "##t": 57,
      "##n": 58,
      "##̄": 59,
      "##b": 60,
      "##s": 61,
      "##ọ": 62,
      "##j": 63,
      "##u": 64,
      "##r": 65,
      "##y": 66,
      "##d": 67,
      "##m": 68,
      "##w": 69,
      "##c": 70,
      "##h": 71,
      "##’": 72,
      "##;": 73,
      "##”": 74,
      "##)": 75,
      "##?": 76,
      "##.": 77,
      "##,": 78,
      "##]": 79,
      "##:": 80,
      "##n̄": 81,
      "me": 82,
      "##an̄": 83,
      "##wu": 84,
      "##ek": 85,
      "in": 86,
      "##be": 87,
      "##yi": 88,
      "##bi": 89,
      "##re": 90,
      "ik": 91,
      "mè": 92,
      "ì": 93,
      "##tu": 94,
      "ebi": 95,
      "##ọn̄": 96,
      "##bọ": 97,
      "##ne": 98,
      "em": 99,
      "##wa": 100,
      "##ji": 101,
      "##si": 102,
      "##gwu": 103,
      "##ka": 104,
      "ke": 105,
      "##ee": 106,
      "##uk": 107,
      "##mu": 108,
      "##ki": 109,
      "ò": 110,
      "##ri": 111,
      "ogwu": 112,
      "lek": 113,
      "##we": 114,
      "##nyi": 115,
      "##kp": 116,
      "##rọ": 117,
      "##ba": 118,
      "##ta": 119,
      "##sa": 120,
      "##ch": 121,
      "ya": 122,
      "##je": 123,
      "##ku": 124,
      "##lek": 125,
      "inyi": 126,
      "ibe": 127,
      "ene": 128,
      "##bo": 129,
      "inu": 130,
      "otu": 131,
      "##ya": 132,
      "##gwe": 133,
      "##ni": 134,
      "ki": 135,
      "ema": 136,
      "##te": 137,
      "isi": 138,
      "##bọk": 139,
      "ch": 140,
      "##een̄": 141,
      "##na": 142,
      "##en": 143,
      "mg": 144,
      "##an̄a": 145,
      "kan̄": 146,
      "##ti": 147,
      "##gwem": 148,
      "##chi": 149,
      "î": 150,
      "##mọ": 151,
      "eji": 152,
      "##wun̄": 153,
      "enyi": 154,
      "##ọk": 155,
      "##ra": 156,
      "mgbọ": 157,
      "gee": 158,
      "ire": 159,
      "mi": 160,
      "ij": 161,
      "##fi": 162,
      "owu": 163,
      "kè": 164,
      "oku": 165,
      "##bu": 166,
      "##le": 167,
      "##ma": 168,
      "otutu": 169,
      "emi": 170,
      "ika": 171,
      "otutuuk": 172,
      "##mugwem": 173,
      "okumugwem": 174,
      "si": 175,
      "##oo": 176,
      "ìre": 177,
      "##ge": 178,
      "##waji": 179,
      "awaji": 180,
      "ọmọ": 181,
      "##ọn": 182,
      "mo": 183,
      "##ban̄": 184,
      "geelek": 185,
      "##ak": 186,
      "##bot": 187,
      "ak": 188,
      "##kup": 189,
      "kp": 190,
      "##tumu": 191,
      "ije": 192,
      "ig": 193,
      "ibot": 194,
      "ikp": 195,
      "iki": 196,
      "##waan̄": 197,
      "##un̄": 198,
      "kiban̄": 199,
      "ike": 200,
      "eyi": 201,
      "cha": 202,
      "iny": 203,
      "##ko": 204,
      "n̄": 205,
      "n̄a": 206,
      "ubọk": 207,
      "emen": 208,
      "##kaan̄": 209,
      "##ny": 210,
      "mô": 211,
      "ini": 212,
      "ere": 213,
      "mije": 214,
      "ge": 215,
      "##bọọn̄": 216,
      "kwun̄": 217,
      "##li": 218,
      "##neni": 219,
      "chi": 220,
      "is": 221,
      "ejit": 222,
      "ubọọn̄": 223,
      "##lu": 224,
      "##da": 225,
      "uwu": 226,
      "##la": 227,
      "##kpa": 228,
      "ita": 229,
      "##to": 230,
      "##rieen̄": 231,
      "eki": 232,
      "##kwu": 233,
      "ijọn̄": 234,
      "akọn̄": 235,
      "gwun̄": 236,
      "mê": 237,
      "us": 238,
      "##ọọn̄": 239,
      "if": 240,
      "##ọọk": 241,
      "ama": 242,
      "##ban": 243,
      "##do": 244,
      "kinyi": 245,
      "inyọn̄": 246,
      "##gwa": 247,
      "##ook": 248,
      ".”": 249,
      "ikọ": 250,
      "ag": 251,
      "##eek": 252,
      "mbu": 253,
      "oneni": 254,
      "isa": 255,
      "ku": 256,
      "##ọp": 257,
      "##ot": 258,
      "##in̄": 259,
      "melek": 260,
      "##oon̄": 261,
      "kubọk": 262,
      "ìki": 263,
      "##eke": 264,
      "ìka": 265,
      "je": 266,
      "##ren": 267,
      "ijeren": 268,
      "##nu": 269,
      "##rie": 270,
      "ata": 271,
      "##is": 272,
      "##ru": 273,
      "##ọt": 274,
      "irọ": 275,
      "ma": 276,
      "##kpọ": 277,
      "sa": 278,
      "iba": 279,
      "##ja": 280,
      "ok": 281,
      "ǹ": 282,
      "nte": 283,
      "##se": 284,
      "##mun̄": 285,
      "ikwaan̄": 286,
      "##riọọn̄": 287,
      "mbuban": 288,
      "##ke": 289,
      "òkup": 290,
      "ngwu": 291,
      "chieen̄": 292,
      "mî": 293,
      "ngwugwa": 294,
      "##ulu": 295,
      "##ria": 296,
      "##fu": 297,
      "orọ": 298,
      "##cha": 299,
      "ido": 300,
      "##ọs": 301,
      "isibi": 302,
      "ijo": 303,
      "##yaka": 304,
      "òki": 305,
      "##mi": 306,
      "isan̄a": 307,
      "og": 308,
      "##nan̄a": 309,
      "yi": 310,
      "kpe": 311,
      "geege": 312,
      "agan̄": 313,
      "bọn": 314,
      "##lọ": 315,
      "##isọs": 316,
      "jisọs": 317,
      "oki": 318,
      "ikeya": 319,
      "mâ": 320,
      "##om": 321,
      "ebe": 322,
      "##tet": 323,
      "ka": 324,
      "##me": 325,
      "usen": 326,
      "##luk": 327,
      "uko": 328,
      "##ga": 329,
      "##nye": 330,
      "keyi": 331,
      "##week": 332,
      "##alek": 333,
      "echi": 334,
      "ofi": 335,
      "ow": 336,
      "##su": 337,
      "ugwem": 338,
      "##gwen": 339,
      "##so": 340,
      "##ye": 341,
      "itap": 342,
      "owot": 343,
      "akpa": 344,
      "##di": 345,
      "it": 346,
      "##up": 347,
      "of": 348,
      "mkp": 349,
      "##gw": 350,
      "akọp": 351,
      "eya": 352,
      "##chit": 353,
      "ikana": 354,
      "##che": 355,
      "li": 356,
      "##kpo": 357,
      "kiji": 358,
      "oto": 359,
      "ete": 360,
      "##eki": 361,
      "obo": 362,
      "ju": 363,
      "##tap": 364,
      "ore": 365,
      "unye": 366,
      "##kọt": 367,
      "##nw": 368,
      "ir": 369,
      "##nen": 370,
      "##bọkọ": 371,
      "##bet": 372,
      "ana": 373,
      "jo": 374,
      "##man": 375,
      "iji": 376,
      "ife": 377,
      "##chieek": 378,
      "îre": 379,
      "##tele": 380,
      "ofifi": 381,
      "ud": 382,
      "oni": 383,
      "esa": 384,
      "etete": 385,
      "ida": 386,
      "##gba": 387,
      "ga": 388,
      "##kana": 389,
      "anam": 390,
      "##mọn": 391,
      "otoko": 392,
      "##bit": 393,
      "oye": 394,
      "##nyọn̄": 395,
      "##fa": 396,
      "de": 397,
      "erọ": 398,
      "##wook": 399,
      "ukot": 400,
      "ikeyi": 401,
      "debit": 402,
      "##tọn̄": 403,
      "ira": 404,
      "##bene": 405,
      "uk": 406,
      "##wuuk": 407,
      "##fieek": 408,
      "##min": 409,
      "##aan̄": 410,
      "ek": 411,
      "##ro": 412,
      "esi": 413,
      "##kọ": 414,
      "ikpa": 415,
      "ikan": 416,
      "enenen": 417,
      "ikup": 418,
      "mun̄": 419,
      "eneni": 420,
      "ikaan̄": 421,
      "ìkup": 422,
      "##titi": 423,
      "##kwukwu": 424,
      "##sis": 425,
      "##gọọk": 426,
      "ba": 427,
      "igwook": 428,
      "##nwaan̄": 429,
      "ìbo": 430,
      "irek": 431,
      "ukp": 432,
      "ja": 433,
      "linyọn̄": 434,
      "ukan̄": 435,
      "iman": 436,
      "enenwaan̄": 437,
      "ebirieen̄": 438,
      "mosis": 439,
      "ifo": 440,
      "oniin̄": 441,
      "##wọ": 442,
      "eke": 443,
      "irọrọ": 444,
      "osa": 445,
      "##rere": 446,
      "enerieen̄": 447,
      "ichit": 448,
      "gaalek": 449,
      "owuwa": 450,
      "##unu": 451,
      "uti": 452,
      "##bum": 453,
      "##riaak": 454,
      "erieen̄": 455,
      "##san̄a": 456,
      "##sibi": 457,
      "inan̄a": 458,
      "agba": 459,
      "uga": 460,
      "##jeen̄": 461,
      "acha": 462,
      "kpunu": 463,
      "##ran̄": 464,
      "eb": 465,
      "eje": 466,
      "nwa": 467,
      "be": 468,
      "##lo": 469,
      "itumu": 470,
      "##kpan̄": 471,
      "##orie": 472,
      "okwaan̄": 473,
      "inorie": 474,
      "jeru": 475,
      "kara": 476,
      "ìkpo": 477,
      "##ben": 478,
      "nsa": 479,
      "##ele": 480,
      "ito": 481,
      "##fọọk": 482,
      "##jit": 483,
      "òso": 484,
      "mkpulu": 485,
      "##lem": 486,
      "##tọ": 487,
      "ebile": 488,
      "juda": 489,
      "ebilene": 490,
      "##go": 491,
      "##selem": 492,
      "jeruselem": 493,
      "ala": 494,
      "eti": 495,
      "##toon̄": 496,
      "nri": 497,
      "##ran": 498,
      "ila": 499,
      "igba": 500,
      "##ọkọ": 501,
      "ati": 502,
      "##ukp": 503,
      "eka": 504,
      "usun̄": 505,
      "atikọ": 506,
      "ogwukaan̄": 507,
      "igọọk": 508,
      "fi": 509,
      "##nin̄": 510,
      "##pi": 511,
      "m̀": 512,
      "ngw": 513,
      "##rọọn̄": 514,
      "ngwan̄": 515,
      "so": 516,
      "##et": 517,
      "##chieen̄": 518,
      "keke": 519,
      "mkpa": 520,
      "òrere": 521,
      "alata": 522,
      "ogoon̄": 523,
      "ukpook": 524,
      "##rebet": 525,
      "inyan̄a": 526,
      "ijipi": 527,
      "ijipiti": 528,
      "ewuuk": 529,
      "okp": 530,
      "oyerebet": 531,
      "##ọọ": 532,
      "ikpan̄": 533,
      "##gbe": 534,
      "##ọọlu": 535,
      "arọọn̄": 536,
      "mfu": 537,
      "##naan̄": 538,
      "inin̄": 539,
      "imun̄": 540,
      "?”": 541,
      "##ọnti": 542,
      "ura": 543,
      "okaan̄": 544,
      "##titiin̄": 545,
      "##nọ": 546,
      "##nyan̄a": 547,
      "iso": 548,
      "udun̄": 549,
      "ara": 550,
      "##fit": 551,
      "iche": 552,
      "ifuk": 553,
      "òbo": 554,
      "karais": 555,
      "##nwọn": 556,
      "nriran": 557,
      "##wele": 558,
      "uy": 559,
      "##nya": 560,
      "ikpọ": 561,
      "onenitumu": 562,
      "##kpulu": 563,
      "ine": 564,
      "kpa": 565,
      "ìnyi": 566,
      "utọn̄": 567,
      "etip": 568,
      "iti": 569,
      "igak": 570,
      "ile": 571,
      "mege": 572,
      "##aba": 573,
      "ada": 574,
      "##baan̄": 575,
      "##uku": 576,
      "ufi": 577,
      "##jọn̄": 578,
      "go": 579,
      "##bọn": 580,
      ".’": 581,
      "##ọfọọk": 582,
      "##jaka": 583,
      "jaaba": 584,
      "efu": 585,
      "obop": 586,
      "ikpele": 587,
      "##libi": 588,
      "efit": 589,
      "ogbo": 590,
      "ochi": 591,
      "okwa": 592,
      "##siki": 593,
      "##bug": 594,
      "##age": 595,
      "iriọọn̄": 596,
      "ef": 597,
      "##sik": 598,
      "yaage": 599,
      "ìtumu": 600,
      "##kwut": 601,
      "nyi": 602,
      "igwa": 603,
      "ikeke": 604,
      "ikom": 605,
      "##raka": 606,
      "ǹka": 607,
      "ege": 608,
      "##sini": 609,
      "erie": 610,
      "##dọ": 611,
      "okup": 612,
      "##lom": 613,
      "##sia": 614,
      "itele": 615,
      "na": 616,
      "usini": 617,
      "inye": 618,
      "itet": 619,
      "##tata": 620,
      "jei": 621,
      "ofọnti": 622,
      "onyi": 623,
      "##nan": 624,
      "îkaan̄": 625,
      "iri": 626,
      "nu": 627,
      "nt": 628,
      "##wọp": 629,
      "##suuk": 630,
      "ineni": 631,
      "ekwukwu": 632,
      "ebibaan̄": 633,
      "ibene": 634,
      "efuuk": 635,
      "asa": 636,
      "esuuk": 637,
      "ebek": 638,
      "ilaak": 639,
      "ìkare": 640,
      "è": 641,
      "ute": 642,
      "##ọnọ": 643,
      "esabe": 644,
      "se": 645,
      "ìk": 646,
      "isun̄": 647,
      "otun": 648,
      "##sun̄": 649,
      "adasi": 650,
      "##gban̄": 651,
      "ochicha": 652,
      "##buuk": 653,
      "irak": 654,
      "##faka": 655,
      "##mọnọ": 656,
      "##chak": 657,
      "sà": 658,
      "kpebe": 659,
      "ofo": 660,
      "mfut": 661,
      "araran̄": 662,
      "otumu": 663,
      "uji": 664,
      "jek": 665,
      "!”": 666,
      "ukpo": 667,
      "##bem": 668,
      "okuk": 669,
      "kpọ": 670,
      "ntook": 671,
      "##mbuuk": 672,
      "miin̄": 673,
      "mêki": 674,
      "eriembuuk": 675,
      "ekwut": 676,
      "oko": 677,
      "oyet": 678,
      "nki": 679,
      "ofọfọọk": 680,
      "##gobo": 681,
      "ikpo": 682,
      "##nwọọn̄": 683,
      "##gbaan̄": 684,
      "ikpoko": 685,
      "##bele": 686,
      "ìr": 687,
      "ǹki": 688,
      "##lọn": 689,
      "eli": 690,
      "oti": 691,
      "sọọlu": 692,
      "##fuk": 693,
      "##jọn̄ọ": 694,
      "ofolek": 695,
      "##jot": 696,
      "keya": 697,
      "ekup": 698,
      "ijet": 699,
      "##kpọkpọ": 700,
      "aya": 701,
      "oge": 702,
      "ikeme": 703,
      "##ok": 704,
      "ijọk": 705,
      "##kpọk": 706,
      "##nama": 707,
      "obe": 708,
      "ntumu": 709,
      "##en̄": 710,
      "isiki": 711,
      "igwu": 712,
      "or": 713,
      "uja": 714,
      "ìsa": 715,
      "nsabọn": 716,
      "##taan̄": 717,
      "uru": 718,
      "otunchit": 719,
      "îrọ": 720,
      "ikpak": 721,
      "##wo": 722,
      "ìsi": 723,
      "##at": 724,
      "òka": 725,
      "ug": 726,
      "inw": 727,
      "gi": 728,
      "##nyan̄": 729,
      "ni": 730,
      "aran̄": 731,
      "osat": 732,
      "itoon̄": 733,
      "mba": 734,
      "ìkaki": 735,
      "##sut": 736,
      "##tọbọ": 737,
      "urum": 738,
      "ifi": 739,
      "mgban": 740,
      "ekene": 741,
      "ufialek": 742,
      "jekọp": 743,
      "ònan̄a": 744,
      "iraka": 745,
      "ibọkọ": 746,
      "##umu": 747,
      "ese": 748,
      "che": 749,
      "orie": 750,
      "##bon": 751,
      "otumube": 752,
      "re": 753,
      "##gwook": 754,
      "use": 755,
      "ebeki": 756,
      "osu": 757,
      "orọbe": 758,
      "##yam": 759,
      "itọ": 760,
      "uriaak": 761,
      "mêsa": 762,
      "bene": 763,
      "igbaalek": 764,
      "esese": 765,
      "erọn": 766,
      "unaan̄": 767,
      "##keek": 768,
      "inyinya": 769,
      "oli": 770,
      "ekisa": 771,
      "udọn̄": 772,
      "okuket": 773,
      "##look": 774,
      "ìluk": 775,
      "sabum": 776,
      "gwe": 777,
      "##bai": 778,
      "kechi": 779,
      "##ukup": 780,
      "eri": 781,
      "ikakaan̄": 782,
      "kpek": 783,
      "##tọt": 784,
      "òwa": 785,
      "kpai": 786,
      "osusut": 787,
      "##bek": 788,
      "##roon̄": 789,
      "##ron": 790,
      "môneni": 791,
      "##dim": 792,
      "fili": 793,
      "##taka": 794,
      "ina": 795,
      "ekeki": 796,
      "##nanan̄a": 797,
      "îra": 798,
      "imu": 799,
      "umin": 800,
      "abi": 801,
      "##yo": 802,
      "oron": 803,
      "ikirọ": 804,
      "inire": 805,
      "babi": 806,
      "egwe": 807,
      "okupbe": 808,
      "utoon̄": 809,
      "libai": 810,
      "îki": 811,
      "babilọn": 812,
      "##tim": 813,
      "isasa": 814,
      "##wê": 815,
      "èwê": 816,
      "ichi": 817,
      "akpalek": 818,
      "##ukan̄": 819,
      "onyibe": 820,
      "ujọn̄ọ": 821,
      "ebum": 822,
      "##regwen": 823,
      "gweregwen": 824,
      "##gọ": 825,
      "##rọrọ": 826,
      "##chini": 827,
      "##gbug": 828,
      "ekigwen": 829,
      "ekp": 830,
      "ta": 831,
      "ìrot": 832,
      "##wak": 833,
      "##wop": 834,
      "erọbe": 835,
      "##let": 836,
      "ne": 837,
      "##lọk": 838,
      "##wabu": 839,
      "òje": 840,
      "ijot": 841,
      "mkpọ": 842,
      "##jijaka": 843,
      "soso": 844,
      "igwen": 845,
      "da": 846,
      "##du": 847,
      "ijeen̄": 848,
      "ekaan̄": 849,
      "unwọọn̄": 850,
      "##rọn̄": 851,
      "##top": 852,
      "onyan̄": 853,
      "ikike": 854,
      "##fe": 855,
      "##sefu": 856,
      "##fo": 857,
      "josefu": 858,
      "ji": 859,
      "ibo": 860,
      "amọn": 861,
      "ilọ": 862,
      "esip": 863,
      "##lomọn": 864,
      "solomọn": 865,
      "eririeen̄": 866,
      "ebere": 867,
      "enu": 868,
      "ntitiin̄": 869,
      "iriọk": 870,
      "ich": 871,
      "oje": 872,
      "filisia": 873,
      "##n̄e": 874,
      "nrọ": 875,
      "otutumu": 876,
      "ikpọk": 877,
      "fe": 878,
      "##rep": 879,
      "pi": 880,
      "##ik": 881,
      "ben": 882,
      "ijaan̄": 883,
      "òk": 884,
      "##laak": 885,
      "##tutumu": 886,
      "pọọlu": 887,
      "##beek": 888,
      "ìkpọ": 889,
      "itibi": 890,
      "oka": 891,
      "ilai": 892,
      "ekirọ": 893,
      "ebereyam": 894,
      "ichechieek": 895,
      "fero": 896,
      "itọn̄": 897,
      "nsan": 898,
      "ikakaan̄ge": 899,
      "olom": 900,
      "ugane": 901,
      "ọf": 902,
      "##fiat": 903,
      "##tetet": 904,
      "m̀kpa": 905,
      "ìbe": 906,
      "ewe": 907,
      "##bin": 908,
      "mbum": 909,
      "bak": 910,
      "ichep": 911,
      "ifieek": 912,
      "##on̄": 913,
      "orebe": 914,
      "òsi": 915,
      "tumu": 916,
      "ikweek": 917,
      "##kpukp": 918,
      "kpeki": 919,
      "itim": 920,
      "iyaka": 921,
      "##mun̄be": 922,
      "iwele": 923,
      "##rioon̄": 924,
      "ataak": 925,
      "##turu": 926,
      "ili": 927,
      "##reke": 928,
      "ikwu": 929,
      "inyinyi": 930,
      "igo": 931,
      "ìkirọ": 932,
      "orukan̄": 933,
      "mkpọn": 934,
      "##wek": 935,
      "osi": 936,
      "ora": 937,
      "##wọwọp": 938,
      "##mfaka": 939,
      "inọ": 940,
      "okeki": 941,
      "##nọbe": 942,
      "mkpọmfaka": 943,
      "##gbo": 944,
      "ìnan̄a": 945,
      "gerep": 946,
      "môkọt": 947,
      "osiki": 948,
      "##jak": 949,
      "òkaan̄": 950,
      "##tan": 951,
      "##chaka": 952,
      "##suwa": 953,
      "inama": 954,
      "##tun̄": 955,
      "##jibi": 956,
      "iluk": 957,
      "otubọk": 958,
      "fituru": 959,
      "ọfọ": 960,
      "ikpulu": 961,
      "eriọọn̄": 962,
      "##gi": 963,
      "##nene": 964,
      "##mechieen̄": 965,
      "imumechieen̄": 966,
      "pita": 967,
      "nji": 968,
      "nkwukwu": 969,
      "iben": 970,
      "##chechieek": 971,
      "##ut": 972,
      "##gbana": 973,
      "nroon̄": 974,
      "##tat": 975,
      "nre": 976,
      "ikitumu": 977,
      "iweek": 978,
      "ns": 979,
      "isotu": 980,
      "nga": 981,
      "kpebek": 982,
      "asi": 983,
      "ebot": 984,
      "uyok": 985,
      "okpọkọ": 986,
      "##duku": 987,
      "##dan": 988,
      "ewọwọp": 989,
      "ìyaka": 990,
      "ri": 991,
      "##un": 992,
      "îsa": 993,
      "olik": 994,
      "ijejeen̄": 995,
      "okop": 996,
      "##lọm": 997,
      "##gu": 998,
      "ìrọ": 999,
      "##kaya": 1000,
      "##keke": 1001,
      "mêneni": 1002,
      "rọ": 1003,
      "##sulu": 1004,
      "inya": 1005,
      "jeri": 1006,
      "ibak": 1007,
      "nteme": 1008,
      "chereke": 1009,
      "cherekeyi": 1010,
      "ìje": 1011,
      "ogbogbo": 1012,
      "òrọrọ": 1013,
      "ekpan̄": 1014,
      "itata": 1015,
      "egebe": 1016,
      "oduku": 1017,
      "##nwọ": 1018,
      "##kupbe": 1019,
      "oru": 1020,
      "##but": 1021,
      "mkpukp": 1022,
      "##fat": 1023,
      "aka": 1024,
      "##bia": 1025,
      "##wene": 1026,
      "môsa": 1027,
      "ìrere": 1028,
      "ebesa": 1029,
      "unen": 1030,
      "ichen": 1031,
      "josuwa": 1032,
      "emun̄": 1033,
      "ototun̄": 1034,
      "ìsibi": 1035,
      "in̄": 1036,
      "unan": 1037,
      "ogboon̄": 1038,
      "irie": 1039,
      "nneni": 1040,
      "##eejit": 1041,
      "ufieejit": 1042,
      "##nunu": 1043,
      "à": 1044,
      "##rek": 1045,
      "mâsa": 1046,
      "##gak": 1047,
      "ìkaan̄": 1048,
      "##an̄asi": 1049,
      "kpan̄asi": 1050,
      "akpan": 1051,
      "uche": 1052,
      "eru": 1053,
      "môrọ": 1054,
      "##omo": 1055,
      "ikikpọ": 1056,
      "ìkayaka": 1057,
      "mârọ": 1058,
      "##gwọk": 1059,
      "etap": 1060,
      "##yat": 1061,
      "atan": 1062,
      "owa": 1063,
      "usọ": 1064,
      "mîra": 1065,
      "itọbọ": 1066,
      "##wulu": 1067,
      "##wọlọ": 1068,
      "utop": 1069,
      "##jo": 1070,
      "ukpọk": 1071,
      "òtata": 1072,
      "##maya": 1073,
      "mkpukpe": 1074,
      "îtumu": 1075,
      "##kot": 1076,
      "okirọ": 1077,
      "iteke": 1078,
      "uyeke": 1079,
      "atanga": 1080,
      "jọn": 1081,
      "##wut": 1082,
      "òta": 1083,
      "ikije": 1084,
      "sọnti": 1085,
      "##lam": 1086,
      "sọntiik": 1087,
      "ewele": 1088,
      "isinyọn̄": 1089,
      "en": 1090,
      "##gwuun̄": 1091,
      "##chili": 1092,
      "atata": 1093,
      "orọmi": 1094,
      "##tọbe": 1095,
      "orọmijọn̄": 1096,
      "##gwat": 1097,
      "akpat": 1098,
      "efet": 1099,
      "obebe": 1100,
      "ige": 1101,
      "iria": 1102,
      "nan̄a": 1103,
      "##pa": 1104,
      "##tuku": 1105,
      "ojelek": 1106,
      "olu": 1107,
      "mowabu": 1108,
      "ìkakaan̄": 1109,
      "atalek": 1110,
      "egep": 1111,
      "onanan̄a": 1112,
      "irom": 1113,
      "tele": 1114,
      "##wọọk": 1115,
      "ekitumu": 1116,
      "mêkọt": 1117,
      "le": 1118,
      "##rom": 1119,
      "ewelegwe": 1120,
      "òbe": 1121,
      "##ram": 1122,
      "useen̄": 1123,
      "jodan": 1124,
      "##jamin": 1125,
      "eni": 1126,
      "ulọk": 1127,
      "##lọlọ": 1128,
      "ofiaan̄": 1129,
      "mu": 1130,
      "òsa": 1131,
      "nnwọn": 1132,
      "enan̄a": 1133,
      "egbe": 1134,
      "##rem": 1135,
      "ìriọọn̄": 1136,
      "môre": 1137,
      "##jaan̄": 1138,
      "osabe": 1139,
      "benjamin": 1140,
      "ikisa": 1141,
      "onenibe": 1142,
      "##dọmọ": 1143,
      "ekupbe": 1144,
      "mbem": 1145,
      "okwu": 1146,
      "##jọ": 1147,
      "okike": 1148,
      "##dọm": 1149,
      "îrọbe": 1150,
      "ikak": 1151,
      "asabọn": 1152,
      "aji": 1153,
      "òkirọ": 1154,
      "kperiọọn̄": 1155,
      "eluk": 1156,
      "iko": 1157,
      "##neen̄": 1158,
      "##bak": 1159,
      "itaka": 1160,
      "##fuun̄": 1161,
      "##dia": 1162,
      "irọn̄": 1163,
      "irieen̄": 1164,
      "nra": 1165,
      "##kwaan̄": 1166,
      "##ekeke": 1167,
      "##buru": 1168,
      "pa": 1169,
      "inwọ": 1170,
      "##wam": 1171,
      "##mumun̄": 1172,
      "##saba": 1173,
      "ikasi": 1174,
      "##lia": 1175,
      "iriaak": 1176,
      "òjot": 1177,
      "##rak": 1178,
      "ekwe": 1179,
      "igbaan̄": 1180,
      "mudim": 1181,
      "jee": 1182,
      "inen": 1183,
      "##kpe": 1184,
      "##bat": 1185,
      "##saak": 1186,
      "udun": 1187,
      "agbagba": 1188,
      "jeeta": 1189,
      "ititiin̄": 1190,
      "mana": 1191,
      "kpeyaka": 1192,
      "karake": 1193,
      "ebon": 1194,
      "##gb": 1195,
      "##bọbọkọ": 1196,
      "ikọt": 1197,
      "iferem": 1198,
      "òkukup": 1199,
      "yọk": 1200,
      "inisa": 1201,
      "onenido": 1202,
      "m̀ba": 1203,
      "ayi": 1204,
      "ulom": 1205,
      "itutumu": 1206,
      "jeyo": 1207,
      "##mien": 1208,
      "erumun̄": 1209,
      "afa": 1210,
      "etumu": 1211,
      "ubele": 1212,
      "##aak": 1213,
      "##nichini": 1214,
      "chinichini": 1215,
      "##weekbe": 1216,
      "##kpukpo": 1217,
      "ubelejit": 1218,
      "ekana": 1219,
      "##ensi": 1220,
      "##mọọn̄": 1221,
      "##wakwaan̄": 1222,
      "nsensi": 1223,
      "##nọn": 1224,
      "òriọọn̄": 1225,
      "##rọn": 1226,
      "##enye": 1227,
      "ìkike": 1228,
      "##ket": 1229,
      "kpebekọt": 1230,
      "ikakwun̄": 1231,
      "##de": 1232,
      "fa": 1233,
      "pe": 1234,
      "##on": 1235,
      "##ruk": 1236,
      "##yọn": 1237,
      "jona": 1238,
      "kpebeyaka": 1239,
      "jio": 1240,
      "kenan": 1241,
      "òra": 1242,
      "mêsabe": 1243,
      "okwukwu": 1244,
      "##dun̄": 1245,
      "isaba": 1246,
      "oria": 1247,
      "##rege": 1248,
      "##buwam": 1249,
      "##kom": 1250,
      "##dasi": 1251,
      "ugbọọn̄": 1252,
      "usem": 1253,
      "##men": 1254,
      "##tibi": 1255,
      "sai": 1256,
      "iwa": 1257,
      "ukwu": 1258,
      "ekiket": 1259,
      "omun̄be": 1260,
      "tap": 1261,
      "ukwuuk": 1262,
      "etet": 1263,
      "utele": 1264,
      "ìgban̄": 1265,
      "ijit": 1266,
      "aram": 1267,
      "utelelek": 1268,
      "oluk": 1269,
      "unyan̄a": 1270,
      "##mgbug": 1271,
      "##lobo": 1272,
      "ujamgbug": 1273,
      "ekaan̄be": 1274,
      "ujamgbugbo": 1275,
      "ochak": 1276,
      "înyi": 1277,
      "oruru": 1278,
      "iin̄": 1279,
      "##iri": 1280,
      "##ọbọ": 1281,
      "ìni": 1282,
      "îkana": 1283,
      "##kat": 1284,
      "##yala": 1285,
      "sibi": 1286,
      "ikpukp": 1287,
      "ìkisa": 1288,
      "sayọn": 1289,
      "orere": 1290,
      "ìbore": 1291,
      "otuchieen̄": 1292,
      "##nyenye": 1293,
      "esasa": 1294,
      "##gbegbe": 1295,
      "jerimaya": 1296,
      "esan̄a": 1297,
      "ikisi": 1298,
      "jowabu": 1299,
      "okaan̄be": 1300,
      "manasi": 1301,
      "ilibi": 1302,
      "##jomo": 1303,
      "##lep": 1304,
      "##luluk": 1305,
      "samien": 1306,
      "##gọgọọk": 1307,
      "iya": 1308,
      "##reyi": 1309,
      "chereyi": 1310,
      "ajiki": 1311,
      "nriọọn̄": 1312,
      "sọn": 1313,
      "ìsan̄a": 1314,
      "##tutuku": 1315,
      "##nyan̄abe": 1316,
      "ǹkitumu": 1317,
      "emun̄be": 1318,
      "##jeje": 1319,
      "erebe": 1320,
      "iraraka": 1321,
      "ilile": 1322,
      "egwu": 1323,
      "ngobo": 1324,
      "##bọp": 1325,
      "ìkpoyaka": 1326,
      "una": 1327,
      "##mbe": 1328,
      "ìtọn̄": 1329,
      "ikat": 1330,
      "ikam": 1331,
      "ima": 1332,
      "urọ": 1333,
      "##ju": 1334,
      "##wọk": 1335,
      "##bidim": 1336,
      "môkup": 1337,
      "mbubet": 1338,
      "uyọt": 1339,
      "urie": 1340,
      "ebibi": 1341,
      "môki": 1342,
      "mîriọọn̄": 1343,
      "osasa": 1344,
      "kpasi": 1345,
      "im": 1346,
      "igbet": 1347,
      "ifu": 1348,
      "##riọọn̄ge": 1349,
      "##chep": 1350,
      "##chieekbe": 1351,
      "kechilọ": 1352,
      "àtat": 1353,
      "òmi": 1354,
      "òkinu": 1355,
      "ifiin̄": 1356,
      "akpatan̄": 1357,
      "ikarek": 1358,
      "òtatat": 1359,
      "òbebene": 1360,
      "înwọn": 1361,
      "ejikaya": 1362,
      "##lili": 1363,
      "kpekaan̄": 1364,
      "agwu": 1365,
      "edọm": 1366,
      "nsi": 1367,
      "##ali": 1368,
      "ikayaka": 1369,
      "asiria": 1370,
      "agwut": 1371,
      "egw": 1372,
      "##kpaka": 1373,
      "akpabin": 1374,
      "oriọọn̄": 1375,
      "##ween̄": 1376,
      "ònwọn": 1377,
      "ògbegbe": 1378,
      "ekije": 1379,
      "##gwak": 1380,
      "ijijaka": 1381,
      "kpekọt": 1382,
      "leban": 1383,
      "sọnja": 1384,
      "di": 1385,
      "##taba": 1386,
      "ikerere": 1387,
      "ogu": 1388,
      "ilaija": 1389,
      "urọk": 1390,
      "enanan̄a": 1391,
      "mọ": 1392,
      "onenisa": 1393,
      "keyilọ": 1394,
      "kpunube": 1395,
      "unọn": 1396,
      "òkpo": 1397,
      "##gat": 1398,
      "otita": 1399,
      "ayaya": 1400,
      "bu": 1401,
      "##nwene": 1402,
      "##fila": 1403,
      "mbubut": 1404,
      "gilia": 1405,
      "giliadi": 1406,
      "alọm": 1407,
      "nka": 1408,
      "te": 1409,
      "ti": 1410,
      "##nbe": 1411,
      "##nọnọ": 1412,
      "##ọrọ": 1413,
      "mgbidim": 1414,
      "mîrọ": 1415,
      "nlọ": 1416,
      "ru": 1417,
      "atà": 1418,
      "uman": 1419,
      "ubene": 1420,
      "ekpa": 1421,
      "ibebene": 1422,
      "##lelet": 1423,
      "òkakaan̄": 1424,
      "fo": 1425,
      "iwọp": 1426,
      "efọfọọk": 1427,
      "orioon̄": 1428,
      "uri": 1429,
      "igobo": 1430,
      "nkeek": 1431,
      "ìna": 1432,
      "initumu": 1433,
      "##bọkọbe": 1434,
      "nto": 1435,
      "##yen": 1436,
      "##tut": 1437,
      "##neme": 1438,
      "môfieek": 1439,
      "agọọk": 1440,
      "##nube": 1441,
      "same": 1442,
      "ebebene": 1443,
      "sameria": 1444,
      "##ekp": 1445,
      "okoko": 1446,
      "afi": 1447,
      "uwele": 1448,
      "##wọn": 1449,
      "ìkibem": 1450,
      "okwukwut": 1451,
      "òmimin": 1452,
      "enọbe": 1453,
      "ichak": 1454,
      "nkaan̄": 1455,
      "otetet": 1456,
      "ulobo": 1457,
      "##aka": 1458,
      "##gbọ": 1459,
      "ogwugwu": 1460,
      "##jen̄e": 1461,
      "ìsisik": 1462,
      "òsisik": 1463,
      "##jin": 1464,
      "isulu": 1465,
      "onenire": 1466,
      "##chat": 1467,
      "ìkwakwaan̄": 1468,
      "nye": 1469,
      "kilo": 1470,
      "ntet": 1471,
      "mîkaan̄": 1472,
      "eyabu": 1473,
      "esibi": 1474,
      "ìkpokọt": 1475,
      "ilaisia": 1476,
      "jonatan": 1477,
      "mọnọ": 1478,
      "okpọ": 1479,
      "îgbe": 1480,
      "onenikana": 1481,
      "##gbala": 1482,
      "inwan̄": 1483,
      "et": 1484,
      "ù": 1485,
      "ufuk": 1486,
      "òrọ": 1487,
      "îkupbe": 1488,
      "jero": 1489,
      "uyọrọ": 1490,
      "okokop": 1491,
      "uyọrọlek": 1492,
      "?’": 1493,
      "nkwu": 1494,
      "onaan̄": 1495,
      "to": 1496,
      "unene": 1497,
      "initap": 1498,
      "imọnọ": 1499,
      "##dọk": 1500,
      "ìtet": 1501,
      "ìkọt": 1502,
      "òfo": 1503,
      "##tana": 1504,
      "okeke": 1505,
      "mfufuk": 1506,
      "inene": 1507,
      "nnyi": 1508,
      "okpọkpọ": 1509,
      "ijọn̄ọ": 1510,
      "##dine": 1511,
      "otitọt": 1512,
      "san̄a": 1513,
      "ukpa": 1514,
      "ugbana": 1515,
      "ufuun̄": 1516,
      "##no": 1517,
      "ikikpulu": 1518,
      "ekiweek": 1519,
      "mâni": 1520,
      "nebu": 1521,
      "ntap": 1522,
      "ra": 1523,
      "##tatap": 1524,
      "##gwegwen": 1525,
      "îmin": 1526,
      "igwọk": 1527,
      "##lat": 1528,
      "baali": 1529,
      "ego": 1530,
      "ekpọkpọ": 1531,
      "##rọs": 1532,
      "môni": 1533,
      "ugan": 1534,
      "ùrioon̄": 1535,
      "abu": 1536,
      "bi": 1537,
      "ko": 1538,
      "isọ": 1539,
      "##solọm": 1540,
      "bet": 1541,
      "abusolọm": 1542,
      "##yik": 1543,
      "##nien": 1544,
      "ikpe": 1545,
      "itọp": 1546,
      "okpu": 1547,
      "ìtap": 1548,
      "ikiweek": 1549,
      "môkana": 1550,
      "itaba": 1551,
      "òkinyi": 1552,
      "nwakpa": 1553,
      "îkaan̄be": 1554,
      "egọọk": 1555,
      "ichieek": 1556,
      "mmun̄": 1557,
      "ufe": 1558,
      "##ọkọt": 1559,
      "jewu": 1560,
      "obokọt": 1561,
      "jerobuwam": 1562,
      "aja": 1563,
      "ekot": 1564,
      "onenibon": 1565,
      "ǹsa": 1566,
      "irio": 1567,
      "ìkeke": 1568,
      "##gbugbọ": 1569,
      "iban": 1570,
      "njak": 1571,
      "##tọp": 1572,
      "##risi": 1573,
      "##leke": 1574,
      "##nan̄abe": 1575,
      "ìbokup": 1576,
      "inwọọn̄": 1577,
      "oraan̄": 1578,
      "oluku": 1579,
      "nlelet": 1580,
      "##den̄": 1581,
      "iniki": 1582,
      "mkpat": 1583,
      "etapbe": 1584,
      "mbeek": 1585,
      "otọbe": 1586,
      "##kọp": 1587,
      "ìtele": 1588,
      "òban": 1589,
      "##chiaan̄": 1590,
      "onọbe": 1591,
      "uke": 1592,
      "##eja": 1593,
      "##ọlọ": 1594,
      "##sisik": 1595,
      "##sak": 1596,
      "##tetele": 1597,
      "##fiin̄": 1598,
      "oneniria": 1599,
      "okitumu": 1600,
      "##bugbọ": 1601,
      "inwọnọ": 1602,
      "ukechieen̄": 1603,
      "odo": 1604,
      "ikwek": 1605,
      "jebu": 1606,
      "ǹnyi": 1607,
      "bara": 1608,
      "gibi": 1609,
      "enunu": 1610,
      "!’": 1611,
      "eyaka": 1612,
      "îtata": 1613,
      "##melek": 1614,
      "ìchechieek": 1615,
      "##kadine": 1616,
      "òchi": 1617,
      "òbet": 1618,
      "echichi": 1619,
      "ofit": 1620,
      "##ronyan̄": 1621,
      "##rakabe": 1622,
      "ntoronyan̄": 1623,
      "onaan̄ge": 1624,
      "nebukadine": 1625,
      "nebukadineja": 1626,
      "egbaan̄": 1627,
      "otiti": 1628,
      "otata": 1629,
      "uwop": 1630,
      "usaba": 1631,
      "ọkpọ": 1632,
      "##yim": 1633,
      "îkup": 1634,
      "eyiyi": 1635,
      "itat": 1636,
      "etetet": 1637,
      "uraa": 1638,
      "inwọn": 1639,
      "olifu": 1640,
      "ònwọnwọn": 1641,
      "ọkpọchieen̄": 1642,
      "ari": 1643,
      "isisi": 1644,
      "igọ": 1645,
      "ìkisi": 1646,
      "##sefat": 1647,
      "mîsa": 1648,
      "orọrọ": 1649,
      "ekọk": 1650,
      "okput": 1651,
      "##rọn̄ọ": 1652,
      "jiosefat": 1653,
      "ajaka": 1654,
      "ekpulu": 1655,
      "la": 1656,
      "mfaka": 1657,
      "##lak": 1658,
      "##naya": 1659,
      "lili": 1660,
      "igon": 1661,
      "ifuun̄": 1662,
      "ajakajak": 1663,
      "amọ": 1664,
      "otap": 1665,
      "##buku": 1666,
      "##yan̄a": 1667,
      "##raya": 1668,
      "oneninan̄a": 1669,
      "ìkakup": 1670,
      "okpi": 1671,
      "ikpọchieen̄": 1672,
      "##namabe": 1673,
      "elukbe": 1674,
      "iman̄": 1675,
      "##chichini": 1676,
      "ìkitumu": 1677,
      "##keme": 1678,
      "ogo": 1679,
      "kpere": 1680,
      "ifon": 1681,
      "igwak": 1682,
      "ugumu": 1683,
      "okakana": 1684,
      "af": 1685,
      "gwu": 1686,
      "nyan̄a": 1687,
      "orieen̄": 1688,
      "su": 1689,
      "ugwu": 1690,
      "##bieen̄": 1691,
      "ìkpọkpọ": 1692,
      "òre": 1693,
      "##rarak": 1694,
      "ijeek": 1695,
      "eberọ": 1696,
      "##bugbo": 1697,
      "nke": 1698,
      "uka": 1699,
      "uneen̄": 1700,
      "midia": 1701,
      "##fiọọn̄": 1702,
      "##fiaan̄": 1703,
      "##mana": 1704,
      "eneninan̄a": 1705,
      "ekerọ": 1706,
      "elieja": 1707,
      "farisi": 1708,
      "ase": 1709,
      "achiaan̄": 1710,
      "egwa": 1711,
      "eden̄": 1712,
      "mebe": 1713,
      "##riya": 1714,
      "##san": 1715,
      "kachieek": 1716,
      "itọt": 1717,
      "mkpi": 1718,
      "oninin̄": 1719,
      "etim": 1720,
      "ilet": 1721,
      "onyinyi": 1722,
      "okukup": 1723,
      "igwuun̄": 1724,
      "okpọkpọk": 1725,
      "gban̄": 1726,
      "##jijen̄e": 1727,
      "##nanaan̄": 1728,
      "mgburu": 1729,
      "##mabe": 1730,
      "môkaan̄": 1731,
      "okije": 1732,
      "mkpukan̄": 1733,
      "ekeke": 1734,
      "orom": 1735,
      "ifiat": 1736,
      "imumun̄": 1737,
      "ekpen̄": 1738,
      "##gug": 1739,
      "etumube": 1740,
      "mgburudun̄": 1741,
      "##tọkọ": 1742,
      "meri": 1743,
      "ijibi": 1744,
      "enenisa": 1745,
      "##nyam": 1746,
      "barabat": 1747,
      "ekpọ": 1748,
      "ekọt": 1749,
      "gwa": 1750,
      "ufieek": 1751,
      "inwene": 1752,
      "##yiyala": 1753,
      "ìgwu": 1754,
      "##was": 1755,
      "##gele": 1756,
      "##gwenbe": 1757,
      "igbana": 1758,
      "njij": 1759,
      "ali": 1760,
      "ebu": 1761,
      "ngug": 1762,
      "olat": 1763,
      "orakabe": 1764,
      "##keki": 1765,
      "ìbet": 1766,
      "##wala": 1767,
      "ògak": 1768,
      "##nia": 1769,
      "ekiluk": 1770,
      "agbọ": 1771,
      "gadi": 1772,
      "ukwook": 1773,
      "obebene": 1774,
      "òraraka": 1775,
      "okputut": 1776,
      "ngugọọn̄": 1777,
      "gọọk": 1778,
      "##kan̄": 1779,
      "##wuwu": 1780,
      "ìmun̄": 1781,
      "##baak": 1782,
      "ìkiluk": 1783,
      "##ekem": 1784,
      "òbokọt": 1785,
      "##sun̄be": 1786,
      "ogobo": 1787,
      "ulibi": 1788,
      "ìnye": 1789,
      "ìjeen̄": 1790,
      "##sisaak": 1791,
      "ònyenye": 1792,
      "îwuuk": 1793,
      "ikachieek": 1794,
      "akan̄": 1795,
      "ikibe": 1796,
      "òkisa": 1797,
      "##nwọnọ": 1798,
      "nrọbe": 1799,
      "ruben": 1800,
      "mkpilaak": 1801,
      "ibia": 1802,
      "mbin": 1803,
      "ntọn̄": 1804,
      "##nti": 1805,
      "##bọm": 1806,
      "##tip": 1807,
      "îkwu": 1808,
      "ikitaan̄": 1809,
      "ìkiweek": 1810,
      "galili": 1811,
      "balam": 1812,
      "irin̄": 1813,
      "abina": 1814,
      "ekpiri": 1815,
      "danien": 1816,
      "ibook": 1817,
      "##bọn̄": 1818,
      "##nenen": 1819,
      "òcha": 1820,
      "enyibe": 1821,
      "##fita": 1822,
      "ikitọbọ": 1823,
      "sam": 1824,
      "ibaan̄": 1825,
      "ikpakpan̄": 1826,
      "ọgb": 1827,
      "##ret": 1828,
      "òja": 1829,
      "isu": 1830,
      "mîge": 1831,
      "ebeben": 1832,
      "ejeje": 1833,
      "òsoso": 1834,
      "ekarege": 1835,
      "îtumube": 1836,
      "eburọn": 1837,
      "ọgbọn̄": 1838,
      "ibum": 1839,
      "nkupbe": 1840,
      "##kwak": 1841,
      "##jijit": 1842,
      "##niya": 1843,
      "ikijeen̄": 1844,
      "##laba": 1845,
      "jese": 1846,
      "okisa": 1847,
      "echieek": 1848,
      "inenitumu": 1849,
      "uraafiọọn̄": 1850,
      "lilin̄": 1851,
      "enin̄": 1852,
      "itu": 1853,
      "ugwat": 1854,
      "##dọn": 1855,
      "##sin": 1856,
      "îtap": 1857,
      "ikirie": 1858,
      "mêrọ": 1859,
      "ǹsi": 1860,
      "obosa": 1861,
      "##nyana": 1862,
      "efon": 1863,
      "okolo": 1864,
      "inyana": 1865,
      "##jojot": 1866,
      "ugumulek": 1867,
      "ekpirikpo": 1868,
      "##buk": 1869,
      "ìto": 1870,
      "ìkom": 1871,
      "owut": 1872,
      "ìkana": 1873,
      "oke": 1874,
      "ǹna": 1875,
      "ekayaka": 1876,
      "ikpọkpọ": 1877,
      "itip": 1878,
      "efe": 1879,
      "dan": 1880,
      "njijin": 1881,
      "buru": 1882,
      "ekọkọk": 1883,
      "eto": 1884,
      "##̀an̄": 1885,
      "##kwek": 1886,
      "##ilet": 1887,
      "##saya": 1888,
      "ikarege": 1889,
      "onenigwen": 1890,
      "kaan̄": 1891,
      "pailet": 1892,
      "saimọn": 1893,
      "ikpukpuku": 1894,
      "okpibot": 1895,
      "ǹnàan̄": 1896,
      ",”": 1897,
      "etoon̄": 1898,
      "okpa": 1899,
      "##yok": 1900,
      "##eka": 1901,
      "##rirọ": 1902,
      "kpechieek": 1903,
      "mâkọt": 1904,
      "etele": 1905,
      "jobu": 1906,
      "nriroon̄": 1907,
      "òsasa": 1908,
      "enan̄abe": 1909,
      "nkwurieen̄": 1910,
      "burubut": 1911,
      "imin": 1912,
      "nọ": 1913,
      "ojot": 1914,
      "##yu": 1915,
      "ògat": 1916,
      "##yayaka": 1917,
      "##ten": 1918,
      "îtet": 1919,
      "ikito": 1920,
      "inigwa": 1921,
      "onenisi": 1922,
      "ìkachieek": 1923,
      "iyakwut": 1924,
      "afọn̄": 1925,
      "omun̄": 1926,
      "##ijo": 1927,
      "ìweek": 1928,
      "ebiba": 1929,
      "ònenen": 1930,
      "ikinyi": 1931,
      "onenifọọk": 1932,
      "ìkikpọ": 1933,
      "mânyi": 1934,
      "##diọn": 1935,
      "ichichini": 1936,
      "egwijo": 1937,
      "ibọp": 1938,
      "nli": 1939,
      "ogwa": 1940,
      "sekem": 1941,
      "ìnu": 1942,
      "ìbene": 1943,
      "##kai": 1944,
      "##kis": 1945,
      "##wen": 1946,
      "##kput": 1947,
      "ibeni": 1948,
      "##yaki": 1949,
      "##rajit": 1950,
      "simi": 1951,
      "ekibe": 1952,
      "ogbaan̄": 1953,
      "okpọn̄": 1954,
      "gidiọn": 1955,
      "oraria": 1956,
      "jeriko": 1957,
      "ekpan̄be": 1958,
      "oguga": 1959,
      "ukarajit": 1960,
      "awọ": 1961,
      "ebọkọ": 1962,
      "ewop": 1963,
      "ekom": 1964,
      "ilook": 1965,
      "##uruk": 1966,
      "ikeki": 1967,
      "##ukbe": 1968,
      "ikigọọk": 1969,
      "mônyi": 1970,
      "ìkije": 1971,
      "mîki": 1972,
      "òkikpọ": 1973,
      "erọdu": 1974,
      "orọn̄": 1975,
      "ujat": 1976,
      "ekpe": 1977,
      "onunu": 1978,
      "òkpukpo": 1979,
      "itaan̄": 1980,
      "mêni": 1981,
      "jedi": 1982,
      "okinyi": 1983,
      "eberam": 1984,
      "oboki": 1985,
      "##benebe": 1986,
      "otunwa": 1987,
      "ntumube": 1988,
      "abimelek": 1989,
      "##fefieek": 1990,
      "##dun̄u": 1991,
      "oriabe": 1992,
      ",’": 1993,
      "ochieekbe": 1994,
      "##kukup": 1995,
      "##mo": 1996,
      "ìfo": 1997,
      "emu": 1998,
      "òno": 1999,
      "##chiaak": 2000,
      "òkitumu": 2001,
      "##miin̄": 2002,
      "ijija": 2003,
      "ìbosa": 2004,
      "ìkpolọlọ": 2005,
      "òboki": 2006,
      "sera": 2007,
      "jeka": 2008,
      "##gugo": 2009,
      "urieek": 2010,
      "ach": 2011,
      "ọdọ": 2012,
      "##ogwook": 2013,
      "ìnin̄": 2014,
      "##weweek": 2015,
      "##bala": 2016,
      "îriọọn̄": 2017,
      "oneninyi": 2018,
      "##dikai": 2019,
      "m̀gba": 2020,
      "urak": 2021,
      "ebekisa": 2022,
      "mọdikai": 2023,
      "okekebe": 2024,
      "samsin": 2025,
      "bọkọ": 2026,
      "ifit": 2027,
      "##chim": 2028,
      "ikitap": 2029,
      "ikeek": 2030,
      "inido": 2031,
      "mêkwaan̄": 2032,
      "ibala": 2033,
      "mîmun̄": 2034,
      "##titim": 2035,
      "ekariọọn̄ge": 2036,
      "reyo": 2037,
      "taya": 2038,
      "lebanọn": 2039,
      "ofu": 2040,
      "tet": 2041,
      "##wot": 2042,
      "##teme": 2043,
      "mâneni": 2044,
      "itọọn̄": 2045,
      "esita": 2046,
      "##sibibe": 2047,
      "ejebe": 2048,
      "beten": 2049,
      "ìroon̄": 2050,
      "elia": 2051,
      "otin̄": 2052,
      "inanan̄a": 2053,
      "##dọmọbe": 2054,
      "midian": 2055,
      "itetet": 2056,
      "otet": 2057,
      "okana": 2058,
      "##sook": 2059,
      "##babia": 2060,
      "isik": 2061,
      "îta": 2062,
      "##ralek": 2063,
      "inibe": 2064,
      "ifan̄a": 2065,
      "òkikpulu": 2066,
      "##sobe": 2067,
      "oborọ": 2068,
      "udọk": 2069,
      "nnyibe": 2070,
      "otitip": 2071,
      "egwook": 2072,
      "nchat": 2073,
      "wọlọ": 2074,
      "ye": 2075,
      "yu": 2076,
      "inaan̄": 2077,
      "otuuk": 2078,
      "##gwele": 2079,
      "##tis": 2080,
      "##chiin̄": 2081,
      "siki": 2082,
      "ijeje": 2083,
      "ìkabo": 2084,
      "ìkakọt": 2085,
      "ibaak": 2086,
      "kana": 2087,
      "nkitumu": 2088,
      "ichim": 2089,
      "ugwun̄": 2090,
      "jekaraya": 2091,
      "egba": 2092,
      "ngi": 2093,
      "onanaan̄": 2094,
      "##fet": 2095,
      "ìgọọk": 2096,
      "òluk": 2097,
      "inunu": 2098,
      "##mọmọnọ": 2099,
      "irere": 2100,
      "aga": 2101,
      "##rurọn̄ọ": 2102,
      "ǹkup": 2103,
      "itọkọ": 2104,
      "ijiji": 2105,
      "ekwaan̄": 2106,
      "ìkeek": 2107,
      "##gobobe": 2108,
      "dama": 2109,
      "okwube": 2110,
      "ogobobe": 2111,
      "bo": 2112,
      "jeen̄": 2113,
      "oman": 2114,
      "onan̄abe": 2115,
      "ìbọkọ": 2116,
      "ibeek": 2117,
      "##tem": 2118,
      "##tiin̄": 2119,
      "ikariọọn̄ge": 2120,
      "ikiriaak": 2121,
      "inikana": 2122,
      "mêmun̄": 2123,
      "isak": 2124,
      "##chacha": 2125,
      "okpukp": 2126,
      "##sikọs": 2127,
      "nuwa": 2128,
      "ugọn̄": 2129,
      "mêkọtbe": 2130,
      "jeyoya": 2131,
      "jioyaki": 2132,
      "ukpatu": 2133,
      "òjajaan̄": 2134,
      "nlilọ": 2135,
      "jedikaya": 2136,
      "ijijinu": 2137,
      "damasikọs": 2138,
      "ami": 2139,
      "efieek": 2140,
      "mbet": 2141,
      "uchi": 2142,
      "##gen": 2143,
      "##sọp": 2144,
      "ìtoon̄": 2145,
      "##mumen": 2146,
      "òto": 2147,
      "##bas": 2148,
      "##dadasi": 2149,
      "##lap": 2150,
      "ekisi": 2151,
      "oneniki": 2152,
      "ǹrọ": 2153,
      "##riabe": 2154,
      "ukpak": 2155,
      "##jeen̄be": 2156,
      "ujaralek": 2157,
      "##beka": 2158,
      "akaka": 2159,
      "igele": 2160,
      "înyibe": 2161,
      "wọlọwọlọ": 2162,
      "##feen̄": 2163,
      "inọnọ": 2164,
      "ìgbala": 2165,
      "òkwukwu": 2166,
      "##yaji": 2167,
      "ikaki": 2168,
      "inigọọk": 2169,
      "ekinyi": 2170,
      "okiweek": 2171,
      "josaya": 2172,
      "##san̄abe": 2173,
      "figi": 2174,
      "mêkisa": 2175,
      "îsabe": 2176,
      "ekpulube": 2177,
      "mmun̄be": 2178,
      "rom": 2179,
      "uju": 2180,
      "##rot": 2181,
      "##yọ": 2182,
      "##yọt": 2183,
      "##retis": 2184,
      "òjeen̄": 2185,
      "emanbe": 2186,
      "isinu": 2187,
      "ikatet": 2188,
      "sime": 2189,
      "igu": 2190,
      "ikiluk": 2191,
      "inimun̄": 2192,
      "iniben": 2193,
      "##liya": 2194,
      "ìkinyi": 2195,
      "##kem": 2196,
      "ogbu": 2197,
      "eben": 2198,
      "##yem": 2199,
      "##feretis": 2200,
      "mọmọ": 2201,
      "yuferetis": 2202,
      "ujuja": 2203,
      "etitiin̄": 2204,
      "nlom": 2205,
      "ujit": 2206,
      "##̀p": 2207,
      "ìkpan̄": 2208,
      "##bọbọọn̄": 2209,
      "òrirọ": 2210,
      "isimen": 2211,
      "##fifila": 2212,
      "môyaka": 2213,
      "môkpọk": 2214,
      "inikup": 2215,
      "inikeke": 2216,
      "ifọọk": 2217,
      "oket": 2218,
      "##kpan̄be": 2219,
      "##yon": 2220,
      "òjeje": 2221,
      "inyakpa": 2222,
      "ofut": 2223,
      "ogbuuruk": 2224,
      "iye": 2225,
      "iburu": 2226,
      "mbe": 2227,
      "##it": 2228,
      "##ukot": 2229,
      "ònyi": 2230,
      "##chen": 2231,
      "##yas": 2232,
      "isiraka": 2233,
      "ikasa": 2234,
      "sisa": 2235,
      "jesi": 2236,
      "##gan": 2237,
      "òborọ": 2238,
      "ilep": 2239,
      "mbasa": 2240,
      "rechen": 2241,
      "ichili": 2242,
      "ichọkọ": 2243,
      "##gbuk": 2244,
      "ibọbọkọ": 2245,
      "ìlọ": 2246,
      "ìfieek": 2247,
      "##fiak": 2248,
      "ekigwa": 2249,
      "onenije": 2250,
      "ekekp": 2251,
      "ìboki": 2252,
      "m̀kpayaka": 2253,
      "osisi": 2254,
      "ribeka": 2255,
      "ekpakpan̄": 2256,
      "ododo": 2257,
      "igọgọọk": 2258,
      "simiọn": 2259,
      "etọt": 2260,
      "nru": 2261,
      "##fan̄a": 2262,
      "##gban": 2263,
      "ibele": 2264,
      "igbugbọ": 2265,
      "ekikpọ": 2266,
      "ifaka": 2267,
      "ikọp": 2268,
      "ǹgwele": 2269,
      "ogba": 2270,
      "basan": 2271,
      "ekesi": 2272,
      "alala": 2273,
      "òbokup": 2274,
      "inenisa": 2275,
      "asaya": 2276,
      "òchichaka": 2277,
      "reyobuwam": 2278,
      "jeyoyada": 2279,
      "nruruk": 2280,
      "kom": 2281,
      "obaak": 2282,
      "##sọs": 2283,
      "mera": 2284,
      "ìkpa": 2285,
      "òla": 2286,
      "##lim": 2287,
      "amalek": 2288,
      "ogbugbo": 2289,
      "kperarak": 2290,
      "okinan̄a": 2291,
      "eneniki": 2292,
      "enenitumu": 2293,
      "jadọk": 2294,
      "nafita": 2295,
      "ojeje": 2296,
      "achọ": 2297,
      "nafitali": 2298,
      "edo": 2299,
      "oyaka": 2300,
      "onube": 2301,
      "òsibi": 2302,
      "òkpaka": 2303,
      "##sai": 2304,
      "sie": 2305,
      "inikpa": 2306,
      "kup": 2307,
      "ìkigọọk": 2308,
      "irọriọọn̄": 2309,
      "idodo": 2310,
      "kpemun̄": 2311,
      "okikpulu": 2312,
      "mâki": 2313,
      "mâria": 2314,
      "jowas": 2315,
      "gat": 2316,
      "esisi": 2317,
      "nsabe": 2318,
      "m̀be": 2319,
      "ogbokot": 2320,
      "ìkukup": 2321,
      "njin": 2322,
      "ogugo": 2323,
      "##tọkọbe": 2324,
      "ogbugboon̄": 2325,
      "elook": 2326,
      "iwop": 2327,
      "iluluk": 2328,
      "onọnọ": 2329,
      "##jiya": 2330,
      "òchechieek": 2331,
      "òwulu": 2332,
      "ògbọ": 2333,
      "îchaka": 2334,
      "##raan̄": 2335,
      "môtumu": 2336,
      "itana": 2337,
      "mîkana": 2338,
      "kpegban̄": 2339,
      "libi": 2340,
      "onineen̄": 2341,
      "ejeek": 2342,
      "ǹkiweek": 2343,
      "igwugwuun̄": 2344,
      "ekpukp": 2345,
      "ikwukwu": 2346,
      "eriọọn̄be": 2347,
      "inyan": 2348,
      "gibiọn": 2349,
      "ituuk": 2350,
      "ai": 2351,
      "ewa": 2352,
      "gba": 2353,
      "oyo": 2354,
      "##ken": 2355,
      "inyam": 2356,
      "##reli": 2357,
      "ikan̄": 2358,
      "ìsun̄": 2359,
      "##kan": 2360,
      "##cho": 2361,
      "kpo": 2362,
      "ininin̄": 2363,
      "isọkọ": 2364,
      "##seba": 2365,
      "##fum": 2366,
      "òkidun̄u": 2367,
      "okikpọ": 2368,
      "oboni": 2369,
      "##nween̄": 2370,
      "îrebe": 2371,
      "agbasi": 2372,
      "iboni": 2373,
      "igen̄": 2374,
      "egwogwook": 2375,
      "do": 2376,
      "eweek": 2377,
      "echechieek": 2378,
      "otoon̄": 2379,
      "onyan̄abe": 2380,
      "##gbet": 2381,
      "##siọn": 2382,
      "òkpan̄": 2383,
      "##tam": 2384,
      "ikakup": 2385,
      "silo": 2386,
      "akwọọk": 2387,
      "môtap": 2388,
      "onenikwu": 2389,
      "òkisibi": 2390,
      "judia": 2391,
      "ekek": 2392,
      "judas": 2393,
      "igbagban̄": 2394,
      "ayaji": 2395,
      "egwugwu": 2396,
      "tema": 2397,
      ".)": 2398,
      "mbit": 2399,
      "nchieek": 2400,
      "osibibe": 2401,
      "une": 2402,
      "##dek": 2403,
      "ìgwen": 2404,
      "ìgak": 2405,
      "##kiri": 2406,
      "òneme": 2407,
      "isini": 2408,
      "##bumu": 2409,
      "mônu": 2410,
      "mêkaan̄": 2411,
      "aman": 2412,
      "amajiya": 2413,
      "ìkikpulu": 2414,
      "##set": 2415,
      "##fuuk": 2416,
      "mâyaka": 2417,
      "ebebe": 2418,
      "##gana": 2419,
      "obokup": 2420,
      "##teleyem": 2421,
      "beteleyem": 2422,
      "##gon": 2423,
      "adadi": 2424,
      "ìsasa": 2425,
      "##laakbe": 2426,
      "mêneniriọọn̄": 2427,
      "okwun": 2428,
      "okwukwek": 2429,
      "dìp": 2430,
      "aligọ": 2431,
      "jesereli": 2432,
      "emumun̄": 2433,
      "simei": 2434,
      "ado": 2435,
      "ebọkọbe": 2436,
      "inwaan̄": 2437,
      "ikukup": 2438,
      "ìwa": 2439,
      "ìgba": 2440,
      "kecha": 2441,
      "isire": 2442,
      "înin̄": 2443,
      "îchieekbe": 2444,
      "ikarọ": 2445,
      "sidọn": 2446,
      "ìkikup": 2447,
      "ìkitap": 2448,
      "ibat": 2449,
      "##jaya": 2450,
      "mîwuuk": 2451,
      "owọ": 2452,
      "##tititiin̄": 2453,
      "ekekitumu": 2454,
      "etetbe": 2455,
      "imeen̄": 2456,
      "##ekpe": 2457,
      "gibiya": 2458,
      "otapbe": 2459,
      "echieekbe": 2460,
      "ojotbe": 2461,
      "aba": 2462,
      "##wọkọ": 2463,
      "##wuwuuk": 2464,
      "##nen̄e": 2465,
      "##ten̄e": 2466,
      "##nabas": 2467,
      "ejijaka": 2468,
      "mgbọlọ": 2469,
      "irerie": 2470,
      "miji": 2471,
      "ikakana": 2472,
      "ikido": 2473,
      "mônin̄": 2474,
      "##liki": 2475,
      "itatap": 2476,
      "onenibene": 2477,
      "mînọ": 2478,
      "ogọ": 2479,
      "ebene": 2480,
      "mkpan̄": 2481,
      "obore": 2482,
      "erọrọ": 2483,
      "ukwek": 2484,
      "enenido": 2485,
      "banabas": 2486,
      "nkirọ": 2487,
      "ayajaya": 2488,
      "enube": 2489,
      "fanti": 2490,
      "pere": 2491,
      "oriara": 2492,
      "isusun̄": 2493,
      "igugo": 2494,
      "ngwa": 2495,
      "otọkọbe": 2496,
      "sọn̄": 2497,
      "##ika": 2498,
      "ìgọgọọk": 2499,
      "òko": 2500,
      "ògọgọọk": 2501,
      "##nyiaan̄": 2502,
      "isisibi": 2503,
      "kpen": 2504,
      "môkwu": 2505,
      "mêbọkọ": 2506,
      "ìkarọ": 2507,
      "ìkariọọn̄": 2508,
      "òkije": 2509,
      "mâtap": 2510,
      "katet": 2511,
      "##fan": 2512,
      "enenije": 2513,
      "mfufiat": 2514,
      "setan": 2515,
      "òsisibi": 2516,
      "riọọn̄": 2517,
      "jebulọn": 2518,
      "omanbe": 2519,
      "aki": 2520,
      "etọn̄": 2521,
      "enọ": 2522,
      "idọmọ": 2523,
      "mfi": 2524,
      "omumun̄": 2525,
      "##biri": 2526,
      "ikween̄": 2527,
      "ìben": 2528,
      "ònu": 2529,
      "##jebe": 2530,
      "înye": 2531,
      "ikinu": 2532,
      "ikitọn̄": 2533,
      "inirọ": 2534,
      "ǹnu": 2535,
      "òkijeen̄": 2536,
      "gili": 2537,
      "olilibi": 2538,
      "##rombe": 2539,
      "nkaan̄be": 2540,
      "òrọriọọn̄": 2541,
      "bie": 2542,
      "kora": 2543,
      "ajariya": 2544,
      "orombe": 2545,
      "pereji": 2546,
      "era": 2547,
      "eche": 2548,
      "oma": 2549,
      "sun̄": 2550,
      "##kbe": 2551,
      "##wukwu": 2552,
      "ìso": 2553,
      "ìraka": 2554,
      "ebikaan̄": 2555,
      "##bọt": 2556,
      "##sip": 2557,
      "kelep": 2558,
      "îfieek": 2559,
      "înyan̄abe": 2560,
      "igban̄": 2561,
      "ikigwen": 2562,
      "##koro": 2563,
      "##lilaba": 2564,
      "ekirie": 2565,
      "ekitọbọ": 2566,
      "ekikeek": 2567,
      "usọk": 2568,
      "ìkijeen̄": 2569,
      "mîgọọk": 2570,
      "##rok": 2571,
      "##rorom": 2572,
      "ekesa": 2573,
      "benaya": 2574,
      "ìkpore": 2575,
      "##benbe": 2576,
      "nriro": 2577,
      "fila": 2578,
      "sodọm": 2579,
      "ikwuun̄": 2580,
      "ngan": 2581,
      "##sulube": 2582,
      "pesia": 2583,
      "rama": 2584,
      "koyat": 2585,
      "otataan̄": 2586,
      "##kororok": 2587,
      "anyiaan̄": 2588,
      "enama": 2589,
      "ilọk": 2590,
      "itetele": 2591,
      "lọt": 2592,
      "ntu": 2593,
      "ota": 2594,
      "ogwegwen": 2595,
      "ufu": 2596,
      "uwot": 2597,
      "##kwa": 2598,
      "##nwu": 2599,
      "##mot": 2600,
      "##riki": 2601,
      "ogwugwa": 2602,
      "îwa": 2603,
      "##un̄be": 2604,
      "inigwook": 2605,
      "##dabu": 2606,
      "ifa": 2607,
      "onenibọkọ": 2608,
      "isaka": 2609,
      "ìkikọp": 2610,
      "irọkọ": 2611,
      "ǹtumu": 2612,
      "ǹkaan̄": 2613,
      "mîwa": 2614,
      "##chachak": 2615,
      "ofia": 2616,
      "##suru": 2617,
      "##faan̄": 2618,
      "balak": 2619,
      "ìbojeje": 2620,
      "ewuukbe": 2621,
      "elisa": 2622,
      "îkirọ": 2623,
      "##dun": 2624,
      "njijan̄": 2625,
      "njijoon̄": 2626,
      "ngigọ": 2627,
      "ufuna": 2628,
      "edim": 2629,
      "egọgọọk": 2630,
      "kwu": 2631,
      "nnaan̄": 2632,
      "omin": 2633,
      "obenebe": 2634,
      "##mis": 2635,
      "ìdo": 2636,
      "isimun̄": 2637,
      "îmun̄be": 2638,
      "îtọbe": 2639,
      "îjaan̄": 2640,
      "inilook": 2641,
      "ekito": 2642,
      "ekikọt": 2643,
      "mêluk": 2644,
      "ǹkororok": 2645,
      "onirọ": 2646,
      "ekekeke": 2647,
      "ejet": 2648,
      "itobo": 2649,
      "ǹkariọọn̄": 2650,
      "èdọ": 2651,
      "seya": 2652,
      "ìkekeke": 2653,
      "nkinyi": 2654,
      "mônenisa": 2655,
      "##kpukpuku": 2656,
      "môkọtbe": 2657,
      "akat": 2658,
      "akajit": 2659,
      "okanabe": 2660,
      "etitiin̄be": 2661,
      "merari": 2662,
      "adoni": 2663,
      "mijipa": 2664,
      "filafila": 2665,
      "etutumu": 2666,
      "iwulu": 2667,
      "obu": 2668,
      "otọt": 2669,
      "oweekbe": 2670,
      "##̀k": 2671,
      "##pọ": 2672,
      "##beki": 2673,
      "##sen": 2674,
      "##beme": 2675,
      "ìgbaan̄": 2676,
      "##jijijaka": 2677,
      "##gen̄": 2678,
      "ikigwa": 2679,
      "mômun̄": 2680,
      "isọk": 2681,
      "##daya": 2682,
      "itaak": 2683,
      "jera": 2684,
      "ǹnen": 2685,
      "ǹrioon̄": 2686,
      "mînyi": 2687,
      "kpesa": 2688,
      "##dimi": 2689,
      "##chechep": 2690,
      "ekukup": 2691,
      "ekerek": 2692,
      "uraya": 2693,
      "##lomo": 2694,
      "asasa": 2695,
      "giri": 2696,
      "mbarọ": 2697,
      "ifin": 2698,
      "osikibe": 2699,
      "ìjeje": 2700,
      "òtatana": 2701,
      "olukbe": 2702,
      "îkanabe": 2703,
      "ikpukpo": 2704,
      "imaan̄": 2705,
      "jebus": 2706,
      "ekerekwukwu": 2707,
      "enamabe": 2708,
      "gwook": 2709,
      "iwut": 2710,
      "igwegwen": 2711,
      "iyik": 2712,
      "ìnọ": 2713,
      "keek": 2714,
      "##mumana": 2715,
      "##wenwene": 2716,
      "##niin̄": 2717,
      "îsibi": 2718,
      "ikifieek": 2719,
      "ekikup": 2720,
      "ekigbaan̄": 2721,
      "mêtet": 2722,
      "mêkana": 2723,
      "ìkire": 2724,
      "ìkafat": 2725,
      "òkibele": 2726,
      "mâtumu": 2727,
      "ofe": 2728,
      "ifet": 2729,
      "onin̄": 2730,
      "esiki": 2731,
      "m̀kp": 2732,
      "asafu": 2733,
      "igwugwu": 2734,
      "òkakana": 2735,
      "##takabe": 2736,
      "netan": 2737,
      "##des": 2738,
      "òraria": 2739,
      "egop": 2740,
      "enye": 2741,
      "etọbọ": 2742,
      "eweekbe": 2743,
      "imọọn̄": 2744,
      "mwuuk": 2745,
      "mmumun̄": 2746,
      "ntọbe": 2747,
      "oyayaka": 2748,
      "ut": 2749,
      "ulu": 2750,
      "##kweek": 2751,
      "ìrie": 2752,
      "ìjojot": 2753,
      "##rim": 2754,
      "##tere": 2755,
      "îni": 2756,
      "înan̄a": 2757,
      "îluk": 2758,
      "môtet": 2759,
      "môbọkọ": 2760,
      "inigwu": 2761,
      "jemis": 2762,
      "mata": 2763,
      "##kpọge": 2764,
      "##riaan̄": 2765,
      "òkitaan̄": 2766,
      "kayaka": 2767,
      "enenisi": 2768,
      "##nin̄i": 2769,
      "kpà": 2770,
      "adam": 2771,
      "efo": 2772,
      "mbat": 2773,
      "mbatumu": 2774,
      "filip": 2775,
      "abija": 2776,
      "òkọkọt": 2777,
      "kpekikọt": 2778,
      "igọm": 2779,
      "enwọ": 2780,
      "iwuuk": 2781,
      "iwọ": 2782,
      "ibieen̄": 2783,
      "ô": 2784,
      "##meen̄": 2785,
      "ìtitiin̄": 2786,
      "ìtata": 2787,
      "ìgwook": 2788,
      "kiria": 2789,
      "înu": 2790,
      "îmun̄": 2791,
      "îjeen̄": 2792,
      "îtim": 2793,
      "îweekbe": 2794,
      "##mọm": 2795,
      "ikikeek": 2796,
      "ikinwọ": 2797,
      "môkeki": 2798,
      "ejitbe": 2799,
      "mênu": 2800,
      "mbubeek": 2801,
      "onenirọ": 2802,
      "mîbọkọ": 2803,
      "mîjit": 2804,
      "òkinan̄a": 2805,
      "òkitap": 2806,
      "akpakpa": 2807,
      "unyechieen̄": 2808,
      "ìborọ": 2809,
      "jeruba": 2810,
      "obeben": 2811,
      "mônenikana": 2812,
      "ichiaak": 2813,
      "ria": 2814,
      "inwọm": 2815,
      "esan̄abe": 2816,
      "etoon̄be": 2817,
      "jioyakim": 2818,
      "giligan": 2819,
      "no": 2820,
      "ntọ": 2821,
      "nnyan̄abe": 2822,
      "onan̄a": 2823,
      "##kwọọk": 2824,
      "##lọkọ": 2825,
      "iken": 2826,
      "ikwala": 2827,
      "ìgobo": 2828,
      "òfa": 2829,
      "##jeret": 2830,
      "ibem": 2831,
      "ibeben": 2832,
      "##yayat": 2833,
      "mgbugbo": 2834,
      "##leek": 2835,
      "##akọt": 2836,
      "kpomo": 2837,
      "igọbọ": 2838,
      "ikigban̄": 2839,
      "mônan̄a": 2840,
      "ekitap": 2841,
      "mêre": 2842,
      "mêgbaan̄": 2843,
      "mêkeki": 2844,
      "amat": 2845,
      "##serọs": 2846,
      "##gwọ": 2847,
      "lia": 2848,
      "mfuun̄": 2849,
      "òboni": 2850,
      "ufiak": 2851,
      "najeret": 2852,
      "asaak": 2853,
      "semaya": 2854,
      "ayaserọs": 2855,
      "##gọlọ": 2856,
      "##gbugbuku": 2857,
      "ibosi": 2858,
      "ìrọriọọn̄": 2859,
      "##nunuun̄": 2860,
      "##juuk": 2861,
      "m̀kpakọt": 2862,
      "amin": 2863,
      "egwen": 2864,
      "imọm": 2865,
      "oweek": 2866,
      "omabe": 2867,
      "osun̄be": 2868,
      "##len": 2869,
      "##tọs": 2870,
      "##suk": 2871,
      "ìma": 2872,
      "ìmọnọ": 2873,
      "ìtaan̄": 2874,
      "ìluluk": 2875,
      "##sibe": 2876,
      "ònunu": 2877,
      "##chon": 2878,
      "ibesi": 2879,
      "##boset": 2880,
      "ikpukot": 2881,
      "##un̄un": 2882,
      "môje": 2883,
      "##lilibi": 2884,
      "mêkup": 2885,
      "mêrie": 2886,
      "ìkitet": 2887,
      "okitap": 2888,
      "eberie": 2889,
      "joram": 2890,
      "ijin": 2891,
      "gasiọn": 2892,
      "ekoon̄": 2893,
      "##titibi": 2894,
      "bali": 2895,
      "ilap": 2896,
      "ekakaan̄": 2897,
      "ekakpọge": 2898,
      "##nyanyan̄a": 2899,
      "nrebe": 2900,
      "saina": 2901,
      "##jomobe": 2902,
      "urimi": 2903,
      "otetbe": 2904,
      "bowaji": 2905,
      "ekekpọ": 2906,
      "sieba": 2907,
      "oyô": 2908,
      "aminọn": 2909,
      "ega": 2910,
      "egwọk": 2911,
      "nchi": 2912,
      "nnọ": 2913,
      "ntim": 2914,
      "osobe": 2915,
      "##bini": 2916,
      "ìge": 2917,
      "##wan": 2918,
      "ògwook": 2919,
      "òlọlọ": 2920,
      "òrorom": 2921,
      "##jeri": 2922,
      "îrọn̄": 2923,
      "siyon": 2924,
      "kpan̄": 2925,
      "ininyi": 2926,
      "initoon̄": 2927,
      "mênin̄": 2928,
      "isasan̄a": 2929,
      "maika": 2930,
      "mîchieek": 2931,
      "òkisi": 2932,
      "ebesi": 2933,
      "ebejeje": 2934,
      "##lukwulu": 2935,
      "esibon": 2936,
      "efuk": 2937,
      "ǹkayaka": 2938,
      "ifiaan̄": 2939,
      "abia": 2940,
      "ekpuk": 2941,
      "neta": 2942,
      "ojebe": 2943,
      "njijọ": 2944,
      "nsek": 2945,
      "môrọbe": 2946,
      "##gbuku": 2947,
      "jeyoram": 2948,
      "bùk": 2949,
      "nkwukwak": 2950,
      "asera": 2951,
      "kwulukwulu": 2952,
      "##un̄unun̄": 2953,
      "),": 2954,
      "adi": 2955,
      "efa": 2956,
      "esun̄": 2957,
      "luk": 2958,
      "nria": 2959,
      "ojit": 2960,
      "omumen": 2961,
      "tuku": 2962,
      "##ọri": 2963,
      "ìnama": 2964,
      "ìtọp": 2965,
      "ìbabia": 2966,
      "##tun": 2967,
      "##kam": 2968,
      "òtutumu": 2969,
      "ònene": 2970,
      "yaka": 2971,
      "##yana": 2972,
      "îbọkọ": 2973,
      "îbon": 2974,
      "ikafieek": 2975,
      "mônwọn": 2976,
      "mônube": 2977,
      "initim": 2978,
      "##libe": 2979,
      "##las": 2980,
      "ekinu": 2981,
      "ekibọkọ": 2982,
      "mêyaka": 2983,
      "ìkisun̄": 2984,
      "maaka": 2985,
      "##miri": 2986,
      "okitaan̄": 2987,
      "kawuuk": 2988,
      "iraak": 2989,
      "enenigbaan̄": 2990,
      "ekakat": 2991,
      "nali": 2992,
      "ugbọ": 2993,
      "##kpukpulu": 2994,
      "enun̄unun̄": 2995,
      "##gbọọk": 2996,
      "##wuwum": 2997,
      "giris": 2998,
      "abiata": 2999,
      "ela": 3000,
      "etata": 3001,
      "esun̄be": 3002,
      "ileke": 3003,
      "kweek": 3004,
      "nlak": 3005,
      "obọkọbe": 3006,
      "olaakbe": 3007,
      "wit": 3008,
      "##tbe": 3009,
      "##an̄be": 3010,
      "ikọọk": 3011,
      "ìbot": 3012,
      "ìnọnọ": 3013,
      "##ọn̄ọ": 3014,
      "##kiya": 3015,
      "òfefieek": 3016,
      "##bolo": 3017,
      "mgbet": 3018,
      "înama": 3019,
      "ejira": 3020,
      "ijak": 3021,
      "akọọk": 3022,
      "iga": 3023,
      "igbe": 3024,
      "ikig": 3025,
      "ikisibi": 3026,
      "ikibem": 3027,
      "ikilook": 3028,
      "môgwu": 3029,
      "môsibi": 3030,
      "inito": 3031,
      "iniria": 3032,
      "onenito": 3033,
      "ìkaweek": 3034,
      "ìkagbe": 3035,
      "salu": 3036,
      "ǹrọọn̄": 3037,
      "mîkwaan̄": 3038,
      "ijomo": 3039,
      "òkikput": 3040,
      "ogọọk": 3041,
      "kperọ": 3042,
      "okinu": 3043,
      "ebeni": 3044,
      "##dido": 3045,
      "jotam": 3046,
      "enenigwu": 3047,
      "ekakana": 3048,
      "ebekpa": 3049,
      "osibe": 3050,
      "##jop": 3051,
      "iyak": 3052,
      "òchachak": 3053,
      "ntutun̄": 3054,
      "onin̄be": 3055,
      "utọọk": 3056,
      "nchicha": 3057,
      "anti": 3058,
      "ewọp": 3059,
      "edọmọbe": 3060,
      "nkana": 3061,
      "oji": 3062,
      "onyan̄a": 3063,
      "onwọn": 3064,
      "ochechieek": 3065,
      "ufọọk": 3066,
      "##ọm": 3067,
      "##ruku": 3068,
      "##wuruku": 3069,
      "##eko": 3070,
      "inọọn̄": 3071,
      "ìnyan̄a": 3072,
      "ìchacha": 3073,
      "ìdadasi": 3074,
      "òma": 3075,
      "mgbaan̄": 3076,
      "îkpulu": 3077,
      "ikikọt": 3078,
      "môbene": 3079,
      "môsan̄a": 3080,
      "mênyi": 3081,
      "mêgọọk": 3082,
      "ìkiriaak": 3083,
      "okekeke": 3084,
      "òkilọk": 3085,
      "kpewọlọ": 3086,
      "ifefieek": 3087,
      "esibe": 3088,
      "osasan̄a": 3089,
      "itop": 3090,
      "okodi": 3091,
      "nkisa": 3092,
      "obedi": 3093,
      "ujaya": 3094,
      "îkisa": 3095,
      "##fon": 3096,
      "m̀kpatele": 3097,
      "òsisiki": 3098,
      "àwuruku": 3099,
      "odobe": 3100,
      "egbaan̄be": 3101,
      "egwookbe": 3102,
      "egbagbaan̄": 3103,
      "gbaalek": 3104,
      "balì": 3105,
      "tukutuku": 3106,
      "àwurukù": 3107,
      "ekpọk": 3108,
      "ilo": 3109,
      "ichaka": 3110,
      "ngọ": 3111,
      "odi": 3112,
      "ochieek": 3113,
      "odu": 3114,
      "ọkọ": 3115,
      "##soon̄": 3116,
      "medi": 3117,
      "ìsiki": 3118,
      "ìnunu": 3119,
      "##net": 3120,
      "òdo": 3121,
      "òbọbọkọ": 3122,
      "##kut": 3123,
      "otukot": 3124,
      "îbele": 3125,
      "ejirọn": 3126,
      "mikaya": 3127,
      "ikinye": 3128,
      "ikisun̄": 3129,
      "##nyọnọ": 3130,
      "inikpọ": 3131,
      "geda": 3132,
      "##dap": 3133,
      "##lai": 3134,
      "ekijeen̄": 3135,
      "ekitutuku": 3136,
      "mêto": 3137,
      "mênan̄a": 3138,
      "ìkiben": 3139,
      "jet": 3140,
      "ogbe": 3141,
      "okijeen̄": 3142,
      "mâkup": 3143,
      "##ome": 3144,
      "##gween̄": 3145,
      "ìkpokup": 3146,
      "efumbe": 3147,
      "ebekup": 3148,
      "seme": 3149,
      "otitop": 3150,
      "gwen": 3151,
      "òsisip": 3152,
      "ilikiya": 3153,
      "ìjet": 3154,
      "eninin̄": 3155,
      "##jọrọs": 3156,
      "sailas": 3157,
      "##liliin̄": 3158,
      "lajọrọs": 3159,
      "gwat": 3160,
      "##terenia": 3161,
      "kiriat": 3162,
      "ebekpakpan̄": 3163,
      "antiọk": 3164,
      "mediterenia": 3165,
      "gedaliya": 3166,
      "akpọk": 3167,
      "echa": 3168,
      "elọ": 3169,
      "ime": 3170,
      "iwọlọ": 3171,
      "ibọn̄": 3172,
      "mmabe": 3173,
      "nin̄": 3174,
      "obọbọkọ": 3175,
      "unin̄i": 3176,
      "##pe": 3177,
      "##fọfọọk": 3178,
      "##teen̄": 3179,
      "##sọ": 3180,
      "##wum": 3181,
      "ìbek": 3182,
      "ònin̄": 3183,
      "îjọn̄ọ": 3184,
      "ija": 3185,
      "ikawuuk": 3186,
      "siti": 3187,
      "ikikaan̄": 3188,
      "ikiwọp": 3189,
      "ikitim": 3190,
      "ikijijen̄e": 3191,
      "gera": 3192,
      "oneniben": 3193,
      "onenikpọk": 3194,
      "ǹkọt": 3195,
      "mîjijaka": 3196,
      "orọriọọn̄": 3197,
      "òkibene": 3198,
      "òkifuuk": 3199,
      "##mina": 3200,
      "kpefuk": 3201,
      "mâtele": 3202,
      "kasa": 3203,
      "##susun̄": 3204,
      "joya": 3205,
      "iraria": 3206,
      "enenititiin̄": 3207,
      "enenijibi": 3208,
      "igbaka": 3209,
      "òboyaka": 3210,
      "ineme": 3211,
      "ǹkakaan̄": 3212,
      "ǹkaweek": 3213,
      "nun": 3214,
      "ebekaan̄": 3215,
      "ìkeki": 3216,
      "kpeberọ": 3217,
      "ǹkisa": 3218,
      "elilim": 3219,
      "otitọn̄": 3220,
      "kpebekaan̄": 3221,
      "nnenimun̄": 3222,
      "m̀basa": 3223,
      "òkinyinyọnọ": 3224,
      "inwọnwọ": 3225,
      "bieseba": 3226,
      "òneneme": 3227,
      "eria": 3228,
      "elibi": 3229,
      "elam": 3230,
      "ebọbọkọ": 3231,
      "etatap": 3232,
      "egbugbuku": 3233,
      "icha": 3234,
      "mweek": 3235,
      "mbiri": 3236,
      "nluk": 3237,
      "otele": 3238,
      "##opi": 3239,
      "##wuwọlọ": 3240,
      "ìgwa": 3241,
      "ìnwọọn̄": 3242,
      "ìrọrọ": 3243,
      "òtetet": 3244,
      "òjijit": 3245,
      "òbọbọọn̄": 3246,
      "##taak": 3247,
      "##chibi": 3248,
      "îria": 3249,
      "înyan̄a": 3250,
      "##mọs": 3251,
      "##mọti": 3252,
      "ijọ": 3253,
      "iju": 3254,
      "ikibọkọ": 3255,
      "ikibele": 3256,
      "isọp": 3257,
      "uwuuk": 3258,
      "ekimun̄": 3259,
      "ekiriaak": 3260,
      "ifọfọọk": 3261,
      "mbubak": 3262,
      "ìkibe": 3263,
      "ìkitọbọ": 3264,
      "ìkatele": 3265,
      "ìkanwọn": 3266,
      "ǹdo": 3267,
      "mîtet": 3268,
      "òkitet": 3269,
      "oga": 3270,
      "okitet": 3271,
      "ebetumu": 3272,
      "iroon̄": 3273,
      "ananiya": 3274,
      "##kọbe": 3275,
      "etiopi": 3276,
      "efukbe": 3277,
      "igwagwa": 3278,
      "ntọọk": 3279,
      "ìrọn̄": 3280,
      "##wogwook": 3281,
      "ugbek": 3282,
      "ebekimin": 3283,
      "òwawa": 3284,
      "ichip": 3285,
      "nebọt": 3286,
      "dari": 3287,
      "osisibi": 3288,
      "akara": 3289,
      "timọti": 3290,
      "egonbe": 3291,
      "egwabe": 3292,
      "ekekebe": 3293,
      "agam": 3294,
      "ìwawa": 3295,
      "ìgbaalek": 3296,
      "adonija": 3297,
      "salum": 3298,
      "mbiribọ": 3299,
      "etiopia": 3300,
      "abọm": 3301,
      "egwenbe": 3302,
      "gọlọ": 3303,
      "omọmọnọ": 3304,
      "osulube": 3305,
      "pome": 3306,
      "mesi": 3307,
      "ìlibi": 3308,
      "##kajaka": 3309,
      "ken": 3310,
      "òkp": 3311,
      "òni": 3312,
      "ibeme": 3313,
      "isisik": 3314,
      "îbene": 3315,
      "îneme": 3316,
      "ejijit": 3317,
      "##ranet": 3318,
      "##maan̄": 3319,
      "ikakọt": 3320,
      "ikput": 3321,
      "ikitet": 3322,
      "môkpe": 3323,
      "##liin̄": 3324,
      "##kpakpan̄": 3325,
      "ekikaan̄": 3326,
      "mêtumu": 3327,
      "mêsan̄a": 3328,
      "mêkpulu": 3329,
      "onenigwu": 3330,
      "onenisan̄a": 3331,
      "kus": 3332,
      "ìkinan̄a": 3333,
      "ìkisiki": 3334,
      "ìkikeek": 3335,
      "ìkat": 3336,
      "safan": 3337,
      "##seya": 3338,
      "##sera": 3339,
      "okisibi": 3340,
      "mâsan̄a": 3341,
      "kamen": 3342,
      "##garanet": 3343,
      "ofieek": 3344,
      "ofifit": 3345,
      "basa": 3346,
      "jakajaka": 3347,
      "ekakọt": 3348,
      "araba": 3349,
      "efuun̄be": 3350,
      "seru": 3351,
      "mêkirọ": 3352,
      "elikana": 3353,
      "îkitumu": 3354,
      "òkeke": 3355,
      "##jọjọn̄ọ": 3356,
      "ngobobe": 3357,
      "rufu": 3358,
      "ugwuuk": 3359,
      "itọtọbọ": 3360,
      "ikakupge": 3361,
      "ôgu": 3362,
      "nomi": 3363,
      "gọlọgọlọ": 3364,
      "pomegaranet": 3365,
      "ejeen̄": 3366,
      "egobo": 3367,
      "iyiyala": 3368,
      "irurọn̄ọ": 3369,
      "nge": 3370,
      "nkọ": 3371,
      "okwut": 3372,
      "##kọkọt": 3373,
      "##pan̄": 3374,
      "##tọọn̄": 3375,
      "##bes": 3376,
      "ikwak": 3377,
      "ìlook": 3378,
      "ìkeme": 3379,
      "##bọọk": 3380,
      "##neyas": 3381,
      "ibebe": 3382,
      "îben": 3383,
      "îjit": 3384,
      "ejijibi": 3385,
      "irep": 3386,
      "miki": 3387,
      "ikiben": 3388,
      "ikinọ": 3389,
      "ikibeek": 3390,
      "ikiwut": 3391,
      "môtele": 3392,
      "môjijaka": 3393,
      "isọọn̄": 3394,
      "isook": 3395,
      "ekigọọk": 3396,
      "mêriọọn̄": 3397,
      "mêfieek": 3398,
      "isan": 3399,
      "ìkibọkọ": 3400,
      "makiri": 3401,
      "ǹcha": 3402,
      "mîtap": 3403,
      "mîgbaan̄": 3404,
      "òkikup": 3405,
      "kpetet": 3406,
      "kpeweek": 3407,
      "mâjijaka": 3408,
      "eberi": 3409,
      "ebeyaka": 3410,
      "kades": 3411,
      "igbama": 3412,
      "fineyas": 3413,
      "okpulu": 3414,
      "ebekọt": 3415,
      "òkaki": 3416,
      "refa": 3417,
      "kpekup": 3418,
      "ichibi": 3419,
      "ọfọkọ": 3420,
      "iriaan̄": 3421,
      "ayija": 3422,
      "jeyowa": 3423,
      "jeyowas": 3424,
      "jeseben": 3425,
      "enin̄be": 3426,
      "okpukpulu": 3427,
      "ogọgọọk": 3428,
      "ofefieek": 3429,
      "nkọm": 3430,
      "etaka": 3431,
      "enwọnọ": 3432,
      "nni": 3433,
      "ntut": 3434,
      "nkwa": 3435,
      "obum": 3436,
      "onyenye": 3437,
      "otatap": 3438,
      "otetele": 3439,
      "ọg": 3440,
      "ọkpọkpọ": 3441,
      "##kekeke": 3442,
      "##kween̄": 3443,
      "##fuku": 3444,
      "##sek": 3445,
      "inwu": 3446,
      "ìlaak": 3447,
      "ìnyenye": 3448,
      "ìbeki": 3449,
      "##tuun̄": 3450,
      "ògbug": 3451,
      "isirọ": 3452,
      "owuukbe": 3453,
      "ikare": 3454,
      "ikatele": 3455,
      "sisera": 3456,
      "ikimin": 3457,
      "iniyik": 3458,
      "##lalaak": 3459,
      "##ton": 3460,
      "ekisun̄": 3461,
      "mêkpan̄": 3462,
      "ìkanan̄a": 3463,
      "ìkatet": 3464,
      "jesuwa": 3465,
      "sarọs": 3466,
      "òkito": 3467,
      "òkiweek": 3468,
      "mâsulu": 3469,
      "otobe": 3470,
      "ekwakwaan̄": 3471,
      "esisibi": 3472,
      "baruk": 3473,
      "ìboni": 3474,
      "##ọkọbe": 3475,
      "inen̄e": 3476,
      "ǹkaba": 3477,
      "mêkitumu": 3478,
      "ogebe": 3479,
      "ilip": 3480,
      "okpukpuk": 3481,
      "efieekbe": 3482,
      "obubot": 3483,
      "jerubaben": 3484,
      "ugbọọri": 3485,
      "ìbotoon̄": 3486,
      "semes": 3487,
      "akarake": 3488,
      "òkpuku": 3489,
      "ọgbọn": 3490,
      "am": 3491,
      "aran": 3492,
      "eku": 3493,
      "ele": 3494,
      "edasi": 3495,
      "eriabe": 3496,
      "ichieen̄": 3497,
      "iyat": 3498,
      "nde": 3499,
      "onye": 3500,
      "oche": 3501,
      "osan̄a": 3502,
      "ogwenbe": 3503,
      "obenbe": 3504,
      "usa": 3505,
      "##̀m": 3506,
      "##po": 3507,
      "##pbe": 3508,
      "ìriaak": 3509,
      "ìnwọn": 3510,
      "ìkpulu": 3511,
      "ìkpọk": 3512,
      "ìtọbọ": 3513,
      "ìtetet": 3514,
      "ìmumun̄": 3515,
      "òkpọkpọ": 3516,
      "òyayat": 3517,
      "ogwulọ": 3518,
      "##wewele": 3519,
      "enegọọk": 3520,
      "îyaka": 3521,
      "îkem": 3522,
      "ikagbe": 3523,
      "kpukp": 3524,
      "igat": 3525,
      "ikikup": 3526,
      "ikitaka": 3527,
      "môben": 3528,
      "môtaka": 3529,
      "inisi": 3530,
      "initọbọ": 3531,
      "chit": 3532,
      "##lululuk": 3533,
      "mêgwu": 3534,
      "mêtap": 3535,
      "mêjijaka": 3536,
      "oneniman": 3537,
      "oneninin̄": 3538,
      "ìkilibi": 3539,
      "ìkitutuku": 3540,
      "ìkasan̄a": 3541,
      "jefita": 3542,
      "maliki": 3543,
      "okọt": 3544,
      "mîtele": 3545,
      "ogwogwook": 3546,
      "okitọ": 3547,
      "mânyan̄a": 3548,
      "kat": 3549,
      "owo": 3550,
      "##son": 3551,
      "esak": 3552,
      "etimbe": 3553,
      "ikpọkpọk": 3554,
      "igwat": 3555,
      "ǹkaki": 3556,
      "naya": 3557,
      "kpebesa": 3558,
      "ugọbọ": 3559,
      "ififila": 3560,
      "tasis": 3561,
      "nebat": 3562,
      "ililaba": 3563,
      "ramot": 3564,
      "ajayen": 3565,
      "lakis": 3566,
      "susa": 3567,
      "okpakpan̄": 3568,
      "jioyakin": 3569,
      "eraria": 3570,
      "sitibin": 3571,
      "dariọs": 3572,
      "ate": 3573,
      "ede": 3574,
      "gomo": 3575,
      "iwot": 3576,
      "kọ": 3577,
      "onamabe": 3578,
      "odọmọbe": 3579,
      "##kọk": 3580,
      "##eman": 3581,
      "##gumu": 3582,
      "mesu": 3583,
      "##bibe": 3584,
      "ikọk": 3585,
      "ikọkọt": 3586,
      "ìta": 3587,
      "ìria": 3588,
      "ìbak": 3589,
      "##kala": 3590,
      "òkana": 3591,
      "enesi": 3592,
      "isibe": 3593,
      "îto": 3594,
      "înaan̄": 3595,
      "îtaka": 3596,
      "îfiat": 3597,
      "înan̄abe": 3598,
      "ikanye": 3599,
      "kpulu": 3600,
      "igban": 3601,
      "ikitoon̄": 3602,
      "ikiran": 3603,
      "môluk": 3604,
      "môgọọk": 3605,
      "mônyan̄a": 3606,
      "ererie": 3607,
      "geyaji": 3608,
      "##liọs": 3609,
      "ekinan̄a": 3610,
      "ekikpulu": 3611,
      "usu": 3612,
      "##donia": 3613,
      "##gwaka": 3614,
      "onenikpulu": 3615,
      "ìkido": 3616,
      "ìkirie": 3617,
      "ìkimin": 3618,
      "ìkamun̄": 3619,
      "ìkasik": 3620,
      "ìkatat": 3621,
      "ogaan̄": 3622,
      "mâsi": 3623,
      "ebet": 3624,
      "gaja": 3625,
      "iram": 3626,
      "beja": 3627,
      "ifuku": 3628,
      "ochichit": 3629,
      "ochilibe": 3630,
      "naban": 3631,
      "inenibe": 3632,
      "òkayaka": 3633,
      "nieman": 3634,
      "mônenire": 3635,
      "imumana": 3636,
      "abisai": 3637,
      "jibi": 3638,
      "kpekirọ": 3639,
      "môsabe": 3640,
      "enek": 3641,
      "òsasan̄a": 3642,
      "timina": 3643,
      "îgbebe": 3644,
      "òrọrọn̄": 3645,
      "ekpọkpọk": 3646,
      "îwuukbe": 3647,
      "isusulu": 3648,
      "efesọs": 3649,
      "ewopbe": 3650,
      "òbokikpulu": 3651,
      "##temebe": 3652,
      "ejijakabe": 3653,
      "otabe": 3654,
      "joyanan": 3655,
      "mesidonia": 3656,
      "okpulube": 3657,
      "ikagbege": 3658,
      "gomora": 3659,
      "mesulam": 3660,
      "ewu": 3661,
      "eta": 3662,
      "ewuwu": 3663,
      "ejeen̄be": 3664,
      "ibon": 3665,
      "item": 3666,
      "nti": 3667,
      "nnọnọ": 3668,
      "tu": 3669,
      "ten̄": 3670,
      "##kwala": 3671,
      "##den": 3672,
      "##wọnọ": 3673,
      "mefi": 3674,
      "##wuku": 3675,
      "ìnan": 3676,
      "ìtititiin̄": 3677,
      "##sitọs": 3678,
      "##gwugwuun̄": 3679,
      "òna": 3680,
      "òbot": 3681,
      "òyaka": 3682,
      "òtap": 3683,
      "òsan̄a": 3684,
      "òrom": 3685,
      "##yari": 3686,
      "##yabu": 3687,
      "##nife": 3688,
      "emaan̄be": 3689,
      "##nai": 3690,
      "##chimi": 3691,
      "îkpan̄": 3692,
      "îbọkọbe": 3693,
      "îkpan̄be": 3694,
      "mika": 3695,
      "okuba": 3696,
      "ikanan̄a": 3697,
      "ikamọnọ": 3698,
      "ikafiat": 3699,
      "igween̄": 3700,
      "ikilibi": 3701,
      "ikisiki": 3702,
      "ikigwook": 3703,
      "môsi": 3704,
      "môka": 3705,
      "iniluk": 3706,
      "inikpulu": 3707,
      "inichichini": 3708,
      "ekiben": 3709,
      "mêbe": 3710,
      "onenikup": 3711,
      "onenisibi": 3712,
      "ǹken": 3713,
      "mîje": 3714,
      "òkitaka": 3715,
      "okikaan̄": 3716,
      "okiluk": 3717,
      "mâtọn̄": 3718,
      "ìborọrọ": 3719,
      "ekemun̄": 3720,
      "ìkpokaan̄": 3721,
      "ekakwaan̄": 3722,
      "m̀mun̄": 3723,
      "##gbeme": 3724,
      "ǹkarọ": 3725,
      "kpebemun̄": 3726,
      "otitọ": 3727,
      "ninife": 3728,
      "ekekitaan̄": 3729,
      "îkikup": 3730,
      "##gọbọ": 3731,
      "inyanyan̄a": 3732,
      "akasia": 3733,
      "mâsabe": 3734,
      "oriọọn̄be": 3735,
      "òkpoyaka": 3736,
      "##nowa": 3737,
      "eyakabe": 3738,
      "ebenebe": 3739,
      "igana": 3740,
      "jeyowayaji": 3741,
      "mefiboset": 3742,
      ").": 3743,
      "an": 3744,
      "aro": 3745,
      "enwọọn̄": 3746,
      "ejot": 3747,
      "ibọọn̄": 3748,
      "iwọọk": 3749,
      "ititim": 3750,
      "jọp": 3751,
      "mma": 3752,
      "mbọm": 3753,
      "nje": 3754,
      "nnọbe": 3755,
      "nchieekbe": 3756,
      "nsan̄abe": 3757,
      "obi": 3758,
      "obene": 3759,
      "okpan̄": 3760,
      "ojijaka": 3761,
      "sukot": 3762,
      "toon̄": 3763,
      "week": 3764,
      "##fen": 3765,
      "##lọs": 3766,
      "meliki": 3767,
      "##biya": 3768,
      "##res": 3769,
      "ìtaka": 3770,
      "ìjaan̄": 3771,
      "ìkpe": 3772,
      "ìtatap": 3773,
      "##tuuk": 3774,
      "kena": 3775,
      "keret": 3776,
      "##kin": 3777,
      "##kisis": 3778,
      "ògwa": 3779,
      "òmumun̄": 3780,
      "##nyinyi": 3781,
      "##yaak": 3782,
      "##niliọs": 3783,
      "eman": 3784,
      "isinin̄": 3785,
      "isisiki": 3786,
      "îma": 3787,
      "înọ": 3788,
      "îgbana": 3789,
      "îgbugbọ": 3790,
      "îgobobe": 3791,
      "îrombe": 3792,
      "ikaje": 3793,
      "ikikpa": 3794,
      "môtim": 3795,
      "inibọkọ": 3796,
      "##lileek": 3797,
      "mêtim": 3798,
      "agbug": 3799,
      "mbuuk": 3800,
      "onenimun̄": 3801,
      "onenijibi": 3802,
      "ìkikaan̄": 3803,
      "ìkinu": 3804,
      "ìkasa": 3805,
      "atalia": 3806,
      "ǹkwu": 3807,
      "mîtọp": 3808,
      "ijojomo": 3809,
      "kpetap": 3810,
      "kpebọkọ": 3811,
      "okinyan̄a": 3812,
      "kafieek": 3813,
      "kapa": 3814,
      "obosi": 3815,
      "##kọtbe": 3816,
      "irariaak": 3817,
      "##fieekge": 3818,
      "##riaakbe": 3819,
      "beria": 3820,
      "ekarọ": 3821,
      "ekachieek": 3822,
      "fieek": 3823,
      "adade": 3824,
      "ǹkamun̄": 3825,
      "egege": 3826,
      "nadabu": 3827,
      "inenido": 3828,
      "sem": 3829,
      "sefa": 3830,
      "ekekije": 3831,
      "ekirọkọ": 3832,
      "kpekisa": 3833,
      "ililibi": 3834,
      "okekije": 3835,
      "mêneniki": 3836,
      "mênenikana": 3837,
      "enọnọ": 3838,
      "m̀bajeje": 3839,
      "iyayaka": 3840,
      "îtapbe": 3841,
      "efefieek": 3842,
      "ìfon": 3843,
      "sisaria": 3844,
      "ekpukpulu": 3845,
      "ilolook": 3846,
      "ijuuk": 3847,
      "ekurọn": 3848,
      "kọniliọs": 3849,
      "ikanyege": 3850,
      "bejalen": 3851,
      "jọpa": 3852,
      "obidaya": 3853,
      "agbugbuk": 3854,
      "adadeja": 3855,
      "anọn": 3856,
      "asọ": 3857,
      "ena": 3858,
      "efi": 3859,
      "erọn̄": 3860,
      "elep": 3861,
      "gbo": 3862,
      "imiin̄": 3863,
      "mfat": 3864,
      "mfeen̄": 3865,
      "ori": 3866,
      "oda": 3867,
      "ogwen": 3868,
      "obele": 3869,
      "okpan̄be": 3870,
      "uwọ": 3871,
      "ukut": 3872,
      "wele": 3873,
      "##fele": 3874,
      "##gbin": 3875,
      "##nwan": 3876,
      "##sọk": 3877,
      "##yot": 3878,
      "##ekeek": 3879,
      "ìfuk": 3880,
      "##siti": 3881,
      "keme": 3882,
      "òmun̄": 3883,
      "òtibi": 3884,
      "òjọjọn̄ọ": 3885,
      "##wenween̄": 3886,
      "otuban": 3887,
      "îgwen": 3888,
      "îjot": 3889,
      "înamabe": 3890,
      "îjebe": 3891,
      "îsibe": 3892,
      "ikala": 3893,
      "ikatat": 3894,
      "siba": 3895,
      "ikecha": 3896,
      "môkupbe": 3897,
      "môsobe": 3898,
      "initet": 3899,
      "iniweek": 3900,
      "inikpan̄": 3901,
      "inisik": 3902,
      "geba": 3903,
      "##lilam": 3904,
      "##lube": 3905,
      "itama": 3906,
      "ekifieek": 3907,
      "ekimọnọ": 3908,
      "ekitọt": 3909,
      "mêweek": 3910,
      "onenimọnọ": 3911,
      "ìkito": 3912,
      "ìkifieek": 3913,
      "ìkakana": 3914,
      "##isun̄": 3915,
      "maseya": 3916,
      "ǹriọọn̄": 3917,
      "##sedek": 3918,
      "mîkpan̄": 3919,
      "òkiben": 3920,
      "ogburu": 3921,
      "ofọọk": 3922,
      "ototo": 3923,
      "ototuuk": 3924,
      "ijiin̄": 3925,
      "idasi": 3926,
      "esia": 3927,
      "enenire": 3928,
      "enenibene": 3929,
      "bati": 3930,
      "irọrọkọ": 3931,
      "òsok": 3932,
      "##nyanyana": 3933,
      "nayọ": 3934,
      "##tataka": 3935,
      "ìsisiki": 3936,
      "òkariọọn̄": 3937,
      "ìkakirọ": 3938,
      "inanaan̄": 3939,
      "neri": 3940,
      "okekitumu": 3941,
      "riaak": 3942,
      "nnenitumu": 3943,
      "##jọjọ": 3944,
      "##bakbe": 3945,
      "ayikam": 3946,
      "ifum": 3947,
      "etelebe": 3948,
      "emumana": 3949,
      "netaniya": 3950,
      "ojitbe": 3951,
      "ojijibi": 3952,
      "ofieekbe": 3953,
      "seruya": 3954,
      "ewuwuwum": 3955,
      "asọru": 3956,
      "ikatatge": 3957,
      "ogbururu": 3958,
      "enyan̄a": 3959,
      "etitim": 3960,
      "egobobe": 3961,
      "erombe": 3962,
      "lo": 3963,
      "mweekbe": 3964,
      "ntoon̄": 3965,
      "ngwenbe": 3966,
      "obọkọ": 3967,
      "olet": 3968,
      "ojijit": 3969,
      "otemebe": 3970,
      "peka": 3971,
      "tiri": 3972,
      "urot": 3973,
      "##̀kọ": 3974,
      "ìchieek": 3975,
      "ìbele": 3976,
      "ìtim": 3977,
      "ìwut": 3978,
      "ìgwat": 3979,
      "##tubọk": 3980,
      "##kakaan̄": 3981,
      "òbene": 3982,
      "ògbaan̄": 3983,
      "òyayaka": 3984,
      "##baya": 3985,
      "ibesa": 3986,
      "eneje": 3987,
      "kis": 3988,
      "##ten̄": 3989,
      "##nadap": 3990,
      "mgbu": 3991,
      "##titen̄e": 3992,
      "îje": 3993,
      "îwọ": 3994,
      "îsan̄a": 3995,
      "îtoon̄": 3996,
      "îtat": 3997,
      "îchili": 3998,
      "îgbet": 3999,
      "##rama": 4000,
      "##rayim": 4001,
      "##bubum": 4002,
      "ikatana": 4003,
      "igbuku": 4004,
      "ikpaan̄": 4005,
      "ikinan̄a": 4006,
      "ikibene": 4007,
      "ikinwọọn̄": 4008,
      "môkeke": 4009,
      "iniriọọn̄": 4010,
      "inisan̄a": 4011,
      "inititiin̄": 4012,
      "ininyan̄a": 4013,
      "isoon̄": 4014,
      "ekima": 4015,
      "ekikpa": 4016,
      "ekitet": 4017,
      "ekitim": 4018,
      "mêkpọk": 4019,
      "oneninama": 4020,
      "ìkararak": 4021,
      "irọt": 4022,
      "ǹsan̄a": 4023,
      "mîweek": 4024,
      "mîkpulu": 4025,
      "ngwugwat": 4026,
      "òkinyan̄a": 4027,
      "##mimin": 4028,
      "mâgwu": 4029,
      "kali": 4030,
      "##mebe": 4031,
      "anatọt": 4032,
      "esasan̄a": 4033,
      "##tọn̄ọ": 4034,
      "enenibe": 4035,
      "enenimun̄": 4036,
      "eneniben": 4037,
      "ìboje": 4038,
      "ìbobene": 4039,
      "jabes": 4040,
      "ifofo": 4041,
      "itoto": 4042,
      "etibi": 4043,
      "ilaka": 4044,
      "ekafieekge": 4045,
      "okpọk": 4046,
      "##nọm": 4047,
      "òbonu": 4048,
      "ǹkasa": 4049,
      "eriebe": 4050,
      "seraya": 4051,
      "ugban": 4052,
      "ebekigwa": 4053,
      "inanama": 4054,
      "abigen": 4055,
      "ichon": 4056,
      "òkekeke": 4057,
      "ìbeben": 4058,
      "osisisik": 4059,
      "rimọn": 4060,
      "nnenibe": 4061,
      "eneka": 4062,
      "ayimelek": 4063,
      "òmimiin̄": 4064,
      "okpọ̀kọ": 4065,
      "etobe": 4066,
      "eliabu": 4067,
      "ekwaan̄be": 4068,
      "òtotop": 4069,
      "ogbana": 4070,
      "libina": 4071,
      "kpenọ": 4072,
      "ìsoso": 4073,
      "elisama": 4074,
      "îtimbe": 4075,
      "îbonbe": 4076,
      "otelebe": 4077,
      "kapanọm": 4078,
      "ekachieekge": 4079,
      "mgbugba": 4080,
      "enekana": 4081,
      "are": 4082,
      "ebo": 4083,
      "efaka": 4084,
      "egak": 4085,
      "egat": 4086,
      "gọ": 4087,
      "ichat": 4088,
      "kw": 4089,
      "nse": 4090,
      "ntaan̄": 4091,
      "on": 4092,
      "otana": 4093,
      "osan̄abe": 4094,
      "tọ": 4095,
      "tọbọ": 4096,
      "##asaak": 4097,
      "##tọk": 4098,
      "##wọọn̄": 4099,
      "##wuna": 4100,
      "ìgwọk": 4101,
      "ìkpukpulu": 4102,
      "òge": 4103,
      "òneni": 4104,
      "òdọ": 4105,
      "ònanan̄a": 4106,
      "##tani": 4107,
      "##tayim": 4108,
      "kirọ": 4109,
      "##teek": 4110,
      "isibene": 4111,
      "mgba": 4112,
      "îbo": 4113,
      "îjijaka": 4114,
      "îkan": 4115,
      "##maji": 4116,
      "ikitọ": 4117,
      "môrie": 4118,
      "môlibi": 4119,
      "inije": 4120,
      "iniin̄": 4121,
      "inimọnọ": 4122,
      "##dadi": 4123,
      "mêbene": 4124,
      "mênọ": 4125,
      "mênyan̄a": 4126,
      "mêgobo": 4127,
      "mêtaan̄": 4128,
      "ifaan̄": 4129,
      "amasa": 4130,
      "##dodo": 4131,
      "ìkikpukpo": 4132,
      "ìkasibi": 4133,
      "magi": 4134,
      "saasaak": 4135,
      "##jakisis": 4136,
      "ǹsibi": 4137,
      "òkibu": 4138,
      "òkiluk": 4139,
      "kpegwu": 4140,
      "okitaba": 4141,
      "mâre": 4142,
      "mâjeen̄": 4143,
      "ebetap": 4144,
      "keyila": 4145,
      "ofaka": 4146,
      "juwen": 4147,
      "erọkọbe": 4148,
      "eneniria": 4149,
      "ìbonan̄a": 4150,
      "ìkponin̄": 4151,
      "mfufe": 4152,
      "arawuna": 4153,
      "òbonunu": 4154,
      "gola": 4155,
      "##sikbe": 4156,
      "##dọdu": 4157,
      "elilibi": 4158,
      "ebekirọ": 4159,
      "ichiin̄": 4160,
      "mkpọtubọk": 4161,
      "##dut": 4162,
      "##dudun": 4163,
      "ibosa": 4164,
      "asidọdu": 4165,
      "rie": 4166,
      "àkwọọk": 4167,
      "##gwuun̄be": 4168,
      "ayimaji": 4169,
      "eteteen̄": 4170,
      "imaman": 4171,
      "ekpabe": 4172,
      "ekpakpa": 4173,
      "tobaya": 4174,
      "îkwube": 4175,
      "òchachat": 4176,
      "aminadap": 4177,
      "otoon̄be": 4178,
      "ifafaka": 4179,
      "##gwọgwọk": 4180,
      "ngọm": 4181,
      "elọlọk": 4182,
      "ìbekọt": 4183,
      "atejakisis": 4184,
      "mikali": 4185,
      "gboi": 4186,
      "tirija": 4187,
      "ikatanage": 4188,
      "nsebe": 4189,
      "biri": 4190,
      "esulu": 4191,
      "itutuku": 4192,
      "iweweek": 4193,
      "iwuwum": 4194,
      "jom": 4195,
      "laak": 4196,
      "mbele": 4197,
      "nyaka": 4198,
      "nriaak": 4199,
      "nnube": 4200,
      "obet": 4201,
      "ojeen̄": 4202,
      "orirọ": 4203,
      "ojomobe": 4204,
      "pu": 4205,
      "pele": 4206,
      "taba": 4207,
      "##arim": 4208,
      "##gọn": 4209,
      "##sọkọ": 4210,
      "##dak": 4211,
      "##bidi": 4212,
      "##redi": 4213,
      "ìcha": 4214,
      "ìche": 4215,
      "ìbem": 4216,
      "ìjijit": 4217,
      "ìwuwuuk": 4218,
      "##bọbọn̄": 4219,
      "##wari": 4220,
      "##jim": 4221,
      "##gwuku": 4222,
      "òtet": 4223,
      "òtele": 4224,
      "ògọọk": 4225,
      "òfuk": 4226,
      "òtọt": 4227,
      "òbọp": 4228,
      "##badi": 4229,
      "##tabe": 4230,
      "##sana": 4231,
      "ibet": 4232,
      "##tiya": 4233,
      "îge": 4234,
      "îso": 4235,
      "îtele": 4236,
      "îgọọk": 4237,
      "îraka": 4238,
      "îgobo": 4239,
      "înọbe": 4240,
      "ejiik": 4241,
      "##mas": 4242,
      "ikagọọk": 4243,
      "ikika": 4244,
      "ikimun̄": 4245,
      "ikikana": 4246,
      "ikigugo": 4247,
      "ikechi": 4248,
      "môtaan̄": 4249,
      "môgwọk": 4250,
      "môgobobe": 4251,
      "ininwene": 4252,
      "inikeme": 4253,
      "##tofen": 4254,
      "mêtele": 4255,
      "##dobe": 4256,
      "onenigọọk": 4257,
      "ìkima": 4258,
      "ìkinwọọn̄": 4259,
      "ìkikukup": 4260,
      "ìkanyi": 4261,
      "ìkatumu": 4262,
      "atasuk": 4263,
      "mali": 4264,
      "saba": 4265,
      "##jat": 4266,
      "mîtumu": 4267,
      "mînye": 4268,
      "òkikọt": 4269,
      "òkitibi": 4270,
      "okikup": 4271,
      "ebeek": 4272,
      "ebeje": 4273,
      "kamun̄": 4274,
      "##gagak": 4275,
      "echicha": 4276,
      "ofa": 4277,
      "##gwogwook": 4278,
      "etetele": 4279,
      "obokwu": 4280,
      "jòm": 4281,
      "ijijijaka": 4282,
      "ikpaka": 4283,
      "barak": 4284,
      "ekeje": 4285,
      "ekeluk": 4286,
      "ìkporọ": 4287,
      "ìkpoje": 4288,
      "fiin̄": 4289,
      "m̀gbe": 4290,
      "mfufet": 4291,
      "##nyanyam": 4292,
      "ène": 4293,
      "nkiweek": 4294,
      "ǹkirọ": 4295,
      "ifiọk": 4296,
      "môneniki": 4297,
      "ekekibe": 4298,
      "îkije": 4299,
      "jiarim": 4300,
      "orak": 4301,
      "ebesasan̄a": 4302,
      "òtatap": 4303,
      "ayitofen": 4304,
      "ekanabe": 4305,
      "òrarak": 4306,
      "nsisa": 4307,
      "ikpebe": 4308,
      "egọọkbe": 4309,
      "uraamọn": 4310,
      "ekpete": 4311,
      "serayi": 4312,
      "siela": 4313,
      "ewabe": 4314,
      "ominbe": 4315,
      "ìtatana": 4316,
      "ewọpbe": 4317,
      "ònanan": 4318,
      "melikisedek": 4319,
      "òkibubaan̄": 4320,
      "m̀gbele": 4321,
      "awo": 4322,
      "akis": 4323,
      "du": 4324,
      "eban": 4325,
      "egu": 4326,
      "ebọp": 4327,
      "idọk": 4328,
      "iyok": 4329,
      "iden": 4330,
      "kak": 4331,
      "nkup": 4332,
      "nnu": 4333,
      "ojeen̄be": 4334,
      "otakabe": 4335,
      "reka": 4336,
      "umọọn̄": 4337,
      "##wi": 4338,
      "inwenwene": 4339,
      "ìkwu": 4340,
      "ìchit": 4341,
      "ìsik": 4342,
      "ìwop": 4343,
      "ìgwuun̄": 4344,
      "ìmọọn̄": 4345,
      "ìbọbọọn̄": 4346,
      "##tubu": 4347,
      "##nem": 4348,
      "emọnọ": 4349,
      "òtumu": 4350,
      "òtitibi": 4351,
      "##rip": 4352,
      "##rikwu": 4353,
      "##saja": 4354,
      "enerọ": 4355,
      "kire": 4356,
      "isinan̄a": 4357,
      "isikem": 4358,
      "##nake": 4359,
      "îweek": 4360,
      "îkpọk": 4361,
      "îjomo": 4362,
      "îsisik": 4363,
      "ikama": 4364,
      "ikalọ": 4365,
      "sili": 4366,
      "akwaan̄": 4367,
      "ikpekpe": 4368,
      "môbe": 4369,
      "môria": 4370,
      "môchit": 4371,
      "môkpan̄": 4372,
      "isut": 4373,
      "##dai": 4374,
      "itataan̄": 4375,
      "ekini": 4376,
      "mêkpa": 4377,
      "mêsibi": 4378,
      "mêtaka": 4379,
      "oneninọ": 4380,
      "sama": 4381,
      "sali": 4382,
      "ǹkana": 4383,
      "mîsi": 4384,
      "mîfieek": 4385,
      "mînama": 4386,
      "mîtim": 4387,
      "orọk": 4388,
      "orọrọn̄": 4389,
      "òkigọọk": 4390,
      "òkisun̄": 4391,
      "ogwook": 4392,
      "yilọ": 4393,
      "kpenyi": 4394,
      "mâa": 4395,
      "mâkana": 4396,
      "mâkpulu": 4397,
      "mâkpe": 4398,
      "ebele": 4399,
      "kare": 4400,
      "iteen̄": 4401,
      "obon": 4402,
      "##nwan̄": 4403,
      "anak": 4404,
      "ijijen̄e": 4405,
      "eneninyi": 4406,
      "ìbokpọkpọ": 4407,
      "beli": 4408,
      "bela": 4409,
      "betani": 4410,
      "ìkpotele": 4411,
      "##gogobo": 4412,
      "alaga": 4413,
      "nriki": 4414,
      "soba": 4415,
      "icheche": 4416,
      "##nwọnwọ": 4417,
      "##nyan": 4418,
      "ǹkare": 4419,
      "senake": 4420,
      "ìkweek": 4421,
      "ìkwek": 4422,
      "ujiyen": 4423,
      "mêkito": 4424,
      "ìrom": 4425,
      "##wowop": 4426,
      "mbasi": 4427,
      "ebekirie": 4428,
      "mônenirọ": 4429,
      "filikis": 4430,
      "ekekisa": 4431,
      "egwegwen": 4432,
      "tait": 4433,
      "fesitọs": 4434,
      "ìbebene": 4435,
      "ikwurikwu": 4436,
      "nsọọn̄": 4437,
      "ikpukpulu": 4438,
      "iyaak": 4439,
      "môkije": 4440,
      "teman": 4441,
      "esibibe": 4442,
      "òchichit": 4443,
      "otataba": 4444,
      "ekọtbe": 4445,
      "eferi": 4446,
      "amiram": 4447,
      "ekekpulu": 4448,
      "edobe": 4449,
      "ekekọt": 4450,
      "owọwọ": 4451,
      "ifafiat": 4452,
      "mataniya": 4453,
      "ìmama": 4454,
      "ochebe": 4455,
      "kpukpunu": 4456,
      "ten̄ten̄": 4457,
      "batiseba": 4458,
      "kwok": 4459,
      "ofakabe": 4460,
      "senakerip": 4461,
      "taitọs": 4462,
      "abe": 4463,
      "asu": 4464,
      "abọt": 4465,
      "etọ": 4466,
      "eraka": 4467,
      "eluluk": 4468,
      "etana": 4469,
      "egbugbọ": 4470,
      "enanaan̄": 4471,
      "idek": 4472,
      "look": 4473,
      "nda": 4474,
      "ngwen": 4475,
      "nsiki": 4476,
      "ocha": 4477,
      "okpo": 4478,
      "ojaan̄": 4479,
      "otaba": 4480,
      "obabia": 4481,
      "onyanyana": 4482,
      "teko": 4483,
      "ulook": 4484,
      "##nọọn̄": 4485,
      "##ubọk": 4486,
      "##utọn̄": 4487,
      "##rukp": 4488,
      "##mkpa": 4489,
      "mesak": 4490,
      "ìwele": 4491,
      "ìjot": 4492,
      "ìfiat": 4493,
      "ìfiin̄": 4494,
      "ìfefieek": 4495,
      "##sibu": 4496,
      "##kim": 4497,
      "ògba": 4498,
      "òfaka": 4499,
      "òmọọn̄": 4500,
      "òweweek": 4501,
      "##kpekpe": 4502,
      "isisa": 4503,
      "isinọ": 4504,
      "mgbug": 4505,
      "##tien": 4506,
      "îlibi": 4507,
      "îlobo": 4508,
      "ejibi": 4509,
      "##rata": 4510,
      "irem": 4511,
      "miria": 4512,
      "##bugbe": 4513,
      "ikarie": 4514,
      "ikataka": 4515,
      "##gegen": 4516,
      "igen": 4517,
      "ikisan̄a": 4518,
      "ikimọọn̄": 4519,
      "ikem": 4520,
      "môto": 4521,
      "mônye": 4522,
      "gesuru": 4523,
      "##darak": 4524,
      "ekilibi": 4525,
      "mêsi": 4526,
      "mêgwen": 4527,
      "mêben": 4528,
      "amariya": 4529,
      "agiri": 4530,
      "oneniriaak": 4531,
      "onenirọn̄": 4532,
      "ìkigwa": 4533,
      "ìkitoon̄": 4534,
      "ìkaso": 4535,
      "jeyi": 4536,
      "jefu": 4537,
      "maik": 4538,
      "ǹkeek": 4539,
      "ǹlook": 4540,
      "##seme": 4541,
      "mîyaka": 4542,
      "mînan̄a": 4543,
      "òkisan̄a": 4544,
      "òkibem": 4545,
      "ogbug": 4546,
      "kpefieek": 4547,
      "kpesan̄a": 4548,
      "okisak": 4549,
      "mâkaan̄": 4550,
      "mâyiyala": 4551,
      "ebeluk": 4552,
      "kaki": 4553,
      "katele": 4554,
      "echit": 4555,
      "ofiri": 4556,
      "mkputọn̄": 4557,
      "obonyi": 4558,
      "obotumu": 4559,
      "obonbe": 4560,
      "esaba": 4561,
      "gali": 4562,
      "##faji": 4563,
      "eneninu": 4564,
      "enenibọkọ": 4565,
      "enenikpọk": 4566,
      "baji": 4567,
      "ìbon": 4568,
      "ìbokwukwu": 4569,
      "ekesun̄": 4570,
      "bele": 4571,
      "nriọk": 4572,
      "##ukpuku": 4573,
      "ekaki": 4574,
      "okpun": 4575,
      "##welebe": 4576,
      "kpama": 4577,
      "gosen": 4578,
      "efufuun̄": 4579,
      "ǹkatumu": 4580,
      "##dọni": 4581,
      "inenibon": 4582,
      "asayen": 4583,
      "sedarak": 4584,
      "kpọi": 4585,
      "nkikpọ": 4586,
      "ǹkiriaak": 4587,
      "mbanyi": 4588,
      "mbala": 4589,
      "dagọn": 4590,
      "jifu": 4591,
      "jimiri": 4592,
      "##kpukpọt": 4593,
      "orakbe": 4594,
      "nkwukwuuk": 4595,
      "ayitubu": 4596,
      "peyọ": 4597,
      "etọkọbe": 4598,
      "##dinego": 4599,
      "okpurukp": 4600,
      "arika": 4601,
      "okpin": 4602,
      "ikachieekge": 4603,
      "etoto": 4604,
      "ikekirọ": 4605,
      "eliasibu": 4606,
      "ngigo": 4607,
      "ìkpakpan̄": 4608,
      "ekpukpo": 4609,
      "ikarọge": 4610,
      "owọbe": 4611,
      "mwuukbe": 4612,
      "òfafiat": 4613,
      "etataan̄": 4614,
      "înemebe": 4615,
      "malikija": 4616,
      "ususuk": 4617,
      "arowe": 4618,
      "ogbanabe": 4619,
      "biridọni": 4620,
      "rekabu": 4621,
      "abedinego": 4622,
      "tekowa": 4623,
      "mgbugban": 4624,
      "miriam": 4625,
      "agiripa": 4626,
      "jefune": 4627,
      "maiken": 4628,
      "okpungwu": 4629,
      "okpurukpu": 4630,
      "amo": 4631,
      "eba": 4632,
      "etaan̄": 4633,
      "egbana": 4634,
      "ebọbọn̄": 4635,
      "ibọk": 4636,
      "ibu": 4637,
      "idun": 4638,
      "mak": 4639,
      "ncha": 4640,
      "nsis": 4641,
      "nnyan̄a": 4642,
      "nkan̄": 4643,
      "neko": 4644,
      "osibi": 4645,
      "omiri": 4646,
      "ro": 4647,
      "tọp": 4648,
      "ufo": 4649,
      "unyana": 4650,
      "’?": 4651,
      "##kọs": 4652,
      "##loon̄": 4653,
      "##gọkọ": 4654,
      "##ọbe": 4655,
      "##jọn": 4656,
      "##mek": 4657,
      "meki": 4658,
      "ìchi": 4659,
      "ìban": 4660,
      "ìin̄": 4661,
      "ìnanan̄a": 4662,
      "ìjijaka": 4663,
      "ìnen̄e": 4664,
      "##bọra": 4665,
      "##muwen": 4666,
      "òlelet": 4667,
      "##jen": 4668,
      "enere": 4669,
      "##yaage": 4670,
      "##nina": 4671,
      "emabe": 4672,
      "isisaak": 4673,
      "##nari": 4674,
      "mgbe": 4675,
      "îkpa": 4676,
      "îlọ": 4677,
      "îsiki": 4678,
      "îkeke": 4679,
      "îmabe": 4680,
      "îgwenbe": 4681,
      "îyọt": 4682,
      "##racha": 4683,
      "mili": 4684,
      "ikato": 4685,
      "ikamun̄": 4686,
      "ikalọlọ": 4687,
      "molek": 4688,
      "ikinyan̄a": 4689,
      "ikigbaan̄": 4690,
      "ikitibi": 4691,
      "ikigbuk": 4692,
      "mômin": 4693,
      "mônọ": 4694,
      "môrọn̄": 4695,
      "môgbana": 4696,
      "môneme": 4697,
      "inigwen": 4698,
      "inibene": 4699,
      "initaka": 4700,
      "inijijaka": 4701,
      "inikweek": 4702,
      "##liba": 4703,
      "chili": 4704,
      "##lut": 4705,
      "##dala": 4706,
      "##lagi": 4707,
      "ekinọ": 4708,
      "ekilook": 4709,
      "mêrurọn̄ọ": 4710,
      "mêsikbe": 4711,
      "agọm": 4712,
      "onenititiin̄": 4713,
      "##in̄be": 4714,
      "ìkigwen": 4715,
      "ìkikọt": 4716,
      "ìkigban̄": 4717,
      "ìkitọt": 4718,
      "ìkanye": 4719,
      "ìkagọọk": 4720,
      "ìkarere": 4721,
      "jedu": 4722,
      "manowa": 4723,
      "sadu": 4724,
      "ǹje": 4725,
      "ǹge": 4726,
      "ǹnan̄a": 4727,
      "ǹtet": 4728,
      "ǹgọọk": 4729,
      "mîkup": 4730,
      "mînu": 4731,
      "mîkpọ": 4732,
      "kpetat": 4733,
      "okimun̄": 4734,
      "okiben": 4735,
      "okibem": 4736,
      "okiwut": 4737,
      "okigbuk": 4738,
      "mâkpa": 4739,
      "mâgọọk": 4740,
      "mâkpọk": 4741,
      "kasi": 4742,
      "kakpan̄": 4743,
      "##meli": 4744,
      "orebu": 4745,
      "oniki": 4746,
      "ukọọk": 4747,
      "ekweek": 4748,
      "##kwukwulu": 4749,
      "ìbosi": 4750,
      "jairi": 4751,
      "ìkpobọkọ": 4752,
      "ekasa": 4753,
      "mkpamkpa": 4754,
      "òreren̄e": 4755,
      "okpoon̄": 4756,
      "itiik": 4757,
      "ochichili": 4758,
      "nasiọn": 4759,
      "inenisi": 4760,
      "inenirọ": 4761,
      "sema": 4762,
      "ìkwaan̄": 4763,
      "ìkween̄": 4764,
      "kpebetele": 4765,
      "kpebelọlọ": 4766,
      "mêkigwen": 4767,
      "##lookbe": 4768,
      "kpekeke": 4769,
      "##wakbe": 4770,
      "nene": 4771,
      "m̀kpalọlọ": 4772,
      "asike": 4773,
      "rieen̄": 4774,
      "enọk": 4775,
      "eniin̄": 4776,
      "ikisisaak": 4777,
      "nsibe": 4778,
      "dibọra": 4779,
      "dinari": 4780,
      "eteen̄": 4781,
      "egon": 4782,
      "biliya": 4783,
      "otitim": 4784,
      "otataka": 4785,
      "##yudu": 4786,
      "orọn̄be": 4787,
      "achubọk": 4788,
      "sikilagi": 4789,
      "òtotoon̄": 4790,
      "môkpọkbe": 4791,
      "etọtbe": 4792,
      "##sọsọp": 4793,
      "abayaage": 4794,
      "abaracha": 4795,
      "akisa": 4796,
      "elisabet": 4797,
      "efofon": 4798,
      "ekakaan̄ge": 4799,
      "efarata": 4800,
      "oduuk": 4801,
      "okọtbe": 4802,
      "kenaji": 4803,
      "kalidia": 4804,
      "gọgu": 4805,
      "otanabe": 4806,
      "òdọdọk": 4807,
      "magidala": 4808,
      "golayat": 4809,
      "aroweri": 4810,
      "jedutun": 4811,
      "sadusi": 4812,
      "anu": 4813,
      "awala": 4814,
      "ewọ": 4815,
      "egban̄": 4816,
      "elaak": 4817,
      "efiat": 4818,
      "enyan̄abe": 4819,
      "egwak": 4820,
      "efiin̄": 4821,
      "fuk": 4822,
      "itititiin̄": 4823,
      "jọn̄ọ": 4824,
      "lu": 4825,
      "mfe": 4826,
      "nriabe": 4827,
      "obot": 4828,
      "olibi": 4829,
      "omọnọ": 4830,
      "sulu": 4831,
      "sele": 4832,
      "##ina": 4833,
      "##wuwulu": 4834,
      "##yis": 4835,
      "##yiyik": 4836,
      "##yiyiyala": 4837,
      "##bila": 4838,
      "ikwọkọ": 4839,
      "ìda": 4840,
      "ìnene": 4841,
      "ìtaba": 4842,
      "ìgugo": 4843,
      "##tukot": 4844,
      "##bọnọ": 4845,
      "emọn": 4846,
      "ògwegwen": 4847,
      "##riak": 4848,
      "##tai": 4849,
      "##bobe": 4850,
      "isiboset": 4851,
      "##an̄abe": 4852,
      "îke": 4853,
      "îchieek": 4854,
      "îtibi": 4855,
      "îkat": 4856,
      "îgwak": 4857,
      "enyinyi": 4858,
      "##radan": 4859,
      "misa": 4860,
      "##lelep": 4861,
      "ikakwu": 4862,
      "ikatap": 4863,
      "ikatọbọ": 4864,
      "siali": 4865,
      "ikima": 4866,
      "ikitọt": 4867,
      "ikifo": 4868,
      "ikisulu": 4869,
      "ikitutuku": 4870,
      "ikikọp": 4871,
      "ikisook": 4872,
      "ikinunuun̄": 4873,
      "ikidido": 4874,
      "eyiman": 4875,
      "eyiyala": 4876,
      "môweek": 4877,
      "môjeen̄": 4878,
      "môtoon̄": 4879,
      "môkpulu": 4880,
      "môbele": 4881,
      "môjot": 4882,
      "môtibi": 4883,
      "ininan̄a": 4884,
      "inijeen̄": 4885,
      "initọ": 4886,
      "inisiki": 4887,
      "inigobo": 4888,
      "inijibi": 4889,
      "gebe": 4890,
      "gejeri": 4891,
      "##lari": 4892,
      "##laya": 4893,
      "##tobo": 4894,
      "ekitaan̄": 4895,
      "ekitaka": 4896,
      "ekilaak": 4897,
      "ekikan̄": 4898,
      "mêje": 4899,
      "mêkeke": 4900,
      "mbubuuk": 4901,
      "onenikaan̄": 4902,
      "oneninu": 4903,
      "oneniyaka": 4904,
      "onenitap": 4905,
      "onenigobo": 4906,
      "onenitaan̄": 4907,
      "ìkisibi": 4908,
      "ìkitim": 4909,
      "ìkikpaka": 4910,
      "ìkagban̄": 4911,
      "jeyen": 4912,
      "jefet": 4913,
      "mayala": 4914,
      "mayana": 4915,
      "sana": 4916,
      "##jaradan": 4917,
      "ǹnwọ": 4918,
      "##fufuk": 4919,
      "òkima": 4920,
      "òkimọnọ": 4921,
      "ogbọ": 4922,
      "kpema": 4923,
      "okifiak": 4924,
      "mârieen̄": 4925,
      "mâbene": 4926,
      "ebebọkọ": 4927,
      "ebebele": 4928,
      "ebewọwọp": 4929,
      "ebejijijaka": 4930,
      "kajit": 4931,
      "keyin": 4932,
      "##sosook": 4933,
      "akpatukot": 4934,
      "obokaan̄": 4935,
      "obobolo": 4936,
      "ireke": 4937,
      "ananaya": 4938,
      "onire": 4939,
      "##gbagbaan̄": 4940,
      "erọriọọn̄": 4941,
      "eken": 4942,
      "ekeek": 4943,
      "ekọkọ": 4944,
      "enenikpa": 4945,
      "eneninọ": 4946,
      "##titip": 4947,
      "ìbokwu": 4948,
      "ìbonu": 4949,
      "ìbokana": 4950,
      "ìbokekeke": 4951,
      "jajeri": 4952,
      "ekenyi": 4953,
      "##lomi": 4954,
      "ìkpotet": 4955,
      "òsô": 4956,
      "##golek": 4957,
      "sowari": 4958,
      "mkpaka": 4959,
      "òboje": 4960,
      "òboso": 4961,
      "òbosibi": 4962,
      "##nyambe": 4963,
      "adari": 4964,
      "##ukube": 4965,
      "gogolek": 4966,
      "efum": 4967,
      "efuun̄": 4968,
      "ǹkalọ": 4969,
      "ineniria": 4970,
      "inenigwen": 4971,
      "##chakbe": 4972,
      "mêkinu": 4973,
      "eliliin̄": 4974,
      "elifaji": 4975,
      "otibibe": 4976,
      "ìsisi": 4977,
      "ìsisibi": 4978,
      "ìkakikaan̄": 4979,
      "ìkakitet": 4980,
      "ìkakijot": 4981,
      "reyabu": 4982,
      "ebekisi": 4983,
      "ekekirọ": 4984,
      "nebo": 4985,
      "ìbebem": 4986,
      "osire": 4987,
      "osiya": 4988,
      "orariaak": 4989,
      "mênenisa": 4990,
      "akalari": 4991,
      "##reka": 4992,
      "##jojomo": 4993,
      "òtataka": 4994,
      "môrebe": 4995,
      "##sabadi": 4996,
      "ikasisaak": 4997,
      "##kpebe": 4998,
      "jonadabu": 4999,
      "dilai": 5000,
      "òkpokọt": 5001,
      "tera": 5002,
      "etọọn̄": 5003,
      "nebujaradan": 5004,
      "gwuun̄": 5005,
      "suwa": 5006,
      "òrereke": 5007,
      "ukan": 5008,
      "ònyinyi": 5009,
      "edodo": 5010,
      "elookbe": 5011,
      "##sens": 5012,
      "îlukbe": 5013,
      "egwọkbe": 5014,
      "netanen": 5015,
      "ogọọkbe": 5016,
      "##peres": 5017,
      "òninin̄": 5018,
      "ògbugbugbọ": 5019,
      "onyebe": 5020,
      "##kọkọp": 5021,
      "ewudu": 5022,
      "efie": 5023,
      "mgbugbak": 5024,
      "silisia": 5025,
      "sialitien": 5026,
      "mayanayim": 5027,
      "ananayas": 5028,
      "dilaila": 5029,
      "adu": 5030,
      "etọbe": 5031,
      "ejaan̄": 5032,
      "ebakbe": 5033,
      "fọọk": 5034,
      "gbak": 5035,
      "gwọk": 5036,
      "gbala": 5037,
      "iwak": 5038,
      "imọmọnọ": 5039,
      "ibọbọọn̄": 5040,
      "mkpọkpọ": 5041,
      "mfiat": 5042,
      "ngọọk": 5043,
      "onọ": 5044,
      "osik": 5045,
      "osun̄": 5046,
      "ojojot": 5047,
      "olọkọ": 5048,
      "onyanyan̄a": 5049,
      "raba": 5050,
      "set": 5051,
      "taan̄": 5052,
      "uchili": 5053,
      "unwan": 5054,
      "##̂p": 5055,
      "##uwa": 5056,
      "##mfi": 5057,
      "##wuwut": 5058,
      "##bebene": 5059,
      "##ren̄": 5060,
      "ìmi": 5061,
      "ìnaan̄": 5062,
      "ìlet": 5063,
      "ìjibi": 5064,
      "ìdasi": 5065,
      "ìtibi": 5066,
      "##nes": 5067,
      "emọọn̄": 5068,
      "##jiin̄": 5069,
      "##kari": 5070,
      "keda": 5071,
      "##kisa": 5072,
      "òben": 5073,
      "òwop": 5074,
      "òbat": 5075,
      "òjojot": 5076,
      "òmọmọnọ": 5077,
      "ònyanyan̄a": 5078,
      "##babu": 5079,
      "yanan": 5080,
      "##yadi": 5081,
      "##nim": 5082,
      "isije": 5083,
      "##tiik": 5084,
      "îfu": 5085,
      "îtana": 5086,
      "îbenebe": 5087,
      "îchiaak": 5088,
      "îbenbe": 5089,
      "îdobe": 5090,
      "##rat": 5091,
      "migi": 5092,
      "ikaka": 5093,
      "ikalululuk": 5094,
      "siperes": 5095,
      "more": 5096,
      "kpọk": 5097,
      "igbini": 5098,
      "ikinin̄": 5099,
      "ikinama": 5100,
      "ikikwak": 5101,
      "môkpọ": 5102,
      "môjit": 5103,
      "mômọnọ": 5104,
      "môfuk": 5105,
      "môgat": 5106,
      "inikwu": 5107,
      "iniriaak": 5108,
      "##lis": 5109,
      "##laka": 5110,
      "ekiwọp": 5111,
      "ekichak": 5112,
      "ekinwọ": 5113,
      "ekinunuun̄": 5114,
      "mêgwa": 5115,
      "mêtọn̄": 5116,
      "mêtọbọ": 5117,
      "mêchechieek": 5118,
      "agburu": 5119,
      "onenige": 5120,
      "onenikeke": 5121,
      "ìkarie": 5122,
      "ìkafieek": 5123,
      "ìkafiin̄": 5124,
      "jedaya": 5125,
      "maki": 5126,
      "saya": 5127,
      "ǹjeen̄": 5128,
      "##sem": 5129,
      "##kebe": 5130,
      "òkikpan̄": 5131,
      "òkikeek": 5132,
      "òkikpukpo": 5133,
      "òkikọp": 5134,
      "kpebeki": 5135,
      "okisi": 5136,
      "okifieek": 5137,
      "okitoon̄": 5138,
      "okisisaak": 5139,
      "mâto": 5140,
      "mâkpan̄": 5141,
      "ebem": 5142,
      "ebedi": 5143,
      "katumu": 5144,
      "kakaan̄": 5145,
      "ofiat": 5146,
      "eyatbe": 5147,
      "jowa": 5148,
      "ekween̄": 5149,
      "enenifọọk": 5150,
      "##titiik": 5151,
      "bani": 5152,
      "basiti": 5153,
      "ìboyaka": 5154,
      "ìbokukup": 5155,
      "eketet": 5156,
      "eketọn̄": 5157,
      "ekemin": 5158,
      "eketọbọ": 5159,
      "utibi": 5160,
      "ebọn̄": 5161,
      "beri": 5162,
      "ìkponwọnọ": 5163,
      "##tọmọ": 5164,
      "##rankin": 5165,
      "igbala": 5166,
      "ekat": 5167,
      "sora": 5168,
      "mfum": 5169,
      "òbosa": 5170,
      "òboluk": 5171,
      "ititen̄e": 5172,
      "gon": 5173,
      "efurọn": 5174,
      "asabiya": 5175,
      "seba": 5176,
      "ofok": 5177,
      "kpọkpọ": 5178,
      "nkije": 5179,
      "nkiriaak": 5180,
      "otim": 5181,
      "ìsaba": 5182,
      "ìsisaak": 5183,
      "nimi": 5184,
      "ebekitọbọ": 5185,
      "môneniriọọn̄": 5186,
      "mônenibọkọ": 5187,
      "ikirọkọ": 5188,
      "îkiluk": 5189,
      "ichiọọk": 5190,
      "taka": 5191,
      "##duru": 5192,
      "jîp": 5193,
      "pisi": 5194,
      "igogobo": 5195,
      "okekikpulu": 5196,
      "##jibibe": 5197,
      "itataba": 5198,
      "enekp": 5199,
      "enirom": 5200,
      "farankin": 5201,
      "ìnikpọ": 5202,
      "ìnitap": 5203,
      "sọntitiik": 5204,
      "tim": 5205,
      "mânisa": 5206,
      "ǹsasa": 5207,
      "barabas": 5208,
      "alimọn": 5209,
      "òkisasak": 5210,
      "etobobe": 5211,
      "mâkọtbe": 5212,
      "ogwabe": 5213,
      "ìkabore": 5214,
      "òtoto": 5215,
      "##yọyọt": 5216,
      "oyakabe": 5217,
      "gbana": 5218,
      "ekekaan̄": 5219,
      "owọwọọk": 5220,
      "akisi": 5221,
      "##nwun": 5222,
      "etọbọbe": 5223,
      "jerubaali": 5224,
      "odidọ": 5225,
      "inwunwan̄": 5226,
      "ògbugbuk": 5227,
      "elesia": 5228,
      "ntitaak": 5229,
      "môkakana": 5230,
      "anduru": 5231,
      "welewele": 5232,
      "kareya": 5233,
      "asikelọn": 5234,
      "anun": 5235,
      "sanasana": 5236,
      "##rekaya": 5237,
      "olọkọrọ": 5238,
      "ìmimiin̄": 5239,
      "farankinsens": 5240,
      "apọ": 5241,
      "ekwu": 5242,
      "eso": 5243,
      "enan": 5244,
      "elọn": 5245,
      "efifila": 5246,
      "etam": 5247,
      "etititiin̄": 5248,
      "ewakbe": 5249,
      "gwak": 5250,
      "ibọm": 5251,
      "mfieek": 5252,
      "mben": 5253,
      "nya": 5254,
      "nwọ": 5255,
      "nsan̄a": 5256,
      "nkeke": 5257,
      "njọ": 5258,
      "nwọọn̄": 5259,
      "onene": 5260,
      "odasi": 5261,
      "ogwak": 5262,
      "owelebe": 5263,
      "pọ": 5264,
      "seka": 5265,
      "ubu": 5266,
      "uchit": 5267,
      "wa": 5268,
      "ọfiọọn̄": 5269,
      "”?": 5270,
      "##kwọkọ": 5271,
      "##gbini": 5272,
      "##sọn": 5273,
      "##sọọk": 5274,
      "##juk": 5275,
      "ineen̄": 5276,
      "ikwọọk": 5277,
      "ìkwukwu": 5278,
      "ìfaka": 5279,
      "ìchak": 5280,
      "ìtọt": 5281,
      "ìbeek": 5282,
      "ìnwọ": 5283,
      "ìgbegbe": 5284,
      "ìgbet": 5285,
      "##tuwen": 5286,
      "##tutun": 5287,
      "##wat": 5288,
      "##waak": 5289,
      "keye": 5290,
      "kedes": 5291,
      "ògwu": 5292,
      "òkwu": 5293,
      "òwọ": 5294,
      "ònyan̄a": 5295,
      "òtaka": 5296,
      "ònọn": 5297,
      "òdadasi": 5298,
      "òwewele": 5299,
      "ògagak": 5300,
      "##rọdu": 5301,
      "##bali": 5302,
      "##sam": 5303,
      "##sadak": 5304,
      "kiri": 5305,
      "kidọ": 5306,
      "isikwu": 5307,
      "isijibi": 5308,
      "##chichit": 5309,
      "îk": 5310,
      "îka": 5311,
      "îrie": 5312,
      "îmọnọ": 5313,
      "îgak": 5314,
      "îdọk": 5315,
      "##raria": 5316,
      "##fiọk": 5317,
      "##mai": 5318,
      "##maliya": 5319,
      "ikakpan̄": 5320,
      "ikagban̄": 5321,
      "ikafiin̄": 5322,
      "igwọ": 5323,
      "ikiriọọn̄": 5324,
      "ikiria": 5325,
      "ikikpan̄": 5326,
      "ikifit": 5327,
      "ikikpukpo": 5328,
      "ikikan̄": 5329,
      "môwọ": 5330,
      "môgwook": 5331,
      "môchep": 5332,
      "môgbugbọ": 5333,
      "môrakabe": 5334,
      "môtabe": 5335,
      "iniche": 5336,
      "inisun̄": 5337,
      "inichili": 5338,
      "##lien": 5339,
      "##tolek": 5340,
      "##tofa": 5341,
      "ekitoon̄": 5342,
      "mêche": 5343,
      "mêkupbe": 5344,
      "mêjomo": 5345,
      "mêgbugbọ": 5346,
      "onenitet": 5347,
      "oneniwut": 5348,
      "onenichichini": 5349,
      "ìkitọ": 5350,
      "ìkibele": 5351,
      "ìkifiat": 5352,
      "ìkinyam": 5353,
      "ìkililaba": 5354,
      "ìkaje": 5355,
      "ìkawuuk": 5356,
      "ìkanin̄": 5357,
      "ìkasiki": 5358,
      "ìkabon": 5359,
      "jebidi": 5360,
      "mami": 5361,
      "safa": 5362,
      "sawulu": 5363,
      "ǹtap": 5364,
      "ǹnin̄": 5365,
      "nteek": 5366,
      "mîgwu": 5367,
      "mîkpa": 5368,
      "mîbene": 5369,
      "mîfuk": 5370,
      "mîkpaka": 5371,
      "òkibọkọ": 5372,
      "òkitoon̄": 5373,
      "òkisisaak": 5374,
      "òkifiak": 5375,
      "okito": 5376,
      "okitim": 5377,
      "okibumu": 5378,
      "mâje": 5379,
      "mânu": 5380,
      "ebenin̄": 5381,
      "kakpọ": 5382,
      "##susulu": 5383,
      "##dide": 5384,
      "itọk": 5385,
      "mkput": 5386,
      "eyayaka": 5387,
      "obosan̄a": 5388,
      "anani": 5389,
      "josabadi": 5390,
      "ijiyari": 5391,
      "debiri": 5392,
      "enenirọ": 5393,
      "enenisan̄a": 5394,
      "ìbochechep": 5395,
      "jasi": 5396,
      "ekebem": 5397,
      "bem": 5398,
      "beti": 5399,
      "berekaya": 5400,
      "ìkpobo": 5401,
      "ìkporie": 5402,
      "ìkpomun̄": 5403,
      "ìkpochieek": 5404,
      "itotoon̄": 5405,
      "igbagbana": 5406,
      "ekamun̄": 5407,
      "m̀kpan̄": 5408,
      "m̀fo": 5409,
      "okpot": 5410,
      "mfufiọk": 5411,
      "uram": 5412,
      "isop": 5413,
      "òbokwukwu": 5414,
      "gobo": 5415,
      "ochichim": 5416,
      "nayas": 5417,
      "##tataan̄": 5418,
      "ineninyi": 5419,
      "inenimun̄": 5420,
      "inenitọ": 5421,
      "semi": 5422,
      "kpebetaka": 5423,
      "mêkinyi": 5424,
      "mêkirie": 5425,
      "ǹkige": 5426,
      "ǹkikpọ": 5427,
      "ǹkiria": 5428,
      "ǹkibeek": 5429,
      "elio": 5430,
      "otinien": 5431,
      "niko": 5432,
      "ìkakilọ": 5433,
      "ìkakichieek": 5434,
      "ìkakitibi": 5435,
      "remaliya": 5436,
      "kpekisun̄": 5437,
      "mônenitele": 5438,
      "ekekido": 5439,
      "abiyu": 5440,
      "ichimi": 5441,
      "##gbugbut": 5442,
      "netofa": 5443,
      "daina": 5444,
      "jikiri": 5445,
      "jipọ": 5446,
      "icho": 5447,
      "okakaan̄": 5448,
      "ìbeni": 5449,
      "eweweek": 5450,
      "òsisi": 5451,
      "inọm": 5452,
      "okekitaan̄": 5453,
      "kpebekọkọt": 5454,
      "ebotbe": 5455,
      "ribila": 5456,
      "mkpukpo": 5457,
      "nneninyi": 5458,
      "nnenido": 5459,
      "nneninọ": 5460,
      "mârọbe": 5461,
      "enọs": 5462,
      "lemek": 5463,
      "##remot": 5464,
      "ikakan̄": 5465,
      "pasuru": 5466,
      "m̀barọrọ": 5467,
      "ìninin̄": 5468,
      "nriọọn̄be": 5469,
      "rubi": 5470,
      "etọp": 5471,
      "tobo": 5472,
      "##nowam": 5473,
      "rafa": 5474,
      "jewus": 5475,
      "ikwekweek": 5476,
      "òchichili": 5477,
      "otitibi": 5478,
      "suru": 5479,
      "itọtọ": 5480,
      "itọtọn̄": 5481,
      "meriba": 5482,
      "alikis": 5483,
      "abinadap": 5484,
      "ìtobo": 5485,
      "îtetbe": 5486,
      "eliakim": 5487,
      "agagi": 5488,
      "etọtọkọ": 5489,
      "môtumube": 5490,
      "môkwube": 5491,
      "jerameli": 5492,
      "imem": 5493,
      "ogan": 5494,
      "edene": 5495,
      "tubali": 5496,
      "ikafiatge": 5497,
      "sefatiya": 5498,
      "ebobot": 5499,
      "pelet": 5500,
      "egulọn": 5501,
      "egbugbọbe": 5502,
      "ndali": 5503,
      "jeyien": 5504,
      "bajilai": 5505,
      "ekpukpobe": 5506,
      "amoru": 5507,
      "egbanabe": 5508,
      "milika": 5509,
      "onikisi": 5510,
      "apọlọs": 5511,
      "sekanaya": 5512,
      "ubuja": 5513,
      "ònọnọọn̄": 5514,
      "kidọrọn": 5515,
      "mamire": 5516,
      "alikisen": 5517,
      "aku": 5518,
      "akpọ": 5519,
      "abala": 5520,
      "beek": 5521,
      "elọk": 5522,
      "egi": 5523,
      "egwuun̄": 5524,
      "erom": 5525,
      "egbala": 5526,
      "esọp": 5527,
      "fu": 5528,
      "ibumu": 5529,
      "iwuku": 5530,
      "mbenebe": 5531,
      "mfọfọọk": 5532,
      "nlet": 5533,
      "nrom": 5534,
      "nkat": 5535,
      "nyana": 5536,
      "ukaan̄": 5537,
      "usai": 5538,
      "##enes": 5539,
      "##pọrọ": 5540,
      "##akaan̄": 5541,
      "##ala": 5542,
      "##lot": 5543,
      "##gọt": 5544,
      "##gbugbe": 5545,
      "##tan̄a": 5546,
      "##nt": 5547,
      "##ban̄a": 5548,
      "##yọs": 5549,
      "mena": 5550,
      "megi": 5551,
      "##beben": 5552,
      "##bina": 5553,
      "ìfit": 5554,
      "ìchili": 5555,
      "ìgbọ": 5556,
      "ìlilibi": 5557,
      "##tutuun̄": 5558,
      "ebia": 5559,
      "##nese": 5560,
      "emọs": 5561,
      "##sita": 5562,
      "ògbe": 5563,
      "òtọbọ": 5564,
      "ònọnọ": 5565,
      "òtitim": 5566,
      "òchechep": 5567,
      "òdudun": 5568,
      "##balat": 5569,
      "##safu": 5570,
      "yala": 5571,
      "##kuru": 5572,
      "enetumu": 5573,
      "eneluk": 5574,
      "##book": 5575,
      "##niniin̄": 5576,
      "##teri": 5577,
      "isibọkọ": 5578,
      "isikari": 5579,
      "îsi": 5580,
      "îrieen̄": 5581,
      "îche": 5582,
      "îbum": 5583,
      "îtọ": 5584,
      "îtaan̄": 5585,
      "îgwook": 5586,
      "îlọk": 5587,
      "îtop": 5588,
      "îrom": 5589,
      "înube": 5590,
      "îriabe": 5591,
      "##rai": 5592,
      "mimin": 5593,
      "ikado": 5594,
      "ikabọkọ": 5595,
      "ikachaka": 5596,
      "ìrep": 5597,
      "##gen̄e": 5598,
      "##akbe": 5599,
      "igbuk": 5600,
      "ikijit": 5601,
      "ikimọnọ": 5602,
      "ikichak": 5603,
      "ikikpe": 5604,
      "ikifiaan̄": 5605,
      "ikep": 5606,
      "môriọọn̄": 5607,
      "môrere": 5608,
      "môchaka": 5609,
      "môfat": 5610,
      "iniwọp": 5611,
      "inigbaan̄": 5612,
      "ererieen̄": 5613,
      "ise": 5614,
      "##dada": 5615,
      "itataka": 5616,
      "ekinin̄": 5617,
      "ekifuk": 5618,
      "ekinama": 5619,
      "ekibeek": 5620,
      "mêka": 5621,
      "mêwop": 5622,
      "mêmun̄be": 5623,
      "mêjebe": 5624,
      "ifeen̄": 5625,
      "##banbe": 5626,
      "##gwagwak": 5627,
      "onenitele": 5628,
      "onenimin": 5629,
      "onenilook": 5630,
      "onenigbana": 5631,
      "onenichili": 5632,
      "ìkimọnọ": 5633,
      "ìkilook": 5634,
      "ìkinwọ": 5635,
      "ìkimọọn̄": 5636,
      "ìkisọp": 5637,
      "ìkikọkọp": 5638,
      "atak": 5639,
      "##jan": 5640,
      "ǹrie": 5641,
      "ǹtele": 5642,
      "mîrieen̄": 5643,
      "mîluk": 5644,
      "mîjibi": 5645,
      "òkige": 5646,
      "òkimun̄": 5647,
      "òkigwook": 5648,
      "òkitim": 5649,
      "##mim": 5650,
      "kpewuuk": 5651,
      "kpegọọk": 5652,
      "okima": 5653,
      "okitop": 5654,
      "okikpukpo": 5655,
      "mâda": 5656,
      "mâgwa": 5657,
      "mâbọkọ": 5658,
      "mâsun̄": 5659,
      "mâmọnọ": 5660,
      "ebenbe": 5661,
      "karọ": 5662,
      "kagọọk": 5663,
      "kagbaan̄": 5664,
      "kakpọkpọ": 5665,
      "keyinan": 5666,
      "echilibe": 5667,
      "##dimọs": 5668,
      "ofukbe": 5669,
      "oboje": 5670,
      "ijijit": 5671,
      "gama": 5672,
      "##fas": 5673,
      "##fafiat": 5674,
      "dedan": 5675,
      "##rotu": 5676,
      "enenigwen": 5677,
      "enenikana": 5678,
      "jari": 5679,
      "jaya": 5680,
      "jali": 5681,
      "jakuru": 5682,
      "ekegwa": 5683,
      "betuwen": 5684,
      "ìkpoluk": 5685,
      "ekan": 5686,
      "m̀mọnọ": 5687,
      "òbotap": 5688,
      "òboleke": 5689,
      "ǹkararak": 5690,
      "##dọdọmọ": 5691,
      "nama": 5692,
      "ineninan̄a": 5693,
      "inenikana": 5694,
      "ineniben": 5695,
      "sere": 5696,
      "mêkije": 5697,
      "nkige": 5698,
      "nkito": 5699,
      "nkikeek": 5700,
      "elien": 5701,
      "elilam": 5702,
      "otimbe": 5703,
      "otipbe": 5704,
      "ogegele": 5705,
      "obeek": 5706,
      "òkakat": 5707,
      "mbakup": 5708,
      "ìkakito": 5709,
      "ìkakinan̄a": 5710,
      "rewen": 5711,
      "ebekiben": 5712,
      "kpekakaan̄": 5713,
      "ekekiweek": 5714,
      "ekekigọọk": 5715,
      "abiram": 5716,
      "abieja": 5717,
      "abidọn": 5718,
      "îkinyi": 5719,
      "tabọ": 5720,
      "nrọrọn̄": 5721,
      "itọn̄ọ": 5722,
      "m̀kpasa": 5723,
      "kpekinọ": 5724,
      "ikwuk": 5725,
      "osirọ": 5726,
      "nsook": 5727,
      "asiri": 5728,
      "nnenikpọ": 5729,
      "oluluk": 5730,
      "olulut": 5731,
      "lebo": 5732,
      "òsasan": 5733,
      "padan": 5734,
      "saipọrọ": 5735,
      "tapenes": 5736,
      "##lilim": 5737,
      "nsirọ": 5738,
      "nsinu": 5739,
      "dibọn": 5740,
      "nkarọ": 5741,
      "jeroyam": 5742,
      "onaan̄be": 5743,
      "ram": 5744,
      "ajalọn": 5745,
      "arim": 5746,
      "ariba": 5747,
      "ìkisisaak": 5748,
      "amọs": 5749,
      "sunem": 5750,
      "eferen̄": 5751,
      "##yakim": 5752,
      "mânenirọ": 5753,
      "sikisik": 5754,
      "boji": 5755,
      "amiyudu": 5756,
      "ogbagban̄": 5757,
      "òlalaak": 5758,
      "môtapbe": 5759,
      "##nen̄ebe": 5760,
      "echeche": 5761,
      "ntuun̄": 5762,
      "##kwaak": 5763,
      "##nwunu": 5764,
      "otọtọp": 5765,
      "ôru": 5766,
      "etataba": 5767,
      "mêtolek": 5768,
      "imeri": 5769,
      "mikimas": 5770,
      "obumbe": 5771,
      "ìnwọnwọnọ": 5772,
      "arebia": 5773,
      "onwenwene": 5774,
      "tọmọs": 5775,
      "ònenire": 5776,
      "dum": 5777,
      "ikalọge": 5778,
      "okporotu": 5779,
      "ogbugbugbọ": 5780,
      "eyiyalabe": 5781,
      "adulam": 5782,
      "safaya": 5783,
      "abalara": 5784,
      "megido": 5785,
      "yalayala": 5786,
      "isikariọt": 5787,
      "saipọrọs": 5788,
      "ame": 5789,
      "buku": 5790,
      "etan": 5791,
      "ewọlọ": 5792,
      "egbọ": 5793,
      "ebabia": 5794,
      "etakabe": 5795,
      "gbaan̄": 5796,
      "iwook": 5797,
      "imen": 5798,
      "ichachak": 5799,
      "kwek": 5800,
      "let": 5801,
      "mbọkọ": 5802,
      "mbene": 5803,
      "nsun̄": 5804,
      "nnamabe": 5805,
      "nkeki": 5806,
      "nson": 5807,
      "ndide": 5808,
      "ona": 5809,
      "oben": 5810,
      "otọbọ": 5811,
      "opo": 5812,
      "oriaakbe": 5813,
      "ojọn": 5814,
      "seke": 5815,
      "wọọk": 5816,
      "wuku": 5817,
      "##kek": 5818,
      "##ì": 5819,
      "##gbọọn̄": 5820,
      "##umun̄": 5821,
      "##uuruk": 5822,
      "mesek": 5823,
      "##yiy": 5824,
      "ikekeke": 5825,
      "ìjit": 5826,
      "ìtọ": 5827,
      "ìgbe": 5828,
      "ìjọn̄ọ": 5829,
      "ìtutumu": 5830,
      "ìchaka": 5831,
      "ìbọbọkọ": 5832,
      "ìfifila": 5833,
      "ìchechep": 5834,
      "##neya": 5835,
      "##jijibi": 5836,
      "òba": 5837,
      "òkpọ": 5838,
      "ònye": 5839,
      "òman": 5840,
      "òlo": 5841,
      "òtetele": 5842,
      "òbubum": 5843,
      "òyọyọt": 5844,
      "##rika": 5845,
      "##riọkọ": 5846,
      "##kpọkọ": 5847,
      "##sadai": 5848,
      "enemun̄": 5849,
      "enetap": 5850,
      "enetitiin̄": 5851,
      "enetim": 5852,
      "##yaya": 5853,
      "##yasafu": 5854,
      "##ninin̄": 5855,
      "##naika": 5856,
      "##tisaja": 5857,
      "##chichaka": 5858,
      "##chichim": 5859,
      "îgwu": 5860,
      "îsun̄": 5861,
      "îfuk": 5862,
      "îbeek": 5863,
      "îtaba": 5864,
      "îsun̄be": 5865,
      "îtip": 5866,
      "îyok": 5867,
      "îsan̄abe": 5868,
      "ejijen̄e": 5869,
      "##raran": 5870,
      "##raraan̄": 5871,
      "##fifiin̄": 5872,
      "##bun": 5873,
      "##mat": 5874,
      "##mabet": 5875,
      "ikakpọ": 5876,
      "ikaluk": 5877,
      "sin": 5878,
      "siì": 5879,
      "igbọ": 5880,
      "ikiyaka": 5881,
      "ikiraka": 5882,
      "ikibọn̄": 5883,
      "ikijop": 5884,
      "##kon": 5885,
      "môgwa": 5886,
      "môsiki": 5887,
      "môraka": 5888,
      "môtata": 5889,
      "môjomo": 5890,
      "môkeme": 5891,
      "môkpukpuku": 5892,
      "môtakabe": 5893,
      "inibeek": 5894,
      "inikpe": 5895,
      "##labe": 5896,
      "ekigwu": 5897,
      "ekitọn̄": 5898,
      "ekimin": 5899,
      "ekikpan̄": 5900,
      "ekitọ": 5901,
      "ekibele": 5902,
      "ekibak": 5903,
      "ekikwaan̄": 5904,
      "ekikpukpo": 5905,
      "ekinyam": 5906,
      "ekisisaak": 5907,
      "mêsun̄": 5908,
      "mênwọọn̄": 5909,
      "mêfuk": 5910,
      "mêfum": 5911,
      "ìkimun̄": 5912,
      "ìkititiin̄": 5913,
      "ìkitata": 5914,
      "ìkigobo": 5915,
      "ìkikeke": 5916,
      "ìkasi": 5917,
      "ìkato": 5918,
      "ìkanu": 5919,
      "ìkalọ": 5920,
      "jelo": 5921,
      "jesaya": 5922,
      "jebadi": 5923,
      "atafi": 5924,
      "man": 5925,
      "mare": 5926,
      "masa": 5927,
      "mayon": 5928,
      "okweekbe": 5929,
      "ǹre": 5930,
      "ǹrọn̄": 5931,
      "ǹtutumu": 5932,
      "ǹtetet": 5933,
      "ǹkeke": 5934,
      "ǹgat": 5935,
      "ǹlak": 5936,
      "ǹchacha": 5937,
      "##selo": 5938,
      "mîrie": 5939,
      "mîgwen": 5940,
      "mîso": 5941,
      "mîgwook": 5942,
      "mîkeke": 5943,
      "mîtip": 5944,
      "òkiyaka": 5945,
      "òkitọt": 5946,
      "òkikwek": 5947,
      "kpetumu": 5948,
      "kpelọ": 5949,
      "kpeme": 5950,
      "okibọkọ": 5951,
      "okiriaak": 5952,
      "mâriọọn̄": 5953,
      "mânan̄a": 5954,
      "mâtet": 5955,
      "mâgbana": 5956,
      "ebenan̄a": 5957,
      "ebenwọ": 5958,
      "kabọkọ": 5959,
      "##meya": 5960,
      "eyayat": 5961,
      "##cheche": 5962,
      "oboyaka": 5963,
      "obonin̄": 5964,
      "obonama": 5965,
      "gale": 5966,
      "##rolo": 5967,
      "esisiki": 5968,
      "ikpakpa": 5969,
      "mun̄umun̄": 5970,
      "enenikup": 5971,
      "enenikpulu": 5972,
      "bayala": 5973,
      "bania": 5974,
      "ìbotumu": 5975,
      "ìbobet": 5976,
      "ìbokpe": 5977,
      "ìbokpakpan̄": 5978,
      "jayat": 5979,
      "jayaji": 5980,
      "jakin": 5981,
      "eketumu": 5982,
      "ekeme": 5983,
      "osakbe": 5984,
      "beyọ": 5985,
      "##lon": 5986,
      "ìkponyi": 5987,
      "ìkpota": 5988,
      "ìkponan̄a": 5989,
      "ìkposibi": 5990,
      "##rankat": 5991,
      "##ukpo": 5992,
      "ekagọọk": 5993,
      "soban": 5994,
      "arabu": 5995,
      "òbonyi": 5996,
      "òbowele": 5997,
      "inenene": 5998,
      "ochili": 5999,
      "ochichini": 6000,
      "igwaka": 6001,
      "ǹkakup": 6002,
      "ǹkakọt": 6003,
      "egegele": 6004,
      "iriak": 6005,
      "inenitap": 6006,
      "inenisan̄a": 6007,
      "ebekwaan̄": 6008,
      "selomi": 6009,
      "kpeberie": 6010,
      "mêkigwa": 6011,
      "mêkitaan̄": 6012,
      "nkisi": 6013,
      "ǹkikeek": 6014,
      "eliyu": 6015,
      "elifele": 6016,
      "otiton": 6017,
      "obebele": 6018,
      "igwuku": 6019,
      "òkafat": 6020,
      "inween̄": 6021,
      "ìkakinọ": 6022,
      "ìkakinan": 6023,
      "ìkakigwat": 6024,
      "ebekikpọ": 6025,
      "ebekigwen": 6026,
      "mônenita": 6027,
      "ekekikpọ": 6028,
      "ekekidido": 6029,
      "##gbugbugbọ": 6030,
      "ekpuuruk": 6031,
      "neye": 6032,
      "neriya": 6033,
      "datan": 6034,
      "##feyadi": 6035,
      "jijaka": 6036,
      "##kpukpukpuku": 6037,
      "kpekisi": 6038,
      "nkwukwulube": 6039,
      "môsasa": 6040,
      "musi": 6041,
      "ajiri": 6042,
      "ajimabet": 6043,
      "paran": 6044,
      "afakisa": 6045,
      "##aakbe": 6046,
      "egwugwuun̄": 6047,
      "egwugwuun̄be": 6048,
      "urọt": 6049,
      "##jujuk": 6050,
      "##wọkwọkọ": 6051,
      "ònwọnwọ": 6052,
      "nkakup": 6053,
      "nkarankat": 6054,
      "teselo": 6055,
      "titiin̄": 6056,
      "tola": 6057,
      "mânirọ": 6058,
      "mâniyaka": 6059,
      "egogon": 6060,
      "bili": 6061,
      "inikirọ": 6062,
      "ekọkbe": 6063,
      "ekọkọp": 6064,
      "afek": 6065,
      "ìgwugwu": 6066,
      "òchachaka": 6067,
      "sambalat": 6068,
      "ìtotoon̄": 6069,
      "okemebe": 6070,
      "##yum": 6071,
      "mânyibe": 6072,
      "nlik": 6073,
      "ogwagwat": 6074,
      "mêkwaan̄be": 6075,
      "ekekeek": 6076,
      "bierot": 6077,
      "esikibe": 6078,
      "onwọnbe": 6079,
      "ngebe": 6080,
      "##polis": 6081,
      "nayama": 6082,
      "ìkitotop": 6083,
      "oletbe": 6084,
      "îgebe": 6085,
      "belitisaja": 6086,
      "mfem": 6087,
      "selemeya": 6088,
      "ebọn̄be": 6089,
      "nyanya": 6090,
      "keyefas": 6091,
      "igwọgwọk": 6092,
      "gamalien": 6093,
      "bukubuku": 6094,
      "oporolo": 6095,
      "ojọngwu": 6096,
      "sekeli": 6097,
      "wukuwuku": 6098,
      "jelofeyadi": 6099,
      "jebadiya": 6100,
      "afakisadi": 6101,
      "teselonaika": 6102,
      ".]": 6103,
      "afuk": 6104,
      "akaya": 6105,
      "asen": 6106,
      "dis": 6107,
      "enwọn": 6108,
      "ebala": 6109,
      "echo": 6110,
      "enyambe": 6111,
      "ituku": 6112,
      "iteme": 6113,
      "kọri": 6114,
      "nnan̄a": 6115,
      "njit": 6116,
      "nlibi": 6117,
      "nen̄": 6118,
      "njijaka": 6119,
      "nkukup": 6120,
      "nchiaak": 6121,
      "one": 6122,
      "onu": 6123,
      "ochit": 6124,
      "onama": 6125,
      "oneme": 6126,
      "omimin": 6127,
      "uran̄": 6128,
      "uran": 6129,
      "##̀ri": 6130,
      "##̀kut": 6131,
      "##kekeek": 6132,
      "##pulu": 6133,
      "##fọ": 6134,
      "##gbidim": 6135,
      "##deke": 6136,
      "meyi": 6137,
      "##been̄": 6138,
      "ìlep": 6139,
      "ìriaan̄": 6140,
      "##waka": 6141,
      "##sim": 6142,
      "##siọm": 6143,
      "##kamọ": 6144,
      "keba": 6145,
      "kemo": 6146,
      "##ukọ": 6147,
      "##muna": 6148,
      "òkpa": 6149,
      "òrie": 6150,
      "òwele": 6151,
      "òsun̄": 6152,
      "òfiat": 6153,
      "òlilibi": 6154,
      "ògwogwook": 6155,
      "ogwuun̄be": 6156,
      "##wegi": 6157,
      "##rọkọ": 6158,
      "##chọk": 6159,
      "enenyi": 6160,
      "enebọkọ": 6161,
      "enen̄e": 6162,
      "##nipa": 6163,
      "kisi": 6164,
      "kitumu": 6165,
      "kison": 6166,
      "emaan̄": 6167,
      "isiyaka": 6168,
      "isiso": 6169,
      "isikwaan̄": 6170,
      "##natan": 6171,
      "##enti": 6172,
      "mgban̄": 6173,
      "##timi": 6174,
      "##chichili": 6175,
      "##chimbe": 6176,
      "îbe": 6177,
      "înen": 6178,
      "îman": 6179,
      "îbem": 6180,
      "îchep": 6181,
      "îkpukpuku": 6182,
      "îjomobe": 6183,
      "ejijijaka": 6184,
      "ejibibe": 6185,
      "##raraka": 6186,
      "misi": 6187,
      "##fiọọk": 6188,
      "emiin̄": 6189,
      "ikanin̄": 6190,
      "ikasik": 6191,
      "ikakpọkpọ": 6192,
      "ikachep": 6193,
      "siria": 6194,
      "sikamọ": 6195,
      "akwi": 6196,
      "akukọ": 6197,
      "igbọọk": 6198,
      "ikpi": 6199,
      "ikigwu": 6200,
      "ikilọ": 6201,
      "ikiche": 6202,
      "ikigobo": 6203,
      "ikiwop": 6204,
      "ikigbo": 6205,
      "ikiraan̄": 6206,
      "ikikween̄": 6207,
      "môkpa": 6208,
      "môtetet": 6209,
      "môjibi": 6210,
      "môsulu": 6211,
      "môbia": 6212,
      "môsisik": 6213,
      "môchiaak": 6214,
      "inirieen̄": 6215,
      "inirie": 6216,
      "inichieek": 6217,
      "iniraka": 6218,
      "inichak": 6219,
      "ininama": 6220,
      "inisọọk": 6221,
      "gede": 6222,
      "gesiọm": 6223,
      "chichini": 6224,
      "itai": 6225,
      "##toret": 6226,
      "ekiwuuk": 6227,
      "ekisan̄a": 6228,
      "ekisibi": 6229,
      "ekisiki": 6230,
      "ekifuun̄": 6231,
      "ekikpe": 6232,
      "ekifeen̄": 6233,
      "ekiriki": 6234,
      "ekichimi": 6235,
      "mêcha": 6236,
      "mêsiki": 6237,
      "mêbele": 6238,
      "mênama": 6239,
      "mênwọ": 6240,
      "mêweekbe": 6241,
      "mênwọnọ": 6242,
      "mêkpukpuku": 6243,
      "##ọọkbe": 6244,
      "onenika": 6245,
      "onenikpa": 6246,
      "onenijeen̄": 6247,
      "isaak": 6248,
      "##ọpbe": 6249,
      "ìkitaka": 6250,
      "ìkilalaak": 6251,
      "ìkigumu": 6252,
      "##ekeri": 6253,
      "ìkama": 6254,
      "ìkaria": 6255,
      "ìkabọkọ": 6256,
      "ìkajeen̄": 6257,
      "ìkatata": 6258,
      "ìkajọn̄ọ": 6259,
      "ìkajot": 6260,
      "jere": 6261,
      "jeba": 6262,
      "jeteri": 6263,
      "irọrọn̄": 6264,
      "matiti": 6265,
      "ibabia": 6266,
      "##jajak": 6267,
      "ǹyaka": 6268,
      "mîben": 6269,
      "mînin̄": 6270,
      "mîgban̄": 6271,
      "##fufum": 6272,
      "òkichieek": 6273,
      "òkitọ": 6274,
      "òkilibi": 6275,
      "òkifiat": 6276,
      "òkitutuku": 6277,
      "òkibeme": 6278,
      "kpesun̄": 6279,
      "okibe": 6280,
      "okikwu": 6281,
      "okido": 6282,
      "okikọt": 6283,
      "okigọọk": 6284,
      "okibele": 6285,
      "okikeek": 6286,
      "okitaka": 6287,
      "okiwulu": 6288,
      "mârere": 6289,
      "mâjibi": 6290,
      "mâjeen̄be": 6291,
      "ebenama": 6292,
      "kam": 6293,
      "kami": 6294,
      "kanaan̄": 6295,
      "##mem": 6296,
      "##memem": 6297,
      "##weekge": 6298,
      "lisiti": 6299,
      "ototoon̄": 6300,
      "obobọkọ": 6301,
      "obokana": 6302,
      "obosibi": 6303,
      "juuk": 6304,
      "orerie": 6305,
      "iruk": 6306,
      "jobabu": 6307,
      "erọdia": 6308,
      "esik": 6309,
      "eneniweek": 6310,
      "enenigọọk": 6311,
      "enenikọp": 6312,
      "bala": 6313,
      "bayana": 6314,
      "ìbonin̄": 6315,
      "jai": 6316,
      "jafi": 6317,
      "jabin": 6318,
      "jayen": 6319,
      "janowa": 6320,
      "ekegwen": 6321,
      "ekesiki": 6322,
      "ìkpokwu": 6323,
      "ìkposik": 6324,
      "ìkpochep": 6325,
      "##gogon": 6326,
      "ekabe": 6327,
      "ekasi": 6328,
      "ekatumu": 6329,
      "ekakpa": 6330,
      "ekarie": 6331,
      "m̀kpọ": 6332,
      "m̀bọkọ": 6333,
      "soko": 6334,
      "òbosi": 6335,
      "òbosiki": 6336,
      "ìnyinyi": 6337,
      "ochimbe": 6338,
      "ochiaakbe": 6339,
      "igwagwat": 6340,
      "ǹkat": 6341,
      "ǹkanu": 6342,
      "ǹkagbe": 6343,
      "nayọt": 6344,
      "ntọt": 6345,
      "ineniki": 6346,
      "inenikpulu": 6347,
      "ebekpọ": 6348,
      "ebekpe": 6349,
      "ebekpan̄": 6350,
      "èke": 6351,
      "sela": 6352,
      "sebina": 6353,
      "ìkwak": 6354,
      "kpebeje": 6355,
      "kpebenin̄": 6356,
      "jeko": 6357,
      "nkigwen": 6358,
      "nkibọkọ": 6359,
      "ǹkinyi": 6360,
      "ǹkiluk": 6361,
      "elileek": 6362,
      "elililiin̄": 6363,
      "igwuk": 6364,
      "òkasa": 6365,
      "mbani": 6366,
      "ìkakinyi": 6367,
      "ìkakima": 6368,
      "rejin": 6369,
      "ebekikọkọt": 6370,
      "osùkut": 6371,
      "itọm": 6372,
      "mônenikaan̄": 6373,
      "môneniben": 6374,
      "inan": 6375,
      "îrak": 6376,
      "îkikaan̄": 6377,
      "îkijeen̄": 6378,
      "îkikpukpo": 6379,
      "ichichit": 6380,
      "ichichaka": 6381,
      "##gbugbuk": 6382,
      "tayat": 6383,
      "ikikebe": 6384,
      "jin": 6385,
      "òkweek": 6386,
      "okabe": 6387,
      "ililam": 6388,
      "ililiin̄": 6389,
      "##chakabe": 6390,
      "nseen̄": 6391,
      "nsọn": 6392,
      "kpebekup": 6393,
      "asitoret": 6394,
      "oruma": 6395,
      "àkpa": 6396,
      "owabe": 6397,
      "enwenween̄": 6398,
      "igege": 6399,
      "lep": 6400,
      "enibene": 6401,
      "##derek": 6402,
      "ìnigọọk": 6403,
      "sibiọn": 6404,
      "ilileek": 6405,
      "egwube": 6406,
      "imama": 6407,
      "ebibilọ": 6408,
      "nkariọọn̄ge": 6409,
      "ekpakpaka": 6410,
      "etọkọ": 6411,
      "egogobo": 6412,
      "mônirọ": 6413,
      "mônikwu": 6414,
      "bigi": 6415,
      "bikiri": 6416,
      "ajaya": 6417,
      "layis": 6418,
      "afen": 6419,
      "orieen̄be": 6420,
      "òrerie": 6421,
      "òchacha": 6422,
      "òchachiaak": 6423,
      "okembe": 6424,
      "ibenitet": 6425,
      "ibenitim": 6426,
      "mîkisa": 6427,
      "ekpebe": 6428,
      "reyobu": 6429,
      "esitayon": 6430,
      "eliasa": 6431,
      "agai": 6432,
      "mbebe": 6433,
      "etọtọt": 6434,
      "ogbagbana": 6435,
      "##saida": 6436,
      "libini": 6437,
      "ekpukpukube": 6438,
      "oyoliba": 6439,
      "kpokọtbe": 6440,
      "dowegi": 6441,
      "otọtbe": 6442,
      "otọtọbọ": 6443,
      "òfafaka": 6444,
      "îrọn̄be": 6445,
      "igbegbe": 6446,
      "initobo": 6447,
      "kperọriọọn̄": 6448,
      "îkpulube": 6449,
      "odidim": 6450,
      "ogagana": 6451,
      "ikanan̄age": 6452,
      "enanama": 6453,
      "odada": 6454,
      "obelebe": 6455,
      "efakabe": 6456,
      "kakeke": 6457,
      "ochachiaak": 6458,
      "efiatbe": 6459,
      "misayen": 6460,
      "geberi": 6461,
      "mayalalen": 6462,
      "nimirọdu": 6463,
      "pisiga": 6464,
      "onenene": 6465,
      "pọti": 6466,
      "betisaida": 6467,
      "akubu": 6468,
      "elọkbe": 6469,
      "menayem": 6470,
      "jalimuna": 6471,
      "serebiya": 6472,
      "bojira": 6473,
      "òlolobo": 6474,
      "manderek": 6475,
      "maresa": 6476,
      "selomit": 6477,
      "neyemaya": 6478,
      "dison": 6479,
      "kọrint": 6480,
      "nen̄e": 6481,
      "onesi": 6482,
      "kemos": 6483,
      "akwila": 6484,
      "ekirikit": 6485,
      "matitiya": 6486,
      "lisitira": 6487,
      "erọdias": 6488,
      "oyolibama": 6489,
      "awu": 6490,
      "amu": 6491,
      "aye": 6492,
      "aten": 6493,
      "atem": 6494,
      "eda": 6495,
      "eriaak": 6496,
      "eroon̄": 6497,
      "epa": 6498,
      "ebak": 6499,
      "etaba": 6500,
      "elat": 6501,
      "efiaan̄": 6502,
      "enyam": 6503,
      "egbet": 6504,
      "eriaakbe": 6505,
      "gbe": 6506,
      "ibek": 6507,
      "idut": 6508,
      "iyiyik": 6509,
      "jọ": 6510,
      "kọt": 6511,
      "mban": 6512,
      "mman": 6513,
      "mbọkọbe": 6514,
      "mbieen̄": 6515,
      "nyam": 6516,
      "nrọn̄": 6517,
      "nden̄": 6518,
      "nsun̄be": 6519,
      "njeen̄be": 6520,
      "ndudun": 6521,
      "ome": 6522,
      "osia": 6523,
      "osulu": 6524,
      "odọmọ": 6525,
      "obak": 6526,
      "olep": 6527,
      "oyok": 6528,
      "obakbe": 6529,
      "ososook": 6530,
      "put": 6531,
      "sọk": 6532,
      "uchieen̄": 6533,
      "ugwaka": 6534,
      "##̀re": 6535,
      "##eli": 6536,
      "##goon̄": 6537,
      "##uru": 6538,
      "##wọt": 6539,
      "metu": 6540,
      "memfi": 6541,
      "##rei": 6542,
      "ikwakwaan̄": 6543,
      "ikekeek": 6544,
      "ìkp": 6545,
      "ìtat": 6546,
      "ìbia": 6547,
      "ìgwak": 6548,
      "ìgana": 6549,
      "ìgon": 6550,
      "ìjijijaka": 6551,
      "ìjuuk": 6552,
      "ìjọjọn̄ọ": 6553,
      "##bọru": 6554,
      "##bọbọọk": 6555,
      "eme": 6556,
      "emọ": 6557,
      "##jibun": 6558,
      "##kiọs": 6559,
      "òji": 6560,
      "òtoon̄": 6561,
      "òsusun̄": 6562,
      "òkpakpan̄": 6563,
      "ògogobo": 6564,
      "òlelep": 6565,
      "##riga": 6566,
      "##nyige": 6567,
      "##kpi": 6568,
      "##bayot": 6569,
      "inyiaan̄": 6570,
      "ibeen̄": 6571,
      "enene": 6572,
      "enerie": 6573,
      "enechieek": 6574,
      "##bowa": 6575,
      "##yak": 6576,
      "##yan": 6577,
      "isikup": 6578,
      "isisan̄a": 6579,
      "##een̄be": 6580,
      "##nak": 6581,
      "##nat": 6582,
      "##nadabu": 6583,
      "##tik": 6584,
      "##tia": 6585,
      "##titeek": 6586,
      "îgwọk": 6587,
      "îchichini": 6588,
      "îkeme": 6589,
      "îfiaan̄": 6590,
      "îsisaak": 6591,
      "îchiin̄": 6592,
      "îfet": 6593,
      "îfifila": 6594,
      "îfiak": 6595,
      "îlaakbe": 6596,
      "îsulube": 6597,
      "îmeen̄": 6598,
      "misip": 6599,
      "ijat": 6600,
      "##fira": 6601,
      "owuwut": 6602,
      "##bubat": 6603,
      "##bubuku": 6604,
      "##maman": 6605,
      "ikatumu": 6606,
      "ikasibi": 6607,
      "ikaben": 6608,
      "ikachak": 6609,
      "sisini": 6610,
      "sisak": 6611,
      "ìrerie": 6612,
      "ako": 6613,
      "igbo": 6614,
      "igwọt": 6615,
      "ikpọkọ": 6616,
      "ikichit": 6617,
      "ikichieek": 6618,
      "ikinaan̄": 6619,
      "ikifaka": 6620,
      "ikikpọk": 6621,
      "ikirep": 6622,
      "ikilaak": 6623,
      "ikifiat": 6624,
      "ikigwọk": 6625,
      "ikiwulu": 6626,
      "ikitaba": 6627,
      "ikinyam": 6628,
      "ikilomo": 6629,
      "ikimumana": 6630,
      "môwa": 6631,
      "môgwen": 6632,
      "mônaan̄": 6633,
      "môtọbọ": 6634,
      "mônwọ": 6635,
      "mônunu": 6636,
      "môchili": 6637,
      "môdasi": 6638,
      "mônan̄abe": 6639,
      "môyiyala": 6640,
      "inikaan̄": 6641,
      "iniyaka": 6642,
      "inifieek": 6643,
      "inirọn̄": 6644,
      "inifiat": 6645,
      "inigwuun̄": 6646,
      "inigele": 6647,
      "inigban": 6648,
      "erere": 6649,
      "gedo": 6650,
      "ekido": 6651,
      "ekichieek": 6652,
      "ekititiin̄": 6653,
      "ekinwọọn̄": 6654,
      "ekifiat": 6655,
      "ekisọp": 6656,
      "ekilileek": 6657,
      "mêrieen̄": 6658,
      "mêtọ": 6659,
      "mêgban̄": 6660,
      "mêmọnọ": 6661,
      "mêgele": 6662,
      "mêkpan̄be": 6663,
      "##gwagwa": 6664,
      "mbubuk": 6665,
      "oneniweek": 6666,
      "onenifieek": 6667,
      "onenitoon̄": 6668,
      "onenisiki": 6669,
      "onenibeek": 6670,
      "ìkikpa": 6671,
      "ìkinọ": 6672,
      "ìkinama": 6673,
      "ìkitaan̄": 6674,
      "ìkijijaka": 6675,
      "ìkijijen̄e": 6676,
      "ìkata": 6677,
      "ìkatap": 6678,
      "ìkafọọk": 6679,
      "ìkatoon̄": 6680,
      "ìkachaka": 6681,
      "ìkadọk": 6682,
      "ìkawuwuuk": 6683,
      "ìkakakaan̄": 6684,
      "jefa": 6685,
      "jeturu": 6686,
      "jeremot": 6687,
      "##nuwi": 6688,
      "maluk": 6689,
      "san": 6690,
      "sami": 6691,
      "safat": 6692,
      "ǹgwu": 6693,
      "ǹnama": 6694,
      "ǹkom": 6695,
      "ǹkukup": 6696,
      "mîbọọn̄": 6697,
      "mîto": 6698,
      "mîdo": 6699,
      "mîria": 6700,
      "mîcha": 6701,
      "mîsibi": 6702,
      "mîtoon̄": 6703,
      "mîtitiin̄": 6704,
      "mîgwak": 6705,
      "mîgbugbọ": 6706,
      "mîfifila": 6707,
      "##fufuku": 6708,
      "ijojot": 6709,
      "òkimin": 6710,
      "òkitọbọ": 6711,
      "òkilet": 6712,
      "òkigbuk": 6713,
      "òkilomo": 6714,
      "ogbugbọ": 6715,
      "yik": 6716,
      "kpê": 6717,
      "kpege": 6718,
      "kperie": 6719,
      "kpetele": 6720,
      "kpegwọk": 6721,
      "kpeweweek": 6722,
      "kperaraan̄": 6723,
      "##lọlọk": 6724,
      "okiria": 6725,
      "okibene": 6726,
      "okikpan̄": 6727,
      "okilibi": 6728,
      "okisiki": 6729,
      "okinama": 6730,
      "okichaka": 6731,
      "okisulu": 6732,
      "okilomo": 6733,
      "mâbe": 6734,
      "mâkwu": 6735,
      "mâkpọ": 6736,
      "mâmun̄": 6737,
      "mâchit": 6738,
      "mâfieek": 6739,
      "mâsibi": 6740,
      "mâben": 6741,
      "mâfọọk": 6742,
      "mâtitiin̄": 6743,
      "mâgbaan̄": 6744,
      "mânama": 6745,
      "mâjomo": 6746,
      "mâriabe": 6747,
      "ebewa": 6748,
      "ebenyi": 6749,
      "ebesibi": 6750,
      "ebetatap": 6751,
      "kada": 6752,
      "kadi": 6753,
      "kalet": 6754,
      "kachiin̄": 6755,
      "kagan": 6756,
      "##gawaji": 6757,
      "echitbe": 6758,
      "##yenai": 6759,
      "ofaak": 6760,
      "obonu": 6761,
      "oborie": 6762,
      "obobene": 6763,
      "obomọnọ": 6764,
      "junipa": 6765,
      "orerieen̄": 6766,
      "anan": 6767,
      "joki": 6768,
      "uduk": 6769,
      "##gbama": 6770,
      "##gbagban̄": 6771,
      "delaya": 6772,
      "##rowas": 6773,
      "esiọn": 6774,
      "esisik": 6775,
      "enenibem": 6776,
      "enenitọt": 6777,
      "ban": 6778,
      "base": 6779,
      "ìboka": 6780,
      "ìbokaan̄": 6781,
      "ìbotataka": 6782,
      "ukput": 6783,
      "jabọk": 6784,
      "jasu": 6785,
      "jamin": 6786,
      "jayas": 6787,
      "jakiọs": 6788,
      "##unuun̄": 6789,
      "bejibun": 6790,
      "##lonia": 6791,
      "ìkpoki": 6792,
      "ìkposa": 6793,
      "ìkpogọọk": 6794,
      "ìkpokeke": 6795,
      "ìkpofat": 6796,
      "sowan": 6797,
      "mfufọ": 6798,
      "òbore": 6799,
      "òbomọnọ": 6800,
      "òbojeje": 6801,
      "uyọ": 6802,
      "itiki": 6803,
      "adaya": 6804,
      "goma": 6805,
      "okwakwaan̄": 6806,
      "ǹkawuuk": 6807,
      "ǹkafat": 6808,
      "egele": 6809,
      "iriki": 6810,
      "nuunuun̄": 6811,
      "inenimọnọ": 6812,
      "asari": 6813,
      "ebekwakwaan̄": 6814,
      "senese": 6815,
      "kpebere": 6816,
      "kpebenyi": 6817,
      "kpebebọkọ": 6818,
      "kpebechieek": 6819,
      "mêkika": 6820,
      "mêkinan̄a": 6821,
      "mêkitap": 6822,
      "mêkiran": 6823,
      "mêkisun̄": 6824,
      "nkitọn̄": 6825,
      "nkitaan̄": 6826,
      "nkilook": 6827,
      "nkibeek": 6828,
      "nkikek": 6829,
      "ìreke": 6830,
      "elinatan": 6831,
      "òkare": 6832,
      "òkarọ": 6833,
      "òkakọt": 6834,
      "mbaki": 6835,
      "mbayaka": 6836,
      "ìkakire": 6837,
      "ìkakikọt": 6838,
      "ìkakifieek": 6839,
      "ìkakinwene": 6840,
      "rewu": 6841,
      "ebekiluk": 6842,
      "ebekitap": 6843,
      "mêsasa": 6844,
      "eririki": 6845,
      "kpekpọ": 6846,
      "mônenikup": 6847,
      "mônenitumu": 6848,
      "mônenisan̄a": 6849,
      "filipa": 6850,
      "abila": 6851,
      "##yoyok": 6852,
      "îkisun̄": 6853,
      "isasaba": 6854,
      "##gọm": 6855,
      "tai": 6856,
      "tali": 6857,
      "##feri": 6858,
      "ibodo": 6859,
      "òkeki": 6860,
      "okakat": 6861,
      "m̀kpato": 6862,
      "m̀kpachep": 6863,
      "kpekitumu": 6864,
      "kpekimọọn̄": 6865,
      "##wekweek": 6866,
      "okekirọ": 6867,
      "okekisa": 6868,
      "okekitoon̄": 6869,
      "##giga": 6870,
      "kpebekwaan̄": 6871,
      "kpebekpan̄": 6872,
      "##unukp": 6873,
      "mênenisan̄a": 6874,
      "mênenigwugwuun̄": 6875,
      "ebesaba": 6876,
      "nnenibene": 6877,
      "erurọn̄ọ": 6878,
      "enekeke": 6879,
      "enwenwene": 6880,
      "òbebe": 6881,
      "enire": 6882,
      "##jọbe": 6883,
      "ayinowam": 6884,
      "jeyonadabu": 6885,
      "pedaya": 6886,
      "tapuwa": 6887,
      "ochakbe": 6888,
      "ikpukpọt": 6889,
      "ifuuk": 6890,
      "##kpakabe": 6891,
      "ogula": 6892,
      "nkayaka": 6893,
      "nkakana": 6894,
      "teli": 6895,
      "tigi": 6896,
      "mîrọkọ": 6897,
      "ntobe": 6898,
      "tofet": 6899,
      "torowas": 6900,
      "mâninyi": 6901,
      "ntapbe": 6902,
      "binuwi": 6903,
      "inikiweek": 6904,
      "ariọk": 6905,
      "eberọkọ": 6906,
      "ekpọbe": 6907,
      "isuuk": 6908,
      "ituun̄": 6909,
      "mêrọbe": 6910,
      "ikinyinya": 6911,
      "simiron": 6912,
      "obokisa": 6913,
      "ònore": 6914,
      "egbaalek": 6915,
      "agagawaji": 6916,
      "jeyoyanan": 6917,
      "onenikije": 6918,
      "onenikitumu": 6919,
      "môyakabe": 6920,
      "etọtọ": 6921,
      "merayot": 6922,
      "##limon": 6923,
      "kpoyaka": 6924,
      "oboninama": 6925,
      "isinire": 6926,
      "înin̄be": 6927,
      "kpenan̄a": 6928,
      "akibọru": 6929,
      "gilibowa": 6930,
      "erariaak": 6931,
      "eraraka": 6932,
      "mêlukbe": 6933,
      "mêtetbe": 6934,
      "ofera": 6935,
      "înikwu": 6936,
      "inigwugwuun̄": 6937,
      "kiriatayim": 6938,
      "mêkekitumu": 6939,
      "mêriebe": 6940,
      "##bolobe": 6941,
      "ikigumu": 6942,
      "ikigbin": 6943,
      "òmama": 6944,
      "m̀basasa": 6945,
      "ikakọtge": 6946,
      "refaya": 6947,
      "inwun": 6948,
      "owopbe": 6949,
      "ederei": 6950,
      "enekaan̄": 6951,
      "môkabe": 6952,
      "anọk": 6953,
      "ògwagwak": 6954,
      "elepbe": 6955,
      "oririki": 6956,
      "lotan": 6957,
      "okpọkbe": 6958,
      "onwenween̄": 6959,
      "òtọtọbọ": 6960,
      "ebeekbe": 6961,
      "ofafan̄a": 6962,
      "belisaja": 6963,
      "nsikikeek": 6964,
      "ebabala": 6965,
      "ngọọkbe": 6966,
      "migidọn": 6967,
      "berin": 6968,
      "sebaniya": 6969,
      "efifilabe": 6970,
      "elioyenai": 6971,
      "nikodimọs": 6972,
      "alikisenda": 6973,
      "egiriga": 6974,
      "esọpbe": 6975,
      "fuun̄": 6976,
      "##yiyeek": 6977,
      "îbeekbe": 6978,
      "galesia": 6979,
      "jayajien": 6980,
      "elifelet": 6981,
      "nkakupge": 6982,
      "elileekbe": 6983,
      "atens": 6984,
      "atemis": 6985,
      "memfis": 6986,
      "îchiin̄be": 6987,
      "gedoru": 6988,
      "jefanaya": 6989,
      "kadimien": 6990,
      "senesene": 6991,
      "filipai": 6992,
      "aj": 6993,
      "aru": 6994,
      "ayo": 6995,
      "abak": 6996,
      "amien": 6997,
      "asuru": 6998,
      "bekeri": 6999,
      "ej": 7000,
      "etu": 7001,
      "elet": 7002,
      "ejak": 7003,
      "egwat": 7004,
      "ewọọk": 7005,
      "edọmọ": 7006,
      "egugo": 7007,
      "echon": 7008,
      "esọk": 7009,
      "enwọnwọ": 7010,
      "ibi": 7011,
      "ite": 7012,
      "imi": 7013,
      "ichacha": 7014,
      "ilomo": 7015,
      "iwuwọlọ": 7016,
      "joon̄": 7017,
      "mmọnọ": 7018,
      "mwop": 7019,
      "mbia": 7020,
      "mmemem": 7021,
      "nsibi": 7022,
      "nnin̄": 7023,
      "ntọbọ": 7024,
      "nrọrọ": 7025,
      "nchili": 7026,
      "nwọn": 7027,
      "nnan̄abe": 7028,
      "nken": 7029,
      "nkwọọk": 7030,
      "otọ": 7031,
      "onan": 7032,
      "osoon̄": 7033,
      "olalaak": 7034,
      "olookbe": 7035,
      "ojojomo": 7036,
      "rekem": 7037,
      "tọn̄": 7038,
      "ulep": 7039,
      "utut": 7040,
      "##̀n": 7041,
      "##kwo": 7042,
      "##eda": 7043,
      "##eten̄e": 7044,
      "##ii": 7045,
      "##̂s": 7046,
      "##leen̄": 7047,
      "##geen̄": 7048,
      "##nwe": 7049,
      "##beke": 7050,
      "##jek": 7051,
      "##duk": 7052,
      "##weke": 7053,
      "mese": 7054,
      "mero": 7055,
      "meyo": 7056,
      "##ekis": 7057,
      "inwan": 7058,
      "mère": 7059,
      "ìja": 7060,
      "ìmin": 7061,
      "ìbum": 7062,
      "ìbọp": 7063,
      "ìnwene": 7064,
      "ìtana": 7065,
      "ìnyam": 7066,
      "ìweweek": 7067,
      "ìbala": 7068,
      "ìtitim": 7069,
      "ìcho": 7070,
      "ìdimi": 7071,
      "ìmumana": 7072,
      "ìgween̄": 7073,
      "ìchibi": 7074,
      "ìgwọgwọk": 7075,
      "##tus": 7076,
      "##bọbọp": 7077,
      "##wana": 7078,
      "##gwugwu": 7079,
      "##kabe": 7080,
      "kep": 7081,
      "keri": 7082,
      "kenaya": 7083,
      "##mut": 7084,
      "##kikpulu": 7085,
      "òkọt": 7086,
      "òchak": 7087,
      "òlaak": 7088,
      "òluluk": 7089,
      "òtutuku": 7090,
      "òwuwuuk": 7091,
      "òfọfọọk": 7092,
      "##ris": 7093,
      "##rifa": 7094,
      "##riraan̄": 7095,
      "##babe": 7096,
      "##tak": 7097,
      "##sabe": 7098,
      "##sayi": 7099,
      "ibedo": 7100,
      "enetet": 7101,
      "enenyan̄a": 7102,
      "##boyim": 7103,
      "##yali": 7104,
      "##yayen": 7105,
      "kisa": 7106,
      "kikpọ": 7107,
      "##tenai": 7108,
      "isinyi": 7109,
      "isita": 7110,
      "isibo": 7111,
      "isido": 7112,
      "isitet": 7113,
      "isitaan̄": 7114,
      "isigwọk": 7115,
      "##nas": 7116,
      "##nayim": 7117,
      "##tiyas": 7118,
      "îcha": 7119,
      "îchit": 7120,
      "îwele": 7121,
      "îfaka": 7122,
      "îlet": 7123,
      "îsulu": 7124,
      "îbak": 7125,
      "îtọp": 7126,
      "înyana": 7127,
      "îfan̄a": 7128,
      "îtọkọbe": 7129,
      "##ragba": 7130,
      "##raton": 7131,
      "irerieen̄": 7132,
      "iren̄e": 7133,
      "mibi": 7134,
      "minwọn": 7135,
      "##fidim": 7136,
      "owuwulu": 7137,
      "##lesa": 7138,
      "##malek": 7139,
      "emin": 7140,
      "ikagbaan̄": 7141,
      "ikajijaka": 7142,
      "ikakeke": 7143,
      "moni": 7144,
      "kpenye": 7145,
      "ijene": 7146,
      "igoon̄": 7147,
      "ikirieen̄": 7148,
      "ikifọọk": 7149
    }
  }
}