{
  "version": "1.0",
  "truncation": null,
  "padding": null,
  "added_tokens": [
    {
      "id": 0,
      "content": "[UNK]",
      "single_word": false,
      "lstrip": false,
      "rstrip": false,
      "normalized": false,
      "special": true
    },
    {
      "id": 1,
      "content": "[CLS]",
      "single_word": false,
      "lstrip": false,
      "rstrip": false,
      "normalized": false,
      "special": true
    },
    {
      "id": 2,
      "content": "[SEP]",
      "single_word": false,
      "lstrip": false,
      "rstrip": false,
      "normalized": false,
      "special": true
    },
    {
      "id": 3,
      "content": "[PAD]",
      "single_word": false,
      "lstrip": false,
      "rstrip": false,
      "normalized": false,
      "special": true
    },
    {
      "id": 4,
      "content": "[MASK]",
      "single_word": false,
      "lstrip": false,
      "rstrip": false,
      "normalized": false,
      "special": true
    }
  ],
  "normalizer": null,
  "pre_tokenizer": {
    "type": "ByteLevel",
    "add_prefix_space": true,
    "trim_offsets": true,
    "use_regex": true
  },
  "post_processor": null,
  "decoder": {
    "type": "ByteLevel",
    "add_prefix_space": true,
    "trim_offsets": true,
    "use_regex": true
  },
  "model": {
    "type": "BPE",
    "dropout": null,
    "unk_token": "[UNK]",
    "continuing_subword_prefix": null,
    "end_of_word_suffix": null,
    "fuse_unk": false,
    "byte_fallback": false,
    "ignore_merges": false,
    "vocab": {
      "[UNK]": 0,
      "[CLS]": 1,
      "[SEP]": 2,
      "[PAD]": 3,
      "[MASK]": 4,
      "!": 5,
      "(": 6,
      ")": 7,
      ",": 8,
      "-": 9,
      ".": 10,
      ":": 11,
      ";": 12,
      "?": 13,
      "[": 14,
      "]": 15,
      "a": 16,
      "b": 17,
      "c": 18,
      "d": 19,
      "e": 20,
      "f": 21,
      "g": 22,
      "h": 23,
      "i": 24,
      "j": 25,
      "k": 26,
      "l": 27,
      "m": 28,
      "n": 29,
      "o": 30,
      "p": 31,
      "r": 32,
      "s": 33,
      "t": 34,
      "u": 35,
      "w": 36,
      "y": 37,
      "£": 38,
      "Ì": 39,
      "â": 40,
      "Ġ": 41,
      "Ģ": 42,
      "Ĥ": 43,
      "Ħ": 44,
      "ĺ": 45,
      "Ļ": 46,
      "ľ": 47,
      "Ŀ": 48,
      "Ġi": 49,
      "Ì£": 50,
      "Ġe": 51,
      "Ġm": 52,
      "ÌĦ": 53,
      "Ġo": 54,
      "ÌĢ": 55,
      "Ġme": 56,
      "an": 57,
      "Ġk": 58,
      "wu": 59,
      "ek": 60,
      "en": 61,
      "Ġu": 62,
      "yi": 63,
      "bo": 64,
      "Ġin": 65,
      "be": 66,
      "bi": 67,
      "Ġa": 68,
      "Ġik": 69,
      "re": 70,
      "lek": 71,
      "si": 72,
      "tu": 73,
      "Ġn": 74,
      "Ġebi": 75,
      "ya": 76,
      "gwu": 77,
      "ji": 78,
      "ch": 79,
      "Ġem": 80,
      "ÌĤ": 81,
      "wa": 82,
      "Ġen": 83,
      "ge": 84,
      "je": 85,
      "ro": 86,
      "Ġke": 87,
      "ka": 88,
      "uk": 89,
      "mu": 90,
      "ki": 91,
      "ko": 92,
      "ri": 93,
      "sa": 94,
      "Ġlek": 95,
      "Ġogwu": 96,
      "kp": 97,
      "gw": 98,
      "âĢ": 99,
      "in": 100,
      "ta": 101,
      "Ġya": 102,
      "ku": 103,
      "Ġinyi": 104,
      "em": 105,
      "chi": 106,
      "Ġge": 107,
      "Ġibe": 108,
      "Ġinu": 109,
      "Ġotu": 110,
      "ba": 111,
      "jo": 112,
      "Ġema": 113,
      "Ġisi": 114,
      "te": 115,
      "to": 116,
      "gbo": 117,
      "ban": 118,
      "ÌĦ,": 119,
      "ti": 120,
      "mo": 121,
      "Ġkan": 122,
      "gwem": 123,
      "Ġubo": 124,
      "ĠâĢ": 125,
      "fi": 126,
      "Ġene": 127,
      "een": 128,
      "Ġenyi": 129,
      "cha": 130,
      "Ġgee": 131,
      "Ġmgbo": 132,
      "bu": 133,
      "Ġeji": 134,
      "Ġmi": 135,
      "Ġowu": 136,
      "Ġire": 137,
      "ra": 138,
      "Ġoku": 139,
      "so": 140,
      "Ġotutu": 141,
      "Ġki": 142,
      "ĠâĢľ": 143,
      "Ġemi": 144,
      "mugwem": 145,
      "Ġijo": 146,
      "un": 147,
      "Ġotutuuk": 148,
      "Ġsi": 149,
      "Ġon": 150,
      "ÌĦ.": 151,
      "Ġokumugwem": 152,
      "kpo": 153,
      "waji": 154,
      "yo": 155,
      "Ġawaji": 156,
      "wo": 157,
      "Ġmo": 158,
      "go": 159,
      "le": 160,
      "Ġgeelek": 161,
      "ma": 162,
      "bot": 163,
      "kup": 164,
      "Ġije": 165,
      "tumu": 166,
      "ana": 167,
      "eni": 168,
      "Ġako": 169,
      "eek": 170,
      "Ġkp": 171,
      "waan": 172,
      "Ġikp": 173,
      "Ġkiban": 174,
      "ene": 175,
      "ak": 176,
      "lo": 177,
      "Ġcha": 178,
      "Ġeyi": 179,
      "do": 180,
      "Ġiki": 181,
      "âĢĿ": 182,
      "li": 183,
      "fo": 184,
      "Ġemen": 185,
      "kaan": 186,
      "wun": 187,
      "Ġibot": 188,
      "Ġike": 189,
      "Ġere": 190,
      "Ì£,": 191,
      "Ġkwun": 192,
      "Ġmije": 193,
      "gwa": 194,
      "ye": 195,
      "ja": 196,
      "lu": 197,
      "Ġchi": 198,
      "Ġiko": 199,
      "la": 200,
      "da": 201,
      "Ġuwu": 202,
      "inyi": 203,
      "Ġika": 204,
      "rieen": 205,
      "Ġeki": 206,
      "gwun": 207,
      "san": 208,
      "Ġita": 209,
      "kwu": 210,
      "kpa": 211,
      "ok": 212,
      "Ġgwun": 213,
      "Ġkinyi": 214,
      "Ġinyo": 215,
      "Ġama": 216,
      "Ġini": 217,
      "on": 218,
      "Ġejit": 219,
      "rio": 220,
      "Ġun": 221,
      "Ġus": 222,
      "Ġmbu": 223,
      "Ġiro": 224,
      "ubo": 225,
      "Ġag": 226,
      "Ġisa": 227,
      "Ġmelek": 228,
      "Ġkubo": 229,
      "ren": 230,
      "ru": 231,
      "Ġje": 232,
      "se": 233,
      "Ġoneni": 234,
      "Ġoro": 235,
      "Ġijeren": 236,
      "eke": 237,
      ".âĢĿ": 238,
      "ga": 239,
      "Ġok": 240,
      "Ġata": 241,
      "Ġiba": 242,
      "mun": 243,
      "Ġsa": 244,
      "Ġikwaan": 245,
      "Ġmbuban": 246,
      "Ġif": 247,
      "ria": 248,
      "Ġma": 249,
      "rie": 250,
      "Ġchieen": 251,
      "ulu": 252,
      "Ġido": 253,
      "Ġngwu": 254,
      "Ġngwugwa": 255,
      "fu": 256,
      "Ġisibi": 257,
      "Ġji": 258,
      "Ġito": 259,
      "Ġenen": 260,
      "yan": 261,
      "yaka": 262,
      "nyi": 263,
      "Ġisan": 264,
      "Ġek": 265,
      "bene": 266,
      "Ġnte": 267,
      "Ġbo": 268,
      "Ġyi": 269,
      "Ġgeege": 270,
      "Ġagan": 271,
      "gba": 272,
      "tet": 273,
      "ÌĦ-": 274,
      "Ġkpe": 275,
      "Ġj": 276,
      "Ġoki": 277,
      "che": 278,
      "Ġjiso": 279,
      "gwo": 280,
      "Ġikeya": 281,
      "luk": 282,
      "Ġusen": 283,
      "su": 284,
      "Ġuko": 285,
      "week": 286,
      "alek": 287,
      "Ġkeyi": 288,
      "Ġoto": 289,
      "ran": 290,
      "Ġechi": 291,
      "Ġofi": 292,
      "Ġebe": 293,
      "gwen": 294,
      "wot": 295,
      "Ġka": 296,
      "Ġugwem": 297,
      "we": 298,
      "up": 299,
      "Ì£.": 300,
      "ben": 301,
      "tap": 302,
      "Ġjo": 303,
      "di": 304,
      "tele": 305,
      "Ġobo": 306,
      "bet": 307,
      "Ġitap": 308,
      "chit": 309,
      "kpulu": 310,
      "Ġowot": 311,
      "Ġikana": 312,
      "no": 313,
      "Ġkiji": 314,
      "Ġso": 315,
      "jit": 316,
      "man": 317,
      "gban": 318,
      "Ġofo": 319,
      "Ġju": 320,
      "Ġeya": 321,
      "aan": 322,
      "Ġore": 323,
      "gwook": 324,
      "eki": 325,
      "Ġikpo": 326,
      "Ġunye": 327,
      "Ġete": 328,
      "kan": 329,
      "Ġakpa": 330,
      "ni": 331,
      "Ġukpo": 332,
      "ke": 333,
      "Ġd": 334,
      "chieek": 335,
      "ebi": 336,
      "Ġife": 337,
      "Ġofifi": 338,
      "Ġana": 339,
      "Ġetete": 340,
      "Ġesa": 341,
      "Ġida": 342,
      "Ġga": 343,
      "rek": 344,
      "fa": 345,
      "Ġiji": 346,
      "Ġanam": 347,
      "Ġotoko": 348,
      "Ġino": 349,
      "unu": 350,
      "nan": 351,
      "nu": 352,
      "Ġuto": 353,
      "Ġba": 354,
      "Ġigo": 355,
      "Ġero": 356,
      "Ġikan": 357,
      "min": 358,
      "iin": 359,
      "Ġukot": 360,
      "Ġdebi": 361,
      "rere": 362,
      "Ġikeyi": 363,
      "Ġdebit": 364,
      "Ġoye": 365,
      "fieek": 366,
      "Ġira": 367,
      "kpan": 368,
      "eme": 369,
      "wuuk": 370,
      "ĠâĢĺ": 371,
      "lin": 372,
      "Ġiman": 373,
      "pi": 374,
      "Ġig": 375,
      "me": 376,
      "mi": 377,
      "dun": 378,
      "Ġikpa": 379,
      "gwe": 380,
      "Ġesi": 381,
      "sun": 382,
      "kana": 383,
      "Ġenenen": 384,
      "titi": 385,
      "Ġikup": 386,
      "kwukwu": 387,
      "Ġikaan": 388,
      "Ġirek": 389,
      "Ġifo": 390,
      "sis": 391,
      "Ġigwook": 392,
      "Ġmun": 393,
      "Ġiso": 394,
      "Ġirio": 395,
      "Ġja": 396,
      "Ġukan": 397,
      "linyo": 398,
      "Ġlinyo": 399,
      "fe": 400,
      "Ġenenwaan": 401,
      "Ġinan": 402,
      "Ġebirieen": 403,
      "Ġoniin": 404,
      "Ġosa": 405,
      "Ġmosis": 406,
      "Ġichit": 407,
      "Ġenerieen": 408,
      "bum": 409,
      "nwo": 410,
      "Ġowuwa": 411,
      "Ġgaalek": 412,
      "Ġibo": 413,
      "Ġogo": 414,
      "riaak": 415,
      "âĢĻ": 416,
      "Ġeje": 417,
      "Ġuti": 418,
      "Ġeneni": 419,
      "sibi": 420,
      "Ġagba": 421,
      "Ġacha": 422,
      "Ġerieen": 423,
      "Ġeb": 424,
      "Ġitumu": 425,
      "Ġjeru": 426,
      "Ġokwaan": 427,
      "Ġudun": 428,
      "Ġinin": 429,
      "lem": 430,
      "Ġinorie": 431,
      "jeen": 432,
      "Ġkpunu": 433,
      "Ġkara": 434,
      "Ġjuda": 435,
      "Ġala": 436,
      "selem": 437,
      "Ġmkpulu": 438,
      "lene": 439,
      "tip": 440,
      "Ġjeruselem": 441,
      "Ġebilene": 442,
      "ukp": 443,
      "Ġnri": 444,
      "Ġila": 445,
      "Ġati": 446,
      "Ġeri": 447,
      "neni": 448,
      "Ġinyan": 449,
      "Ġatiko": 450,
      "Ġusun": 451,
      "Ġnwa": 452,
      "Ġnto": 453,
      "eko": 454,
      "chieen": 455,
      "ibot": 456,
      "gbe": 457,
      "gwan": 458,
      "Ġeka": 459,
      "Ġalata": 460,
      "Ġgo": 461,
      "tim": 462,
      "Ġaro": 463,
      "Ġngwan": 464,
      "piti": 465,
      "Ġijipiti": 466,
      "Ġogoon": 467,
      "ÌĦ;": 468,
      "Ġigba": 469,
      "Ġmkpa": 470,
      "rebet": 471,
      "Ġimun": 472,
      "?âĢĿ": 473,
      "na": 474,
      "gbu": 475,
      "Ġmfu": 476,
      "Ġewuuk": 477,
      "Ġfi": 478,
      "Ġukpook": 479,
      "Ġp": 480,
      "nti": 481,
      "titiin": 482,
      "ejit": 483,
      "Ġikpan": 484,
      "wele": 485,
      "Ġogwukaan": 486,
      "is": 487,
      "Ġara": 488,
      "Ġifuk": 489,
      "fit": 490,
      "Ġiche": 491,
      "Ġikpe": 492,
      "Ġnriran": 493,
      "Ġkarais": 494,
      "Ġoyerebet": 495,
      "Ġkeke": 496,
      "kiro": 497,
      "aba": 498,
      "Ġonenitumu": 499,
      "Ġetip": 500,
      "Ġokaan": 501,
      "Ġkpa": 502,
      "gi": 503,
      "Ġigak": 504,
      "Ġmege": 505,
      "tan": 506,
      "Ġufi": 507,
      "Ġile": 508,
      "dasi": 509,
      "libi": 510,
      "inu": 511,
      "jaka": 512,
      "Ġjaaba": 513,
      "Ġobop": 514,
      "Ġogbo": 515,
      "uku": 516,
      "kpukp": 517,
      "Ġokwa": 518,
      "Ġikpele": 519,
      "Ġefit": 520,
      "sabo": 521,
      "siki": 522,
      "age": 523,
      "Ġokpo": 524,
      "Ġochi": 525,
      "Ġigwa": 526,
      "Ġebiba": 527,
      "Ġmkpo": 528,
      "Ġyaage": 529,
      "ini": 530,
      "Ġikeke": 531,
      "gbaan": 532,
      "Ġnro": 533,
      "fuk": 534,
      "Ġefu": 535,
      "Ġokup": 536,
      "sini": 537,
      "kwut": 538,
      "raka": 539,
      "Ġikom": 540,
      "Ġnyi": 541,
      "Ġege": 542,
      "sia": 543,
      "Ġitele": 544,
      "Ġusini": 545,
      "kare": 546,
      "Ġinye": 547,
      "sik": 548,
      "Ġeke": 549,
      "Ġonyi": 550,
      "Ġibene": 551,
      "Ġitet": 552,
      "Ġekwukwu": 553,
      "suuk": 554,
      "Ġuga": 555,
      "ÌĦ.âĢĿ": 556,
      "Ġebibaan": 557,
      "Ġli": 558,
      "taan": 559,
      "Ġug": 560,
      "tibi": 561,
      "Ġesabe": 562,
      "faka": 563,
      "Ġisun": 564,
      "Ġotun": 565,
      "Ġuyo": 566,
      "chini": 567,
      ".âĢĻ": 568,
      "Ġadasi": 569,
      "Ġna": 570,
      "yam": 571,
      "chak": 572,
      "lom": 573,
      "Ġilaak": 574,
      "jaan": 575,
      "Ġoko": 576,
      "Ġirak": 577,
      "Ġararan": 578,
      "Ġebek": 579,
      "Ġesuuk": 580,
      "Ġmfut": 581,
      "bele": 582,
      "ire": 583,
      "Ġotumu": 584,
      "bem": 585,
      "buuk": 586,
      "toon": 587,
      "Ġute": 588,
      "Ġochicha": 589,
      "et": 590,
      "Ġokuk": 591,
      "Ġineni": 592,
      "Ġntook": 593,
      "ama": 594,
      "!âĢĿ": 595,
      "nin": 596,
      "Ġoyet": 597,
      "Ġilo": 598,
      "tat": 599,
      "nyan": 600,
      "Ġuji": 601,
      "kitumu": 602,
      "gobo": 603,
      "embuuk": 604,
      "Ġeriembuuk": 605,
      "Ġofolek": 606,
      "Ġekup": 607,
      "abe": 608,
      "kisa": 609,
      "Ġaya": 610,
      "Ġikpoko": 611,
      "Ġekwut": 612,
      "Ġinwo": 613,
      "Ġijet": 614,
      "Ġmiin": 615,
      "Ġkeya": 616,
      "jot": 617,
      "Ġeli": 618,
      "keek": 619,
      "Ġkpebe": 620,
      "Ġobe": 621,
      "Ġntumu": 622,
      "Ġefuuk": 623,
      "ruk": 624,
      "Ġudo": 625,
      "Ġamo": 626,
      "Ġaran": 627,
      "Ġotunchit": 628,
      "Ġikeme": 629,
      "Ġuja": 630,
      "Ġnsabo": 631,
      "Ġonyan": 632,
      "Ġigwu": 633,
      "bon": 634,
      "Ġoge": 635,
      "Ġikpak": 636,
      "ogwu": 637,
      "taka": 638,
      "keke": 639,
      "Ġisiki": 640,
      "nya": 641,
      "Ġgi": 642,
      "Ġeko": 643,
      "kaki": 644,
      "sut": 645,
      "Ġkpo": 646,
      "Ġufialek": 647,
      "Ġitoon": 648,
      "Ġuru": 649,
      "Ġosat": 650,
      "Ġmgban": 651,
      "Ġiraka": 652,
      "at": 653,
      "Ġura": 654,
      "rot": 655,
      "Ġjeko": 656,
      "Ġorie": 657,
      "Ġre": 658,
      "gbugbo": 659,
      "Ġotumube": 660,
      "Ġese": 661,
      "Ġoli": 662,
      "Ġigbaalek": 663,
      "Ġjei": 664,
      "Ġekene": 665,
      "gu": 666,
      "Ġni": 667,
      "Ġurum": 668,
      "Ġokuket": 669,
      "Ġekisa": 670,
      "Ġunaan": 671,
      "Ġesese": 672,
      "kakaan": 673,
      "Ġse": 674,
      "Ġosu": 675,
      "Ġinyinya": 676,
      "ukup": 677,
      "Ġumin": 678,
      "bilo": 679,
      "bai": 680,
      "anan": 681,
      "Ġugan": 682,
      "Ġuriaak": 683,
      "Ġkpai": 684,
      "Ġmba": 685,
      "kwaan": 686,
      "Ġsabum": 687,
      "Ġebeki": 688,
      "Ġbene": 689,
      "Ġikiro": 690,
      "Ġewo": 691,
      "Ì£-": 692,
      "Ġkechi": 693,
      "sulu": 694,
      "Ġche": 695,
      "Ġosusut": 696,
      "let": 697,
      "Ġikakaan": 698,
      "fiat": 699,
      "Ġimu": 700,
      "Ġebum": 701,
      "dim": 702,
      "Ġbabilo": 703,
      "Ġegwe": 704,
      "Ġisasa": 705,
      "Ġfili": 706,
      "Ġokupbe": 707,
      "Ġgwe": 708,
      "regwen": 709,
      "Ġgweregwen": 710,
      "Ġoron": 711,
      "Ġlibai": 712,
      "Ġabi": 713,
      "Ġinire": 714,
      "sisik": 715,
      "Ġonyibe": 716,
      "Ġekeki": 717,
      "Ġekigwen": 718,
      "Ġutoon": 719,
      "Ġakpalek": 720,
      "Ġijot": 721,
      "Ġichi": 722,
      "Ġujo": 723,
      "lomo": 724,
      "Ġpo": 725,
      "ura": 726,
      "wabu": 727,
      "Ġigwen": 728,
      "Ġasa": 729,
      "Ġben": 730,
      "Ġekaan": 731,
      "Ġoti": 732,
      "jijaka": 733,
      "look": 734,
      "Ġunwo": 735,
      "gbana": 736,
      "Ġnki": 737,
      "Ġne": 738,
      "kpu": 739,
      "sefu": 740,
      "teme": 741,
      "Ġijeen": 742,
      "Ġjosefu": 743,
      "Ġikike": 744,
      "Ġich": 745,
      "Ġnsan": 746,
      "Ġebere": 747,
      "sabe": 748,
      "Ġntitiin": 749,
      "Ġeririeen": 750,
      "rep": 751,
      "Ġulo": 752,
      "yen": 753,
      "Ġijaan": 754,
      "laak": 755,
      "Ġsolomo": 756,
      "Ġesip": 757,
      "Ġoje": 758,
      "beek": 759,
      "ik": 760,
      "Ġfe": 761,
      "Ġro": 762,
      "tun": 763,
      "Ġekiro": 764,
      "Ġotutumu": 765,
      "Ġfilisia": 766,
      "kwa": 767,
      "kukup": 768,
      "tutumu": 769,
      "Ġiwo": 770,
      "Ġebereyam": 771,
      "Ġitibi": 772,
      "kayaka": 773,
      "du": 774,
      "Ġilai": 775,
      "jak": 776,
      "Ġfero": 777,
      "Ġpi": 778,
      "Ġichechieek": 779,
      "Ġichep": 780,
      "Ġorebe": 781,
      "Ġitim": 782,
      "Ġeto": 783,
      "Ġmbum": 784,
      "suwa": 785,
      "Ġonen": 786,
      "reke": 787,
      "Ġikweek": 788,
      "Ġit": 789,
      "Ġifi": 790,
      "Ġoka": 791,
      "tetet": 792,
      "Ġkpeb": 793,
      "Ġugane": 794,
      "Ġiyaka": 795,
      "Ġekp": 796,
      "Ġewe": 797,
      "rioon": 798,
      "Ġiwele": 799,
      "Ġili": 800,
      "Ġoruk": 801,
      "jibi": 802,
      "Ġkpeki": 803,
      "mfaka": 804,
      "Ġifieek": 805,
      "Ġs": 806,
      "turu": 807,
      "iko": 808,
      "Ġataak": 809,
      "chaka": 810,
      "Ġsoso": 811,
      "Ġorukan": 812,
      "nen": 813,
      "Ġerio": 814,
      "Ġinama": 815,
      "Ġokeki": 816,
      "Ġbak": 817,
      "tbe": 818,
      "Ġikpulu": 819,
      "dan": 820,
      "Ġefe": 821,
      "bin": 822,
      "Ġgerep": 823,
      "Ġotubo": 824,
      "Ġosiki": 825,
      "Ġinyinyi": 826,
      "Ġbe": 827,
      "Ġiluk": 828,
      "Ġikwu": 829,
      "Ġnkwukwu": 830,
      "Ġisotu": 831,
      "wek": 832,
      "Ġiben": 833,
      "Ġebot": 834,
      "ĠâĢĿ": 835,
      "Ġikitumu": 836,
      "Ġego": 837,
      "Ġora": 838,
      "mechieen": 839,
      "Ġiweek": 840,
      "Ġnroon": 841,
      "Ġnre": 842,
      "Ġolom": 843,
      "Ġimumechieen": 844,
      "Ġuso": 845,
      "Ġkpan": 846,
      "Ġkpek": 847,
      "Ġfituru": 848,
      "Ġolik": 849,
      "Ġpita": 850,
      "Ġosi": 851,
      "Ġnji": 852,
      "kaya": 853,
      "Ġasi": 854,
      "duku": 855,
      "Ġnteme": 856,
      "emi": 857,
      "chechieek": 858,
      "Ġikak": 859,
      "Ġuyok": 860,
      "kbe": 861,
      "Ġefo": 862,
      "enyi": 863,
      "jeje": 864,
      "sen": 865,
      "ÌĦ?": 866,
      "wop": 867,
      "Ġikito": 868,
      "inan": 869,
      "tutu": 870,
      "Ġuse": 871,
      "Ġmkpukp": 872,
      "asi": 873,
      "Ġogbogbo": 874,
      "nyo": 875,
      "ÌĦ!": 876,
      "Ġokop": 877,
      "Ġinw": 878,
      "Ġijejeen": 879,
      "Ġoduku": 880,
      "Ġinen": 881,
      "Ġibak": 882,
      "rekeyi": 883,
      "gak": 884,
      "Ġoru": 885,
      "kat": 886,
      "kito": 887,
      "kupbe": 888,
      "Ġebesa": 889,
      "Ġjosuwa": 890,
      "fat": 891,
      "oku": 892,
      "Ġebo": 893,
      "Ġekpan": 894,
      "Ġitata": 895,
      "Ġegebe": 896,
      "kwo": 897,
      "okumugwem": 898,
      "Ġeru": 899,
      "Ġekpo": 900,
      "Ġomun": 901,
      "Ġjeri": 902,
      "Ġototun": 903,
      "bia": 904,
      "Ġemun": 905,
      "Ġikikpo": 906,
      "mgbo": 907,
      "Ġcherekeyi": 908,
      "Ġogboon": 909,
      "Ġichen": 910,
      "eja": 911,
      "eejit": 912,
      "wut": 913,
      "Ġunen": 914,
      "ijo": 915,
      "Ġken": 916,
      "Ġakpan": 917,
      "gwuun": 918,
      "kinyi": 919,
      "but": 920,
      "Ġufieejit": 921,
      "nye": 922,
      "Ġko": 923,
      "Ġikin": 924,
      "Ġtumu": 925,
      "Ġmkpukpe": 926,
      "Ġowa": 927,
      "gwat": 928,
      "gugo": 929,
      "Ġirie": 930,
      "Ġenu": 931,
      "Ġedo": 932,
      "Ġuche": 933,
      "Ġatata": 934,
      "Ġatan": 935,
      "Ġeno": 936,
      "Ġokiro": 937,
      "kpukpo": 938,
      "yeke": 939,
      "Ġiteke": 940,
      "wulu": 941,
      "Ġuyeke": 942,
      "Ġikije": 943,
      "Ġunan": 944,
      "yana": 945,
      "Ì£;": 946,
      "Ġimo": 947,
      "Ġokpu": 948,
      "yat": 949,
      "Ġatanga": 950,
      "Ġetap": 951,
      "Ġnga": 952,
      "tata": 953,
      "lam": 954,
      "ntiik": 955,
      "saba": 956,
      "kpe": 957,
      "Ġatalek": 958,
      "Ġotito": 959,
      "owu": 960,
      "kisi": 961,
      "Ġirom": 962,
      "Ġegep": 963,
      "Ġbet": 964,
      "Ġewele": 965,
      "sasa": 966,
      "Ġnnwo": 967,
      "chili": 968,
      "Ġisinyo": 969,
      "soso": 970,
      "Ġiria": 971,
      "Ġenan": 972,
      "Ġonanan": 973,
      "Ġutop": 974,
      "mijo": 975,
      "pa": 976,
      "Ġjodan": 977,
      "Ġobebe": 978,
      "Ġugbo": 979,
      "ram": 980,
      "nama": 981,
      "Ġofiaan": 982,
      "Ġojelek": 983,
      "Ġmowabu": 984,
      "Ġikisa": 985,
      "Ġekitumu": 986,
      "fuun": 987,
      "Ġkpebeko": 988,
      "Ġefet": 989,
      "Ġewelegwe": 990,
      "kikpo": 991,
      "Ġta": 992,
      "Ġolu": 993,
      "bebene": 994,
      "kinu": 995,
      "kije": 996,
      "Ġosabe": 997,
      "jamin": 998,
      "Ġekupbe": 999,
      "Ġirieen": 1000,
      "Ġnneni": 1001,
      "tumube": 1002,
      "Ġagbagba": 1003,
      "gb": 1004,
      "Ġto": 1005,
      "Ġyo": 1006,
      "Ġmana": 1007,
      "Ġaji": 1008,
      "rak": 1009,
      "kike": 1010,
      "Ġeluk": 1011,
      "rem": 1012,
      "Ġonin": 1013,
      "Ġuseen": 1014,
      "Ġegbe": 1015,
      "Ġmu": 1016,
      "Ġmbem": 1017,
      "roon": 1018,
      "Ġbenjamin": 1019,
      "ekeke": 1020,
      "kikpulu": 1021,
      "saak": 1022,
      "Ġonenibe": 1023,
      "Ġonenido": 1024,
      "Ġiferem": 1025,
      "Ġitaka": 1026,
      "Ġgili": 1027,
      "Ġerumun": 1028,
      "eta": 1029,
      "Ġtele": 1030,
      "Ġasabo": 1031,
      "mumun": 1032,
      "mien": 1033,
      "Ġpa": 1034,
      "Ġiriaak": 1035,
      "Ġaka": 1036,
      "kiweek": 1037,
      "Ġkperio": 1038,
      "ju": 1039,
      "Ġokike": 1040,
      "Ġmkp": 1041,
      "Ġjeeta": 1042,
      "Ġinisa": 1043,
      "Ġekwe": 1044,
      "wam": 1045,
      "Ġititiin": 1046,
      "Ġulom": 1047,
      "Ġono": 1048,
      "Ġjeyo": 1049,
      "Ġkpeyaka": 1050,
      "weekbe": 1051,
      "Ġigbaan": 1052,
      "bore": 1053,
      "Ġafa": 1054,
      "Ġikat": 1055,
      "Ġikasi": 1056,
      "Ġle": 1057,
      "Ġubele": 1058,
      "bat": 1059,
      "Ġmudim": 1060,
      "Ġubelejit": 1061,
      "mbe": 1062,
      "Ġda": 1063,
      "Ġchini": 1064,
      "Ġitutumu": 1065,
      "Ġukwu": 1066,
      "ema": 1067,
      "Ġchinichini": 1068,
      "Ġnsen": 1069,
      "Ġukwuuk": 1070,
      "Ġnsensi": 1071,
      "ween": 1072,
      "Ġebon": 1073,
      "Ġiwa": 1074,
      "Ġoluk": 1075,
      "kpoyaka": 1076,
      "Ġekana": 1077,
      "Ġjona": 1078,
      "Ġkarake": 1079,
      "fan": 1080,
      "men": 1081,
      "Ġisaba": 1082,
      "ket": 1083,
      "Ġkenan": 1084,
      "bokup": 1085,
      "Ġjio": 1086,
      "Ì£.âĢĿ": 1087,
      "Ġoria": 1088,
      "Ġutele": 1089,
      "Ġnra": 1090,
      "Ġunyan": 1091,
      "Ġaram": 1092,
      "Ġikakwun": 1093,
      "Ġutelelek": 1094,
      "Ġpe": 1095,
      "Ġmg": 1096,
      "Ġokwukwu": 1097,
      "Ġochak": 1098,
      "Ġayi": 1099,
      "buwam": 1100,
      "Ġekiket": 1101,
      "mgbugbo": 1102,
      "eka": 1103,
      "Ġikpukp": 1104,
      "Ġusem": 1105,
      "Ġmanasi": 1106,
      "gbegbe": 1107,
      "Ġujamgbugbo": 1108,
      "Ġoruru": 1109,
      "Ġan": 1110,
      "jei": 1111,
      "Ġkpebeyaka": 1112,
      "Ġotuchieen": 1113,
      "gat": 1114,
      "Ġsamien": 1115,
      "eya": 1116,
      "Ġajiki": 1117,
      "tatat": 1118,
      "Ġtap": 1119,
      "gele": 1120,
      "bak": 1121,
      "jomo": 1122,
      "yenye": 1123,
      "Ġnu": 1124,
      "Ġorere": 1125,
      "ali": 1126,
      "Ġnrio": 1127,
      "Ġngobo": 1128,
      "Ġoni": 1129,
      "Ġsayo": 1130,
      "Ġilibi": 1131,
      "Ġesan": 1132,
      "Ġmmun": 1133,
      "ekp": 1134,
      "rege": 1135,
      "yala": 1136,
      "luluk": 1137,
      "Ġesasa": 1138,
      "Ġijit": 1139,
      "reyi": 1140,
      "Ġsibi": 1141,
      "maya": 1142,
      "Ġdan": 1143,
      "Ġnan": 1144,
      "Ġifu": 1145,
      "Ġjowabu": 1146,
      "Ġilile": 1147,
      "Ì£?": 1148,
      "buru": 1149,
      "nyibe": 1150,
      "gwut": 1151,
      "Ġosasa": 1152,
      "wene": 1153,
      "lep": 1154,
      "Ġikisi": 1155,
      "lili": 1156,
      "Ġerebe": 1157,
      "Ġijijaka": 1158,
      "Ġodo": 1159,
      "Ġuro": 1160,
      "Ġagwut": 1161,
      "Ġjerimaya": 1162,
      "eji": 1163,
      "Ġegwu": 1164,
      "kibem": 1165,
      "chep": 1166,
      "chieekbe": 1167,
      "Ġiraraka": 1168,
      "Ġasiria": 1169,
      "yu": 1170,
      "Ġota": 1171,
      "bidim": 1172,
      "Ġchereyi": 1173,
      "Ġalo": 1174,
      "Ġejikaya": 1175,
      "mimin": 1176,
      "kwek": 1177,
      "Ġima": 1178,
      "Ġorio": 1179,
      "Ġurie": 1180,
      "Ġago": 1181,
      "Ġnsi": 1182,
      "kpaka": 1183,
      "Ġakpabin": 1184,
      "Ġkechilo": 1185,
      "Ġikarek": 1186,
      "Ġuna": 1187,
      "Ġayaya": 1188,
      "Ġifiin": 1189,
      "jen": 1190,
      "kpoko": 1191,
      "Ġikam": 1192,
      "Ġmbubet": 1193,
      "tutuku": 1194,
      "kiluk": 1195,
      "Ġigbet": 1196,
      "Ġkpekaan": 1197,
      "Ġfo": 1198,
      "Ġkeyilo": 1199,
      "Ġakpatan": 1200,
      "adi": 1201,
      "Ġetet": 1202,
      "Ġada": 1203,
      "Ġkpeko": 1204,
      "Ġuno": 1205,
      "Ġmbubut": 1206,
      "Ġokwu": 1207,
      "gwak": 1208,
      "Ġekije": 1209,
      "boro": 1210,
      "Ġenanan": 1211,
      "kin": 1212,
      "Ġkpunube": 1213,
      "Ġgiliadi": 1214,
      "Ġru": 1215,
      "Ġonenisa": 1216,
      "Ġleban": 1217,
      "iri": 1218,
      "Ġubene": 1219,
      "Ġotita": 1220,
      "nja": 1221,
      "Ġigwo": 1222,
      "Ġeben": 1223,
      "lelet": 1224,
      "Ġilaija": 1225,
      "rom": 1226,
      "Ġibebene": 1227,
      "Ġmgbidim": 1228,
      "den": 1229,
      "nlo": 1230,
      "Ġ(": 1231,
      "Ġafi": 1232,
      "Ġnkeek": 1233,
      "Ġinitumu": 1234,
      "gbala": 1235,
      "Ġorioon": 1236,
      "Ġsame": 1237,
      "Ġsameria": 1238,
      "tut": 1239,
      "Ġebibi": 1240,
      "kario": 1241,
      "kiko": 1242,
      "Ġkpasi": 1243,
      "Ġinwan": 1244,
      "de": 1245,
      "din": 1246,
      "Ġikerere": 1247,
      "Ġulobo": 1248,
      "Ġmgbu": 1249,
      "Ġuri": 1250,
      "kwakwaan": 1251,
      "Ġekpa": 1252,
      "Ġuman": 1253,
      "cho": 1254,
      "Ġekito": 1255,
      "otu": 1256,
      "jin": 1257,
      "kijeen": 1258,
      "Ġebebene": 1259,
      "Ġokoko": 1260,
      "aak": 1261,
      "Ġisulu": 1262,
      "Ġuwele": 1263,
      "fila": 1264,
      "wen": 1265,
      "Ġdi": 1266,
      "Ġichak": 1267,
      "taba": 1268,
      "Ġonenikana": 1269,
      "Ġigobo": 1270,
      "Ġilaisia": 1271,
      "gan": 1272,
      "Ġbi": 1273,
      "Ġiya": 1274,
      "Ġotetet": 1275,
      "Ġufuk": 1276,
      "Ġogwugwu": 1277,
      "Ġkilo": 1278,
      "Ġbaali": 1279,
      "Ġesibi": 1280,
      "Ġokwukwut": 1281,
      "Ġinene": 1282,
      "Ġonaan": 1283,
      "ÌĦ.âĢĻ": 1284,
      "Ġonenire": 1285,
      "Ġokeke": 1286,
      "Ġjonatan": 1287,
      "Ġetim": 1288,
      "Ġikayaka": 1289,
      "dia": 1290,
      "Ġokokop": 1291,
      "gen": 1292,
      "kara": 1293,
      "keki": 1294,
      "Ġfa": 1295,
      "Ġokp": 1296,
      "fio": 1297,
      "Ġti": 1298,
      "kikup": 1299,
      "Ġt": 1300,
      "Ġra": 1301,
      "Ġnkwu": 1302,
      "fuuk": 1303,
      "Ġeyabu": 1304,
      "Ġichieek": 1305,
      "Ġinitap": 1306,
      "Ġjero": 1307,
      "Ġnebu": 1308,
      "Ġsan": 1309,
      "Ġno": 1310,
      "Ġeni": 1311,
      "Ġenin": 1312,
      "kitap": 1313,
      "chat": 1314,
      "Ġonan": 1315,
      "gwegwen": 1316,
      "risi": 1317,
      "ntet": 1318,
      "Ġiban": 1319,
      "kakup": 1320,
      "lat": 1321,
      "Ġmfufuk": 1322,
      "Ġoluku": 1323,
      "buso": 1324,
      "Ġikikpulu": 1325,
      "Ġekiweek": 1326,
      "Ġekot": 1327,
      "busolo": 1328,
      "ika": 1329,
      "ufuun": 1330,
      "Ġiri": 1331,
      "Ġukpa": 1332,
      "anaan": 1333,
      "Ġunene": 1334,
      "Ġnwakpa": 1335,
      "ĠĠ": 1336,
      "Ġabusolo": 1337,
      "Ġnsa": 1338,
      "Ġikiweek": 1339,
      "melek": 1340,
      "Ġeyaka": 1341,
      "Ġntap": 1342,
      "Ġoboko": 1343,
      "nyenye": 1344,
      "Ġnkaan": 1345,
      "Ġnlelet": 1346,
      "chiaan": 1347,
      "Ġitaba": 1348,
      "Ġonenibon": 1349,
      "Ġsai": 1350,
      "eyi": 1351,
      "iya": 1352,
      "Ì£!": 1353,
      "Ġaja": 1354,
      "tetele": 1355,
      "Ġotiti": 1356,
      "kigo": 1357,
      "tatap": 1358,
      "Ġjewu": 1359,
      "leke": 1360,
      "Ġolifu": 1361,
      "Ġjerobuwam": 1362,
      "umu": 1363,
      "Ġmbeek": 1364,
      "yik": 1365,
      "kot": 1366,
      "Ġgibi": 1367,
      "Ġuwop": 1368,
      "Ġnyan": 1369,
      "Ġnjak": 1370,
      "ronyan": 1371,
      "fefieek": 1372,
      "Ġntoronyan": 1373,
      "Ġetapbe": 1374,
      "gbuk": 1375,
      "naan": 1376,
      "neme": 1377,
      "Ġufe": 1378,
      "Ġnye": 1379,
      "Ġbara": 1380,
      "Ġenunu": 1381,
      "Ġjebu": 1382,
      "Ġoneniria": 1383,
      "rakabe": 1384,
      "keme": 1385,
      "Ġuke": 1386,
      "kadin": 1387,
      "fiin": 1388,
      "Ġetetet": 1389,
      "Ġoraan": 1390,
      "Ġukechieen": 1391,
      "kadineja": 1392,
      "lak": 1393,
      "Ġorieen": 1394,
      "Ġugbana": 1395,
      "Ġenwo": 1396,
      "raraka": 1397,
      "Ġifa": 1398,
      "boko": 1399,
      "Ġikwek": 1400,
      "kom": 1401,
      "Ġokitumu": 1402,
      "Ġofit": 1403,
      "Ġokput": 1404,
      "Ġelukbe": 1405,
      "Ġfarisi": 1406,
      "Ġnebukadineja": 1407,
      "mana": 1408,
      "Ġri": 1409,
      "Ġogbu": 1410,
      "Ġajaka": 1411,
      "ÌĤ,": 1412,
      "karo": 1413,
      "uko": 1414,
      "Ġuneen": 1415,
      "Ġmkpat": 1416,
      "Ġugumu": 1417,
      "Ġuraa": 1418,
      "kput": 1419,
      "Ġifuun": 1420,
      "Ġajakajak": 1421,
      "Ġusaba": 1422,
      "yim": 1423,
      "?âĢĻ": 1424,
      "Ġegbaan": 1425,
      "bieen": 1426,
      "Ġachiaan": 1427,
      "chichini": 1428,
      "Ġigon": 1429,
      "Ġoneninan": 1430,
      "Ġokakana": 1431,
      "Ġeden": 1432,
      "yiyala": 1433,
      "kachieek": 1434,
      "riya": 1435,
      "Ġisisi": 1436,
      "raya": 1437,
      "Ġijeek": 1438,
      "Ġikibe": 1439,
      "Ġekeke": 1440,
      "benebe": 1441,
      "kpulube": 1442,
      "mije": 1443,
      "Ġigwak": 1444,
      "Ġimumun": 1445,
      "Ġifiat": 1446,
      "Ġot": 1447,
      "Ġugo": 1448,
      "Ġnke": 1449,
      "sak": 1450,
      "sefat": 1451,
      "Ġebero": 1452,
      "Ġgadi": 1453,
      "Ġjiosefat": 1454,
      "Ġegwo": 1455,
      "Ġmfaka": 1456,
      "Ġotap": 1457,
      "Ġakan": 1458,
      "jijen": 1459,
      "ukan": 1460,
      "kibo": 1461,
      "fiaan": 1462,
      "rudun": 1463,
      "Ġekero": 1464,
      "Ġonenin": 1465,
      "Ġoninin": 1466,
      "Ġmgburudun": 1467,
      "nunu": 1468,
      "wuwu": 1469,
      "Ġifon": 1470,
      "Ġokukup": 1471,
      "Ġelieja": 1472,
      "ogwukaan": 1473,
      "kekeke": 1474,
      "Ġerie": 1475,
      "Ġawo": 1476,
      "Ġokije": 1477,
      "Ġobebene": 1478,
      "Ġigwuun": 1479,
      "kwak": 1480,
      "kwook": 1481,
      "ilaak": 1482,
      "Ġla": 1483,
      "Ġegwa": 1484,
      "Ġmeri": 1485,
      "sisaak": 1486,
      "tuku": 1487,
      "kako": 1488,
      "kakana": 1489,
      "Ġikigo": 1490,
      "Ġitat": 1491,
      "Ġinito": 1492,
      "Ġkpere": 1493,
      "Ġkachieek": 1494,
      "Ġijibi": 1495,
      "Ġenenisa": 1496,
      "Ġokputut": 1497,
      "Ġige": 1498,
      "Ġetumube": 1499,
      "Ġali": 1500,
      "Ġonyinyi": 1501,
      "ien": 1502,
      "Ġorakabe": 1503,
      "Ġulibi": 1504,
      "jijit": 1505,
      "Ġeneninan": 1506,
      "Ġikpukpuku": 1507,
      "Ġruben": 1508,
      "Ġbarabat": 1509,
      "pbe": 1510,
      "Ġibia": 1511,
      "Ġebu": 1512,
      "Ġngugo": 1513,
      "Ġenama": 1514,
      "Ġisik": 1515,
      "gwenbe": 1516,
      "Ġejeje": 1517,
      "Ġinwene": 1518,
      "Ġmkpukan": 1519,
      "Ġgban": 1520,
      "Ġolat": 1521,
      "Ġagbo": 1522,
      "was": 1523,
      "riro": 1524,
      "Ġibaan": 1525,
      "Ġibook": 1526,
      "Ġekpen": 1527,
      "miin": 1528,
      "nte": 1529,
      "Ġigbana": 1530,
      "Ġari": 1531,
      "Ġase": 1532,
      "kinan": 1533,
      "baak": 1534,
      "mabe": 1535,
      "Ġebeben": 1536,
      "Ġgalili": 1537,
      "Ġbalam": 1538,
      "Ġogobo": 1539,
      "Ġlilin": 1540,
      "Ġsek": 1541,
      "nenen": 1542,
      "gbuku": 1543,
      "Ġmkpilaak": 1544,
      "Ġetumu": 1545,
      "Ġukwook": 1546,
      "ina": 1547,
      "jojot": 1548,
      "Ġikitaan": 1549,
      "Ġekiluk": 1550,
      "susun": 1551,
      "Ġilet": 1552,
      "Ġekpiri": 1553,
      "meen": 1554,
      "po": 1555,
      "Ġibum": 1556,
      "sin": 1557,
      "Ġenyibe": 1558,
      "rarak": 1559,
      "Ġikachieek": 1560,
      "Ġikpakpan": 1561,
      "Ġugumulek": 1562,
      "Ġiin": 1563,
      "Ġimin": 1564,
      "Ġogwa": 1565,
      "Ġeman": 1566,
      "Ġobosa": 1567,
      "Ġirin": 1568,
      "Ġburu": 1569,
      "Ġmbin": 1570,
      "Ġufieek": 1571,
      "yayaka": 1572,
      "Ġikirie": 1573,
      "Ġikijeen": 1574,
      "laba": 1575,
      "dio": 1576,
      "kpukpulu": 1577,
      "Ġuraafio": 1578,
      "Ġeburo": 1579,
      "!âĢĻ": 1580,
      "Ġban": 1581,
      "Ġitip": 1582,
      "Ġet": 1583,
      "Ġogu": 1584,
      "bosa": 1585,
      "fita": 1586,
      "Ġonenisi": 1587,
      "Ġsam": 1588,
      "Ġechichi": 1589,
      "Ġechieek": 1590,
      "Ġkaan": 1591,
      "Ġefon": 1592,
      "Ġekpirikpo": 1593,
      "aya": 1594,
      "Ġib": 1595,
      "Ġafo": 1596,
      "kitet": 1597,
      "saya": 1598,
      "Ġokpibot": 1599,
      "Ġburubut": 1600,
      "ilet": 1601,
      "Ġegw": 1602,
      "Ġokpa": 1603,
      "Ġmebe": 1604,
      "Ġinyana": 1605,
      "Ġinigwa": 1606,
      "Ġjese": 1607,
      "Ġnriroon": 1608,
      "Ġekayaka": 1609,
      "Ġekarege": 1610,
      "Ġntumube": 1611,
      "Ġabina": 1612,
      "Ġicho": 1613,
      "Ġpailet": 1614,
      "ÌĦ?âĢĿ": 1615,
      "kibe": 1616,
      "raria": 1617,
      "Ġkpechieek": 1618,
      "Ġokisa": 1619,
      "Ġokolo": 1620,
      "Ġinenitumu": 1621,
      "Ġnjijo": 1622,
      "nwa": 1623,
      "Ġwo": 1624,
      "Ġmbi": 1625,
      "Ġikwa": 1626,
      "ret": 1627,
      "Ġnkupbe": 1628,
      "kisibi": 1629,
      "chachak": 1630,
      "Ġonenigwen": 1631,
      "Ġnetan": 1632,
      "owot": 1633,
      "Ġetele": 1634,
      "Ġinya": 1635,
      "Ġonunu": 1636,
      "Ġgidio": 1637,
      "Ġnli": 1638,
      "kai": 1639,
      "kpolo": 1640,
      "Ġeyiyi": 1641,
      "Ġikarege": 1642,
      "Ġinido": 1643,
      "Ġeberam": 1644,
      "nube": 1645,
      "Ġoraria": 1646,
      "Ġnjijin": 1647,
      "Ġnkwurieen": 1648,
      "Ġetoon": 1649,
      "Ġojot": 1650,
      "Ġugwat": 1651,
      "Ġikinyi": 1652,
      "Ġnno": 1653,
      "chim": 1654,
      "top": 1655,
      "Ġekibe": 1656,
      "Ġotunwa": 1657,
      "Ġekpe": 1658,
      "Ġoriabe": 1659,
      "Ġdanien": 1660,
      "Ġurieek": 1661,
      "ukot": 1662,
      "Ġsekem": 1663,
      "Ġoguga": 1664,
      "uruk": 1665,
      "Ġochieekbe": 1666,
      "Ġikeki": 1667,
      "Ġmidi": 1668,
      "Ġjeen": 1669,
      "Ġonenifo": 1670,
      "gbaalek": 1671,
      "nanan": 1672,
      "Ġreyo": 1673,
      "Ġsera": 1674,
      "Ġoneninyi": 1675,
      "Ġegwijo": 1676,
      "Ġmidian": 1677,
      "sek": 1678,
      "Ġlo": 1679,
      "Ġogbaan": 1680,
      "Ġikeek": 1681,
      "kibele": 1682,
      "sook": 1683,
      "jajaan": 1684,
      "Ġokinyi": 1685,
      "Ġujat": 1686,
      "Ġjioya": 1687,
      "uwu": 1688,
      "Ġye": 1689,
      "Ġesun": 1690,
      "tuuk": 1691,
      "kisun": 1692,
      "chiaak": 1693,
      "Ġijeje": 1694,
      "Ġitaan": 1695,
      "Ġjedi": 1696,
      "Ġifan": 1697,
      "dikai": 1698,
      "titim": 1699,
      "Ġekario": 1700,
      "Ġokekebe": 1701,
      "Ġotitip": 1702,
      "Ġsamsin": 1703,
      "ÌĦ!âĢĿ": 1704,
      "Ġemu": 1705,
      "kabo": 1706,
      "Ġsimi": 1707,
      "Ġijija": 1708,
      "gwele": 1709,
      "Ġinanan": 1710,
      "Ġilook": 1711,
      "Ġichichini": 1712,
      "Ġiyakwut": 1713,
      "Ġsu": 1714,
      "Ġowo": 1715,
      "Ġugwun": 1716,
      "Ġukara": 1717,
      "sisi": 1718,
      "Ġnnyibe": 1719,
      "kaweek": 1720,
      "yok": 1721,
      "doni": 1722,
      "Ġaga": 1723,
      "Ġokana": 1724,
      "Ġesita": 1725,
      "Ġabimelek": 1726,
      "Ġjeriko": 1727,
      "Ġbeten": 1728,
      "Ġukarajit": 1729,
      "Ġigban": 1730,
      "Ġifit": 1731,
      "Ġefuk": 1732,
      "Ġogbugbo": 1733,
      "yaji": 1734,
      "wawa": 1735,
      "kim": 1736,
      "kitaan": 1737,
      "chacha": 1738,
      "Ġowut": 1739,
      "sobe": 1740,
      "Ġibala": 1741,
      "Ġjeka": 1742,
      "Ġijiji": 1743,
      "Ġigen": 1744,
      "fet": 1745,
      "Ġurak": 1746,
      "Ġsaimo": 1747,
      "sisibi": 1748,
      "Ġnkitumu": 1749,
      "kis": 1750,
      "sai": 1751,
      "chiin": 1752,
      "Ġikitap": 1753,
      "weweek": 1754,
      "Ġekom": 1755,
      "Ġebekisa": 1756,
      "Ġokwube": 1757,
      "Ġibeni": 1758,
      "kweek": 1759,
      "Ġegwook": 1760,
      "Ġoman": 1761,
      "Ġinaan": 1762,
      "mumen": 1763,
      "chichaka": 1764,
      "Ġkpen": 1765,
      "Ġjobu": 1766,
      "Ġichim": 1767,
      "Ġnuwa": 1768,
      "Ġijijinu": 1769,
      "efuuk": 1770,
      "ten": 1771,
      "Ġitetet": 1772,
      "rebe": 1773,
      "ralek": 1774,
      "Ġinibe": 1775,
      "Ġinigo": 1776,
      "Ġoboro": 1777,
      "nenirio": 1778,
      "tatana": 1779,
      "tutuuk": 1780,
      "Ġlebano": 1781,
      "jan": 1782,
      "okaan": 1783,
      "otutuuk": 1784,
      "Ġujit": 1785,
      "kiben": 1786,
      "kpak": 1787,
      "Ġotuuk": 1788,
      "Ġonanaan": 1789,
      "ruro": 1790,
      "Ġibaak": 1791,
      "Ġjosaya": 1792,
      "sibibe": 1793,
      "gobobe": 1794,
      "Ġotin": 1795,
      "kiriaak": 1796,
      "kikeek": 1797,
      "Ġirere": 1798,
      "Ġikiriaak": 1799,
      "Ġikario": 1800,
      "kpayaka": 1801,
      "Ġfigi": 1802,
      "Ġilep": 1803,
      "Ġododo": 1804,
      "Ġogobobe": 1805,
      "Ġnlilo": 1806,
      "Ġjedikaya": 1807,
      "buku": 1808,
      "feen": 1809,
      "gbet": 1810,
      "Ġyu": 1811,
      "Ġofu": 1812,
      "Ġukpak": 1813,
      "Ġnka": 1814,
      "Ġngi": 1815,
      "Ġnchat": 1816,
      "ino": 1817,
      "babia": 1818,
      "tis": 1819,
      "masi": 1820,
      "Ġigbu": 1821,
      "Ġejebe": 1822,
      "Ġjekaraya": 1823,
      ",âĢĿ": 1824,
      "ada": 1825,
      "yem": 1826,
      "Ġte": 1827,
      "Ġsun": 1828,
      "sio": 1829,
      "Ġinunu": 1830,
      "Ġisinu": 1831,
      "Ġkana": 1832,
      "Ġsime": 1833,
      "Ġonu": 1834,
      "Ġikiluk": 1835,
      "Ġekikpo": 1836,
      "Ġekekp": 1837,
      "tetbe": 1838,
      "nenisa": 1839,
      "nenikana": 1840,
      "Ġdamasi": 1841,
      "Ġemanbe": 1842,
      "Ġdamasiko": 1843,
      "beka": 1844,
      "gana": 1845,
      "nbe": 1846,
      "Ġgwu": 1847,
      "Ġefieek": 1848,
      "kamun": 1849,
      "mot": 1850,
      "dadasi": 1851,
      "Ġinikana": 1852,
      "Ġisak": 1853,
      "Ġjesi": 1854,
      "Ġonenije": 1855,
      "Ġekwaan": 1856,
      "Ġokiweek": 1857,
      "Ġakpat": 1858,
      "Ġujaralek": 1859,
      "juuk": 1860,
      "awaji": 1861,
      "fun": 1862,
      "Ġetitiin": 1863,
      "yada": 1864,
      "kiri": 1865,
      "Ġibele": 1866,
      "teen": 1867,
      "tio": 1868,
      "Ġekisi": 1869,
      "Ġekinyi": 1870,
      "Ġinikup": 1871,
      "riabe": 1872,
      "Ġasaya": 1873,
      "Ġkpebek": 1874,
      "Ġtaya": 1875,
      "Ġakaka": 1876,
      "Ġogbuuruk": 1877,
      "Ġogbugboon": 1878,
      "bek": 1879,
      "Ġigele": 1880,
      "Ġelo": 1881,
      "Ġekpulube": 1882,
      "Ġmbet": 1883,
      "chen": 1884,
      "kafat": 1885,
      "Ġsisa": 1886,
      "yon": 1887,
      "Ġinimun": 1888,
      "Ġalala": 1889,
      "Ġogbokot": 1890,
      "Ġrechen": 1891,
      "Ġichili": 1892,
      "Ġikinwo": 1893,
      "Ġukpatu": 1894,
      "Ġinyakpa": 1895,
      "ken": 1896,
      "Ġuchi": 1897,
      "retis": 1898,
      "Ġemo": 1899,
      "sasan": 1900,
      "Ġibeek": 1901,
      "Ġisimen": 1902,
      "liya": 1903,
      "lap": 1904,
      "Ġekiko": 1905,
      "Ġekigwa": 1906,
      "Ġiniro": 1907,
      "Ġiniben": 1908,
      "Ġekek": 1909,
      "feretis": 1910,
      "kpukpuku": 1911,
      "Ġrom": 1912,
      "juja": 1913,
      "Ġreyobuwam": 1914,
      "Ġyuferetis": 1915,
      "wi": 1916,
      "Ġegba": 1917,
      "boni": 1918,
      "Ġnlom": 1919,
      "kilo": 1920,
      "fiak": 1921,
      "Ġgat": 1922,
      "Ġojeje": 1923,
      "Ġkom": 1924,
      "Ġngigo": 1925,
      "Ġigbugbo": 1926,
      "Ġgwa": 1927,
      "Ì£?âĢĿ": 1928,
      "Ġewa": 1929,
      "Ġoyo": 1930,
      "Ġobaak": 1931,
      "Ġujuja": 1932,
      "Ġaba": 1933,
      "sisiki": 1934,
      "kima": 1935,
      "oket": 1936,
      "Ġinikeke": 1937,
      "Ġoke": 1938,
      "Ġokikpo": 1939,
      "Ġokinan": 1940,
      "Ġbasan": 1941,
      "Ġigu": 1942,
      "Ġmbasa": 1943,
      "Ġiye": 1944,
      "Ġiburu": 1945,
      "Ġeta": 1946,
      "Ġoyaka": 1947,
      "Ġacho": 1948,
      "Ġisiraka": 1949,
      "fifila": 1950,
      "Ġidodo": 1951,
      "Ġotoon": 1952,
      "Ġobokup": 1953,
      "Ġinenisa": 1954,
      "Ġjeyoyada": 1955,
      "Ġribeka": 1956,
      "Ġmbe": 1957,
      "wukwu": 1958,
      "Ġnsabe": 1959,
      "kire": 1960,
      "kimo": 1961,
      "kirie": 1962,
      "kinwo": 1963,
      "tiin": 1964,
      "Ġsiki": 1965,
      "Ġokwun": 1966,
      "Ġkperarak": 1967,
      "Ġokikpulu": 1968,
      "Ġjudia": 1969,
      "Ġenenitumu": 1970,
      "Ġigbagban": 1971,
      "Ġsema": 1972,
      "Ġosisi": 1973,
      "Ġekpakpan": 1974,
      "Ġifaka": 1975,
      "Ġsimio": 1976,
      "Ġofut": 1977,
      "Ġtet": 1978,
      "Ġmbo": 1979,
      "Ġmera": 1980,
      "Ġnnyan": 1981,
      "kido": 1982,
      "Ġikaro": 1983,
      "ruruk": 1984,
      "Ġokito": 1985,
      "Ġjowas": 1986,
      "Ġjado": 1987,
      "Ġenenido": 1988,
      "Ġininin": 1989,
      "Ġekesi": 1990,
      "Ġnjin": 1991,
      "Ġgibiya": 1992,
      "Ġaligo": 1993,
      "tana": 1994,
      "Ġelook": 1995,
      "Ġogugo": 1996,
      "Ġkup": 1997,
      "Ġamin": 1998,
      "reli": 1999,
      "Ġnruruk": 2000,
      "kigwen": 2001,
      "kidun": 2002,
      "koro": 2003,
      "gween": 2004,
      "Ġikido": 2005,
      "jaya": 2006,
      "seba": 2007,
      "Ġkpegban": 2008,
      "kanabe": 2009,
      "Ġiwop": 2010,
      "Ġikwukwu": 2011,
      "Ġonube": 2012,
      ",âĢĻ": 2013,
      "len": 2014,
      "Ġlibi": 2015,
      "Ġfan": 2016,
      "Ġisusun": 2017,
      "bojeje": 2018,
      "jiya": 2019,
      "Ġsie": 2020,
      "gon": 2021,
      "fon": 2022,
      "Ġamalek": 2023,
      "Ġinikpa": 2024,
      "Ġonenibo": 2025,
      "Ġoneniro": 2026,
      "Ġonenibene": 2027,
      "fum": 2028,
      "yanan": 2029,
      "teleyem": 2030,
      "Ġesisi": 2031,
      "Ġayaji": 2032,
      "Ġekekitumu": 2033,
      "Ġbeteleyem": 2034,
      "Ġegwogwook": 2035,
      "fitali": 2036,
      "Ġomanbe": 2037,
      "ike": 2038,
      "wan": 2039,
      "Ġdo": 2040,
      "Ġituuk": 2041,
      "Ġeweek": 2042,
      "Ġakwo": 2043,
      "set": 2044,
      "Ġonenikwu": 2045,
      "Ġkpemun": 2046,
      "Ġejeek": 2047,
      "ninin": 2048,
      "Ġewop": 2049,
      "Ġitana": 2050,
      "Ġegwugwu": 2051,
      "Ġtema": 2052,
      "Ġgibio": 2053,
      "Ġigugo": 2054,
      "faan": 2055,
      "Ġiti": 2056,
      "Ġechechieek": 2057,
      "Ġinyam": 2058,
      "Ġaman": 2059,
      "Ġnkiro": 2060,
      "Ġkecha": 2061,
      "raan": 2062,
      "Ġikakup": 2063,
      "Ġagbasi": 2064,
      "abas": 2065,
      "Ġnafitali": 2066,
      "Ġigwugwuun": 2067,
      "Ġonineen": 2068,
      "Ġbanabas": 2069,
      "Ġfanti": 2070,
      "us": 2071,
      "ut": 2072,
      "Ġiluluk": 2073,
      "wuwuuk": 2074,
      "Ġai": 2075,
      "jebe": 2076,
      "kitaka": 2077,
      "lim": 2078,
      "Ġikatet": 2079,
      "Ġamajiya": 2080,
      "Ġebebe": 2081,
      "Ġiboni": 2082,
      "Ġmfufiat": 2083,
      "Ġelia": 2084,
      "Ġikpukpo": 2085,
      "Ġoniro": 2086,
      "Ġetetbe": 2087,
      "Ġokwukwek": 2088,
      "Ġajariya": 2089,
      "Ġotapbe": 2090,
      "Ġjesereli": 2091,
      "Ġmbit": 2092,
      "Ġojotbe": 2093,
      "Ġsimei": 2094,
      "kek": 2095,
      "Ġbu": 2096,
      "Ġimeen": 2097,
      "Ġosun": 2098,
      "Ġosibibe": 2099,
      "ano": 2100,
      "Ġnnyi": 2101,
      "rok": 2102,
      "kasa": 2103,
      "Ġisisibi": 2104,
      "Ġirerie": 2105,
      "Ġsilo": 2106,
      "Ġikiko": 2107,
      "Ġekikeek": 2108,
      "Ġorombe": 2109,
      "tititiin": 2110,
      "Ġjudas": 2111,
      "sulube": 2112,
      "Ġkora": 2113,
      "Ġbie": 2114,
      "Ġemumun": 2115,
      "kororok": 2116,
      "Ġanan": 2117,
      "Ġomin": 2118,
      "Ġomumun": 2119,
      "Ġinwaan": 2120,
      "Ġabo": 2121,
      "Ġikukup": 2122,
      "ÌĤ.": 2123,
      "Ġmiji": 2124,
      "Ġikibo": 2125,
      "liki": 2126,
      "Ġikasa": 2127,
      "chechep": 2128,
      "Ġejeen": 2129,
      "Ġsetan": 2130,
      "laakbe": 2131,
      "Ġkoyat": 2132,
      "Ġenube": 2133,
      "Ġjebulo": 2134,
      "Ġechieekbe": 2135,
      "kem": 2136,
      "oye": 2137,
      "Ġomo": 2138,
      "Ġufo": 2139,
      "Ġuwot": 2140,
      "Ġukwek": 2141,
      "Ġikinu": 2142,
      "Ġikween": 2143,
      "kifieek": 2144,
      "Ġisini": 2145,
      "bumu": 2146,
      "Ġejijaka": 2147,
      "Ġsido": 2148,
      "Ġitaak": 2149,
      "Ġitatap": 2150,
      "Ġibat": 2151,
      "Ġobore": 2152,
      "Ġewuukbe": 2153,
      "Ġfila": 2154,
      "Ġayajaya": 2155,
      "Ġikakana": 2156,
      "Ġpere": 2157,
      "oyerebet": 2158,
      "dek": 2159,
      "Ġitetele": 2160,
      "Ġokpan": 2161,
      "Ġogwegwen": 2162,
      "Ġufun": 2163,
      "Ġakpo": 2164,
      "Ġngo": 2165,
      "mumana": 2166,
      "kpore": 2167,
      "Ġikigwen": 2168,
      "lilaba": 2169,
      "Ġekikup": 2170,
      "Ġune": 2171,
      "Ġjemi": 2172,
      "Ġonenito": 2173,
      "Ġorom": 2174,
      "benbe": 2175,
      "Ġsodo": 2176,
      "Ġkpekiko": 2177,
      "Ġolukbe": 2178,
      "Ġoriara": 2179,
      "ekpe": 2180,
      "Ġokanabe": 2181,
      "Ġufuna": 2182,
      "Ġobu": 2183,
      "Ġoma": 2184,
      "Ġosan": 2185,
      "yiaan": 2186,
      "Ġkelep": 2187,
      "Ġogwugwa": 2188,
      "bala": 2189,
      "leek": 2190,
      "anama": 2191,
      "Ġikigwa": 2192,
      "dabu": 2193,
      "Ġekibo": 2194,
      "Ġekirie": 2195,
      "kpakpan": 2196,
      "Ġitobo": 2197,
      "dido": 2198,
      "rekwukwu": 2199,
      "Ġekesa": 2200,
      "Ġekerekwukwu": 2201,
      "Ġseya": 2202,
      "Ġfilip": 2203,
      "Ġikwuun": 2204,
      "Ġanyiaan": 2205,
      "Ġotataan": 2206,
      "Ġfilafila": 2207,
      "Ġpereji": 2208,
      "nene": 2209,
      "Ġiwut": 2210,
      "Ġeche": 2211,
      "Ġetutumu": 2212,
      "Ġmfi": 2213,
      "Ġoweekbe": 2214,
      "Ġobenebe": 2215,
      "Ġininyi": 2216,
      "Ġakat": 2217,
      "Ġngan": 2218,
      "Ġebikaan": 2219,
      "Ġenek": 2220,
      "Ġenyan": 2221,
      "katet": 2222,
      "ris": 2223,
      "eman": 2224,
      "Ġisimun": 2225,
      "Ġkiria": 2226,
      "Ġinilook": 2227,
      "Ġenenije": 2228,
      "Ġnriro": 2229,
      "Ġmbaro": 2230,
      "Ġbenaya": 2231,
      "Ġnjijan": 2232,
      "Ġjebus": 2233,
      "Ġenamabe": 2234,
      "Ġnjijoon": 2235,
      "Ġjemis": 2236,
      "ata": 2237,
      "kween": 2238,
      "Ġiyik": 2239,
      "Ġeweekbe": 2240,
      "Ġmban": 2241,
      "boyaka": 2242,
      "beben": 2243,
      "yas": 2244,
      "Ġenye": 2245,
      "katele": 2246,
      "kilibi": 2247,
      "rim": 2248,
      "riki": 2249,
      "Ġisire": 2250,
      "lia": 2251,
      "daya": 2252,
      "Ġisaka": 2253,
      "riaan": 2254,
      "Ġkpero": 2255,
      "kanwo": 2256,
      "Ġenenisi": 2257,
      "Ġolilibi": 2258,
      "Ġasafu": 2259,
      "Ġpesia": 2260,
      "Ġmijipa": 2261,
      "Ġwi": 2262,
      "Ġami": 2263,
      "Ġadoni": 2264,
      "tutun": 2265,
      "kagbe": 2266,
      "kikpukpo": 2267,
      "kikput": 2268,
      "Ġonwo": 2269,
      "lai": 2270,
      "Ġekitap": 2271,
      "Ġinigwook": 2272,
      "Ġifin": 2273,
      "Ġekukup": 2274,
      "Ġekekeke": 2275,
      "dimi": 2276,
      "Ġbalak": 2277,
      "Ġejet": 2278,
      "Ġilap": 2279,
      "Ġufiak": 2280,
      "Ġigwugwu": 2281,
      "takabe": 2282,
      "Ġnkinyi": 2283,
      "Ġosikibe": 2284,
      "Ġimaan": 2285,
      "Ġrama": 2286,
      "Ġmerari": 2287,
      "aka": 2288,
      "nwene": 2289,
      "tem": 2290,
      "Ġgwook": 2291,
      "Ġija": 2292,
      "Ġiwulu": 2293,
      "Ġmgbugbo": 2294,
      "Ġoga": 2295,
      "gwugwuun": 2296,
      "jeri": 2297,
      "Ġikifieek": 2298,
      "lalaak": 2299,
      "Ġekigbaan": 2300,
      "kpako": 2301,
      "Ġiniki": 2302,
      "Ġsaina": 2303,
      "Ġkpesa": 2304,
      "suru": 2305,
      "Ġakpakpa": 2306,
      "miri": 2307,
      "Ġibosi": 2308,
      "nenire": 2309,
      "Ġefuun": 2310,
      "Ġelisa": 2311,
      "Ġuraya": 2312,
      "Ġasasa": 2313,
      "Ġegop": 2314,
      "Ġakajit": 2315,
      "Ġsemaya": 2316,
      "Ġmmumun": 2317,
      "Ġogba": 2318,
      "Ġoyayaka": 2319,
      "Ġulu": 2320,
      "Ġnso": 2321,
      "Ġnnaan": 2322,
      "Ġkeek": 2323,
      "katumu": 2324,
      "kikaan": 2325,
      "baan": 2326,
      "Ġekinu": 2327,
      "Ġjera": 2328,
      "Ġkpewo": 2329,
      "Ġoboni": 2330,
      "Ġifet": 2331,
      "wuukbe": 2332,
      "timbe": 2333,
      "Ġlia": 2334,
      "Ġgiligan": 2335,
      "des": 2336,
      "Ġikwala": 2337,
      "Ġjioyakim": 2338,
      "adadi": 2339,
      "Ġekekpo": 2340,
      "ito": 2341,
      "Ġiwuuk": 2342,
      "Ġigwegwen": 2343,
      "Ġibieen": 2344,
      "ÌĢ-": 2345,
      "boki": 2346,
      "jijijaka": 2347,
      "tam": 2348,
      "Ġikiwo": 2349,
      "Ġikigban": 2350,
      "Ġikikeek": 2351,
      "Ġejitbe": 2352,
      "Ġmbubeek": 2353,
      "gwogwook": 2354,
      "kanan": 2355,
      "Ġekakaan": 2356,
      "tataba": 2357,
      ".)": 2358,
      "Ġrio": 2359,
      "Ġegwen": 2360,
      "wuwo": 2361,
      "boset": 2362,
      "sibe": 2363,
      "Ġibeben": 2364,
      "Ġsiyon": 2365,
      "Ġamat": 2366,
      "Ġkpeben": 2367,
      "Ġunyechieen": 2368,
      "kanyi": 2369,
      "Ġbali": 2370,
      "Ġigbe": 2371,
      "Ġesibon": 2372,
      "Ġjeruba": 2373,
      "Ġekakpo": 2374,
      "Ġmfuun": 2375,
      "Ġebekup": 2376,
      "Ġebekpa": 2377,
      "Ġekoon": 2378,
      "Ġkpomo": 2379,
      "Ġmbatumu": 2380,
      "Ġabija": 2381,
      "Ġnebo": 2382,
      "Ġasera": 2383,
      "fen": 2384,
      "mkpo": 2385,
      "pe": 2386,
      "Ġosobe": 2387,
      "Ġkwu": 2388,
      "Ġnlak": 2389,
      "yayat": 2390,
      "chon": 2391,
      "jet": 2392,
      "kibene": 2393,
      "Ġibesi": 2394,
      "toto": 2395,
      "Ġikpukot": 2396,
      "Ġikilook": 2397,
      "Ġinitoon": 2398,
      "Ġbowaji": 2399,
      "titibi": 2400,
      "Ġobeben": 2401,
      "Ġmbat": 2402,
      "Ġichiaak": 2403,
      "Ġnkwukwak": 2404,
      "Ġkiriat": 2405,
      "),": 2406,
      "buk": 2407,
      "Ġega": 2408,
      "Ġedim": 2409,
      "Ġoweek": 2410,
      "Ġotetbe": 2411,
      "Ġnsek": 2412,
      "jijibi": 2413,
      "wakwaan": 2414,
      "rorom": 2415,
      "kam": 2416,
      "kigwa": 2417,
      "kitoon": 2418,
      "kinyan": 2419,
      "kitutuku": 2420,
      "Ġibem": 2421,
      "Ġejira": 2422,
      "lilibi": 2423,
      "Ġekigo": 2424,
      "sero": 2425,
      "Ġokitaan": 2426,
      "Ġgasio": 2427,
      "Ġenenigbaan": 2428,
      "Ġnali": 2429,
      "Ġayasero": 2430,
      "Ġasaak": 2431,
      "Ġekpuk": 2432,
      "Ġadam": 2433,
      "Ġegwookbe": 2434,
      "Ġamino": 2435,
      "Ġwit": 2436,
      "Ġebekpakpan": 2437,
      "Ġeso": 2438,
      "Ġomumen": 2439,
      "Ġiken": 2440,
      "kisiki": 2441,
      "tataka": 2442,
      "unun": 2443,
      "Ġinikpo": 2444,
      "Ġisasan": 2445,
      "Ġmaika": 2446,
      "Ġokitap": 2447,
      "Ġokijeen": 2448,
      "lukwulu": 2449,
      "Ġebejeje": 2450,
      "Ġkatet": 2451,
      "Ġekakat": 2452,
      "Ġochili": 2453,
      "jomobe": 2454,
      "Ġodobe": 2455,
      "isi": 2456,
      "Ġileke": 2457,
      "Ì£!âĢĿ": 2458,
      "Ġekpulu": 2459,
      "Ġogbe": 2460,
      "Ġomabe": 2461,
      "boje": 2462,
      "bolo": 2463,
      "bonu": 2464,
      "Ġnko": 2465,
      "Ġnchi": 2466,
      "jeret": 2467,
      "Ġyaka": 2468,
      "Ġonama": 2469,
      "lobo": 2470,
      "Ġikisibi": 2471,
      "kwube": 2472,
      "Ġmaaka": 2473,
      "susulu": 2474,
      "Ġofieek": 2475,
      "Ġebesi": 2476,
      "Ġkawuuk": 2477,
      "Ġjotam": 2478,
      "Ġifefieek": 2479,
      "Ġijin": 2480,
      "Ġiraak": 2481,
      "Ġesibe": 2482,
      "Ġekakana": 2483,
      "gbugbuku": 2484,
      "Ġnajeret": 2485,
      "Ġobedi": 2486,
      "Ġujaya": 2487,
      "Ġgiris": 2488,
      "gumu": 2489,
      "Ġojebe": 2490,
      "kwala": 2491,
      "Ġifiaan": 2492,
      "neneme": 2493,
      "Ġnrebe": 2494,
      "Ġjeyoram": 2495,
      "Ġurimi": 2496,
      "Ġekekebe": 2497,
      "wuwum": 2498,
      "Ġsieba": 2499,
      "Ġkwulukwulu": 2500,
      "mkpan": 2501,
      "nyam": 2502,
      "nyana": 2503,
      "Ġtuku": 2504,
      "Ġijak": 2505,
      "Ġichaka": 2506,
      "Ġefa": 2507,
      "Ġetatap": 2508,
      "Ġmgbaan": 2509,
      "Ġojit": 2510,
      "Ġojeen": 2511,
      "Ġodu": 2512,
      "bes": 2513,
      "Ġntim": 2514,
      "Ġenun": 2515,
      "kiya": 2516,
      "kisan": 2517,
      "kimin": 2518,
      "kitim": 2519,
      "mama": 2520,
      "Ġikisun": 2521,
      "las": 2522,
      "Ġoneniben": 2523,
      "Ġokekeke": 2524,
      "Ġofia": 2525,
      "Ġeberie": 2526,
      "tapbe": 2527,
      "Ġjoram": 2528,
      "Ġiraria": 2529,
      "Ġefumbe": 2530,
      "Ġeketo": 2531,
      "kpebe": 2532,
      "Ġotitop": 2533,
      "Ġegbagbaan": 2534,
      "ofi": 2535,
      "Ġolo": 2536,
      "Ġolaakbe": 2537,
      "beme": 2538,
      "bini": 2539,
      "Ġnria": 2540,
      "Ġnkisa": 2541,
      "kino": 2542,
      "enia": 2543,
      "Ġikibem": 2544,
      "Ġikalo": 2545,
      "Ġiniria": 2546,
      "Ġinitim": 2547,
      "Ġonenikpo": 2548,
      "Ġsalu": 2549,
      "Ġokinu": 2550,
      "lukbe": 2551,
      "unuun": 2552,
      "fieekge": 2553,
      "mimiin": 2554,
      "Ġosasan": 2555,
      "Ġenenigwu": 2556,
      "Ġnnenimun": 2557,
      "Ġantio": 2558,
      "Ġrufu": 2559,
      "Ġeninin": 2560,
      "sisip": 2561,
      "Ġnchicha": 2562,
      "fuku": 2563,
      "ruku": 2564,
      "renia": 2565,
      "Ġmedi": 2566,
      "Ġkweek": 2567,
      "wum": 2568,
      "wuku": 2569,
      "wuruku": 2570,
      "Ġnin": 2571,
      "kajaka": 2572,
      "kimun": 2573,
      "kifuuk": 2574,
      "Ġisisik": 2575,
      "terenia": 2576,
      "Ġijomo": 2577,
      "kpokup": 2578,
      "daliya": 2579,
      "Ġekimun": 2580,
      "Ġekijeen": 2581,
      "Ġjet": 2582,
      "Ġokisibi": 2583,
      "mega": 2584,
      "Ġesiki": 2585,
      "Ġjakajaka": 2586,
      "Ġigbaka": 2587,
      "Ġebekaan": 2588,
      "Ġseru": 2589,
      "Ġabiata": 2590,
      "Ġseme": 2591,
      "Ġosibe": 2592,
      "Ġikinye": 2593,
      "namabe": 2594,
      "Ġmgbet": 2595,
      "Ġano": 2596,
      "Ġngobobe": 2597,
      "liliin": 2598,
      "Ġtimo": 2599,
      "Ġagam": 2600,
      "Ġefukbe": 2601,
      "Ġbieseba": 2602,
      "Ġtukutuku": 2603,
      "Ġmediterenia": 2604,
      "nchieek": 2605,
      "Ġria": 2606,
      "Ġluk": 2607,
      "Ġgbaalek": 2608,
      "Ġegban": 2609,
      "Ġelam": 2610,
      "Ġmmabe": 2611,
      "Ġochechieek": 2612,
      "Ġnun": 2613,
      "Ġnkana": 2614,
      "Ġntutun": 2615,
      "gwugwu": 2616,
      "kakiro": 2617,
      "chichit": 2618,
      "Ġgera": 2619,
      "Ġgedaliya": 2620,
      "jop": 2621,
      "Ġemaan": 2622,
      "Ġejiro": 2623,
      "Ġmikaya": 2624,
      "dodo": 2625,
      "Ġikikaan": 2626,
      "Ġikibele": 2627,
      "lio": 2628,
      "Ġekitutuku": 2629,
      "Ġinigwu": 2630,
      "Ġunin": 2631,
      "sera": 2632,
      "Ġsaro": 2633,
      "Ġenenititiin": 2634,
      "Ġigwagwa": 2635,
      "Ġelilim": 2636,
      "Ġkpebero": 2637,
      "Ġebekimin": 2638,
      "Ġosisibi": 2639,
      "kararak": 2640,
      "Ġsailas": 2641,
      "ebe": 2642,
      "ikup": 2643,
      "Ġela": 2644,
      "Ġeria": 2645,
      "Ġegwenbe": 2646,
      "Ġokwut": 2647,
      "Ġmesi": 2648,
      "bonan": 2649,
      "Ġineme": 2650,
      "gwuuk": 2651,
      "kafieek": 2652,
      "kigban": 2653,
      "inin": 2654,
      "kut": 2655,
      "Ġotukot": 2656,
      "Ġisiro": 2657,
      "tobo": 2658,
      "Ġikitet": 2659,
      "Ġikijijen": 2660,
      "Ġuwuuk": 2661,
      "Ġikawuuk": 2662,
      "kpatele": 2663,
      "Ġmbubak": 2664,
      "Ġiroon": 2665,
      "Ġonenisan": 2666,
      "Ġitop": 2667,
      "nyinyi": 2668,
      "ranet": 2669,
      "Ġkamen": 2670,
      "Ġofifit": 2671,
      "Ġbasa": 2672,
      "Ġesisibi": 2673,
      "Ġebeni": 2674,
      "Ġekaro": 2675,
      "Ġekako": 2676,
      "Ġugbek": 2677,
      "Ġichibi": 2678,
      "Ġpomega": 2679,
      "Ġilip": 2680,
      "Ġilikiya": 2681,
      "Ġbeja": 2682,
      "kinyinyo": 2683,
      "Ġjeyowa": 2684,
      "Ġkpebekaan": 2685,
      "Ġananiya": 2686,
      "Ġadonija": 2687,
      "Ġpomegaranet": 2688,
      "ngwa": 2689,
      "Ġiyiyala": 2690,
      "Ġecha": 2691,
      "Ġmweek": 2692,
      "Ġojo": 2693,
      "Ġotele": 2694,
      "Ġochieek": 2695,
      "Ġokpukpulu": 2696,
      "Ġosulube": 2697,
      "bokwukwu": 2698,
      "bokikpulu": 2699,
      "Ġnge": 2700,
      "Ġnnen": 2701,
      "kasan": 2702,
      "ribo": 2703,
      "taak": 2704,
      "chibi": 2705,
      "Ġibeme": 2706,
      "Ġejijit": 2707,
      "soon": 2708,
      "Ġonyenye": 2709,
      "Ġikput": 2710,
      "Ġikimo": 2711,
      "Ġikitim": 2712,
      "Ġikiwut": 2713,
      "gwaka": 2714,
      "Ġikako": 2715,
      "seya": 2716,
      "Ġonenigwu": 2717,
      "Ġebetumu": 2718,
      "Ġbaruk": 2719,
      "Ġenenijibi": 2720,
      "neniro": 2721,
      "Ġnaban": 2722,
      "Ġokodi": 2723,
      "Ġegonbe": 2724,
      "Ġkpekup": 2725,
      "Ġmbiribo": 2726,
      "Ġobubot": 2727,
      "Ġsalum": 2728,
      "gbin": 2729,
      "Ġf": 2730,
      "Ġiruro": 2731,
      "Ġogban": 2732,
      "Ġofefieek": 2733,
      "Ġkus": 2734,
      "Ġusa": 2735,
      "Ġugwuuk": 2736,
      "Ġikwo": 2737,
      "tuun": 2738,
      "gwuku": 2739,
      "kalo": 2740,
      "kpunu": 2741,
      "Ġgeyaji": 2742,
      "Ġejibi": 2743,
      "Ġowuuk": 2744,
      "Ġirep": 2745,
      "kpokaan": 2746,
      "maan": 2747,
      "liin": 2748,
      "Ġikare": 2749,
      "Ġekiriaak": 2750,
      "Ġinibo": 2751,
      "Ġjesuwa": 2752,
      "Ġokek": 2753,
      "Ġsafan": 2754,
      "yakabe": 2755,
      "Ġekan": 2756,
      "Ġkpefuk": 2757,
      "Ġokitet": 2758,
      "Ġeberi": 2759,
      "Ġenenire": 2760,
      "Ġaraba": 2761,
      "Ġigwat": 2762,
      "Ġewopbe": 2763,
      "Ġabisai": 2764,
      "Ġkpekiro": 2765,
      "Ġakasia": 2766,
      "Ġotatap": 2767,
      "Ġnomi": 2768,
      "Ġajayen": 2769,
      "Ġlajo": 2770,
      "Ġegwabe": 2771,
      "Ġefieekbe": 2772,
      "beki": 2773,
      "mem": 2774,
      "Ġichieen": 2775,
      "Ġiyat": 2776,
      "Ġeku": 2777,
      "Ġedasi": 2778,
      "Ġelibi": 2779,
      "Ġegobo": 2780,
      "Ġetio": 2781,
      "Ġegbugbuku": 2782,
      "Ġokpukp": 2783,
      "Ġobenbe": 2784,
      "Ġnwo": 2785,
      "kaba": 2786,
      "kitibi": 2787,
      "ineya": 2788,
      "totoon": 2789,
      "Ġsisera": 2790,
      "ake": 2791,
      "Ġikibeek": 2792,
      "lululuk": 2793,
      "Ġonenijibi": 2794,
      "Ġmaliki": 2795,
      "Ġekwakwaan": 2796,
      "gbak": 2797,
      "Ġkpeweek": 2798,
      "Ġotobe": 2799,
      "Ġebeto": 2800,
      "Ġkat": 2801,
      "Ġkayaka": 2802,
      "Ġkades": 2803,
      "Ì£.âĢĻ": 2804,
      "niro": 2805,
      "fafiat": 2806,
      "Ġikanye": 2807,
      "pia": 2808,
      "Ġisook": 2809,
      "Ġebeko": 2810,
      "Ġifuku": 2811,
      "Ġnaya": 2812,
      "Ġnayo": 2813,
      "Ġelikana": 2814,
      "Ġogebe": 2815,
      "Ġichip": 2816,
      "temebe": 2817,
      "Ġililaba": 2818,
      "Ġikino": 2819,
      "Ġjeyowas": 2820,
      "Ġetimbe": 2821,
      "Ġramot": 2822,
      "Ġeyakabe": 2823,
      "Ġjioyakin": 2824,
      "Ġikakupge": 2825,
      "Ġogaan": 2826,
      "Ġonamabe": 2827,
      "Ġbejalen": 2828,
      "Ġetiopia": 2829,
      "ineyas": 2830,
      "Ġgbo": 2831,
      "Ġigbo": 2832,
      "Ġewu": 2833,
      "Ġeba": 2834,
      "Ġele": 2835,
      "Ġebene": 2836,
      "Ġetaka": 2837,
      "Ġewuwu": 2838,
      "Ġeraria": 2839,
      "ÌĦ:": 2840,
      "Ġobum": 2841,
      "Ġotetele": 2842,
      "Ġogwenbe": 2843,
      "botoon": 2844,
      "Ġnti": 2845,
      "Ġnde": 2846,
      "kige": 2847,
      "kikpa": 2848,
      "Ġogwulo": 2849,
      "chachiaak": 2850,
      "Ġejijibi": 2851,
      "Ġokuba": 2852,
      "Ġsitibi": 2853,
      "kpobo": 2854,
      "Ġkpukp": 2855,
      "Ġikiben": 2856,
      "Ġikitaka": 2857,
      "Ġekikaan": 2858,
      "Ġinisi": 2859,
      "Ġinikpulu": 2860,
      "Ġjefita": 2861,
      "Ġebeyaka": 2862,
      "Ġkasa": 2863,
      "Ġikanan": 2864,
      "gbeme": 2865,
      "Ġrefa": 2866,
      "Ġnieman": 2867,
      "Ġnebat": 2868,
      "Ġiriaan": 2869,
      "Ġakara": 2870,
      "Ġotabe": 2871,
      "wenwene": 2872,
      "Ġjeseben": 2873,
      "donia": 2874,
      "Ġjerubaben": 2875,
      "Ġofieekbe": 2876,
      "Ġmesidonia": 2877,
      "Ġjeyowayaji": 2878,
      "Ġfineyas": 2879,
      "Ġokpukpuk": 2880,
      "Ġsitibin": 2881,
      "Ġgwen": 2882,
      "Ġotet": 2883,
      "Ġojijibi": 2884,
      "Ġmesu": 2885,
      "Ġinwun": 2886,
      "sito": 2887,
      "Ġnkwa": 2888,
      "Ġntut": 2889,
      "kago": 2890,
      "kala": 2891,
      "kasibi": 2892,
      "katat": 2893,
      "Ġenesi": 2894,
      "Ġenego": 2895,
      "Ġonye": 2896,
      "Ġikikup": 2897,
      "Ġikimin": 2898,
      "Ġikitoon": 2899,
      "lileek": 2900,
      "Ġererie": 2901,
      "Ġikato": 2902,
      "Ġikafieek": 2903,
      "Ġikafiat": 2904,
      "Ġekisun": 2905,
      "Ġinirio": 2906,
      "Ġiniyik": 2907,
      "Ġinichichini": 2908,
      "Ġoneniman": 2909,
      "Ġmakiri": 2910,
      "Ġkpebo": 2911,
      "Ġkpetet": 2912,
      "Ġobosi": 2913,
      "Ġigbama": 2914,
      "gbugbu": 2915,
      "Ġochichit": 2916,
      "inife": 2917,
      "fakabe": 2918,
      "Ġekekije": 2919,
      "Ġififila": 2920,
      "Ġsem": 2921,
      "kisisaak": 2922,
      "Ġtasis": 2923,
      "Ġdario": 2924,
      "Ġayija": 2925,
      "Ġoneninin": 2926,
      "Ġbani": 2927,
      "Ġokpakpan": 2928,
      "Ġsisaria": 2929,
      "Ġseruya": 2930,
      "Ġsemes": 2931,
      "Ġikanyege": 2932,
      "ai": 2933,
      "Ġicha": 2934,
      "Ġiwot": 2935,
      "Ġefi": 2936,
      "Ġebenebe": 2937,
      "Ġobene": 2938,
      "Ġokpulube": 2939,
      "biya": 2940,
      "redi": 2941,
      "Ġnluk": 2942,
      "Ġnchieekbe": 2943,
      "gegen": 2944,
      "kama": 2945,
      "kasik": 2946,
      "kibu": 2947,
      "kikpan": 2948,
      "kpuku": 2949,
      "Ġisinin": 2950,
      "Ġmidia": 2951,
      "kponwo": 2952,
      "Ġikiran": 2953,
      "Ġikilibi": 2954,
      "Ġekinan": 2955,
      "Ġiniluk": 2956,
      "Ġmbuuk": 2957,
      "Ġonenikpulu": 2958,
      "Ġokiluk": 2959,
      "wewele": 2960,
      "Ġjoyanan": 2961,
      "nisa": 2962,
      "Ġesak": 2963,
      "Ġgaja": 2964,
      "Ġijiin": 2965,
      "Ġiram": 2966,
      "Ġjabes": 2967,
      "Ġekakwaan": 2968,
      "Ġekafieekge": 2969,
      "Ġnadabu": 2970,
      "Ġinenibe": 2971,
      "Ġnkito": 2972,
      "Ġefeso": 2973,
      "Ġifum": 2974,
      "Ġdibo": 2975,
      "Ġeriebe": 2976,
      "Ġlakis": 2977,
      "Ġsusa": 2978,
      "Ġejijakabe": 2979,
      "Ġochilibe": 2980,
      "Ġowuukbe": 2981,
      "Ġmesulam": 2982,
      "akpa": 2983,
      "beko": 2984,
      "deja": 2985,
      "Ġrek": 2986,
      "Ġgwat": 2987,
      "Ġigat": 2988,
      "Ġisusulu": 2989,
      "Ġejot": 2990,
      "Ġeriabe": 2991,
      "Ġobi": 2992,
      "Ġoche": 2993,
      "Ġojijaka": 2994,
      "Ġotata": 2995,
      "Ġogwogwook": 2996,
      "bokpo": 2997,
      "Ġam": 2998,
      "Ġate": 2999,
      "Ġaso": 3000,
      "Ġadi": 3001,
      "Ġninife": 3002,
      "inyo": 3003,
      "chichi": 3004,
      "chimi": 3005,
      "chichili": 3006,
      "Ġibebe": 3007,
      "bajeje": 3008,
      "teek": 3009,
      "Ġmika": 3010,
      "Ġkis": 3011,
      "Ġijojomo": 3012,
      "Ġkpulu": 3013,
      "Ġikikpa": 3014,
      "Ġikatele": 3015,
      "Ġikagbe": 3016,
      "Ġekimo": 3017,
      "Ġekiben": 3018,
      "Ġonenimun": 3019,
      "Ġonenisibi": 3020,
      "Ġmatan": 3021,
      "Ġngwugwat": 3022,
      "Ġitoto": 3023,
      "gbagban": 3024,
      "Ġokikaan": 3025,
      "Ġokinyan": 3026,
      "Ġkap": 3027,
      "Ġigana": 3028,
      "riaakbe": 3029,
      "Ġenenibe": 3030,
      "Ġinyanyan": 3031,
      "gbebe": 3032,
      "gbugbugbo": 3033,
      "Ġilolook": 3034,
      "Ġreya": 3035,
      "Ġsefa": 3036,
      "Ġitem": 3037,
      "Ġililibi": 3038,
      "Ġefefieek": 3039,
      "Ġkena": 3040,
      "Ġadadeja": 3041,
      "Ġtimin": 3042,
      "Ġikwak": 3043,
      "Ġemumana": 3044,
      "Ġkpeno": 3045,
      "anowa": 3046,
      "Ġewuwuwum": 3047,
      "Ġakarake": 3048,
      "Ġikagbege": 3049,
      ").": 3050,
      "mmun": 3051,
      "ne": 3052,
      "olom": 3053,
      "Ġweek": 3054,
      "Ġfieek": 3055,
      "Ġwele": 3056,
      "Ġimiin": 3057,
      "Ġititim": 3058,
      "Ġofa": 3059,
      "bosi": 3060,
      "bobene": 3061,
      "Ġinanama": 3062,
      "Ġakis": 3063,
      "res": 3064,
      "rombe": 3065,
      "kado": 3066,
      "kiso": 3067,
      "kinin": 3068,
      "inwo": 3069,
      "Ġotuban": 3070,
      "tolek": 3071,
      "totop": 3072,
      "mora": 3073,
      "bugbuk": 3074,
      "rama": 3075,
      "kporo": 3076,
      "Ġikigwook": 3077,
      "gwagwak": 3078,
      "Ġchit": 3079,
      "Ġikamo": 3080,
      "Ġekikpulu": 3081,
      "Ġinititiin": 3082,
      "Ġagbugbuk": 3083,
      "ruru": 3084,
      "Ġonenikup": 3085,
      "Ġatalia": 3086,
      "Ġmaseya": 3087,
      "Ġde": 3088,
      "Ġijijen": 3089,
      "Ġbati": 3090,
      "Ġirariaak": 3091,
      "Ġigbuku": 3092,
      "Ġibon": 3093,
      "Ġeneniria": 3094,
      "Ġininyan": 3095,
      "Ġininwene": 3096,
      "Ġntoon": 3097,
      "Ġgomora": 3098,
      "Ġekemun": 3099,
      "Ġinenido": 3100,
      "bonbe": 3101,
      "bonunu": 3102,
      "Ġebekiro": 3103,
      "Ġebekito": 3104,
      "Ġimumana": 3105,
      "Ġabigen": 3106,
      "Ġneri": 3107,
      "Ġifio": 3108,
      "Ġsen": 3109,
      "Ġokekitumu": 3110,
      "Ġikatana": 3111,
      "iyak": 3112,
      "Ġogbururu": 3113,
      "ofifi": 3114,
      "Ġekuro": 3115,
      "Ġkapano": 3116,
      "arim": 3117,
      "dak": 3118,
      "edo": 3119,
      "suk": 3120,
      "sem": 3121,
      "Ġtoon": 3122,
      "Ġitutuku": 3123,
      "Ġijuuk": 3124,
      "Ġigween": 3125,
      "Ì£ÌĢ": 3126,
      "Ġekpukpulu": 3127,
      "Ġetitim": 3128,
      "Ġmma": 3129,
      "Ġmfat": 3130,
      "Ġmfeen": 3131,
      "Ġojijit": 3132,
      "Ġurot": 3133,
      "book": 3134,
      "bosibi": 3135,
      "bebe": 3136,
      "Ġak": 3137,
      "Ġnchieek": 3138,
      "yaak": 3139,
      "Ġkeme": 3140,
      "Ġkeret": 3141,
      "kagban": 3142,
      "kisis": 3143,
      "kifiat": 3144,
      "kilook": 3145,
      "kikukup": 3146,
      "inyan": 3147,
      "tataan": 3148,
      "Ġisibene": 3149,
      "Ġisisiki": 3150,
      "fiboset": 3151,
      "kponin": 3152,
      "anaya": 3153,
      "Ġikisiki": 3154,
      "Ġikigugo": 3155,
      "jat": 3156,
      "Ġikala": 3157,
      "Ġikatat": 3158,
      "Ġekiwo": 3159,
      "Ġitama": 3160,
      "Ġinimo": 3161,
      "Ġinitet": 3162,
      "gagak": 3163,
      "Ġmata": 3164,
      "Ġjiarim": 3165,
      "Ġekem": 3166,
      "Ġkpetap": 3167,
      "Ġokitaba": 3168,
      "Ġototuuk": 3169,
      "Ġjuwen": 3170,
      "kanu": 3171,
      "chieekge": 3172,
      "gbugbuk": 3173,
      "Ġkpebemun": 3174,
      "Ġekekitaan": 3175,
      "Ġichon": 3176,
      "dudun": 3177,
      "Ġsukot": 3178,
      "Ġosisisik": 3179,
      "Ġayimelek": 3180,
      "ekpan": 3181,
      "Ġekpakpa": 3182,
      "Ġten": 3183,
      "Ġoneninama": 3184,
      "Ġetelebe": 3185,
      "Ġeliabu": 3186,
      "Ġobidaya": 3187,
      "Ġikatanage": 3188,
      "Ġikatatge": 3189,
      "sana": 3190,
      "Ġriaak": 3191,
      "Ġetibi": 3192,
      "Ġekpukpo": 3193,
      "Ġegat": 3194,
      "Ġelep": 3195,
      "Ġegobobe": 3196,
      "Ġmwuuk": 3197,
      "Ġoda": 3198,
      "Ġogwen": 3199,
      "Ġmeliki": 3200,
      "ekene": 3201,
      "Ġuwo": 3202,
      "Ġugban": 3203,
      "Ġukut": 3204,
      "bonin": 3205,
      "bidi": 3206,
      "Ġikinan": 3207,
      "rerie": 3208,
      "siti": 3209,
      "tubo": 3210,
      "wala": 3211,
      "kabe": 3212,
      "karere": 3213,
      "Ġibesa": 3214,
      "baya": 3215,
      "badi": 3216,
      "tofen": 3217,
      "titen": 3218,
      "Ġeneje": 3219,
      "chachat": 3220,
      "Ġejiik": 3221,
      "sok": 3222,
      "son": 3223,
      "kpotele": 3224,
      "kponan": 3225,
      "yot": 3226,
      "Ġikpaan": 3227,
      "Ġikifo": 3228,
      "Ġikibene": 3229,
      "lilam": 3230,
      "Ġikakpo": 3231,
      "Ġekifieek": 3232,
      "Ġekinwo": 3233,
      "kpalo": 3234,
      "Ġinisik": 3235,
      "Ġusus": 3236,
      "Ġonenimo": 3237,
      "gbagbaan": 3238,
      "Ġokikup": 3239,
      "Ġebet": 3240,
      "Ġkali": 3241,
      "nikpo": 3242,
      "nilio": 3243,
      "Ġanato": 3244,
      "Ġesasan": 3245,
      "Ġidasi": 3246,
      "Ġenenimun": 3247,
      "Ġenenibene": 3248,
      "Ġmfufe": 3249,
      "Ġmfufet": 3250,
      "fukbe": 3251,
      "Ġegege": 3252,
      "Ġekeluk": 3253,
      "kakilo": 3254,
      "Ġetobe": 3255,
      "Ġokekije": 3256,
      "Ġberia": 3257,
      "Ġasido": 3258,
      "Ġnnenibe": 3259,
      "Ġayitofen": 3260,
      "Ġegwugwuun": 3261,
      "Ġiyayaka": 3262,
      "Ġifafaka": 3263,
      "Ġserayi": 3264,
      "Ġominbe": 3265,
      "Ġojitbe": 3266,
      "Ġgboi": 3267,
      "Ġtimina": 3268,
      "Ġususuk": 3269,
      "asaak": 3270,
      "esuuk": 3271,
      "ife": 3272,
      "mkpa": 3273,
      "tge": 3274,
      "usen": 3275,
      "Ġibu": 3276,
      "Ġichat": 3277,
      "Ġori": 3278,
      "Ġogwook": 3279,
      "Ġobele": 3280,
      "Ġolet": 3281,
      "Ġotemebe": 3282,
      "Ġmefiboset": 3283,
      "Ġkwo": 3284,
      "Ġinanaan": 3285,
      "Ġikek": 3286,
      "Ġnse": 3287,
      "Ġnnube": 3288,
      "kibeek": 3289,
      "rija": 3290,
      "Ġgeba": 3291,
      "basa": 3292,
      "tiya": 3293,
      "rayim": 3294,
      "kpoje": 3295,
      "Ġkpenyi": 3296,
      "Ġikecha": 3297,
      "lube": 3298,
      "Ġekikpa": 3299,
      "kwuun": 3300,
      "Ġinisan": 3301,
      "Ġiniweek": 3302,
      "Ġinikpan": 3303,
      "sedek": 3304,
      "Ġsaasaak": 3305,
      "Ġifaan": 3306,
      "Ġmagi": 3307,
      "Ġjibi": 3308,
      "Ġkeyila": 3309,
      "Ġebeje": 3310,
      "Ġobonyi": 3311,
      "Ġobonin": 3312,
      "Ġetetele": 3313,
      "Ġeteteen": 3314,
      "Ġijijijaka": 3315,
      "Ġesia": 3316,
      "Ġisoon": 3317,
      "Ġibosa": 3318,
      "Ġeneniben": 3319,
      "Ġekachieekge": 3320,
      "Ġpeka": 3321,
      "Ġekeje": 3322,
      "tibibe": 3323,
      "nyanyan": 3324,
      "Ġkpebesa": 3325,
      "kakinan": 3326,
      "Ġseraya": 3327,
      "Ġnkiweek": 3328,
      "dut": 3329,
      "Ġkpekisa": 3330,
      "Ġebesasan": 3331,
      "Ġnnenitumu": 3332,
      "Ġayikam": 3333,
      "Ġadadi": 3334,
      "Ġekpabe": 3335,
      "wenween": 3336,
      "Ġrimo": 3337,
      "Ġisikem": 3338,
      "Ġnetaniya": 3339,
      "Ġekekpulu": 3340,
      "Ġotelebe": 3341,
      "Ġkpukpunu": 3342,
      "Ġnsebe": 3343,
      "gbini": 3344,
      "mfi": 3345,
      "nra": 3346,
      "pan": 3347,
      "Ġidun": 3348,
      "Ġiden": 3349,
      "Ġiwuwum": 3350,
      "Ġmbele": 3351,
      "Ġmkpu": 3352,
      "Ġmweekbe": 3353,
      "Ġobet": 3354,
      "Ġotakabe": 3355,
      "Ġomiri": 3356,
      "ÌĢ,": 3357,
      "Ġnje": 3358,
      "Ġngwa": 3359,
      "Ġnni": 3360,
      "Ġngwenbe": 3361,
      "wari": 3362,
      "kato": 3363,
      "kiwo": 3364,
      "kifo": 3365,
      "kichieek": 3366,
      "kinama": 3367,
      "kifiak": 3368,
      "rin": 3369,
      "rip": 3370,
      "tayim": 3371,
      "Ġisino": 3372,
      "Ġsiba": 3373,
      "kpomun": 3374,
      "Ġkpem": 3375,
      "Ġikechi": 3376,
      "jakisis": 3377,
      "Ġekitet": 3378,
      "Ġekitim": 3379,
      "Ġamasa": 3380,
      "Ġinije": 3381,
      "Ġiniin": 3382,
      "Ġinikweek": 3383,
      "Ġatasuk": 3384,
      "Ġototo": 3385,
      "Ġebeek": 3386,
      "Ġebele": 3387,
      "Ġebetap": 3388,
      "Ġkakpo": 3389,
      "Ġobokwu": 3390,
      "Ġsoba": 3391,
      "nikwu": 3392,
      "Ġerombe": 3393,
      "Ġikpaka": 3394,
      "Ġifofo": 3395,
      "Ġjaya": 3396,
      "Ġenenikpo": 3397,
      "Ġilaka": 3398,
      "nenibo": 3399,
      "nenisan": 3400,
      "gido": 3401,
      "sikbe": 3402,
      "Ġebekigwa": 3403,
      "Ġekekibe": 3404,
      "Ġekekito": 3405,
      "Ġasayen": 3406,
      "Ġtobaya": 3407,
      "Ġekanabe": 3408,
      "Ġtirija": 3409,
      "Ġteman": 3410,
      "Ġarika": 3411,
      "Ġekpete": 3412,
      "Ġlibina": 3413,
      "Ġsiela": 3414,
      "ikeyi": 3415,
      "Ġenekana": 3416,
      "Ġelisama": 3417,
      "akerip": 3418,
      "kibubaan": 3419,
      "Ġatejakisis": 3420,
      "Ġmikali": 3421,
      "Ġmataniya": 3422,
      "echichi": 3423,
      "uwa": 3424,
      "uru": 3425,
      "Ġsuwa": 3426,
      "Ġeban": 3427,
      "Ġegu": 3428,
      "Ġesulu": 3429,
      "Ġegak": 3430,
      "Ġmgba": 3431,
      "Ġodi": 3432,
      "Ġoriro": 3433,
      "Ġojomobe": 3434,
      "ani": 3435,
      "Ġumo": 3436,
      "Ġuran": 3437,
      "Ġulook": 3438,
      "boso": 3439,
      "bokukup": 3440,
      "bokekeke": 3441,
      "Ġare": 3442,
      "Ġasu": 3443,
      "Ġnyaka": 3444,
      "Ġnnu": 3445,
      "Ġnriaak": 3446,
      "Ġneko": 3447,
      "karie": 3448,
      "kawuuk": 3449,
      "kasiki": 3450,
      "kigwook": 3451,
      "kititiin": 3452,
      "kigobo": 3453,
      "kikpaka": 3454,
      "kijijen": 3455,
      "rikwu": 3456,
      "saja": 3457,
      "kpekpe": 3458,
      "tabe": 3459,
      "Ġibet": 3460,
      "Ġisinan": 3461,
      "Ġisiboset": 3462,
      "Ġmiria": 3463,
      "Ġkiro": 3464,
      "ungwu": 3465,
      "kpotet": 3466,
      "maji": 3467,
      "dobe": 3468,
      "Ġikikana": 3469,
      "wuna": 3470,
      "dai": 3471,
      "Ġekima": 3472,
      "Ġekinin": 3473,
      "Ġitataan": 3474,
      "Ġinigwen": 3475,
      "Ġinikeme": 3476,
      "Ġonenigo": 3477,
      "Ġsali": 3478,
      "Ġmali": 3479,
      "Ġjimiri": 3480,
      "Ġyilo": 3481,
      "Ġokibo": 3482,
      "Ġechicha": 3483,
      "Ġkare": 3484,
      "Ġjom": 3485,
      "Ġobon": 3486,
      "nigo": 3487,
      "Ġbarak": 3488,
      "fieekbe": 3489,
      "Ġenenibo": 3490,
      "Ġininan": 3491,
      "Ġnriki": 3492,
      "Ġarowe": 3493,
      "Ġfiin": 3494,
      "Ġarawuna": 3495,
      "Ġikpebe": 3496,
      "libibe": 3497,
      "Ġujiyen": 3498,
      "Ġelilibi": 3499,
      "Ġonyanyana": 3500,
      "Ġebekirie": 3501,
      "Ġegwegwen": 3502,
      "Ġichiin": 3503,
      "Ġkpebeki": 3504,
      "Ġikwurikwu": 3505,
      "wopbe": 3506,
      "Ġinwen": 3507,
      "Ġedobe": 3508,
      "Ġnnenikpo": 3509,
      "Ġikpukpulu": 3510,
      "Ġimaman": 3511,
      "Ġiyaak": 3512,
      "Ġokpungwu": 3513,
      "Ġifafiat": 3514,
      "Ġotana": 3515,
      "adap": 3516,
      "Ġewabe": 3517,
      "Ġaminadap": 3518,
      "gbugbut": 3519,
      "Ġreka": 3520,
      "Ġbatiseba": 3521,
      "Ġsenakerip": 3522,
      "Ġkalidia": 3523,
      "Ġmkputo": 3524,
      "Ġmiriam": 3525,
      "ego": 3526,
      "ikaan": 3527,
      "jene": 3528,
      "Ġ[": 3529,
      "Ġtu": 3530,
      "Ġrie": 3531,
      "Ġbele": 3532,
      "Ġlaak": 3533,
      "Ġime": 3534,
      "Ġisut": 3535,
      "Ġiyok": 3536,
      "Ġiweweek": 3537,
      "Ġiteen": 3538,
      "Ġeraka": 3539,
      "Ġoso": 3540,
      "Ġojojot": 3541,
      "boluk": 3542,
      "bebem": 3543,
      "Ġakwaan": 3544,
      "tubu": 3545,
      "tukot": 3546,
      "Ġnkup": 3547,
      "Ġnkan": 3548,
      "Ġnsun": 3549,
      "Ġntaan": 3550,
      "yari": 3551,
      "jim": 3552,
      "Ġenyam": 3553,
      "Ġenanaan": 3554,
      "kamo": 3555,
      "kakpo": 3556,
      "kakan": 3557,
      "kakat": 3558,
      "kifuk": 3559,
      "Ġisije": 3560,
      "tien": 3561,
      "Ġenero": 3562,
      "Ġirem": 3563,
      "rariaak": 3564,
      "Ġsili": 3565,
      "gogobo": 3566,
      "enes": 3567,
      "Ġeyiman": 3568,
      "Ġikika": 3569,
      "Ġikimun": 3570,
      "Ġikaje": 3571,
      "Ġikago": 3572,
      "Ġikamun": 3573,
      "Ġikataka": 3574,
      "Ġekilibi": 3575,
      "Ġonenititiin": 3576,
      "Ġsaba": 3577,
      "Ġsama": 3578,
      "Ġmaik": 3579,
      "Ġjifu": 3580,
      "Ġeneninyi": 3581,
      "Ġeneninu": 3582,
      "Ġkpefieek": 3583,
      "Ġokiwut": 3584,
      "Ġechit": 3585,
      "Ġebebo": 3586,
      "Ġebewo": 3587,
      "Ġebeluk": 3588,
      "Ġkatele": 3589,
      "Ġobotumu": 3590,
      "Ġorebu": 3591,
      "Ġakpatukot": 3592,
      "nitap": 3593,
      "Ġdina": 3594,
      "Ġanak": 3595,
      "faji": 3596,
      "Ġbaji": 3597,
      "mebe": 3598,
      "Ġjairi": 3599,
      "Ġalaga": 3600,
      "ukpuku": 3601,
      "nenikup": 3602,
      "ekowa": 3603,
      "gbele": 3604,
      "Ġicheche": 3605,
      "Ġkpama": 3606,
      "Ġinenito": 3607,
      "Ġinenibon": 3608,
      "Ġeliasi": 3609,
      "Ġkpebelo": 3610,
      "Ġmbasi": 3611,
      "Ġekekisa": 3612,
      "Ġfesito": 3613,
      "Ġbeli": 3614,
      "Ġbela": 3615,
      "Ġorak": 3616,
      "tutuun": 3617,
      "Ġbetani": 3618,
      "Ġtaba": 3619,
      "Ġayimaji": 3620,
      "Ġnsisa": 3621,
      "kinyam": 3622,
      "Ġesibibe": 3623,
      "Ġtekowa": 3624,
      "eyiyi": 3625,
      "nemebe": 3626,
      "Ġuraamo": 3627,
      "Ġetana": 3628,
      "Ġmbanyi": 3629,
      "Ġamiram": 3630,
      "Ġoduuk": 3631,
      "Ġmalikija": 3632,
      "Ġewudu": 3633,
      "Ġmelikisedek": 3634,
      "Ġaroweri": 3635,
      "Ġinwenwene": 3636,
      "Ġrekabu": 3637,
      "Ġmaiken": 3638,
      "Ġdinari": 3639,
      "Ġeliasibu": 3640,
      "neen": 3641,
      "rukp": 3642,
      "Ġrieen": 3643,
      "Ġsulu": 3644,
      "Ġegwuun": 3645,
      "Ġeluluk": 3646,
      "Ġmkpan": 3647,
      "Ġmwuukbe": 3648,
      "Ġmanowa": 3649,
      "Ġotataba": 3650,
      "Ġofakabe": 3651,
      "Ġmero": 3652,
      "Ġmesak": 3653,
      "bomo": 3654,
      "bogo": 3655,
      "bokana": 3656,
      "bedin": 3657,
      "Ġawala": 3658,
      "Ġabedin": 3659,
      "Ġikem": 3660,
      "rereke": 3661,
      "Ġnda": 3662,
      "Ġngwen": 3663,
      "Ġnriabe": 3664,
      "gwube": 3665,
      "Ġeniin": 3666,
      "kaje": 3667,
      "kaso": 3668,
      "kiria": 3669,
      "kiwut": 3670,
      "sam": 3671,
      "Ġisibo": 3672,
      "Ġisibe": 3673,
      "Ġenere": 3674,
      "chachaka": 3675,
      "Ġmisi": 3676,
      "rata": 3677,
      "racha": 3678,
      "radan": 3679,
      "Ġkire": 3680,
      "Ġmore": 3681,
      "Ġmolek": 3682,
      "lelep": 3683,
      "Ġikpekpe": 3684,
      "Ġikigbo": 3685,
      "Ġikilo": 3686,
      "Ġikisan": 3687,
      "Ġikigbaan": 3688,
      "Ġikitibi": 3689,
      "Ġikikpukpo": 3690,
      "Ġikigbuk": 3691,
      "Ġikisook": 3692,
      "jaradan": 3693,
      "dala": 3694,
      "dadi": 3695,
      "darak": 3696,
      "Ġikama": 3697,
      "Ġamariya": 3698,
      "Ġinibene": 3699,
      "Ġinijeen": 3700,
      "Ġinitaka": 3701,
      "Ġagiri": 3702,
      "Ġjeyi": 3703,
      "Ġjere": 3704,
      "Ġjedu": 3705,
      "Ġjefun": 3706,
      "Ġonenikaan": 3707,
      "Ġonenitet": 3708,
      "Ġoneniriaak": 3709,
      "Ġonenikeke": 3710,
      "Ġmayala": 3711,
      "Ġekweek": 3712,
      "Ġekeko": 3713,
      "Ġkpegwu": 3714,
      "Ġkpesan": 3715,
      "Ġokiben": 3716,
      "Ġokigbuk": 3717,
      "Ġokisak": 3718,
      "Ġobonbe": 3719,
      "Ġeteen": 3720,
      "kwukwulu": 3721,
      "fele": 3722,
      "Ġenenito": 3723,
      "Ġgosen": 3724,
      "Ġmkpamkpa": 3725,
      "gbugbe": 3726,
      "Ġochichili": 3727,
      "Ġefufuun": 3728,
      "chakbe": 3729,
      "Ġineniro": 3730,
      "Ġmbala": 3731,
      "lookbe": 3732,
      "kwaak": 3733,
      "Ġeferi": 3734,
      "Ġnkwukwuuk": 3735,
      "Ġokpurukp": 3736,
      "sosook": 3737,
      "Ġtaito": 3738,
      "Ġdago": 3739,
      "Ġayitubu": 3740,
      "ekpo": 3741,
      "Ġnsibe": 3742,
      "Ġmgbugban": 3743,
      "Ġbiri": 3744,
      "Ġokpin": 3745,
      "Ġnebujaradan": 3746,
      "Ġonenino": 3747,
      "nunuun": 3748,
      "Ġabaracha": 3749,
      "Ġetataan": 3750,
      "Ġogbanabe": 3751,
      "Ġntitaak": 3752,
      "Ġonyebe": 3753,
      "Ġochebe": 3754,
      "Ġkwok": 3755,
      "Ġmagidala": 3756,
      "Ġabedinego": 3757,
      "Ġjedutun": 3758,
      "Ġjefune": 3759,
      "Ġokpurukpu": 3760,
      "duk": 3761,
      "ebek": 3762,
      "ikayaka": 3763,
      "lan": 3764,
      "leme": 3765,
      "Ġlu": 3766,
      "Ġtim": 3767,
      "Ġgbak": 3768,
      "Ġidek": 3769,
      "Ġejaan": 3770,
      "Ġegbugbo": 3771,
      "Ġosibi": 3772,
      "Ġosik": 3773,
      "Ġojaan": 3774,
      "Ġobabia": 3775,
      "bobe": 3776,
      "bokwu": 3777,
      "bonyi": 3778,
      "Ġasen": 3779,
      "Ġapo": 3780,
      "reren": 3781,
      "Ġnnan": 3782,
      "Ġnsiki": 3783,
      "chubo": 3784,
      "ÌĤ;": 3785,
      "wak": 3786,
      "gegele": 3787,
      "kafo": 3788,
      "kafiin": 3789,
      "embe": 3790,
      "chichim": 3791,
      "Ġgesuru": 3792,
      "bas": 3793,
      "baro": 3794,
      "Ġemabe": 3795,
      "Ġisisa": 3796,
      "ton": 3797,
      "Ġenyinyi": 3798,
      "chabe": 3799,
      "bubum": 3800,
      "Ġmili": 3801,
      "uni": 3802,
      "lomi": 3803,
      "Ġikisulu": 3804,
      "liba": 3805,
      "gwagwa": 3806,
      "lut": 3807,
      "laka": 3808,
      "lagi": 3809,
      "layat": 3810,
      "Ġikarie": 3811,
      "Ġikatap": 3812,
      "Ġekino": 3813,
      "Ġekikan": 3814,
      "Ġekini": 3815,
      "Ġekitaan": 3816,
      "Ġekilook": 3817,
      "kpasi": 3818,
      "Ġiniso": 3819,
      "Ġinisiki": 3820,
      "Ġinijijaka": 3821,
      "Ġunwan": 3822,
      "Ġjeyen": 3823,
      "Ġoneniyaka": 3824,
      "Ġonenitap": 3825,
      "Ġokan": 3826,
      "Ġsadu": 3827,
      "Ġenenin": 3828,
      "Ġeken": 3829,
      "Ġekeek": 3830,
      "Ġekenyi": 3831,
      "Ġekween": 3832,
      "Ġkpelo": 3833,
      "Ġokisi": 3834,
      "Ġokimun": 3835,
      "Ġokifieek": 3836,
      "Ġokisisaak": 3837,
      "Ġokifiak": 3838,
      "Ġkeyin": 3839,
      "Ġofiri": 3840,
      "Ġobobolo": 3841,
      "kano": 3842,
      "kanye": 3843,
      "nisi": 3844,
      "Ġesaba": 3845,
      "Ġikanwo": 3846,
      "Ġenenikpa": 3847,
      "nenitumu": 3848,
      "Ġgolayat": 3849,
      "Ġmkpaka": 3850,
      "welebe": 3851,
      "Ġokpoon": 3852,
      "Ġekesun": 3853,
      "kisak": 3854,
      "Ġelifaji": 3855,
      "Ġkpebetele": 3856,
      "Ġonyanyan": 3857,
      "kekebe": 3858,
      "kakito": 3859,
      "kakitet": 3860,
      "Ġebekiko": 3861,
      "Ġfilikis": 3862,
      "Ġasabiya": 3863,
      "Ġnkikpo": 3864,
      "Ġetoto": 3865,
      "Ġoneninu": 3866,
      "Ġsana": 3867,
      "Ġorakbe": 3868,
      "Ġkpekeke": 3869,
      "ÌĦ!âĢĻ": 3870,
      "kitop": 3871,
      "Ġikinyan": 3872,
      "sabadi": 3873,
      "Ġdaina": 3874,
      "Ġpeyo": 3875,
      "Ġikisisaak": 3876,
      "yudu": 3877,
      "Ġotaba": 3878,
      "Ġdilai": 3879,
      "Ġbili": 3880,
      "Ġotitim": 3881,
      "Ġikachieekge": 3882,
      "kibeme": 3883,
      "Ġnetanen": 3884,
      "Ġikekiro": 3885,
      "bukubuku": 3886,
      "Ġekekaan": 3887,
      "Ġsikilagi": 3888,
      "Ġitiik": 3889,
      "Ġefarata": 3890,
      "Ġkenaji": 3891,
      "Ġwelewele": 3892,
      "Ġagiripa": 3893,
      "Ġbirido": 3894,
      "Ġsadusi": 3895,
      "Ġdilaila": 3896,
      "eli": 3897,
      "nro": 3898,
      "Ġg": 3899,
      "Ġlem": 3900,
      "Ġgbana": 3901,
      "Ġgwuun": 3902,
      "Ġbukubuku": 3903,
      "Ġireke": 3904,
      "Ġejo": 3905,
      "Ġetaan": 3906,
      "Ġefiat": 3907,
      "Ġefiin": 3908,
      "Ġetititiin": 3909,
      "Ġmfo": 3910,
      "Ġodido": 3911,
      "Ġotimbe": 3912,
      "Ġkak": 3913,
      "wuwulu": 3914,
      "ekwut": 3915,
      "yis": 3916,
      "yiyiyala": 3917,
      "boto": 3918,
      "botap": 3919,
      "bila": 3920,
      "bina": 3921,
      "Ġakisa": 3922,
      "Ġakisi": 3923,
      "Ġachubo": 3924,
      "Ġndo": 3925,
      "Ġnjeen": 3926,
      "Ġnkaro": 3927,
      "yaage": 3928,
      "chan": 3929,
      "rotu": 3930,
      "kakpan": 3931,
      "muwen": 3932,
      "kiyaka": 3933,
      "kigbuk": 3934,
      "kililaba": 3935,
      "riga": 3936,
      "tai": 3937,
      "Ġgejeri": 3938,
      "Ġisisaak": 3939,
      "teteen": 3940,
      "tiik": 3941,
      "ĠâĢĻ": 3942,
      "Ġsiali": 3943,
      "kporie": 3944,
      "maliya": 3945,
      "anayas": 3946,
      "Ġeyiyala": 3947,
      "Ġikima": 3948,
      "Ġikikpe": 3949,
      "Ġikikwak": 3950,
      "Ġchili": 3951,
      "laya": 3952,
      "dap": 3953,
      "Ġekitoon": 3954,
      "Ġekitaka": 3955,
      "Ġekilaak": 3956,
      "Ġekinunuun": 3957,
      "Ġinijibi": 3958,
      "Ġunyana": 3959,
      "Ġmbubuuk": 3960,
      "Ġonenigobo": 3961,
      "Ġokeme": 3962,
      "Ġsafa": 3963,
      "Ġmati": 3964,
      "Ġmayana": 3965,
      "riebe": 3966,
      "fufuk": 3967,
      "Ġkpetat": 3968,
      "Ġokigo": 3969,
      "Ġokibem": 3970,
      "Ġobokaan": 3971,
      "Ġsowari": 3972,
      "kanin": 3973,
      "kelo": 3974,
      "Ġdu": 3975,
      "Ġigogobo": 3976,
      "Ġigbini": 3977,
      "titip": 3978,
      "Ġutibi": 3979,
      "Ġeneniro": 3980,
      "Ġenenifo": 3981,
      "Ġenenikana": 3982,
      "nenikaan": 3983,
      "neniyaka": 3984,
      "nenitele": 3985,
      "Ġokporotu": 3986,
      "Ġefum": 3987,
      "Ġefuro": 3988,
      "Ġeketet": 3989,
      "Ġnasio": 3990,
      "Ġinenisi": 3991,
      "Ġineniria": 3992,
      "Ġeliliin": 3993,
      "kakikaan": 3994,
      "Ġremaliya": 3995,
      "Ġsedarak": 3996,
      "Ġebekisi": 3997,
      "Ġnkije": 3998,
      "duru": 3999,
      "Ġpisi": 4000,
      "Ġeweweek": 4001,
      "jibibe": 4002,
      "Ġegon": 4003,
      "Ġorariaak": 4004,
      "Ġosiya": 4005,
      "Ġefofon": 4006,
      "sens": 4007,
      "kitotop": 4008,
      "Ġitataba": 4009,
      "Ġikinin": 4010,
      "Ġikasisaak": 4011,
      "Ġjonadabu": 4012,
      "Ġanduru": 4013,
      "Ġotataka": 4014,
      "Ġiyak": 4015,
      "Ġraba": 4016,
      "Ġotitibi": 4017,
      "Ġalimo": 4018,
      "Ġtera": 4019,
      "Ġsunem": 4020,
      "Ġabayaage": 4021,
      "Ġoyakabe": 4022,
      "Ġelisabet": 4023,
      "Ġogbagban": 4024,
      "peres": 4025,
      "Ġnnenino": 4026,
      "Ġelesia": 4027,
      "Ġikafiatge": 4028,
      "Ġreyabu": 4029,
      "Ġekpukpobe": 4030,
      "Ġkareya": 4031,
      "Ġotanabe": 4032,
      "Ġsanasana": 4033,
      "Ġlemek": 4034,
      "Ġsialitien": 4035,
      "Ġmayanayim": 4036,
      "ala": 4037,
      "ere": 4038,
      "iro": 4039,
      "juk": 4040,
      "kge": 4041,
      "ninyi": 4042,
      "ntiti": 4043,
      "Ġgwo": 4044,
      "Ġfuk": 4045,
      "Ġtaan": 4046,
      "Ġyanan": 4047,
      "Ġitititiin": 4048,
      "Ġelaak": 4049,
      "Ġede": 4050,
      "Ġmgbe": 4051,
      "Ġofe": 4052,
      "Ġotim": 4053,
      "Ġokakaan": 4054,
      "Ġotibibe": 4055,
      "wuwut": 4056,
      "Ġuchit": 4057,
      "yiyik": 4058,
      "botumu": 4059,
      "bochechep": 4060,
      "Ġineen": 4061,
      "been": 4062,
      "Ġadu": 4063,
      "Ġnsis": 4064,
      "yadi": 4065,
      "jiin": 4066,
      "gege": 4067,
      "ron": 4068,
      "Ġkeye": 4069,
      "Ġkeda": 4070,
      "katap": 4071,
      "kajit": 4072,
      "kiche": 4073,
      "kichak": 4074,
      "kigwat": 4075,
      "kichili": 4076,
      "kiyok": 4077,
      "kigumu": 4078,
      "sadak": 4079,
      "babu": 4080,
      "Ġisikwu": 4081,
      "tofa": 4082,
      "Ġmimin": 4083,
      "rat": 4084,
      "raran": 4085,
      "Ġkido": 4086,
      "Ġemiin": 4087,
      "Ġsiperes": 4088,
      "Ġonire": 4089,
      "kposa": 4090,
      "kpochieek": 4091,
      "kpofat": 4092,
      "golek": 4093,
      "Ġikiria": 4094,
      "Ġikikan": 4095,
      "Ġikikpan": 4096,
      "Ġikitutuku": 4097,
      "Ġikidido": 4098,
      "lis": 4099,
      "lari": 4100,
      "Ġekido": 4101,
      "Ġekichak": 4102,
      "kpakpa": 4103,
      "Ġiniwo": 4104,
      "Ġiniriaak": 4105,
      "Ġinigobo": 4106,
      "Ġagburu": 4107,
      "Ġjefet": 4108,
      "Ġjedaya": 4109,
      "Ġonenige": 4110,
      "Ġonenitaan": 4111,
      "Ġjikiri": 4112,
      "Ġenenino": 4113,
      "gbama": 4114,
      "Ġokinin": 4115,
      "Ġkeyinan": 4116,
      "rankin": 4117,
      "Ġechili": 4118,
      "Ġebebele": 4119,
      "Ġkasi": 4120,
      "Ġkajit": 4121,
      "Ġkafieek": 4122,
      "Ġjowa": 4123,
      "dimo": 4124,
      "rekaya": 4125,
      "Ġijiyari": 4126,
      "Ġjali": 4127,
      "Ġjajeri": 4128,
      "Ġekasa": 4129,
      "Ġgogolek": 4130,
      "Ġmfum": 4131,
      "Ġlili": 4132,
      "Ġinenimun": 4133,
      "Ġinenigwen": 4134,
      "kisasak": 4135,
      "Ġeliya": 4136,
      "Ġkpebetaka": 4137,
      "kakijot": 4138,
      "Ġnimi": 4139,
      "Ġset": 4140,
      "Ġabiyu": 4141,
      "Ġekekiro": 4142,
      "Ġekekido": 4143,
      "Ġichio": 4144,
      "Ġichimi": 4145,
      "Ġnkibo": 4146,
      "Ġnkige": 4147,
      "Ġnkiriaak": 4148,
      "Ġnkikeek": 4149,
      "Ġnetofa": 4150,
      "Ġkpekisun": 4151,
      "Ġokekitaan": 4152,
      "Ġebotbe": 4153,
      "Ġosire": 4154,
      "Ġasikelo": 4155,
      "Ġikakan": 4156,
      "Ġikakwu": 4157,
      "Ġikinama": 4158,
      "Ġikinunuun": 4159,
      "Ġedodo": 4160,
      "Ġparan": 4161,
      "Ġpasuru": 4162,
      "Ġakalari": 4163,
      "jujuk": 4164,
      "Ġiwak": 4165,
      "Ġpelet": 4166,
      "Ġanun": 4167,
      "Ġadari": 4168,
      "kinaan": 4169,
      "Ġebenbe": 4170,
      "Ġebenin": 4171,
      "Ġmgbugbak": 4172,
      "Ġfarankin": 4173,
      "Ġbarabas": 4174,
      "Ġogwabe": 4175,
      "inorie": 4176,
      "Ġewakbe": 4177,
      "Ġelookbe": 4178,
      "Ġititen": 4179,
      "Ġeliakim": 4180,
      "Ġjerubaali": 4181,
      "Ġefie": 4182,
      "Ġsefatiya": 4183,
      "Ġegulo": 4184,
      "Ġsilisia": 4185,
      "Ġbajilai": 4186,
      "Ġsafaya": 4187,
      "Ġfarankinsens": 4188,
      "akaan": 4189,
      "aran": 4190,
      "beni": 4191,
      "dene": 4192,
      "esi": 4193,
      "ia": 4194,
      "ile": 4195,
      "ngwu": 4196,
      "nwun": 4197,
      "osi": 4198,
      "Ġtaka": 4199,
      "Ġlook": 4200,
      "Ġiwuku": 4201,
      "Ì£:": 4202,
      "Ġecho": 4203,
      "Ġedene": 4204,
      "Ġman": 4205,
      "Ġmak": 4206,
      "Ġmfiat": 4207,
      "Ġoba": 4208,
      "Ġogan": 4209,
      "Ġopo": 4210,
      "Ġofukbe": 4211,
      "Ġmetu": 4212,
      "Ġmegido": 4213,
      "Ġuchili": 4214,
      "Ġusai": 4215,
      "bobo": 4216,
      "bowele": 4217,
      "bokiro": 4218,
      "bokpe": 4219,
      "beri": 4220,
      "tuwen": 4221,
      "Ġnene": 4222,
      "Ġnsook": 4223,
      "yak": 4224,
      "gebe": 4225,
      "jejeen": 4226,
      "rolo": 4227,
      "Ġkedes": 4228,
      "kasi": 4229,
      "kajo": 4230,
      "kabon": 4231,
      "kabore": 4232,
      "kigbaan": 4233,
      "kilaak": 4234,
      "kitutumu": 4235,
      "kikat": 4236,
      "safu": 4237,
      "Ġisijibi": 4238,
      "teri": 4239,
      "Ġenetumu": 4240,
      "Ġejijen": 4241,
      "Ġmisa": 4242,
      "Ġmikima": 4243,
      "Ġonwenwene": 4244,
      "kpokwu": 4245,
      "maman": 4246,
      "Ġkpema": 4247,
      "Ġikirio": 4248,
      "Ġikichak": 4249,
      "lien": 4250,
      "Ġikaka": 4251,
      "Ġikado": 4252,
      "Ġikachaka": 4253,
      "Ġikafiin": 4254,
      "Ġekibeek": 4255,
      "Ġekifuun": 4256,
      "kpasa": 4257,
      "Ġinikwu": 4258,
      "Ġinichili": 4259,
      "Ġjeturu": 4260,
      "Ġonenimin": 4261,
      "Ġmami": 4262,
      "Ġkpeto": 4263,
      "Ġkpego": 4264,
      "Ġokido": 4265,
      "Ġokitoon": 4266,
      "Ġokibumu": 4267,
      "Ġofiat": 4268,
      "Ġebem": 4269,
      "Ġebedi": 4270,
      "Ġebejijijaka": 4271,
      "dide": 4272,
      "Ġsora": 4273,
      "Ġeyatbe": 4274,
      "niyaka": 4275,
      "kebe": 4276,
      "fas": 4277,
      "Ġbayana": 4278,
      "Ġdebiri": 4279,
      "Ġesikibe": 4280,
      "Ġisop": 4281,
      "Ġjasi": 4282,
      "tipbe": 4283,
      "ukpo": 4284,
      "Ġekat": 4285,
      "Ġekamun": 4286,
      "Ġigbala": 4287,
      "Ġigbagbana": 4288,
      "Ġmfufio": 4289,
      "Ġokpot": 4290,
      "inien": 4291,
      "Ġekebem": 4292,
      "Ġnayas": 4293,
      "Ġebekwaan": 4294,
      "Ġinenikana": 4295,
      "Ġelileek": 4296,
      "Ġobeek": 4297,
      "Ġobebele": 4298,
      "Ġamoru": 4299,
      "Ġogegele": 4300,
      "kakichieek": 4301,
      "Ġuram": 4302,
      "Ġniko": 4303,
      "Ġmbakup": 4304,
      "Ġasari": 4305,
      "Ġiwook": 4306,
      "Ġetobobe": 4307,
      "Ġokekikpulu": 4308,
      "Ġbeti": 4309,
      "Ġberekaya": 4310,
      "Ġikwuk": 4311,
      "Ġkpekakaan": 4312,
      "Ġmkpukpo": 4313,
      "Ġineninyi": 4314,
      "Ġebobot": 4315,
      "Ġtabo": 4316,
      "Ġananayas": 4317,
      "Ì£?âĢĻ": 4318,
      "lilim": 4319,
      "yum": 4320,
      "Ġnsiro": 4321,
      "Ġbiliya": 4322,
      "Ġenirom": 4323,
      "Ġjewus": 4324,
      "Ġabinadap": 4325,
      "Ġreyobu": 4326,
      "Ġagagi": 4327,
      "kpukpukube": 4328,
      "Ġanani": 4329,
      "Ġegbanabe": 4330,
      "Ġngebe": 4331,
      "Ġebakbe": 4332,
      "Ġinwunwan": 4333,
      "Ġdedan": 4334,
      "Ġekemin": 4335,
      "Ġndali": 4336,
      "Ġjeyien": 4337,
      "ntitiik": 4338,
      "Ġoporolo": 4339,
      "Ġmikimas": 4340,
      "Ġmamire": 4341,
      "beke": 4342,
      "deke": 4343,
      "fanaya": 4344,
      "im": 4345,
      "ida": 4346,
      "nkaan": 4347,
      "non": 4348,
      "nrio": 4349,
      "seen": 4350,
      "seme": 4351,
      "uga": 4352,
      "Ġwa": 4353,
      "Ġtitiin": 4354,
      "Ġbem": 4355,
      "Ġgwak": 4356,
      "Ġiteme": 4357,
      "Ġimem": 4358,
      "Ġegbo": 4359,
      "Ġeti": 4360,
      "Ġegbala": 4361,
      "Ġefifila": 4362,
      "Ġetataba": 4363,
      "Ġmf": 4364,
      "Ġmben": 4365,
      "Ġmkput": 4366,
      "Ġodasi": 4367,
      "Ġogak": 4368,
      "Ġoriaakbe": 4369,
      "Ġowelebe": 4370,
      "Ġmena": 4371,
      "Ġku": 4372,
      "Ġubu": 4373,
      "bokaan": 4374,
      "bokpakpan": 4375,
      "Ġakaya": 4376,
      "Ġnjo": 4377,
      "Ġnnin": 4378,
      "Ġnyen": 4379,
      "wat": 4380,
      "geen": 4381,
      "kakpa": 4382,
      "karia": 4383,
      "kajeen": 4384,
      "kida": 4385,
      "kigwo": 4386,
      "kitip": 4387,
      "kisen": 4388,
      "kiwop": 4389,
      "kigugo": 4390,
      "kiwulu": 4391,
      "kikpe": 4392,
      "kikwek": 4393,
      "kitaba": 4394,
      "kifiaan": 4395,
      "kilalaak": 4396,
      "kuru": 4397,
      "chichiin": 4398,
      "bali": 4399,
      "balat": 4400,
      "Ġisiso": 4401,
      "Ġisikario": 4402,
      "ÌĦ,âĢĿ": 4403,
      "mon": 4404,
      "Ġeneluk": 4405,
      "Ġkiri": 4406,
      "kpoluk": 4407,
      "mai": 4408,
      "Ġikpi": 4409,
      "Ġikifit": 4410,
      "âĢĿ?": 4411,
      "Ġikep": 4412,
      "jajat": 4413,
      "lara": 4414,
      "Ġikabo": 4415,
      "Ġikakpan": 4416,
      "Ġikakiro": 4417,
      "Ġikalululuk": 4418,
      "Ġekiso": 4419,
      "Ġekikpan": 4420,
      "Ġekifuk": 4421,
      "kpaan": 4422,
      "kpabe": 4423,
      "Ġiniche": 4424,
      "Ġinisun": 4425,
      "Ġjebidi": 4426,
      "Ġjefanaya": 4427,
      "Ġonenitele": 4428,
      "Ġonenilook": 4429,
      "Ġonenigbana": 4430,
      "Ġoneniwut": 4431,
      "Ġonenichili": 4432,
      "Ġonenichichini": 4433,
      "Ġsaya": 4434,
      "Ġsawulu": 4435,
      "Ġjipo": 4436,
      "Ġitotoon": 4437,
      "Ġnteek": 4438,
      "gbagbana": 4439,
      "Ġokiko": 4440,
      "Ġokima": 4441,
      "Ġokitim": 4442,
      "Ġokikpukpo": 4443,
      "cheche": 4444,
      "Ġkato": 4445,
      "Ġkakaan": 4446,
      "Ġjosabadi": 4447,
      "Ġoboki": 4448,
      "Ġobosan": 4449,
      "nowam": 4450,
      "Ġofok": 4451,
      "Ġeyayaka": 4452,
      "Ġeyayat": 4453,
      "nije": 4454,
      "niin": 4455,
      "nitumu": 4456,
      "Ġgama": 4457,
      "Ġgali": 4458,
      "fafaka": 4459,
      "fafiaan": 4460,
      "Ġbayala": 4461,
      "Ġbasiti": 4462,
      "Ġigbuk": 4463,
      "meli": 4464,
      "Ġikpakpa": 4465,
      "Ġjari": 4466,
      "Ġjakuru": 4467,
      "âĢĻ?": 4468,
      "Ġeneniko": 4469,
      "Ġenenisan": 4470,
      "Ġininama": 4471,
      "Ġpen": 4472,
      "kpukpukpuku": 4473,
      "Ġegegele": 4474,
      "Ġekegwa": 4475,
      "Ġekesiki": 4476,
      "Ġebekpo": 4477,
      "Ġinenisan": 4478,
      "Ġelio": 4479,
      "Ġelien": 4480,
      "Ġelilam": 4481,
      "Ġeliyu": 4482,
      "Ġkpebeto": 4483,
      "kakiko": 4484,
      "kakinyi": 4485,
      "kakino": 4486,
      "kakitibi": 4487,
      "kakigwat": 4488,
      "Ġrejin": 4489,
      "Ġrewen": 4490,
      "Ġsere": 4491,
      "Ġebekikpo": 4492,
      "Ġabido": 4493,
      "Ġabiram": 4494,
      "Ġekekigo": 4495,
      "beekbe": 4496,
      "Ġkpekisi": 4497,
      "chakabe": 4498,
      "nenin": 4499,
      "neninyi": 4500,
      "Ġokekiro": 4501,
      "Ġeferen": 4502,
      "Ġbeyo": 4503,
      "Ġbetuwen": 4504,
      "Ġkpekpo": 4505,
      "Ġkpekino": 4506,
      "Ġosiro": 4507,
      "tututuku": 4508,
      "Ġineninan": 4509,
      "Ġikinaan": 4510,
      "sasak": 4511,
      "chilibe": 4512,
      "Ġtali": 4513,
      "Ġpadan": 4514,
      "Ġlebo": 4515,
      "Ġonikisi": 4516,
      "Ġilileek": 4517,
      "Ġnsinu": 4518,
      "Ġrubi": 4519,
      "Ġebenwo": 4520,
      "Ġrafa": 4521,
      "Ġjeroyam": 4522,
      "Ġikwekweek": 4523,
      "Ġribila": 4524,
      "Ġogbugbugbo": 4525,
      "Ġotinien": 4526,
      "Ġmeriba": 4527,
      "Ġalikisen": 4528,
      "Ġarim": 4529,
      "Ġariba": 4530,
      "Ġsekanaya": 4531,
      "Ġogwagwat": 4532,
      "Ġnlik": 4533,
      "Ġsuru": 4534,
      "Ġagai": 4535,
      "Ġegbagban": 4536,
      "Ġabalara": 4537,
      "Ġetam": 4538,
      "Ġsikisik": 4539,
      "kekeek": 4540,
      "Ġbierot": 4541,
      "Ġecheche": 4542,
      "Ġamiyudu": 4543,
      "Ġnson": 4544,
      "Ġjerameli": 4545,
      "Ġobumbe": 4546,
      "Ġbania": 4547,
      "Ġikekeek": 4548,
      "rint": 4549,
      "Ġtubali": 4550,
      "Ġmayalalen": 4551,
      "Ġmilika": 4552,
      "Ġeyiyalabe": 4553,
      "Ġadulam": 4554,
      "Ġkeyefas": 4555,
      "Ġubuja": 4556,
      "it": 4557,
      "kwun": 4558,
      "mkpulu": 4559,
      "ngwan": 4560,
      "umun": 4561,
      "usini": 4562,
      "ugbana": 4563,
      "Ġram": 4564,
      "Ġgbala": 4565,
      "Ġitu": 4566,
      "Ġise": 4567,
      "Ġibumu": 4568,
      "Ġegi": 4569,
      "Ġetan": 4570,
      "Ġefaka": 4571,
      "Ġetakabe": 4572,
      "Ġmbene": 4573,
      "Ġmbenebe": 4574,
      "Ġoji": 4575,
      "Ġoben": 4576,
      "Ġochit": 4577,
      "Ġolibi": 4578,
      "Ġochachiaak": 4579,
      "Ġotipbe": 4580,
      "Ġmeyi": 4581,
      "Ġukaan": 4582,
      "Ġuchieen": 4583,
      "bonwo": 4584,
      "boleke": 4585,
      "Ġaf": 4586,
      "Ġaku": 4587,
      "Ġario": 4588,
      "Ġadin": 4589,
      "Ġikekeke": 4590,
      "reyam": 4591,
      "sita": 4592,
      "Ġnlet": 4593,
      "Ġnkat": 4594,
      "Ġnnamabe": 4595,
      "Ġntuun": 4596,
      "Ġndide": 4597,
      "Ġebia": 4598,
      "kata": 4599,
      "kachaka": 4600,
      "kawuwuuk": 4601,
      "kiji": 4602,
      "kika": 4603,
      "kiban": 4604,
      "kiyo": 4605,
      "kiran": 4606,
      "kimumun": 4607,
      "kisook": 4608,
      "kon": 4609,
      "rika": 4610,
      "riak": 4611,
      "sadai": 4612,
      "Ġogwuun": 4613,
      "ine": 4614,
      "tak": 4615,
      "Ġyala": 4616,
      "jojomo": 4617,
      "Ġisiyaka": 4618,
      "ÌĦ,âĢĻ": 4619,
      "tisaja": 4620,
      "mos": 4621,
      "Ġenemun": 4622,
      "bun": 4623,
      "rai": 4624,
      "Ġsiria": 4625,
      "Ġsisak": 4626,
      "ÌĦ.)": 4627,
      "kpota": 4628,
      "kpodo": 4629,
      "kponyi": 4630,
      "kposibi": 4631,
      "kpochep": 4632,
      "wook": 4633,
      "wowop": 4634,
      "lofe": 4635,
      "lolobo": 4636,
      "Ġikijit": 4637,
      "Ġikifiaan": 4638,
      "Ġikimumana": 4639,
      "Ġererieen": 4640,
      "jajak": 4641,
      "labe": 4642,
      "Ġikasik": 4643,
      "Ġekimin": 4644,
      "Ġekisibi": 4645,
      "Ġekikpukpo": 4646,
      "Ġekikpe": 4647,
      "Ġekinama": 4648,
      "Ġekibak": 4649,
      "Ġitataka": 4650,
      "Ġinikaan": 4651,
      "Ġinigwo": 4652,
      "Ġinigban": 4653,
      "Ġinikiro": 4654,
      "Ġinigbaan": 4655,
      "Ġinichak": 4656,
      "onaya": 4657,
      "Ġjeteri": 4658,
      "Ġjelofe": 4659,
      "sela": 4660,
      "Ġokweekbe": 4661,
      "Ġatak": 4662,
      "Ġifeen": 4663,
      "Ġmare": 4664,
      "Ġekeme": 4665,
      "Ġboji": 4666,
      "Ġkpetele": 4667,
      "Ġkpewuuk": 4668,
      "Ġokimo": 4669,
      "Ġokilibi": 4670,
      "Ġokitop": 4671,
      "chechieen": 4672,
      "cherekeyi": 4673,
      "Ġkabo": 4674,
      "wegi": 4675,
      "Ġoboje": 4676,
      "Ġoboyaka": 4677,
      "nore": 4678,
      "Ġorerie": 4679,
      "nire": 4680,
      "Ġijijit": 4681,
      "Ġerom": 4682,
      "mim": 4683,
      "Ġesisiki": 4684,
      "Ġjaredi": 4685,
      "Ġosakbe": 4686,
      "Ġenenigo": 4687,
      "Ġeneniweek": 4688,
      "Ġenenigwen": 4689,
      "nenigwu": 4690,
      "neniben": 4691,
      "nenikpulu": 4692,
      "Ġekago": 4693,
      "Ġgobo": 4694,
      "Ġarabu": 4695,
      "Ġigwaka": 4696,
      "Ġnrom": 4697,
      "Ġegele": 4698,
      "Ġineniben": 4699,
      "Ġinenitap": 4700,
      "kisadi": 4701,
      "Ġkpeberie": 4702,
      "Ġigwuku": 4703,
      "ogwugwu": 4704,
      "kakikpo": 4705,
      "kakima": 4706,
      "Ġkpoko": 4707,
      "Ġseleme": 4708,
      "Ġmbayaka": 4709,
      "Ġebekiluk": 4710,
      "Ġebekigwen": 4711,
      "Ġebekiben": 4712,
      "Ġabieja": 4713,
      "Ġekekiweek": 4714,
      "jijakabe": 4715,
      "Ġneriya": 4716,
      "Ġkpekito": 4717,
      "Ġegogobo": 4718,
      "Ġasiri": 4719,
      "ÌĦ?âĢĻ": 4720,
      "Ġinenene": 4721,
      "katana": 4722,
      "Ġoluluk": 4723,
      "Ġolulut": 4724,
      "Ġtobo": 4725,
      "Ġtola": 4726,
      "Ġmusi": 4727,
      "Ġafakisadi": 4728,
      "Ġdatan": 4729,
      "Ġtapenes": 4730,
      "Ġifuuk": 4731,
      "Ġegwube": 4732,
      "karake": 4733,
      "ikatet": 4734,
      "Ġiriak": 4735,
      "Ġsaipo": 4736,
      "Ġajalo": 4737,
      "Ġnyanya": 4738,
      "Ġsambalat": 4739,
      "Ġsimeya": 4740,
      "Ġekekeek": 4741,
      "ikerere": 4742,
      "isinyo": 4743,
      "Ġejibibe": 4744,
      "Ġakuko": 4745,
      "Ġoletbe": 4746,
      "Ġarebia": 4747,
      "Ġimeri": 4748,
      "Ġenyambe": 4749,
      "Ġokemebe": 4750,
      "Ġdum": 4751,
      "Ġechilibe": 4752,
      "Ġmetusela": 4753,
      "Ġelileekbe": 4754,
      "Ġmfem": 4755,
      "Ġgamalien": 4756,
      "Ġyalayala": 4757,
      "Ġjelofeyadi": 4758,
      "Ġselemeya": 4759,
      "ege": 4760,
      "erieen": 4761,
      "nwaan": 4762,
      "nween": 4763,
      "uti": 4764,
      "weke": 4765,
      "yema": 4766,
      "Ġgbaan": 4767,
      "Ġwuku": 4768,
      "Ġiruk": 4769,
      "Ġimen": 4770,
      "Ġiwuwo": 4771,
      "Ġeda": 4772,
      "Ġekwu": 4773,
      "Ġelet": 4774,
      "Ġegugo": 4775,
      "Ġefan": 4776,
      "Ġebak": 4777,
      "Ġegwak": 4778,
      "Ġewawa": 4779,
      "Ġebabia": 4780,
      "Ġebala": 4781,
      "Ġefakabe": 4782,
      "Ġmake": 4783,
      "Ġkwek": 4784,
      "bobet": 4785,
      "boman": 4786,
      "bonyan": 4787,
      "bosisik": 4788,
      "Ġayo": 4789,
      "Ġado": 4790,
      "Ġaye": 4791,
      "Ġafuk": 4792,
      "Ġnen": 4793,
      "Ġncha": 4794,
      "Ġnkukup": 4795,
      "Ġnsasa": 4796,
      "Ġnkario": 4797,
      "Ġnkakup": 4798,
      "Ġnkakana": 4799,
      "Ġebibilo": 4800,
      "Ġenekeke": 4801,
      "Ġenanama": 4802,
      "Ġenwenween": 4803,
      "Ġkemos": 4804,
      "katoon": 4805,
      "kakitumu": 4806,
      "kakisa": 4807,
      "kajot": 4808,
      "katutumu": 4809,
      "kachili": 4810,
      "kasak": 4811,
      "kitele": 4812,
      "kikan": 4813,
      "kikeke": 4814,
      "kisulu": 4815,
      "kilet": 4816,
      "kilomo": 4817,
      "kijijaka": 4818,
      "kijak": 4819,
      "kibak": 4820,
      "kikeme": 4821,
      "kibaak": 4822,
      "kichiin": 4823,
      "Ġgesio": 4824,
      "Ġisikup": 4825,
      "Ġisisan": 4826,
      "Ġisiben": 4827,
      "toret": 4828,
      "timi": 4829,
      "fifiin": 4830,
      "Ġeneto": 4831,
      "Ġenetap": 4832,
      "Ġenetim": 4833,
      "Ġenetitiin": 4834,
      "ragba": 4835,
      "Ġijojot": 4836,
      "Ġsii": 4837,
      "Ġsin": 4838,
      "Ġoneme": 4839,
      "kpogo": 4840,
      "gogon": 4841,
      "mabet": 4842,
      "enerieen": 4843,
      "lona": 4844,
      "Ġikigwu": 4845,
      "Ġikiyaka": 4846,
      "Ġikiche": 4847,
      "Ġikigwo": 4848,
      "Ġikifuk": 4849,
      "Ġikiraka": 4850,
      "Ġikigobo": 4851,
      "Ġikiwulu": 4852,
      "Ġikitaba": 4853,
      "Ġikikween": 4854,
      "Ġikijop": 4855,
      "wunu": 4856,
      "Ġikajo": 4857,
      "Ġikaluk": 4858,
      "Ġekigwu": 4859,
      "Ġekibele": 4860,
      "Ġekikwaan": 4861,
      "Ġekisisaak": 4862,
      "Ġekinyam": 4863,
      "Ġekichimi": 4864,
      "Ġitai": 4865,
      "kpato": 4866,
      "Ġinichieek": 4867,
      "Ġiniraka": 4868,
      "Ġinibeek": 4869,
      "Ġinikpe": 4870,
      "Ġjeba": 4871,
      "Ġjesaya": 4872,
      "Ġjebadi": 4873,
      "selona": 4874,
      "Ġonenikpa": 4875,
      "Ġonenijeen": 4876,
      "ekeli": 4877,
      "gadi": 4878,
      "Ġokembe": 4879,
      "Ġatafi": 4880,
      "muna": 4881,
      "Ġsami": 4882,
      "Ġmaki": 4883,
      "Ġmayon": 4884,
      "Ġjijaka": 4885,
      "Ġntele": 4886,
      "Ġkpetumu": 4887,
      "Ġokiriaak": 4888,
      "Ġokibele": 4889,
      "Ġokitaka": 4890,
      "Ġokiwulu": 4891,
      "chereyi": 4892,
      "rankat": 4893,
      "Ġechitbe": 4894,
      "Ġebetatap": 4895,
      "Ġkam": 4896,
      "Ġkatumu": 4897,
      "Ġkami": 4898,
      "Ġjobabu": 4899,
      "Ġobonu": 4900,
      "Ġobonama": 4901,
      "Ġsoban": 4902,
      "nia": 4903,
      "nibo": 4904,
      "nikup": 4905,
      "Ġgale": 4906,
      "fafan": 4907,
      "Ġbala": 4908,
      "Ġigoon": 4909,
      "Ġjafi": 4910,
      "Ġjayen": 4911,
      "Ġjabin": 4912,
      "Ġjayat": 4913,
      "Ġjakin": 4914,
      "Ġjayaji": 4915,
      "Ġjabidi": 4916,
      "Ġjabadi": 4917,
      "Ġjairo": 4918,
      "Ġenenikup": 4919,
      "Ġenenikpulu": 4920,
      "nenije": 4921,
      "nenita": 4922,
      "nenikpo": 4923,
      "nenigwo": 4924,
      "Ġekabe": 4925,
      "Ġekasi": 4926,
      "Ġekatumu": 4927,
      "Ġekalo": 4928,
      "Ġekarie": 4929,
      "Ġochichini": 4930,
      "Ġigwagwat": 4931,
      "Ġekego": 4932,
      "Ġeketumu": 4933,
      "Ġlisiti": 4934,
      "Ġnama": 4935,
      "nyanyam": 4936,
      "Ġelililiin": 4937,
      "Ġkpebeje": 4938,
      "Ġreyum": 4939,
      "Ġselomi": 4940,
      "Ġsebina": 4941,
      "Ġekekikpo": 4942,
      "Ġekekiben": 4943,
      "Ġekekidido": 4944,
      "Ġichichaka": 4945,
      "Ġnkisi": 4946,
      "Ġnkibeek": 4947,
      "Ġneyema": 4948,
      "Ġonenene": 4949,
      "Ġililam": 4950,
      "Ġililiin": 4951,
      "Ġsekeli": 4952,
      "Ġokekitoon": 4953,
      "Ġnkwukwulube": 4954,
      "Ġegogon": 4955,
      "Ġasitoret": 4956,
      "Ġinween": 4957,
      "Ġoruma": 4958,
      "Ġotiton": 4959,
      "Ġtayat": 4960,
      "Ġnnenido": 4961,
      "Ġnnenibene": 4962,
      "Ġtofet": 4963,
      "Ġajiri": 4964,
      "Ġajimabet": 4965,
      "jujuuk": 4966,
      "Ġjeyona": 4967,
      "Ġjeyoyanan": 4968,
      "Ġlep": 4969,
      "Ġpedaya": 4970,
      "Ġnuunuun": 4971,
      "Ġadaya": 4972,
      "Ġebenan": 4973,
      "deba": 4974,
      "Ġekpakpaka": 4975,
      "aakbe": 4976,
      "Ġbigi": 4977,
      "dias": 4978,
      "Ġtigi": 4979,
      "Ġraya": 4980,
      "Ġenibene": 4981,
      "Ġlayis": 4982,
      "polis": 4983,
      "saimo": 4984,
      "saida": 4985,
      "Ġibenitet": 4986,
      "Ġibenitim": 4987,
      "Ġnkarankat": 4988,
      "Ġtebes": 4989,
      "Ġteselona": 4990,
      "Ġkpebekwaan": 4991,
      "Ġkpebekup": 4992,
      "Ġekekin": 4993,
      "wila": 4994,
      "Ġmbebe": 4995,
      "Ġlibini": 4996,
      "ikeya": 4997,
      "Ġdowegi": 4998,
      "kekem": 4999,
      "Ġogagana": 5000,
      "Ġogbaragba": 5001,
      "Ġkpebenin": 5002,
      "Ġigbegbe": 5003,
      "totolek": 5004,
      "ofia": 5005,
      "Ġnneninyi": 5006,
      "memem": 5007,
      "Ġnayama": 5008,
      "Ġakwila": 5009,
      "Ġogwookbe": 5010,
      "Ġebeekbe": 5011,
      "Ġmerodak": 5012,
      "Ġjalimuna": 5013,
      "Ġbetisaida": 5014,
      "Ġmenayem": 5015,
      "Ġserebiya": 5016,
      "Ġafek": 5017,
      "Ġmaresa": 5018,
      "Ġwukuwuku": 5019,
      "Ġmakeda": 5020,
      "Ġjebadiya": 5021,
      "Ġlisitira": 5022,
      "Ġneyemaya": 5023,
      "Ġteselonaika": 5024,
      "Ġogbaragbat": 5025,
      ".]": 5026,
      "am": 5027,
      "gbidim": 5028,
      "ikpoko": 5029,
      "jeka": 5030,
      "keen": 5031,
      "nanaan": 5032,
      "okike": 5033,
      "ute": 5034,
      "yeek": 5035,
      "Ġlet": 5036,
      "Ġtun": 5037,
      "Ġbuk": 5038,
      "Ġituku": 5039,
      "Ġichachak": 5040,
      "Ġelin": 5041,
      "Ġechak": 5042,
      "Ġekpu": 5043,
      "Ġegbaalek": 5044,
      "Ġegbet": 5045,
      "Ġeriaakbe": 5046,
      "Ġekpukpukube": 5047,
      "Ġmman": 5048,
      "Ġmbieen": 5049,
      "Ġof": 5050,
      "Ġobot": 5051,
      "Ġosulu": 5052,
      "Ġomimin": 5053,
      "Ġowopbe": 5054,
      "Ġososook": 5055,
      "Ġmeyo": 5056,
      "Ġmesek": 5057,
      "Ġmemfi": 5058,
      "ekwukwu": 5059,
      "ena": 5060,
      "Ġugwaka": 5061,
      "Ġuduk": 5062,
      "yiyeek": 5063,
      "bowa": 5064,
      "bodo": 5065,
      "bogwa": 5066,
      "borie": 5067,
      "bosiki": 5068,
      "botataka": 5069,
      "Ġaben": 5070,
      "Ġame": 5071,
      "Ġabak": 5072,
      "Ġakibo": 5073,
      "Ġafen": 5074,
      "rei": 5075,
      "sim": 5076,
      "Ġnjit": 5077,
      "Ġnkeki": 5078,
      "Ġnchiaak": 5079,
      "Ġndudun": 5080,
      "Ġnseen": 5081,
      "jiso": 5082,
      "jibun": 5083,
      "Ġeme": 5084,
      "Ġenire": 5085,
      "Ġkeba": 5086,
      "Ġkebilo": 5087,
      "kagwu": 5088,
      "kakwu": 5089,
      "kabene": 5090,
      "kataka": 5091,
      "kakem": 5092,
      "kagegen": 5093,
      "kijo": 5094,
      "kirio": 5095,
      "kini": 5096,
      "kiwuuk": 5097,
      "kichaka": 5098,
      "kinye": 5099,
      "sabum": 5100,
      "Ġinyiaan": 5101,
      "emo": 5102,
      "Ġgede": 5103,
      "Ġgeberi": 5104,
      "basasa": 5105,
      "Ġisitet": 5106,
      "Ġisikwaan": 5107,
      "tia": 5108,
      "titeek": 5109,
      "Ġkanaan": 5110,
      "fira": 5111,
      "Ġenebo": 5112,
      "Ġenerie": 5113,
      "Ġenechieek": 5114,
      "Ġejijijaka": 5115,
      "raraan": 5116,
      "Ġkisi": 5117,
      "Ġkitumu": 5118,
      "Ġkison": 5119,
      "Ġsisini": 5120,
      "Ġsikamo": 5121,
      "Ġoninan": 5122,
      "Ġonesi": 5123,
      "kpogwu": 5124,
      "kposik": 5125,
      "legi": 5126,
      "Ġikifiat": 5127,
      "Ġikirep": 5128,
      "Ġikiwop": 5129,
      "Ġikiraan": 5130,
      "Ġerere": 5131,
      "Ġchichini": 5132,
      "Ġikaweek": 5133,
      "Ġikagban": 5134,
      "Ġikasibi": 5135,
      "Ġikajijaka": 5136,
      "Ġikachep": 5137,
      "Ġekisan": 5138,
      "Ġekichieek": 5139,
      "Ġekititiin": 5140,
      "Ġekisiki": 5141,
      "Ġekifeen": 5142,
      "Ġekiriki": 5143,
      "Ġekilileek": 5144,
      "Ġinirieen": 5145,
      "Ġinirie": 5146,
      "Ġinifieek": 5147,
      "Ġusu": 5148,
      "Ġmbubuk": 5149,
      "Ġisaak": 5150,
      "seri": 5151,
      "Ġoneniweek": 5152,
      "Ġonenifieek": 5153,
      "Ġonenikitumu": 5154,
      "gawaji": 5155,
      "Ġokeek": 5156,
      "Ġibabia": 5157,
      "Ġsafat": 5158,
      "Ġmasa": 5159,
      "Ġmatiti": 5160,
      "fufum": 5161,
      "Ġjin": 5162,
      "Ġenenyi": 5163,
      "Ġekweekbe": 5164,
      "gbagbala": 5165,
      "Ġkpesun": 5166,
      "Ġjek": 5167,
      "Ġjanowa": 5168,
      "Ġjuni": 5169,
      "Ġokibe": 5170,
      "Ġokitibi": 5171,
      "Ġokikeek": 5172,
      "Ġokinama": 5173,
      "Ġototoon": 5174,
      "Ġebesibi": 5175,
      "Ġebegwugwuun": 5176,
      "Ġkaro": 5177,
      "Ġkago": 5178,
      "Ġkada": 5179,
      "Ġkadi": 5180,
      "Ġkalet": 5181,
      "Ġkachiin": 5182,
      "diden": 5183,
      "Ġobobo": 5184,
      "Ġoborie": 5185,
      "Ġobokana": 5186,
      "Ġobosibi": 5187,
      "Ġobonyan": 5188,
      "Ġsoko": 5189,
      "kanwene": 5190,
      "nito": 5191,
      "Ġbasem": 5192,
      "Ġeroon": 5193,
      "Ġikanin": 5194,
      "Ġesik": 5195,
      "Ġesisik": 5196,
      "Ġjabo": 5197,
      "feri": 5198,
      "felet": 5199,
      "Ġeneniki": 5200,
      "Ġenenitap": 5201,
      "Ġenenibem": 5202,
      "Ġenenisaba": 5203,
      "Ġeririki": 5204,
      "nenitet": 5205,
      "neniluk": 5206,
      "nenigwugwuun": 5207,
      "Ġekakpa": 5208,
      "Ġgoma": 5209,
      "Ġarak": 5210,
      "kiroon": 5211,
      "giga": 5212,
      "Ġokwakwaan": 5213,
      "sikibe": 5214,
      "Ġochimbe": 5215,
      "Ġochiaakbe": 5216,
      "Ġekegwen": 5217,
      "Ġeketap": 5218,
      "Ġebekinyi": 5219,
      "Ġebekpe": 5220,
      "Ġebekpan": 5221,
      "Ġinenikpulu": 5222,
      "niniin": 5223,
      "Ġelifelet": 5224,
      "Ġkpebere": 5225,
      "Ġkpebechieek": 5226,
      "Ġigwuk": 5227,
      "kakire": 5228,
      "kakikup": 5229,
      "kakisan": 5230,
      "kakitele": 5231,
      "kakifieek": 5232,
      "kakilibi": 5233,
      "kakikeke": 5234,
      "kakinwene": 5235,
      "Ġoriebe": 5236,
      "Ġsela": 5237,
      "Ġosusulu": 5238,
      "Ġisasaba": 5239,
      "Ġfilipa": 5240,
      "Ġekekiko": 5241,
      "Ġichichit": 5242,
      "Ġnkigwen": 5243,
      "Ġikikebe": 5244,
      "Ġokabe": 5245,
      "Ġsemi": 5246,
      "Ġokekido": 5247,
      "Ġbejibun": 5248,
      "Ġnkwukwuun": 5249,
      "Ġeruro": 5250,
      "Ġikinyam": 5251,
      "Ġowabe": 5252,
      "Ġtai": 5253,
      "Ġgilibowa": 5254,
      "juru": 5255,
      "Ġjeyosadak": 5256,
      "Ġpelegi": 5257,
      "Ġochakbe": 5258,
      "Ġtapuwa": 5259,
      "Ġsibio": 5260,
      "lilileek": 5261,
      "kwekweek": 5262,
      "Ġimama": 5263,
      "irini": 5264,
      "Ġubenelek": 5265,
      "Ġebenyi": 5266,
      "Ġebenama": 5267,
      "derek": 5268,
      "Ġdison": 5269,
      "Ġbikiri": 5270,
      "kekitumu": 5271,
      "Ġntapbe": 5272,
      "Ġajaya": 5273,
      "Ġinitobo": 5274,
      "Ġigege": 5275,
      "Ġigegele": 5276,
      "Ġikwakwaan": 5277,
      "Ġikinyinya": 5278,
      "Ġagagawaji": 5279,
      "Ġesitayon": 5280,
      "Ġkpenan": 5281,
      "Ġoyoliba": 5282,
      "Ġmerayot": 5283,
      "Ġdoru": 5284,
      "Ġeliasa": 5285,
      "Ġisinire": 5286,
      "Ġisiniro": 5287,
      "Ġenekaan": 5288,
      "Ġijat": 5289,
      "Ġogbagbana": 5290,
      "ebereyam": 5291,
      "Ġebabala": 5292,
      "Ġofaak": 5293,
      "Ġelepbe": 5294,
      "Ġodada": 5295,
      "Ġobelebe": 5296,
      "Ġodidim": 5297,
      "Ġsalimo": 5298,
      "Ġbelisaja": 5299,
      "Ġbelitisaja": 5300,
      "Ġefiatbe": 5301,
      "Ġkakeke": 5302,
      "Ġmatiyu": 5303,
      "Ġpisiga": 5304,
      "Ġederei": 5305,
      "Ġofera": 5306,
      "Ġnimiro": 5307,
      "Ġmanderek": 5308,
      "Ġmisayen": 5309,
      "Ġobeekbe": 5310,
      "Ġnikodimo": 5311,
      "Ġakubu": 5312,
      "Ġbojira": 5313,
      "Ġselomit": 5314,
      "Ġmemfis": 5315,
      "Ġekirikit": 5316,
      "Ġmatitiya": 5317,
      "Ġkadimien": 5318,
      "Ġbasemat": 5319,
      "Ġfilipai": 5320,
      "Ġoyolibama": 5321,
      "acha": 5322,
      "atan": 5323,
      "ero": 5324,
      "ikan": 5325,
      "nto": 5326,
      "nga": 5327,
      "nanama": 5328,
      "pulu": 5329,
      "tek": 5330,
      "tin": 5331,
      "ufieek": 5332,
      "uwen": 5333,
      "Ġbum": 5334,
      "Ġfaka": 5335,
      "Ġfuun": 5336,
      "Ġgana": 5337,
      "Ġiren": 5338,
      "Ġiran": 5339,
      "Ġisuuk": 5340,
      "Ġitut": 5341,
      "Ġisek": 5342,
      "Ġituun": 5343,
      "Ġidut": 5344,
      "Ġiyiyik": 5345,
      "Ġeriaak": 5346,
      "Ġepa": 5347,
      "Ġekpaka": 5348,
      "Ġetaba": 5349,
      "Ġelat": 5350,
      "Ġeraraka": 5351,
      "Ġefiaan": 5352,
      "Ġesulube": 5353,
      "Ġerariaak": 5354,
      "Ġmin": 5355,
      "Ġmmo": 5356,
      "Ġmbia": 5357,
      "Ġosia": 5358,
      "Ġofan": 5359,
      "Ġobak": 5360,
      "Ġolep": 5361,
      "Ġocho": 5362,
      "Ġobieen": 5363,
      "Ġolalaak": 5364,
      "Ġosoon": 5365,
      "Ġolookbe": 5366,
      "Ġmere": 5367,
      "enyen": 5368,
      "Ġukput": 5369,
      "yinyi": 5370,
      "bofo": 5371,
      "botet": 5372,
      "bogwo": 5373,
      "boben": 5374,
      "bojibi": 5375,
      "boyim": 5376,
      "bobook": 5377,
      "bero": 5378,
      "Ġawu": 5379,
      "Ġamu": 5380,
      "Ġaru": 5381,
      "Ġaten": 5382,
      "Ġajeka": 5383,
      "sip": 5384,
      "siba": 5385,
      "tulu": 5386,
      "Ġnkeke": 5387,
      "Ġnkayaka": 5388,
      "Ġnden": 5389,
      "Ġnlukbe": 5390,
      "yaba": 5391,
      "Ġemin": 5392,
      "waka": 5393,
      "Ġena": 5394,
      "Ġenge": 5395,
      "Ġenene": 5396,
      "Ġenekpo": 5397,
      "rowas": 5398,
      "Ġkep": 5399,
      "kagwen": 5400,
      "kabum": 5401,
      "kagbaan": 5402,
      "kabele": 5403,
      "kagobo": 5404,
      "kakakaan": 5405,
      "kalet": 5406,
      "kafiat": 5407,
      "kakukup": 5408,
      "mut": 5409,
      "kio": 5410,
      "kime": 5411,
      "kikana": 5412,
      "kibum": 5413,
      "kitan": 5414,
      "kikakaan": 5415,
      "kisisik": 5416,
      "kiteme": 5417,
      "kirep": 5418,
      "kijibi": 5419,
      "kitata": 5420,
      "kikwak": 5421,
      "kibumu": 5422,
      "kitem": 5423,
      "ribu": 5424,
      "rifa": 5425,
      "chimbe": 5426,
      "Ġgedo": 5427,
      "Ġibeen": 5428,
      "babak": 5429,
      "bayot": 5430,
      "jobu": 5431,
      "Ġisiya": 5432,
      "Ġisido": 5433,
      "Ġisiwele": 5434,
      "Ġisikiro": 5435,
      "baniya": 5436,
      "tik": 5437,
      "tiko": 5438,
      "tifa": 5439,
      "mowabu": 5440,
      "fito": 5441,
      "Ġenetet": 5442,
      "bubuku": 5443,
      "Ġmigido": 5444,
      "Ġowuwut": 5445,
      "Ġowuwulu": 5446,
      "Ġirerieen": 5447,
      "une": 5448,
      "unye": 5449,
      "unukp": 5450,
      "Ġonwenween": 5451,
      "kpojit": 5452,
      "kpokeke": 5453,
      "lesa": 5454,
      "Ġkpeme": 5455,
      "lon": 5456,
      "lobe": 5457,
      "lodo": 5458,
      "Ġeyiyiyala": 5459,
      "Ġikichit": 5460,
      "Ġikichieek": 5461,
      "Ġikime": 5462,
      "Ġikifaka": 5463,
      "Ġikisisik": 5464,
      "Ġikilomo": 5465,
      "Ġikilaak": 5466,
      "Ġikikput": 5467,
      "Ġikigumu": 5468,
      "Ġikigbin": 5469,
      "lipa": 5470,
      "gwagwat": 5471,
      "data": 5472,
      "dada": 5473,
      "Ġikatumu": 5474,
      "Ġikaben": 5475,
      "Ġikachak": 5476,
      "Ġikasisik": 5477,
      "Ġikafieekge": 5478,
      "Ġekiria": 5479,
      "Ġekiwuuk": 5480,
      "Ġekifiat": 5481,
      "Ġekijak": 5482,
      "Ġekijin": 5483,
      "Ġekigen": 5484,
      "Ġekichachak": 5485,
      "Ġekinene": 5486,
      "kpabo": 5487,
      "kpajijaka": 5488,
      "kpachep": 5489,
      "Ġiniyaka": 5490,
      "Ġinifuk": 5491,
      "Ġinitaan": 5492,
      "Ġinifaka": 5493,
      "Ġinikitumu": 5494,
      "Ġinifiat": 5495,
      "Ġinigwuun": 5496,
      "Ġinifuun": 5497,
      "Ġinikiweek": 5498,
      "Ġinigele": 5499,
      "Ġinigwugwuun": 5500,
      "ses": 5501,
      "Ġonenisiki": 5502,
      "Ġonenifuk": 5503,
      "Ġonenitoon": 5504,
      "Ġonenibeek": 5505,
      "Ġonenisaba": 5506,
      "Ġonenikije": 5507,
      "Ġsairini": 5508,
      "Ġmaya": 5509,
      "Ġmaluk": 5510,
      "fufuku": 5511,
      "Ġjilipa": 5512,
      "Ġeneninin": 5513,
      "Ġekwo": 5514,
      "Ġntetbe": 5515,
      "Ġkpege": 5516,
      "Ġkperie": 5517,
      "Ġkpegwo": 5518,
      "Ġkpegbe": 5519,
      "Ġkpefat": 5520,
      "Ġkpeweweek": 5521,
      "Ġkperaraan": 5522,
      "Ġokiria": 5523,
      "Ġokibene": 5524,
      "Ġokichit": 5525,
      "Ġokikpan": 5526,
      "Ġokisiki": 5527,
      "Ġokisulu": 5528,
      "Ġokilomo": 5529,
      "Ġokichaka": 5530,
      "Ġokigbin": 5531,
      "suso": 5532,
      "Ġofiin": 5533,
      "Ġkabe": 5534,
      "Ġkari": 5535,
      "Ġkakpan": 5536,
      "Ġkasisaak": 5537,
      "telebe": 5538,
      "Ġobomo": 5539,
      "Ġobobene": 5540,
      "Ġobotet": 5541,
      "Ġobofieek": 5542,
      "Ġobodasi": 5543,
      "Ġobokisa": 5544,
      "Ġobokikpulu": 5545,
      "Ġsowan": 5546,
      "Ġjuuk": 5547,
      "Ġorep": 5548,
      "Ġorerieen": 5549,
      "kanyan": 5550,
      "niria": 5551,
      "nitet": 5552,
      "nisulu": 5553,
      "nikeme": 5554,
      "nuwi": 5555,
      "Ġikanu": 5556,
      "minbe": 5557,
      "pilesa": 5558,
      "mio": 5559,
      "mian": 5560,
      "Ġesio": 5561,
      "Ġjasu": 5562,
      "Ġjamin": 5563,
      "Ġjayas": 5564,
      "fegi": 5565,
      "Ġibolo": 5566,
      "Ġibodo": 5567,
      "Ġenenimo": 5568,
      "Ġenenikeke": 5569,
      "Ġenenikije": 5570,
      "Ġatisi": 5571,
      "nenitoon": 5572,
      "nenikeke": 5573,
      "Ġntobe": 5574,
      "Ġekawuuk": 5575,
      "Ġmfufo": 5576,
      "Ġpu": 5577,
      "Ġput": 5578,
      "Ġogbolodo": 5579,
      "Ġochichim": 5580,
      "Ġnrombe": 5581,
      "Ġugen": 5582,
      "Ġebekwakwaan": 5583,
      "Ġinenire": 5584,
      "Ġinenikpo": 5585,
      "ninan": 5586,
      "kisasa": 5587,
      "Ġelim": 5588,
      "Ġkpebetap": 5589,
      "Ġkpebejomo": 5590,
      "bonyenye": 5591,
      "Ġgiriga": 5592,
      "kakimun": 5593,
      "kakigban": 5594,
      "kakisun": 5595,
      "kakinwo": 5596,
      "Ġrewu": 5597,
      "Ġselu": 5598,
      "Ġseferi": 5599,
      "Ġsebaniya": 5600,
      "Ġmbado": 5601,
      "Ġebekitap": 5602,
      "Ġebekikpulu": 5603,
      "Ġabisa": 5604,
      "Ġabila": 5605,
      "Ġekekiluk": 5606,
      "Ġekekiran": 5607,
      "Ġnkiko": 5608,
      "Ġnkijeen": 5609,
      "Ġnkitaan": 5610,
      "Ġnkilook": 5611,
      "Ġnkikek": 5612,
      "yenai": 5613,
      "Ġpirisi": 5614,
      "Ġokakat": 5615,
      "Ġkpebekpan": 5616,
      "Ġkpekimo": 5617,
      "Ġkpekitumu": 5618,
      "Ġkpekilo": 5619,
      "Ġkpekitap": 5620,
      "Ġsenes": 5621,
      "turus": 5622,
      "Ġokekisa": 5623,
      "Ġokekiluk": 5624,
      "danien": 5625,
      "bineya": 5626,
      "Ġbebai": 5627,
      "Ġberin": 5628,
      "Ġkpekwaan": 5629,
      "Ġkpekpa": 5630,
      "Ġkpekpan": 5631,
      "Ġinenin": 5632,
      "Ġebesaba": 5633,
      "Ġjerimot": 5634,
      "Ġikinene": 5635,
      "yanak": 5636,
      "Ġtayanak": 5637,
      "Ġnnenisa": 5638,
      "Ġtorowas": 5639,
      "Ġpaturus": 5640,
      "Ġayinowam": 5641,
      "Ġonimbe": 5642,
      "Ġokwuun": 5643,
      "kineme": 5644,
      "kinunuun": 5645,
      "Ġurim": 5646,
      "Ġbinuwi": 5647,
      "kekiro": 5648,
      "kekitaan": 5649,
      "Ġtiten": 5650,
      "Ġenikup": 5651,
      "Ġiriki": 5652,
      "Ġotititiin": 5653,
      "chichinibe": 5654,
      "yiyalabe": 5655,
      "Ġoneninene": 5656,
      "Ġoneninyan": 5657,
      "Ġogula": 5658,
      "kibeben": 5659,
      "Ġekibeme": 5660,
      "Ġlotan": 5661,
      "Ġjioyaribu": 5662,
      "Ġsimiron": 5663,
      "Ġkpenwo": 5664,
      "Ġkpenama": 5665,
      "gbetbe": 5666,
      "Ġofufuk": 5667,
      "Ġteli": 5668,
      "Ġabarim": 5669,
      "Ġmbese": 5670,
      "Ġitiki": 5671,
      "Ġitimi": 5672,
      "kekeme": 5673,
      "Ġenekup": 5674,
      "Ġkiriatayim": 5675,
      "Ġmbani": 5676,
      "Ġkpebenyi": 5677,
      "Ġkpebenwo": 5678,
      "kanyinyi": 5679,
      "Ġokekinyi": 5680,
      "Ġrefaya": 5681,
      "Ġrefayim": 5682,
      "Ġojijakabe": 5683,
      "Ġofafan": 5684,
      "kinina": 5685,
      "Ġdelaya": 5686,
      "Ġoririki": 5687,
      "Ġoboninama": 5688,
      "urum": 5689,
      "Ġjeremot": 5690,
      "Ġluju": 5691,
      "Ġokanbe": 5692,
      "Ġeneninama": 5693,
      "Ġnsisulu": 5694,
      "Ġeliyasafu": 5695,
      "Ġobakbe": 5696,
      "Ġjasipa": 5697,
      "Ġefifilabe": 5698,
      "Ġjarimut": 5699,
      "Ġelioyenai": 5700,
      "Ġalikisenda": 5701,
      "Ġegiriga": 5702,
      "Ġebalabe": 5703,
      "Ġadoram": 5704,
      "Ġayejeri": 5705,
      "Ġnkakupge": 5706,
      "Ġgalesia": 5707,
      "Ġjayajien": 5708,
      "Ġjeyonadabu": 5709,
      "Ġtigilat": 5710,
      "Ġtuntun": 5711,
      "Ġelinatan": 5712,
      "Ġekpuuruk": 5713,
      "Ġjekonaya": 5714,
      "Ġjunipa": 5715,
      "Ġatens": 5716,
      "Ġengedi": 5717,
      "rifayim": 5718,
      "Ġgedoru": 5719,
      "Ġogbolodom": 5720,
      "Ġgirigas": 5721,
      "Ġpirisila": 5722,
      "Ġsenesene": 5723,
      "ako": 5724,
      "ewuuk": 5725,
      "edim": 5726,
      "ii": 5727,
      "ikp": 5728,
      "ido": 5729,
      "irek": 5730,
      "itat": 5731,
      "jek": 5732,
      "leen": 5733,
      "nsi": 5734,
      "nem": 5735,
      "nneni": 5736,
      "nwan": 5737,
      "ot": 5738,
      "owa": 5739,
      "uto": 5740,
      "wana": 5741,
      "yun": 5742,
      "Ġtip": 5743,
      "Ġtibi": 5744,
      "Ġtat": 5745,
      "Ġbeek": 5746,
      "Ġbeke": 5747,
      "Ġibi": 5748,
      "Ġite": 5749,
      "Ġimimin": 5750,
      "Ġichacha": 5751,
      "Ġidimi": 5752,
      "Ġijene": 5753,
      "Ġiwuwut": 5754,
      "Ġitututuku": 5755,
      "Ġejak": 5756,
      "Ġegwat": 5757,
      "Ġechep": 5758,
      "Ġetutuku": 5759,
      "Ġechachak": 5760,
      "Ġechacha": 5761,
      "Ġedadasi": 5762,
      "Ġeriaan": 5763,
      "Ġechon": 5764,
      "Ġechakbe": 5765,
      "Ġmfieek": 5766,
      "Ġmini": 5767,
      "Ġminwo": 5768,
      "Ġmmemem": 5769,
      "Ġogwo": 5770,
      "Ġotaan": 5771,
      "ÌĢ.": 5772,
      "Ġulep": 5773,
      "Ġutut": 5774,
      "Ġucho": 5775,
      "Ġutek": 5776,
      "yima": 5777,
      "bobot": 5778,
      "bokisa": 5779,
      "botaka": 5780,
      "bokije": 5781,
      "boyayat": 5782,
      "berie": 5783,
      "Ġaiko": 5784,
      "Ġamien": 5785,
      "Ġarisi": 5786,
      "Ġasuru": 5787,
      "tus": 5788,
      "tura": 5789,
      "Ġnkwo": 5790,
      "Ġnyana": 5791,
      "Ġnken": 5792,
      "yali": 5793,
      "yayen": 5794,
      "jiji": 5795,
      "jijin": 5796,
      "waak": 5797,
      "Ġeniko": 5798,
      "Ġeninan": 5799,
      "Ġenwenwene": 5800,
      "Ġenekpan": 5801,
      "ros": 5802,
      "Ġked": 5803,
      "Ġkeri": 5804,
      "Ġketura": 5805,
      "kage": 5806,
      "kagwo": 5807,
      "kaman": 5808,
      "katibi": 5809,
      "kakeek": 5810,
      "katata": 5811,
      "kasoso": 5812,
      "kajomo": 5813,
      "mumumen": 5814,
      "kigwu": 5815,
      "kita": 5816,
      "kila": 5817,
      "kikpukp": 5818,
      "kifaka": 5819,
      "kigbana": 5820,
      "kitetet": 5821,
      "kijeje": 5822,
      "kibia": 5823,
      "kigwuun": 5824,
      "kitatat": 5825,
      "kigbala": 5826,
      "kileke": 5827,
      "kimumen": 5828,
      "kifeen": 5829,
      "kigbet": 5830,
      "kikween": 5831,
      "kigbugbuk": 5832,
      "kiwuwulu": 5833,
      "kiraran": 5834,
      "sayi": 5835,
      "ineni": 5836,
      "tarot": 5837,
      "kube": 5838,
      "Ġgema": 5839,
      "Ġgesem": 5840,
      "Ġibedo": 5841,
      "basi": 5842,
      "baso": 5843,
      "batumu": 5844,
      "baali": 5845,
      "bajijijaka": 5846,
      "Ġisita": 5847,
      "Ġisinyi": 5848,
      "Ġisigwo": 5849,
      "Ġisitap": 5850,
      "Ġisitaan": 5851,
      "tela": 5852,
      "tobe": 5853,
      "tiki": 5854,
      "mosis": 5855,
      "fidim": 5856,
      "Ġenesa": 5857,
      "Ġenefieek": 5858,
      "bubat": 5859,
      "Ġmibi": 5860,
      "Ġmitulu": 5861,
      "Ġowutbe": 5862,
      "raton": 5863,
      "Ġkisa": 5864,
      "Ġkikpo": 5865,
      "kposi": 5866,
      "kposo": 5867,
      "kponu": 5868,
      "kpofieek": 5869,
      "kpochak": 5870,
      "wodi": 5871,
      "enien": 5872,
      "Ġkpiri": 5873,
      "lot": 5874,
      "loon": 5875,
      "Ġeyilo": 5876,
      "Ġeyikbe": 5877,
      "Ġikirieen": 5878,
      "Ġikidun": 5879,
      "Ġikikeke": 5880,
      "Ġikikat": 5881,
      "Ġikimumen": 5882,
      "Ġikigana": 5883,
      "Ġikibumu": 5884,
      "Ġikigbugbut": 5885,
      "Ġikikwukwulu": 5886,
      "Ġikitiik": 5887,
      "Ì£,âĢĻ": 5888,
      "yet": 5889,
      "yera": 5890,
      "Ġchieek": 5891,
      "Ġikagbaan": 5892,
      "Ġekilo": 5893,
      "Ġekigwo": 5894,
      "Ġekitele": 5895,
      "Ġekijit": 5896,
      "Ġekibum": 5897,
      "Ġekiraka": 5898,
      "Ġekikeke": 5899,
      "Ġekilet": 5900,
      "Ġekitetet": 5901,
      "Ġekilep": 5902,
      "Ġekifiin": 5903,
      "Ġekikput": 5904,
      "Ġekiweweek": 5905,
      "kpago": 5906,
      "kpajit": 5907,
      "kpagban": 5908,
      "Ġinibum": 5909,
      "Ġinilet": 5910,
      "Ġinitaba": 5911,
      "Ġinisisaak": 5912,
      "Ġinichibi": 5913,
      "oniin": 5914,
      "rufu": 5915,
      "Ġjeraya": 5916,
      "Ġonenima": 5917,
      "Ġonenirio": 5918,
      "Ġonenikpan": 5919,
      "Ġonenitim": 5920,
      "Ġonenitaba": 5921,
      "Ġatarot": 5922,
      "Ġsare": 5923,
      "Ġmara": 5924,
      "Ġmago": 5925,
      "Ġmalo": 5926,
      "Ġmala": 5927,
      "Ġenenyan": 5928,
      "Ġekwek": 5929,
      "Ġyik": 5930,
      "Ġyiyala": 5931,
      "Ġkpesi": 5932,
      "Ġkpeje": 5933,
      "Ġkpebele": 5934,
      "Ġkpetoon": 5935,
      "Ġkpedodo": 5936,
      "Ġokire": 5937,
      "Ġokisan": 5938,
      "Ġokikwu": 5939,
      "Ġokigban": 5940,
      "Ġokibum": 5941,
      "Ġokigbaan": 5942,
      "Ġokijot": 5943,
      "Ġokikeme": 5944,
      "Ġokimumen": 5945,
      "chebe": 5946,
      "Ġkeyiyi": 5947,
      "Ġofiik": 5948,
      "Ġofitbe": 5949,
      "Ġebewa": 5950,
      "Ġebegwo": 5951,
      "Ġebejeen": 5952,
      "Ġebefuk": 5953,
      "Ġebefaka": 5954,
      "Ġebebeek": 5955,
      "Ġkamo": 5956,
      "Ġkagbaan": 5957,
      "Ġkafuk": 5958,
      "Ġkajijaka": 5959,
      "tapge": 5960,
      "Ġjoya": 5961,
      "Ġjoon": 5962,
      "didimi": 5963,
      "Ġoboto": 5964,
      "Ġobokpo": 5965,
      "Ġobofo": 5966,
      "Ġoborieen": 5967,
      "Ġoboria": 5968,
      "Ġobotap": 5969,
      "Ġobonan": 5970,
      "Ġobokpan": 5971,
      "Ġikanaan": 5972,
      "Ġsofa": 5973,
      "jitbe": 5974,
      "nio": 5975,
      "niko": 5976,
      "nikpa": 5977,
      "nimun": 5978,
      "nibene": 5979,
      "niben": 5980,
      "nisia": 5981,
      "nitaka": 5982,
      "Ġgayo": 5983,
      "Ġijijo": 5984,
      "Ġijijibi": 5985,
      "pim": 5986,
      "mege": 5987,
      "meri": 5988,
      "Ġesitem": 5989,
      "Ġesikon": 5990,
      "Ġjafan": 5991,
      "Ġjakio": 5992,
      "Ġosaba": 5993,
      "Ġejeri": 5994,
      "Ġenenigobo": 5995,
      "Ġenenilook": 5996,
      "Ġeneniroon": 5997,
      "Ġenenichichini": 5998,
      "Ġenenikido": 5999,
      "Ġininiin": 6000,
      "Ġkaraso": 6001,
      "nenisi": 6002,
      "neniwo": 6003,
      "nenifo": 6004,
      "nenisibi": 6005,
      "Ġekaka": 6006,
      "Ġekamo": 6007,
      "Ġekado": 6008,
      "Ġekakpan": 6009,
      "Ġekafiat": 6010,
      "Ġekatbe": 6011,
      "Ġekakala": 6012,
      "Ġgon": 6013,
      "Ġigbagbaan": 6014,
      "Ġmfurufu": 6015,
      "Ġpuwa": 6016,
      "Ġpenien": 6017,
      "Ġaradi": 6018,
      "kirom": 6019,
      "Ġetipbe": 6020,
      "gien": 6021,
      "tanien": 6022,
      "Ġegegen": 6023,
      "Ġekeben": 6024,
      "Ġekesibi": 6025,
      "Ġlidia": 6026,
      "Ġnayat": 6027,
      "Ġnatanien": 6028,
      "eten": 6029,
      "Ġinenigwu": 6030,
      "Ġinenije": 6031,
      "Ġinenimo": 6032,
      "Ġinenititiin": 6033,
      "Ġinenijijaka": 6034,
      "Ġilomo": 6035,
      "Ġiloma": 6036,
      "Ġelimelek": 6037,
      "Ġelisuru": 6038,
      "Ġkpebebo": 6039,
      "Ġkpebegban": 6040,
      "Ġkpebewuuk": 6041,
      "Ġogele": 6042,
      "Ġgiyo": 6043,
      "kakita": 6044,
      "kakigo": 6045,
      "kakirio": 6046,
      "kakirie": 6047,
      "kakiben": 6048,
      "kakimin": 6049,
      "kakinin": 6050,
      "sutbe": 6051,
      "Ġkpoyakabe": 6052,
      "Ġrefidim": 6053,
      "Ġeseri": 6054,
      "Ġnim": 6055,
      "Ġmbafo": 6056,
      "Ġebekire": 6057,
      "Ġebekije": 6058,
      "Ġebekiwo": 6059,
      "Ġbabilonia": 6060,
      "Ġabibu": 6061,
      "Ġabisuwa": 6062,
      "Ġabidan": 6063,
      "Ġabiyali": 6064,
      "Ġekekibo": 6065,
      "Ġnkido": 6066,
      "Ġnkimun": 6067,
      "Ġnkitap": 6068,
      "Ġnkino": 6069,
      "Ġnkirika": 6070,
      "Ġichan": 6071,
      "Ġojejeen": 6072,
      "Ġpiraton": 6073,
      "Ġetotoon": 6074,
      "Ġifiaak": 6075,
      "Ġokakan": 6076,
      "Ġkpekitet": 6077,
      "Ġkpekigban": 6078,
      "Ġkpekichieek": 6079,
      "Ġkpekikeek": 6080,
      "neninin": 6081,
      "Ġokekikpo": 6082,
      "Ġokekigo": 6083,
      "Ġokekisisik": 6084,
      "Ġokekigbuk": 6085,
      "Ġibenin": 6086,
      "Ġoraraka": 6087,
      "Ġoraraan": 6088,
      "Ġkpekeek": 6089,
      "Ġosisiki": 6090,
      "Ġasitarot": 6091,
      "Ġikakeke": 6092,
      "Ġineninyan": 6093,
      "Ġebesasa": 6094,
      "kinyinya": 6095,
      "Ġikinwene": 6096,
      "Ġatantan": 6097,
      "yanabe": 6098,
      "padi": 6099,
      "Ġnnenisi": 6100,
      "Ġnnenikeek": 6101,
      "kiket": 6102,
      "Ġpara": 6103,
      "Ġpalu": 6104,
      "Ġpayat": 6105,
      "Ġpamfi": 6106,
      "Ġparos": 6107,
      "Ġpagien": 6108,
      "juda": 6109,
      "Ġleyi": 6110,
      "Ġiwaka": 6111,
      "Ġpela": 6112,
      "Ġpeda": 6113,
      "Ġayio": 6114,
      "Ġayira": 6115,
      "Ġonikwu": 6116,
      "Ġfonisia": 6117,
      "kinene": 6118,
      "kinunu": 6119,
      "kinyana": 6120,
      "dedek": 6121,
      "Ġmgbugba": 6122,
      "Ġdii": 6123,
      "Ġtisibe": 6124,
      "Ġraan": 6125,
      "ikagban": 6126,
      "Ġajaren": 6127,
      "Ġjebun": 6128,
      "Ġladan": 6129,
      "Ġlawodi": 6130,
      "Ġegwagwa": 6131,
      "Ġaripadi": 6132,
      "gbukube": 6133,
      "Ġimina": 6134,
      "Ġogwagwa": 6135,
      "Ġogwakbe": 6136,
      "Ġefonbe": 6137,
      "Ġegween": 6138,
      "kibeen": 6139,
      "Ġekpebe": 6140,
      "Ġikekisa": 6141,
      "Ġjediyayen": 6142,
      "Ġsuri": 6143,
      "Ġsutela": 6144,
      "Ġibenito": 6145,
      "Ġkpenin": 6146,
      "Ġkpenye": 6147,
      "Ġngigen": 6148,
      "boniro": 6149,
      "Ġoyokbe": 6150,
      "Ġoyolia": 6151,
      "kimalek": 6152,
      "Ġmbeben": 6153,
      "Ġikasage": 6154,
      "Ġomama": 6155,
      "Ġomaman": 6156,
      "Ġwilo": 6157,
      "Ġogagak": 6158,
      "Ġuluda": 6159,
      "pela": 6160,
      "Ġefafiat": 6161,
      "Ġefafan": 6162,
      "Ġserugu": 6163,
      "Ġojojomo": 6164,
      "Ġokekin": 6165,
      "memeen": 6166,
      "Ġewuwut": 6167,
      "Ġntikwo": 6168,
      "Ġefili": 6169,
      "Ġrekem": 6170,
      "Ġadima": 6171,
      "Ġsefarifayim": 6172,
      "Ġodabia": 6173,
      "Ġibubeek": 6174,
      "Ġpekaya": 6175,
      "Ġsuwali": 6176,
      "Ġodiya": 6177,
      "Ġsamayi": 6178,
      "Ġnsisaan": 6179,
      "Ġmisip": 6180,
      "Ġnsikikeek": 6181,
      "Ġnsiseen": 6182,
      "Ġeliyakim": 6183,
      "Ġofiatbe": 6184,
      "Ġogakbe": 6185,
      "Ġelilambe": 6186,
      "Ġituto": 6187,
      "Ġojijo": 6188,
      "Ġochitbe": 6189,
      "Ġeletbe": 6190,
      "Ġmakipela": 6191,
      "Ġajirikam": 6192,
      "Ġbigibai": 6193,
      "Ġbuki": 6194,
      "Ġofini": 6195,
      "Ġonesimo": 6196,
      "Ġmeremot": 6197,
      "Ġselumien": 6198,
      "Ġbekeri": 6199,
      "Ġaikonio": 6200,
      "Ġpamfilia": 6201,
      "Ġlawodisia": 6202,
      "Ġoyoliabu": 6203,
      ");": 6204,
      "as": 6205,
      "afi": 6206,
      "debi": 6207,
      "deya": 6208,
      "egwe": 6209,
      "ejen": 6210,
      "ije": 6211,
      "ikpe": 6212,
      "ilai": 6213,
      "kweekbe": 6214,
      "mfu": 6215,
      "nge": 6216,
      "nok": 6217,
      "oge": 6218,
      "ochichim": 6219,
      "seke": 6220,
      "Ġgba": 6221,
      "Ġwe": 6222,
      "Ġdasi": 6223,
      "Ġraka": 6224,
      "Ġgbegbe": 6225,
      "Ġgbuku": 6226,
      "Ġgbet": 6227,
      "Ġlen": 6228,
      "Ġiga": 6229,
      "Ġimi": 6230,
      "Ġigwele": 6231,
      "Ġiwuwuuk": 6232,
      "Ġiteek": 6233,
      "Ġijujuuk": 6234,
      "Ġebat": 6235,
      "Ġesusun": 6236,
      "Ġefeen": 6237,
      "Ġelalaak": 6238,
      "Ġedidimi": 6239,
      "Ġmfuk": 6240,
      "Ġmbebene": 6241,
      "Ġmfieekbe": 6242,
      "ÌĦâĢĿ": 6243,
      "Ġoban": 6244,
      "Ġokpulu": 6245,
      "Ġosis": 6246,
      "Ġofuk": 6247,
      "Ġogbana": 6248,
      "Ġowop": 6249,
      "Ġogwak": 6250,
      "Ġolelet": 6251,
      "Ġogen": 6252,
      "Ġochachak": 6253,
      "Ġogana": 6254,
      "Ġojuuk": 6255,
      "Ġokpukpuku": 6256,
      "Ġofen": 6257,
      "Ġoteteen": 6258,
      "Ġochakabe": 6259,
      "Ġogbetbe": 6260,
      "Ġmesaya": 6261,
      "Ġmedeba": 6262,
      "Ġkine": 6263,
      "Ġuwa": 6264,
      "Ġugwo": 6265,
      "Ġuleke": 6266,
      "yige": 6267,
      "yieen": 6268,
      "botibi": 6269,
      "bokeke": 6270,
      "borot": 6271,
      "bojijaka": 6272,
      "botata": 6273,
      "boluluk": 6274,
      "bokitap": 6275,
      "bojojot": 6276,
      "bokire": 6277,
      "besi": 6278,
      "beton": 6279,
      "Ġajo": 6280,
      "Ġasan": 6281,
      "Ġatem": 6282,
      "Ġapulu": 6283,
      "Ġatus": 6284,
      "Ġikwun": 6285,
      "rerieen": 6286,
      "siya": 6287,
      "Ġnlo": 6288,
      "Ġnsibi": 6289,
      "Ġnlibi": 6290,
      "Ġnsik": 6291,
      "Ġnyam": 6292,
      "Ġnjijaka": 6293,
      "Ġnchili": 6294,
      "Ġnkako": 6295,
      "Ġnyayaka": 6296,
      "Ġnjebe": 6297,
      "Ġntataan": 6298,
      "Ġnlibibe": 6299,
      "Ġnchabe": 6300,
      "Ġnkekebe": 6301,
      "yayaak": 6302,
      "gwuk": 6303,
      "jia": 6304,
      "Ġemeen": 6305,
      "Ġenyenye": 6306,
      "jebu": 6307,
      "Ġkedo": 6308,
      "kaka": 6309,
      "kayo": 6310,
      "kawo": 6311,
      "kaluk": 6312,
      "kabet": 6313,
      "kachit": 6314,
      "kamin": 6315,
      "kafuk": 6316,
      "kasulu": 6317,
      "kajijaka": 6318,
      "kagwat": 6319,
      "kakpe": 6320,
      "kamumun": 6321,
      "kachep": 6322,
      "kagan": 6323,
      "kafeen": 6324,
      "kadodo": 6325,
      "kasoon": 6326,
      "muwa": 6327,
      "kigbo": 6328,
      "kigba": 6329,
      "kigwak": 6330,
      "kibieen": 6331,
      "kinenen": 6332,
      "kigbuku": 6333,
      "kisusun": 6334,
      "kimeen": 6335,
      "kichachak": 6336,
      "kifum": 6337,
      "kililibi": 6338,
      "kigbin": 6339,
      "kifafiat": 6340,
      "kikala": 6341,
      "kilileek": 6342,
      "kolu": 6343,
      "kokpulu": 6344,
      "riraan": 6345,
      "Ġogwube": 6346,
      "Ġogwukube": 6347,
      "tako": 6348,
      "kun": 6349,
      "emis": 6350,
      "Ġibebele": 6351,
      "bayaka": 6352,
      "bagwagwak": 6353,
      "Ġisiyi": 6354,
      "Ġisito": 6355,
      "Ġisitumu": 6356,
      "Ġisirie": 6357,
      "Ġisiweek": 6358,
      "Ġisikana": 6359,
      "Ġisitoon": 6360,
      "Ġisiwop": 6361,
      "Ġisiwut": 6362,
      "Ġisisaba": 6363,
      "Ġisinama": 6364,
      "Ġisinaan": 6365,
      "tere": 6366,
      "tiro": 6367,
      "tiri": 6368,
      "mona": 6369,
      "fia": 6370,
      "fis": 6371,
      "fiik": 6372,
      "Ġeneen": 6373,
      "Ġenegwu": 6374,
      "Ġenedo": 6375,
      "Ġenegbaan": 6376,
      "Ġenesaba": 6377,
      "chachan": 6378,
      "bubeek": 6379,
      "Ġmigi": 6380,
      "ras": 6381,
      "rajim": 6382,
      "Ġkije": 6383,
      "Ġkito": 6384,
      "Ġkijeen": 6385,
      "Ġkitim": 6386,
      "Ġkiborot": 6387,
      "uno": 6388,
      "Ġsiyo": 6389,
      "Ġsitim": 6390,
      "Ġsina": 6391,
      "Ġoninu": 6392,
      "Ġonanama": 6393,
      "kpojo": 6394,
      "kpoto": 6395,
      "kpotumu": 6396,
      "kposan": 6397,
      "kporio": 6398,
      "kpogban": 6399,
      "kponyan": 6400,
      "kpofiat": 6401,
      "yoyok": 6402,
      "woma": 6403,
      "wowook": 6404,
      "Ġmoja": 6405,
      "Ġmoni": 6406,
      "gobu": 6407,
      "goon": 6408,
      "matia": 6409,
      "anam": 6410,
      "Ġakoji": 6411,
      "Ġkpon": 6412,
      "Ġchak": 6413,
      "Ġikige": 6414,
      "Ġikicha": 6415,
      "Ġikiso": 6416,
      "Ġikida": 6417,
      "Ġikitip": 6418,
      "Ġikisut": 6419,
      "Ġikijijaka": 6420,
      "Ġikirak": 6421,
      "Ġikikpaka": 6422,
      "Ġikigbala": 6423,
      "Ġikibieen": 6424,
      "Ġikibaak": 6425,
      "Ġikimeen": 6426,
      "Ġikifiak": 6427,
      "Ġikititen": 6428,
      "lita": 6429,
      "gwabe": 6430,
      "ludu": 6431,
      "Ġchilo": 6432,
      "lalap": 6433,
      "lawoma": 6434,
      "Ġikasan": 6435,
      "Ġikachit": 6436,
      "Ġikarep": 6437,
      "Ġikakput": 6438,
      "Ġikayaak": 6439,
      "Ġekika": 6440,
      "Ġekigbo": 6441,
      "Ġekifo": 6442,
      "Ġekirio": 6443,
      "Ġekigwook": 6444,
      "Ġekibem": 6445,
      "Ġekigobo": 6446,
      "Ġekiwop": 6447,
      "Ġekinye": 6448,
      "Ġekijijen": 6449,
      "Ġekichacha": 6450,
      "Ġekililibi": 6451,
      "Ġekigbin": 6452,
      "Ġitali": 6453,
      "kpatumu": 6454,
      "kpasan": 6455,
      "kpakpaka": 6456,
      "Ġamasai": 6457,
      "Ġiniko": 6458,
      "Ġinifo": 6459,
      "Ġinisibi": 6460,
      "Ġinikisa": 6461,
      "Ġinikito": 6462,
      "Ġinifiaan": 6463,
      "Ġinichiin": 6464,
      "Ġmbuuruk": 6465,
      "Ġmbubek": 6466,
      "Ġagi": 6467,
      "Ġagit": 6468,
      "rururo": 6469,
      "Ġoneniko": 6470,
      "Ġoneniwo": 6471,
      "Ġoneniche": 6472,
      "Ġonenichieek": 6473,
      "Ġonenigele": 6474,
      "Ġonenikpaka": 6475,
      "Ġonenifiak": 6476,
      "Ġonenigween": 6477,
      "Ġonenikikpa": 6478,
      "Ġonenikama": 6479,
      "Ġorona": 6480,
      ".âĢĿ]": 6481,
      "gama": 6482,
      "Ġokwek": 6483,
      "Ġatayaba": 6484,
      "Ġsabi": 6485,
      "Ġsalek": 6486,
      "Ġsamuwa": 6487,
      "Ġifeme": 6488,
      "fumbe": 6489,
      "Ġenenene": 6490,
      "Ġenenama": 6491,
      "Ġntet": 6492,
      "Ġntetet": 6493,
      "Ġkperere": 6494,
      "Ġkpechak": 6495,
      "Ġkpejeje": 6496,
      "Ġjen": 6497,
      "Ġokirie": 6498,
      "Ġokino": 6499,
      "Ġokifuk": 6500,
      "Ġokisisik": 6501,
      "Ġokiyok": 6502,
      "Ġechiin": 6503,
      "Ġechilo": 6504,
      "Ġechimbe": 6505,
      "Ġofiak": 6506,
      "Ġebego": 6507,
      "Ġebelibi": 6508,
      "Ġebesiki": 6509,
      "Ġebetaka": 6510,
      "Ġebejibi": 6511,
      "Ġeberoon": 6512,
      "Ġkaje": 6513,
      "Ġkalo": 6514,
      "Ġkala": 6515,
      "Ġkarie": 6516,
      "Ġkamin": 6517,
      "Ġkatoon": 6518,
      "Ġkafefieek": 6519,
      "Ġkariaan": 6520,
      "Ġkalululuk": 6521,
      "Ġkafito": 6522,
      "benu": 6523,
      "Ġjot": 6524,
      "Ġjosadak": 6525,
      "diuru": 6526,
      "Ġoboben": 6527,
      "Ġobokpulu": 6528,
      "Ġoboman": 6529,
      "Ġobotip": 6530,
      "Ġobokiro": 6531,
      "manbe": 6532,
      "Ġjuru": 6533,
      "Ġjuwari": 6534,
      "kaninin": 6535,
      "Ġakparalek": 6536,
      "nigwu": 6537,
      "niki": 6538,
      "nifo": 6539,
      "nigwa": 6540,
      "nirio": 6541,
      "nirie": 6542,
      "niluk": 6543,
      "nigban": 6544,
      "nikpan": 6545,
      "nitim": 6546,
      "nitoon": 6547,
      "nilep": 6548,
      "Ġdeme": 6549,
      "ebibi": 6550,
      "Ġanat": 6551,
      "Ġesakbe": 6552,
      "Ġesasaba": 6553,
      "Ġgalio": 6554,
      "fafiak": 6555,
      "fafaan": 6556,
      "Ġbayu": 6557,
      "Ġikano": 6558,
      "Ġigan": 6559,
      "Ġigbidim": 6560,
      "meses": 6561,
      "Ġjatu": 6562,
      "Ġjasin": 6563,
      "fera": 6564,
      "Ġogogobo": 6565,
      "âĢĻ,": 6566,
      "âĢĻ?âĢĿ": 6567,
      "Ġenenige": 6568,
      "Ġenenirie": 6569,
      "Ġeneniyaka": 6570,
      "Ġenenitet": 6571,
      "Ġeneniriaak": 6572,
      "Ġenenisibi": 6573,
      "Ġenenikitumu": 6574,
      "Ġenenikisa": 6575,
      "nenito": 6576,
      "nenimo": 6577,
      "nenigwa": 6578,
      "nenibene": 6579,
      "nenikpan": 6580,
      "nenigbaan": 6581,
      "Ġekabo": 6582,
      "Ġekare": 6583,
      "Ġekaje": 6584,
      "Ġekawo": 6585,
      "Ġekaluk": 6586,
      "Ġekabat": 6587,
      "Ġekalabe": 6588,
      "Ġekatapge": 6589,
      "Ġgojan": 6590,
      "Ġgolan": 6591,
      "Ġarari": 6592,
      "Ġileek": 6593,
      "Ġefufum": 6594,
      "Ġekebo": 6595,
      "Ġekedo": 6596,
      "Ġekerio": 6597,
      "Ġekeran": 6598,
      "Ġekeriaak": 6599,
      "Ġekejeen": 6600,
      "Ġeketip": 6601,
      "Ġekwukwulube": 6602,
      "Ġlida": 6603,
      "Ġokom": 6604,
      "Ġebekeke": 6605,
      "Ġinenikup": 6606,
      "Ġinenifo": 6607,
      "Ġinenisibi": 6608,
      "Ġinenigobo": 6609,
      "Ġkpeberio": 6610,
      "Ġkpebeluk": 6611,
      "Ġogege": 6612,
      "Ġisikije": 6613,
      "Ġgibeton": 6614,
      "kakibo": 6615,
      "kakiyaka": 6616,
      "kakijeen": 6617,
      "kakigobo": 6618,
      "Ġkpotabe": 6619,
      "Ġekisasa": 6620,
      "Ġseta": 6621,
      "Ġseba": 6622,
      "Ġsele": 6623,
      "Ġseboyim": 6624,
      "Ġsesiba": 6625,
      "Ġsediuru": 6626,
      "Ġmbabo": 6627,
      "Ġmbako": 6628,
      "Ġmbakpo": 6629,
      "Ġmbago": 6630,
      "Ġmbaluk": 6631,
      "Ġmbasibi": 6632,
      "Ġebekikup": 6633,
      "Ġebekitumu": 6634,
      "Ġebekisun": 6635,
      "Ġebekiwut": 6636,
      "Ġebekikwak": 6637,
      "Ġewowop": 6638,
      "Ġekekikpa": 6639,
      "Ġekekigban": 6640,
      "Ġekekikeek": 6641,
      "Ġnkiluk": 6642,
      "Ġnkinin": 6643,
      "Ġnkijijen": 6644,
      "Ġnebayot": 6645,
      "Ġifiaka": 6646,
      "Ġifiala": 6647,
      "Ġokaro": 6648,
      "Ġokaka": 6649,
      "Ġokaran": 6650,
      "Ġkpebekp": 6651,
      "Ġkpekibo": 6652,
      "Ġkpekirie": 6653,
      "Ġkpekiyaka": 6654,
      "nentumu": 6655,
      "neninu": 6656,
      "nenlook": 6657,
      "neninan": 6658,
      "Ġokekimin": 6659,
      "Ġokekitana": 6660,
      "Ġokekikebe": 6661,
      "Ġosikije": 6662,
      "Ġberi": 6663,
      "Ġbeseri": 6664,
      "Ġosibo": 6665,
      "kayat": 6666,
      "wopge": 6667,
      "Ġikitop": 6668,
      "Ġmkpukpuku": 6669,
      "Ġmkpukput": 6670,
      "Ġerururo": 6671,
      "nyebe": 6672,
      "Ġowawa": 6673,
      "kpukpobe": 6674,
      "sababe": 6675,
      "kisisisik": 6676,
      "paji": 6677,
      "Ġtaso": 6678,
      "Ġnnenimo": 6679,
      "Ġtobu": 6680,
      "Ġtopaji": 6681,
      "Ġmanayat": 6682,
      "rakge": 6683,
      "Ġdabi": 6684,
      "Ġpega": 6685,
      "Ġayin": 6686,
      "Ġayiludu": 6687,
      "Ġane": 6688,
      "Ġonikup": 6689,
      "Ġonitumu": 6690,
      "Ġonigwen": 6691,
      "Ġsibima": 6692,
      "kinyenye": 6693,
      "kinwene": 6694,
      "Ġigwogwook": 6695,
      "Ġebenu": 6696,
      "Ġuriyen": 6697,
      "kekisa": 6698,
      "kekigo": 6699,
      "kekigbuk": 6700,
      "Ġokpekpe": 6701,
      "Ġtem": 6702,
      "Ġrameses": 6703,
      "Ġenije": 6704,
      "Ġenichieek": 6705,
      "Ġibani": 6706,
      "Ì£!âĢĻ": 6707,
      "Ġmbeekbe": 6708,
      "Ġogbugbuku": 6709,
      "Ġikibeme": 6710,
      "Ġugot": 6711,
      "Ġoneninween": 6712,
      "wuwuwo": 6713,
      "Ġegwakbe": 6714,
      "Ġegwagwat": 6715,
      "Ġalifio": 6716,
      "Ġebubum": 6717,
      "Ġarien": 6718,
      "Ġaridi": 6719,
      "Ġarigobu": 6720,
      "Ġaserot": 6721,
      "lababe": 6722,
      "Ġetembe": 6723,
      "Ġibuk": 6724,
      "Ġokpatu": 6725,
      "Ġokpakpa": 6726,
      "Ġikwakwak": 6727,
      "Ġikekito": 6728,
      "Ġikekitumu": 6729,
      "sookbe": 6730,
      "Ġsimiri": 6731,
      "Ġowoliba": 6732,
      "sisiik": 6733,
      "Ġibenikpo": 6734,
      "jania": 6735,
      "Ġnkasa": 6736,
      "Ġnkakwu": 6737,
      "Ġigbugbugbo": 6738,
      "Ġteyima": 6739,
      "kiriak": 6740,
      "Ġetaak": 6741,
      "Ġlibia": 6742,
      "Ġdodo": 6743,
      "Ġdotan": 6744,
      "Ġitiri": 6745,
      "Ġibonikpo": 6746,
      "Ġeliale": 6747,
      "keken": 6748,
      "Ġbuju": 6749,
      "Ġmijirayim": 6750,
      "Ġobubum": 6751,
      "Ġobubumu": 6752,
      "Ġechebe": 6753,
      "Ġamisadai": 6754,
      "Ġobonire": 6755,
      "Ġkpebenan": 6756,
      "Ġigbeme": 6757,
      "Ġegayi": 6758,
      "nyambe": 6759,
      "Ġoduduku": 6760,
      "Ġegbanbe": 6761,
      "Ġelalap": 6762,
      "Ġogbanbe": 6763,
      "Ġokekinan": 6764,
      "bekikpo": 6765,
      "Ġekun": 6766,
      "Ġmalikien": 6767,
      "Ġmalikisuwa": 6768,
      "Ġnayarayim": 6769,
      "Ġeles": 6770,
      "Ġateri": 6771,
      "Ġreyaya": 6772,
      "Ġreyabia": 6773,
      "Ġkenayana": 6774,
      "Ġbatimio": 6775,
      "Ġekemo": 6776,
      "Ġibubuku": 6777,
      "Ġkpemo": 6778,
      "Ġareset": 6779,
      "Ġasum": 6780,
      "Ġasubu": 6781,
      "Ġtumim": 6782,
      "Ġmisima": 6783,
      "Ġmayalat": 6784,
      "lemet": 6785,
      "Ġekenbe": 6786,
      "Ġekeekbe": 6787,
      "Ġotababe": 6788,
      "Ġbilidadi": 6789,
      "Ġguni": 6790,
      "Ġederi": 6791,
      "Ġkpemaman": 6792,
      "Ġikadoge": 6793,
      "nonu": 6794,
      "Ġetibo": 6795,
      "Ġbayalat": 6796,
      "Ġpenina": 6797,
      "Ġtalimon": 6798,
      "Ġadina": 6799,
      "sitadi": 6800,
      "Ġewawak": 6801,
      "Ġayoyi": 6802,
      "Ġjafiya": 6803,
      "Ġrayama": 6804,
      "Ġmeyola": 6805,
      "enaji": 6806,
      "Ġamedata": 6807,
      "Ġemeran": 6808,
      "gigam": 6809,
      "Ġtaikiko": 6810,
      "Ġekpakabe": 6811,
      "Ġawudu": 6812,
      "Ġjasubu": 6813,
      "Ġpurim": 6814,
      "Ġabisagi": 6815,
      "Ġarisitako": 6816,
      "Ġgemariya": 6817,
      "Ġesitemowa": 6818,
      "Ġosababe": 6819,
      "Ġkarasolet": 6820,
      "Ġnimsi": 6821,
      "Ġpelatiya": 6822,
      "Ġpedajuru": 6823,
      "Ġsurisadai": 6824,
      "debit": 6825,
      "ikpele": 6826,
      "mfut": 6827,
      "Ġgbegbegbe": 6828,
      "Ġlentin": 6829,
      "Ġosisem": 6830,
      "Ġkineret": 6831,
      "Ġatemis": 6832,
      "Ġkedolawoma": 6833,
      "Ġoronayim": 6834,
      "Ġdemetiro": 6835,
      "Ġbayurim": 6836,
      "Ġsesibaja": 6837,
      ";âĢĻ": 6838,
      "ayi": 6839,
      "abi": 6840,
      "ais": 6841,
      "akarake": 6842,
      "esa": 6843,
      "ese": 6844,
      "eyam": 6845,
      "imu": 6846,
      "ikpa": 6847,
      "ifieek": 6848,
      "imi": 6849,
      "ikwaan": 6850,
      "igen": 6851,
      "nyen": 6852,
      "njin": 6853,
      "nwenwene": 6854,
      "pu": 6855,
      "uji": 6856,
      "utoon": 6857,
      "udu": 6858,
      "Ġgen": 6859,
      "Ġfaan": 6860,
      "Ġriaan": 6861,
      "Ġgbini": 6862,
      "Ġbineya": 6863,
      "Ġiyo": 6864,
      "Ġiduku": 6865,
      "Ġititibi": 6866,
      "Ġitutuun": 6867,
      "Ġiwuwulu": 6868,
      "Ġideke": 6869,
      "Ġelap": 6870,
      "Ġewuwuuk": 6871,
      "Ġetemebe": 6872,
      "Ġechakabe": 6873,
      "Ġmwo": 6874,
      "Ġmmin": 6875,
      "Ġmbenbe": 6876,
      "Ġmwopbe": 6877,
      "Ġocha": 6878,
      "Ġotitiin": 6879,
      "Ġoraka": 6880,
      "Ġotibi": 6881,
      "Ġobem": 6882,
      "Ġotaka": 6883,
      "Ġojibi": 6884,
      "Ġochep": 6885,
      "Ġolak": 6886,
      "Ġolap": 6887,
      "Ġofaan": 6888,
      "Ġokpebe": 6889,
      "Ġowewele": 6890,
      "Ġoduk": 6891,
      "Ġochabe": 6892,
      "Ġojibibe": 6893,
      "Ġmeko": 6894,
      "Ġmefa": 6895,
      "Ġmeselem": 6896,
      "Ġkwala": 6897,
      "wumu": 6898,
      "wuun": 6899,
      "ekaan": 6900,
      "enai": 6901,
      "Ġuba": 6902,
      "Ġuban": 6903,
      "Ġufit": 6904,
      "Ġutun": 6905,
      "Ġulam": 6906,
      "Ġukama": 6907,
      "Ġugeen": 6908,
      "Ġusim": 6909,
      "yiyi": 6910,
      "yirot": 6911,
      "bota": 6912,
      "boon": 6913,
      "bomun": 6914,
      "bogwook": 6915,
      "bokpan": 6916,
      "bosik": 6917,
      "bochak": 6918,
      "bolet": 6919,
      "bonama": 6920,
      "bojen": 6921,
      "bosak": 6922,
      "bochim": 6923,
      "boninin": 6924,
      "bochichit": 6925,
      "bokpekpe": 6926,
      "bofufuk": 6927,
      "Ġinyenye": 6928,
      "beya": 6929,
      "beji": 6930,
      "beli": 6931,
      "beren": 6932,
      "bebeek": 6933,
      "bechechep": 6934,
      "bim": 6935,
      "Ġage": 6936,
      "Ġaju": 6937,
      "Ġakiji": 6938,
      "Ġalemet": 6939,
      "tuk": 6940,
      "Ġnana": 6941,
      "Ġnkare": 6942,
      "Ġnkakaan": 6943,
      "Ġnjeje": 6944,
      "Ġnwene": 6945,
      "Ġntaba": 6946,
      "Ġnnanan": 6947,
      "Ġnkaweek": 6948,
      "Ġnlaakbe": 6949,
      "Ġndodo": 6950,
      "Ġnlookbe": 6951,
      "Ġebiya": 6952,
      "Ġebilo": 6953,
      "yati": 6954,
      "jipa": 6955,
      "jijop": 6956,
      "ÌĤ.âĢĿ": 6957,
      "Ġenwun": 6958,
      "Ġenween": 6959,
      "Ġenwene": 6960,
      "Ġenadadi": 6961,
      "rook": 6962,
      "rodi": 6963,
      "Ġkelu": 6964,
      "Ġkefira": 6965,
      "kaban": 6966,
      "kasun": 6967,
      "kariaak": 6968,
      "kadasi": 6969,
      "kalibi": 6970,
      "kagbugbo": 6971,
      "kabeek": 6972,
      "katetet": 6973,
      "kakpaka": 6974,
      "katutuku": 6975,
      "kagwak": 6976,
      "kaboro": 6977,
      "kajijit": 6978,
      "kamabe": 6979,
      "kafet": 6980,
      "kagwaka": 6981,
      "kakekeek": 6982,
      "mumo": 6983,
      "kikwukwu": 6984,
      "kiraka": 6985,
      "kinya": 6986,
      "kigak": 6987,
      "kilep": 6988,
      "kijin": 6989,
      "kifefieek": 6990,
      "kikekeke": 6991,
      "kichim": 6992,
      "kiweweek": 6993,
      "kikweek": 6994,
      "kitataka": 6995,
      "kifuku": 6996,
      "kigbeme": 6997,
      "kigbugbe": 6998,
      "kimumumen": 6999,
      "riin": 7000,
      "rijim": 7001,
      "sabi": 7002,
      "sakbe": 7003,
      "kpit": 7004,
      "Ġyayirot": 7005,
      "chio": 7006,
      "chichichini": 7007,
      "Ġgeberen": 7008,
      "Ġgerijim": 7009,
      "Ġibebem": 7010,
      "Ġibebeme": 7011,
      "Ġotut": 7012,
      "bata": 7013,
      "bago": 7014,
      "bakup": 7015,
      "bakisa": 7016,
      "batbe": 7017,
      "Ġisigwu": 7018,
      "Ġisiko": 7019,
      "Ġisifieek": 7020,
      "Ġisinwo": 7021,
      "Ġisikitumu": 7022,
      "tolomi": 7023,
      "tiyas": 7024,
      "tifera": 7025,
      "Ġkanwo": 7026,
      "fim": 7027,
      "fiala": 7028,
      "Ġenesibi": 7029,
      "Ġenejibi": 7030,
      "Ġenyinya": 7031,
      "buban": 7032,
      "Ġmilo": 7033,
      "Ġmikaan": 7034,
      "Ġmirio": 7035,
      "Ġmijamin": 7036,
      "Ġmikilo": 7037,
      "Ġmikitop": 7038,
      "Ġowuwuuk": 7039,
      "ramot": 7040,
      "rakima": 7041,
      "Ġkili": 7042,
      "Ġkimi": 7043,
      "Ġkisun": 7044,
      "Ġsiti": 7045,
      "Ġsidim": 7046,
      "Ġsibeka": 7047,
      "Ġoneen": 7048,
      "Ġonene": 7049,
      "Ġonwene": 7050,
      "Ġonam": 7051,
      "Ġonyanabe": 7052,
      "kpofo": 7053,
      "kporere": 7054,
      "kposiki": 7055,
      "kpojot": 7056,
      "kponye": 7057,
      "kposaba": 7058,
      "kpokpe": 7059,
      "kpofiin": 7060,
      "kposak": 7061,
      "Ġmoro": 7062,
      "Ġmola": 7063,
      "leleke": 7064,
      "malek": 7065,
      "mage": 7066,
      "maris": 7067,
      "eniri": 7068,
      "Ġkpunukp": 7069,
      "akwut": 7070,
      "Ġeyim": 7071,
      "Ġikiwa": 7072,
      "Ġikigba": 7073,
      "Ġikitele": 7074,
      "Ġikititiin": 7075,
      "Ġikilet": 7076,
      "Ġikijak": 7077,
      "Ġikisaba": 7078,
      "Ġikichili": 7079,
      "Ġikigele": 7080,
      "Ġikibak": 7081,
      "Ġikilep": 7082,
      "Ġikigwak": 7083,
      "Ġikicho": 7084,
      "Ġikigen": 7085,
      "Ġikisek": 7086,
      "Ġikigwele": 7087,
      "Ġikiyok": 7088,
      "Ġikiruro": 7089,
      "Ġikilap": 7090,
      "Ġikidimi": 7091,
      "Ġikikwala": 7092,
      "Ġikifuku": 7093,
      "Ġikililiin": 7094,
      "Ġikigbeme": 7095,
      "Ġikilileek": 7096,
      "Ġikiteek": 7097,
      "Ġikigbini": 7098,
      "Ġikididen": 7099,
      "Ġikitik": 7100,
      "liti": 7101,
      "lilo": 7102,
      "forodi": 7103,
      "wunun": 7104,
      "wunwunu": 7105,
      "Ġeres": 7106,
      "Ì£,âĢĿ": 7107,
      "Ġchim": 7108,
      "Ġikook": 7109,
      "lafa": 7110,
      "dam": 7111,
      "daan": 7112,
      "Ġuwuk": 7113,
      "Ġikakpulu": 7114,
      "Ġikaraka": 7115,
      "Ġikatibi": 7116,
      "Ġikabele": 7117,
      "Ġikakat": 7118,
      "Ġikagugo": 7119,
      "Ġikafiaan": 7120,
      "Ġikafifila": 7121,
      "Ġikatoto": 7122,
      "Ġekige": 7123,
      "Ġekigban": 7124,
      "Ġekitibi": 7125,
      "Ġekinen": 7126,
      "Ġekiwut": 7127,
      "Ġekifefieek": 7128,
      "Ġekigbuku": 7129,
      "Ġekidimi": 7130,
      "Ġekigumu": 7131,
      "Ġekililiin": 7132,
      "Ġekimaan": 7133,
      "Ġekikala": 7134,
      "Ġekigbagbaan": 7135,
      "Ġekikpekpe": 7136,
      "kpata": 7137,
      "kpakup": 7138,
      "kpakaan": 7139,
      "kparie": 7140,
      "kpachieek": 7141,
      "Ġamaan": 7142,
      "Ġinita": 7143,
      "Ġinitele": 7144,
      "Ġinichit": 7145,
      "Ġinijot": 7146,
      "Ġinikeek": 7147,
      "Ġinigbana": 7148,
      "Ġinikpukpo": 7149,
      "Ġinikikpulu": 7150,
      "Ġinibak": 7151,
      "Ġinilep": 7152,
      "Ġinigwak": 7153,
      "Ġinimeen": 7154,
      "rum": 7155,
      "Ġjeredi": 7156,
      "Ġjeres": 7157,
      "sesek": 7158,
      "Ġonenikan": 7159,
      "Ġonenikiro": 7160,
      "Ġonenigbaan": 7161,
      "Ġonenitibi": 7162,
      "Ġonenibele": 7163,
      "Ġonenikeek": 7164,
      "Ġoneniteme": 7165,
      "Ġonenikikpulu": 7166,
      "Ġonenikijijen": 7167,
      "Ġokweek": 7168,
      "Ġatai": 7169,
      "Ġatat": 7170,
      "Ġsabe": 7171,
      "Ġsamiri": 7172,
      "Ġsafira": 7173,
      "Ġmaro": 7174,
      "Ġmatat": 7175,
      "Ġmadim": 7176,
      "Ġmayaji": 7177,
      "Ġjiya": 7178,
      "Ġjima": 7179,
      "Ġjija": 7180,
      "Ġeneninyan": 7181,
      "yanyam": 7182,
      "nyiaan": 7183,
      "nyinya": 7184,
      "Ġekanan": 7185,
      "Ġekuko": 7186,
      "Ġbolo": 7187,
      "gbasi": 7188,
      "gbagba": 7189,
      "Ġkpewa": 7190,
      "Ġkperieen": 7191,
      "Ġkpegwen": 7192,
      "Ġkpejit": 7193,
      "Ġkpetim": 7194,
      "Ġkpegbugbo": 7195,
      "Ġkpesaba": 7196,
      "Ġkpefuun": 7197,
      "Ġkpegwugwu": 7198,
      "Ġkpewak": 7199,
      "Ġokikpa": 7200,
      "Ġokiche": 7201,
      "Ġokigwen": 7202,
      "Ġokigwook": 7203,
      "Ġokinya": 7204,
      "Ġokifiat": 7205,
      "Ġokijijaka": 7206,
      "Ġokiteme": 7207,
      "Ġokirep": 7208,
      "Ġokilaak": 7209,
      "Ġokikat": 7210,
      "Ġokichili": 7211,
      "Ġokikput": 7212,
      "Ġokisook": 7213,
      "Ġokikweek": 7214,
      "Ġokimumana": 7215,
      "chei": 7216,
      "Ġechio": 7217,
      "Ġechieen": 7218,
      "Ġechichini": 7219,
      "Ġebemo": 7220,
      "Ġebefo": 7221,
      "Ġebegwa": 7222,
      "Ġebemun": 7223,
      "Ġebegwen": 7224,
      "Ġebeman": 7225,
      "Ġebeme": 7226,
      "Ġebetim": 7227,
      "Ġebebem": 7228,
      "Ġebegobo": 7229,
      "Ġebejijaka": 7230,
      "Ġebelaak": 7231,
      "Ġebebieen": 7232,
      "Ġebegbagbaan": 7233,
      "Ġkafo": 7234,
      "Ġkamun": 7235,
      "Ġkatap": 7236,
      "Ġkagban": 7237,
      "Ġkachak": 7238,
      "Ġkafiat": 7239,
      "Ġkasisik": 7240,
      "Ġkagan": 7241,
      "Ġjosa": 7242,
      "Ġjoti": 7243,
      "Ġjokin": 7244,
      "Ġjoyada": 7245,
      "Ġjokisan": 7246,
      "Ġjokebe": 7247,
      "dis": 7248,
      "dien": 7249,
      "dira": 7250,
      "Ġobota": 7251,
      "Ġobodo": 7252,
      "Ġobook": 7253,
      "Ġobomun": 7254,
      "Ġobogban": 7255,
      "Ġobokeke": 7256,
      "Ġobosulu": 7257,
      "Ġobogbana": 7258,
      "Ġobokinyi": 7259,
      "Ġobonye": 7260,
      "Ġobosaba": 7261,
      "Ġobokpe": 7262,
      "Ġobokikpo": 7263,
      "Ġsook": 7264,
      "Ġsomeri": 7265,
      "gbanabe": 7266,
      "Ġeyat": 7267,
      "Ġores": 7268,
      "nim": 7269,
      "nibe": 7270,
      "nimo": 7271,
      "nikpulu": 7272,
      "nikana": 7273,
      "nititiin": 7274,
      "nisiki": 7275,
      "nigbaan": 7276,
      "niraka": 7277,
      "kep": 7278,
      "ebirieen": 7279,
      "Ġanas": 7280,
      "Ġgayas": 7281,
      "fam": 7282,
      "fadi": 7283,
      "Ġijiki": 7284,
      "Ġanameli": 7285,
      "Ġbaya": 7286,
      "Ġbamot": 7287,
      "Ġbatolomi": 7288,
      "Ġeroroon": 7289,
      "Ġerorom": 7290,
      "Ġikanene": 7291,
      "Ġiraraan": 7292,
      "Ġirariaan": 7293,
      "kpanyi": 7294,
      "pita": 7295,
      "Ġigumu": 7296,
      "Ġigigen": 7297,
      "Ġjalam": 7298,
      "Ġjasobe": 7299,
      "Ġjatiri": 7300,
      "Ġjabeji": 7301,
      "Ġibokwu": 7302,
      "Ġibonin": 7303,
      "Ġeneniwo": 7304,
      "Ġenenirio": 7305,
      "Ġenenitele": 7306,
      "Ġenenikpan": 7307,
      "Ġenenitaan": 7308,
      "Ġenenitoon": 7309,
      "Ġenenichili": 7310,
      "Ġenenigbuku": 7311,
      "Ġinino": 7312,
      "Ġininu": 7313,
      "Ġininwaan": 7314,
      "Ġininyam": 7315,
      "Ġininimi": 7316,
      "neniko": 7317,
      "nenimun": 7318,
      "nenitap": 7319,
      "nenikeek": 7320,
      "nenijibi": 7321,
      "nenitana": 7322,
      "Ġinyanyam": 7323,
      "Ġinyanyana": 7324,
      "gbegbet": 7325,
      "Ġekato": 7326,
      "Ġekakup": 7327,
      "Ġekataka": 7328,
      "Ġekasisaak": 7329,
      "Ġpeta": 7330,
      "Ġarasa": 7331,
      "Ġararat": 7332,
      "Ġilelet": 7333,
      "Ġileleke": 7334,
      "Ġochiin": 7335,
      "Ġefufuk": 7336,
      "Ġekebe": 7337,
      "Ġekerie": 7338,
      "Ġeketim": 7339,
      "Ġeketibi": 7340,
      "Ġekelook": 7341,
      "Ġlisia": 7342,
      "Ġebekp": 7343,
      "Ġebekana": 7344,
      "Ġebekinin": 7345,
      "Ġineniche": 7346,
      "Ġinenitim": 7347,
      "Ġinenigwak": 7348,
      "Ġelima": 7349,
      "Ġeliada": 7350,
      "Ġeliyanan": 7351,
      "Ġelilababe": 7352,
      "Ġkpebewo": 7353,
      "Ġkpebedo": 7354,
      "Ġkpebeweek": 7355,
      "Ġkpebechak": 7356,
      "Ġkpebewop": 7357,
      "bonye": 7358,
      "Ġogegen": 7359,
      "Ġgilo": 7360,
      "Ġgiden": 7361,
      "kakiwo": 7362,
      "kakikan": 7363,
      "kakisibi": 7364,
      "Ġkpoo": 7365,
      "Ġrejo": 7366,
      "Ġsefo": 7367,
      "Ġsesan": 7368,
      "Ġmbato": 7369,
      "Ġmbaria": 7370,
      "Ġebekibo": 7371,
      "Ġebekitet": 7372,
      "Ġebekilibi": 7373,
      "Ġebekibem": 7374,
      "Ġebekitaka": 7375,
      "Ġebekigwugwuun": 7376,
      "Ġebekililam": 7377,
      "Ġikirom": 7378,
      "fiatbe": 7379,
      "Ġegwegween": 7380,
      "Ġfilimo": 7381,
      "Ġabida": 7382,
      "Ġabinowam": 7383,
      "Ġekekikup": 7384,
      "Ġekekifo": 7385,
      "Ġekekikwak": 7386,
      "Ġekekidimi": 7387,
      "Ġekekililiin": 7388,
      "Ġichichim": 7389,
      "Ġichichiin": 7390,
      "Ġnkirie": 7391,
      "Ġnkilibi": 7392,
      "Ġnemuwen": 7393,
      "Ġnefegi": 7394,
      "Ġrogen": 7395,
      "kwakwala": 7396,
      "Ġifiak": 7397,
      "Ġififiin": 7398,
      "Ġokat": 7399,
      "Ġokato": 7400,
      "Ġokario": 7401,
      "Ġekpekpe": 7402,
      "Ġkpekikaan": 7403,
      "Ġkpekifiat": 7404,
      "Ġseniri": 7405,
      "nensa": 7406,
      "nenluk": 7407,
      "Ġeriook": 7408,
      "Ġokekito": 7409,
      "Ġokekiran": 7410,
      "Ġokekikpukpo": 7411,
      "Ġokekicho": 7412,
      "Ġokekisook": 7413,
      "Ġokekimumen": 7414,
      "Ġokekibumu": 7415,
      "Ġbeso": 7416,
      "Ġikwut": 7417,
      "Ġkpekp": 7418,
      "Ġkpekinyi": 7419,
      "Ġosisa": 7420,
      "Ġosiwut": 7421,
      "Ġosisaak": 7422,
      "Ġosisisaak": 7423,
      "Ġasiben": 7424,
      "Ġasiyu": 7425,
      "Ġikakeme": 7426,
      "kitoto": 7427,
      "Ġeboon": 7428,
      "Ġebolobe": 7429,
      "Ġjeriya": 7430,
      "Ġkore": 7431,
      "Ġikinen": 7432,
      "ramgbasi": 7433,
      "Ġikisak": 7434,
      "Ġtara": 7435,
      "Ġtayan": 7436,
      "Ġnneniria": 7437,
      "Ġnneniriaak": 7438,
      "Ġtowu": 7439,
      "Ġtogama": 7440,
      "Ġajiji": 7441,
      "Ġajigadi": 7442,
      "Ġpaseya": 7443,
      "jujujuk": 7444,
      "Ġmkpikp": 7445,
      "Ġjeyosabadi": 7446,
      "Ġdari": 7447,
      "Ġdarakima": 7448,
      "emas": 7449,
      "Ġiwat": 7450,
      "kpoyakabe": 7451,
      "Ġnrariaak": 7452,
      "Ġnraraan": 7453,
      "Ġayisa": 7454,
      "Ġayiman": 7455,
      "Ġonibe": 7456,
      "Ġonisa": 7457,
      "Ġonikana": 7458,
      "Ġifufuku": 7459,
      "lepbe": 7460,
      "lililaba": 7461,
      "Ġimalek": 7462,
      "Ġnsisi": 7463,
      "Ġnsitumu": 7464,
      "Ġnsiik": 7465,
      "Ġadara": 7466,
      "irin": 7467,
      "Ġebenyan": 7468,
      "Ġafilafa": 7469,
      "chochon": 7470,
      "Ġdisan": 7471,
      "Ġogwugwuku": 7472,
      "Ġogwugwulo": 7473,
      "Ġikayakage": 7474,
      "kekije": 7475,
      "kekito": 7476,
      "kekikup": 7477,
      "kekiluk": 7478,
      "Ġtiyati": 7479,
      "Ġtana": 7480,
      "Ġeniro": 7481,
      "Ġenisa": 7482,
      "Ġenimun": 7483,
      "Ġeniweek": 7484,
      "Ġenikana": 7485,
      "Ġenimaman": 7486,
      "ikasa": 7487,
      "ikatele": 7488,
      "ikachieek": 7489,
      "ikafieek": 7490,
      "ikalululuk": 7491,
      "Ġnsak": 7492,
      "iyakwut": 7493,
      "Ġjewudi": 7494,
      "lekebe": 7495,
      "Ġrijipa": 7496,
      "Ġikigoon": 7497,
      "Ġarimatia": 7498,
      "Ġarifadi": 7499,
      "Ġekpirikpit": 7500,
      "Ġechichibi": 7501,
      "Ġechichiin": 7502,
      "Ġibekpan": 7503,
      "Ġjeseri": 7504,
      "Ġichocho": 7505,
      "Ġikekikaan": 7506,
      "Ġreyobot": 7507,
      "Ġlodi": 7508,
      "Ġsimisayi": 7509,
      "Ġsufu": 7510,
      "Ġowola": 7511,
      "Ġibenigo": 7512,
      "Ġgwuku": 7513,
      "Ġjesimot": 7514,
      "Ġkpebekeek": 7515,
      "Ġakakam": 7516,
      "Ġekekinu": 7517,
      "Ġekekinan": 7518,
      "bonikukup": 7519,
      "kilolomo": 7520,
      "Ġigugumu": 7521,
      "Ġetataka": 7522,
      "Ġsemariya": 7523,
      "Ġmerabu": 7524,
      "Ġlibiya": 7525,
      "Ġebebeen": 7526,
      "Ġibonije": 7527,
      "Ġibonikana": 7528,
      "Ġananeli": 7529,
      "kembe": 7530,
      "Ġomaan": 7531,
      "Ġenyanyam": 7532,
      "ataak": 7533,
      "Ġmbanwo": 7534,
      "Ġmbanama": 7535,
      "Ġenyebe": 7536,
      "Ġadoniram": 7537,
      "Ġigwugwuku": 7538,
      "Ġijajak": 7539,
      "jerimaya": 7540,
      "Ġinikigban": 7541,
      "Ġelisafan": 7542,
      "bokinin": 7543,
      "Ġbalisam": 7544,
      "Ġkpomokup": 7545,
      "peli": 7546,
      "perajim": 7547,
      "Ġegagana": 7548,
      "fukufuku": 7549,
      "Ġebenibo": 7550,
      "Ġebenije": 7551,
      "Ġechabe": 7552,
      "Ġusam": 7553,
      "Ġekanin": 7554,
      "Ġelibibe": 7555,
      "Ġnayara": 7556,
      "Ġebabak": 7557,
      "Ġerariaan": 7558,
      "Ġkpukpuku": 7559,
      "kibubat": 7560,
      "Ġejotbe": 7561,
      "nerie": 7562,
      "Ġdewen": 7563,
      "Ġnerigan": 7564,
      "Ġmatatiyas": 7565,
      "Ġibubum": 7566,
      "Ġgebali": 7567,
      "mfiik": 7568,
      "Ġsobabu": 7569,
      "Ġjayakan": 7570,
      "Ġjayajania": 7571,
      "Ġmgbaramgbasi": 7572,
      "Ġnekoda": 7573,
      "Ġsalima": 7574,
      "samsin": 7575,
      "Ġisiberiaak": 7576,
      "Ġikamage": 7577,
      "Ġjerefat": 7578,
      "Ġludu": 7579,
      "Ġmilito": 7580,
      "Ġbiliga": 7581,
      "Ġbiliyan": 7582,
      "Ġejook": 7583,
      "Ġduma": 7584,
      "Ġpisidia": 7585,
      "Ġechobe": 7586,
      "Ġkumi": 7587,
      "Ġnninaan": 7588,
      "Ġeliopolis": 7589,
      "Ġalikisendira": 7590,
      "Ġasirien": 7591,
      "Ġekwukbe": 7592,
      "Ġonemebe": 7593,
      "Ġsamila": 7594,
      "Ġntelebe": 7595,
      "Ġbaladan": 7596,
      "Ġjafilet": 7597,
      "Ġochichinibe": 7598,
      "Ġekekinunuun": 7599,
      "Ġsemida": 7600,
      "Ġsemiramot": 7601,
      "Ġepaforodi": 7602,
      "Ġamulu": 7603,
      "Ġtatenai": 7604,
      "Ġibijan": 7605,
      "Ġkedemo": 7606,
      "Ġkeriyot": 7607,
      "Ġmibisam": 7608,
      "Ġekwekweek": 7609,
      "Ġjoyakim": 7610,
      "Ġsofari": 7611,
      "Ġikakekege": 7612,
      "ijeren": 7613,
      "Ġwewe": 7614,
      "Ġimila": 7615,
      "jebup": 7616,
      "Ġsiyoru": 7617,
      "Ġsinamo": 7618,
      "Ġsaleka": 7619,
      "imumechieen": 7620,
      "Ġmefayat": 7621,
      "Ġmeselemaya": 7622,
      "bojenai": 7623,
      "Ġajuba": 7624,
      "Ġakijip": 7625,
      "Ġnkarege": 7626,
      "Ġnkaweekge": 7627,
      "Ġebiyasafu": 7628,
      "Ġmikilot": 7629,
      "Ġkimiyam": 7630,
      "Ġsibekai": 7631,
      "Ġmolada": 7632,
      "Ġjokineyam": 7633,
      "Ġjokebedi": 7634,
      "Ġjasobeyam": 7635,
      "Ġpetaya": 7636,
      "Ġosisaakbe": 7637,
      "Ġasiyuru": 7638,
      "Ġmkpikpi": 7639,
      "Ġtiyatira": 7640,
      "Ġepaforodito": 7641,
      "ati": 7642,
      "ase": 7643,
      "amin": 7644,
      "adasi": 7645,
      "atata": 7646,
      "abina": 7647,
      "atiko": 7648,
      "bekpan": 7649,
      "eto": 7650,
      "ewele": 7651,
      "eteek": 7652,
      "fana": 7653,
      "feek": 7654,
      "feme": 7655,
      "gbi": 7656,
      "ifi": 7657,
      "ibebe": 7658,
      "ijejeen": 7659,
      "jeko": 7660,
      "mbo": 7661,
      "mbet": 7662,
      "mwuuk": 7663,
      "mkpu": 7664,
      "mukan": 7665,
      "nnyi": 7666,
      "nno": 7667,
      "ntim": 7668,
      "nteme": 7669,
      "nekaan": 7670,
      "oje": 7671,
      "okpo": 7672,
      "owo": 7673,
      "ofo": 7674,
      "osana": 7675,
      "oron": 7676,
      "pen": 7677,
      "rana": 7678,
      "tini": 7679,
      "ufi": 7680,
      "ucha": 7681,
      "ugan": 7682,
      "Ġfu": 7683,
      "Ġgbe": 7684,
      "Ġgu": 7685,
      "Ġteme": 7686,
      "Ġgan": 7687,
      "Ġgbugbut": 7688,
      "Ġtutuun": 7689,
      "Ġfukufuku": 7690,
      "Ġilom": 7691,
      "Ġitun": 7692,
      "Ġilen": 7693,
      "Ġiwewele": 7694,
      "Ġititip": 7695,
      "Ġiwuwuwo": 7696,
      "Ì£),": 7697,
      "Ġelek": 7698,
      "Ġeran": 7699,
      "Ġetat": 7700,
      "Ġegbana": 7701,
      "Ġeteme": 7702,
      "Ġechaka": 7703,
      "Ġetutu": 7704,
      "Ġewulu": 7705,
      "Ġesek": 7706,
      "Ġefaan": 7707,
      "Ġechechep": 7708,
      "Ġesem": 7709,
      "Ġejajak": 7710,
      "Ġefeek": 7711,
      "Ġmfe": 7712,
      "Ġmwulu": 7713,
      "Ġmfefieek": 7714,
      "ÌĦâĢĿ?": 7715,
      "Ġola": 7716,
      "Ġoren": 7717,
      "Ġogwe": 7718,
      "Ġowele": 7719,
      "Ġoteme": 7720,
      "Ġokayaka": 7721,
      "Ġojomo": 7722,
      "Ġode": 7723,
      "Ġojijen": 7724,
      "Ġofet": 7725,
      "Ġoweweek": 7726,
      "Ġochechep": 7727,
      "Ġojijijaka": 7728,
      "Ġolibibe": 7729,
      "Ġosutbe": 7730,
      "Ġosookbe": 7731,
      "Ġmeso": 7732,
      "Ġmeye": 7733,
      "Ġmela": 7734,
      "Ġmese": 7735,
      "Ġmeyu": 7736,
      "Ġmeredi": 7737,
      "Ġmene": 7738,
      "Ġmeyun": 7739,
      "Ġmemukan": 7740,
      "aniya": 7741,
      "Ġkwaan": 7742,
      "Ġkon": 7743,
      "Ġkween": 7744,
      "Ġkino": 7745,
      "Ġkinwo": 7746,
      "Ġkonaya": 7747,
      "wutbe": 7748,
      "Ġula": 7749,
      "Ġugba": 7750,
      "Ġujan": 7751,
      "Ġulai": 7752,
      "Ġupim": 7753,
      "yit": 7754,
      "yiki": 7755,
      "yikbe": 7756,
      "boo": 7757,
      "boka": 7758,
      "bojo": 7759,
      "borieen": 7760,
      "bosan": 7761,
      "bofieek": 7762,
      "bodasi": 7763,
      "bolibi": 7764,
      "botetet": 7765,
      "bowop": 7766,
      "bokat": 7767,
      "bobia": 7768,
      "bosasa": 7769,
      "bobebene": 7770,
      "bojomo": 7771,
      "bolep": 7772,
      "bokijeen": 7773,
      "bokikup": 7774,
      "boraraka": 7775,
      "bokibele": 7776,
      "bodadasi": 7777,
      "bokirie": 7778,
      "botitibi": 7779,
      "bogbugbugbo": 7780,
      "bogbagbana": 7781,
      "besa": 7782,
      "beria": 7783,
      "berebet": 7784,
      "bebele": 7785,
      "berat": 7786,
      "bejek": 7787,
      "bija": 7788,
      "bijen": 7789,
      "Ġake": 7790,
      "Ġasik": 7791,
      "Ġayu": 7792,
      "Ġareli": 7793,
      "Ġajuru": 7794,
      "Ġakila": 7795,
      "Ġikeen": 7796,
      "Ġikuko": 7797,
      "reek": 7798,
      "rebu": 7799,
      "Ġnk": 7800,
      "Ġnrieen": 7801,
      "Ġnrie": 7802,
      "Ġndun": 7803,
      "Ġnsulu": 7804,
      "Ġntutumu": 7805,
      "Ġnjei": 7806,
      "Ġnleke": 7807,
      "Ġnkekeke": 7808,
      "Ġnsulube": 7809,
      "Ġnnene": 7810,
      "Ġnkween": 7811,
      "Ġnchon": 7812,
      "Ġnyak": 7813,
      "Ġnwunun": 7814,
      "Ġebieen": 7815,
      "yai": 7816,
      "yabu": 7817,
      "yariya": 7818,
      "jien": 7819,
      "jijijen": 7820,
      "jijiin": 7821,
      "ÌĤ!": 7822,
      "wakbe": 7823,
      "wadia": 7824,
      "Ġendo": 7825,
      "jeek": 7826,
      "jeji": 7827,
      "jeba": 7828,
      "Ġkemuwen": 7829,
      "Ġkelita": 7830,
      "kawa": 7831,
      "kari": 7832,
      "kacha": 7833,
      "kagba": 7834,
      "kaben": 7835,
      "kakwukwu": 7836,
      "kachak": 7837,
      "kakeke": 7838,
      "kajeje": 7839,
      "kabak": 7840,
      "karom": 7841,
      "kataba": 7842,
      "kasisi": 7843,
      "kachiin": 7844,
      "kagana": 7845,
      "kamama": 7846,
      "katobo": 7847,
      "kalululuk": 7848,
      "kiba": 7849,
      "kicha": 7850,
      "kirieen": 7851,
      "kikwu": 7852,
      "kibet": 7853,
      "kichit": 7854,
      "kifit": 7855,
      "kisut": 7856,
      "kikwaan": 7857,
      "kikwa": 7858,
      "kijomo": 7859,
      "kigen": 7860,
      "kitetele": 7861,
      "kichichini": 7862,
      "kigana": 7863,
      "kijuuk": 7864,
      "kikpukpuku": 7865,
      "kitana": 7866,
      "kikpakpan": 7867,
      "kigwugwuun": 7868,
      "kiwuwo": 7869,
      "kikwala": 7870,
      "kichichili": 7871,
      "kirama": 7872,
      "kijim": 7873,
      "kikekebe": 7874,
      "kikekeek": 7875,
      "kitimi": 7876,
      "kikekeme": 7877,
      "kosa": 7878,
      "ribi": 7879,
      "rijia": 7880,
      "sayen": 7881,
      "samien": 7882,
      "Ġogwugwuun": 7883,
      "kpeki": 7884,
      "ineen": 7885,
      "inunu": 7886,
      "tali": 7887,
      "taben": 7888,
      "kubuk": 7889,
      "Ġinyio": 7890,
      "Ġinyinyan": 7891,
      "emen": 7892,
      "Ġgele": 7893,
      "Ġgetam": 7894,
      "Ġiberie": 7895,
      "Ġibebeek": 7896,
      "Ġibelam": 7897,
      "Ġibebieen": 7898,
      "Ġotuto": 7899,
      "bayen": 7900,
      "batutumu": 7901,
      "batatap": 7902,
      "balak": 7903,
      "babaak": 7904,
      "basasan": 7905,
      "bakpakpan": 7906,
      "babaan": 7907,
      "bagbugbugbo": 7908,
      "bakpekpe": 7909,
      "basita": 7910,
      "josefu": 7911,
      "Ġemayo": 7912,
      "Ġisip": 7913,
      "Ġisiba": 7914,
      "Ġisikpo": 7915,
      "Ġisigwa": 7916,
      "Ġisiren": 7917,
      "Ġisigwook": 7918,
      "Ġisimin": 7919,
      "Ġisifit": 7920,
      "Ġisifuk": 7921,
      "Ġisijot": 7922,
      "Ġisitaka": 7923,
      "Ġisigbugbo": 7924,
      "Ġisisisik": 7925,
      "Ġisinye": 7926,
      "Ġisijomo": 7927,
      "Ġisigen": 7928,
      "Ġisifuuk": 7929,
      "Ġisisook": 7930,
      "Ġisichimi": 7931,
      "gbogbo": 7932,
      "bani": 7933,
      "bano": 7934,
      "banbe": 7935,
      "tito": 7936,
      "Ġkanyinyi": 7937,
      "Ġubot": 7938,
      "fimo": 7939,
      "buyen": 7940,
      "bubut": 7941,
      "Ġejim": 7942,
      "Ġejiri": 7943,
      "Ġmiti": 7944,
      "Ġmija": 7945,
      "Ġmijaan": 7946,
      "Ġmiai": 7947,
      "Ġmikime": 7948,
      "Ġmitere": 7949,
      "Ġowulu": 7950,
      "rado": 7951,
      "solomo": 7952,
      "Ġkibem": 7953,
      "Ġemian": 7954,
      "Ġijojop": 7955,
      "Ġsifi": 7956,
      "Ġsilem": 7957,
      "Ġsipen": 7958,
      "Ġoninyi": 7959,
      "Ġonyam": 7960,
      "kpomo": 7961,
      "kpowo": 7962,
      "kpoben": 7963,
      "kpochit": 7964,
      "kpokpan": 7965,
      "kpowuuk": 7966,
      "kpolibi": 7967,
      "kpofuk": 7968,
      "kporaka": 7969,
      "kpotoon": 7970,
      "kpojijaka": 7971,
      "kporep": 7972,
      "kpokukup": 7973,
      "kpojibi": 7974,
      "kpojijit": 7975,
      "kponwene": 7976,
      "kpoboki": 7977,
      "Ġmokup": 7978,
      "letai": 7979,
      "mak": 7980,
      "mat": 7981,
      "mayi": 7982,
      "Ġkpu": 7983,
      "enese": 7984,
      "Ġeyiya": 7985,
      "Ġikite": 7986,
      "Ġikiban": 7987,
      "Ġikibum": 7988,
      "Ġikiwele": 7989,
      "Ġikitan": 7990,
      "Ġikijaan": 7991,
      "Ġikiruk": 7992,
      "Ġikigbana": 7993,
      "Ġikiyat": 7994,
      "Ġikikwek": 7995,
      "Ġikifuuk": 7996,
      "Ġikileke": 7997,
      "Ġikigbuku": 7998,
      "Ġikichim": 7999,
      "Ġikichiin": 8000,
      "Ġikikweek": 8001,
      "Ġikifeen": 8002,
      "Ġikitana": 8003,
      "Ġikigween": 8004,
      "Ġikibala": 8005,
      "Ġikitutun": 8006,
      "Ġikiwuwo": 8007,
      "Ġikitaak": 8008,
      "Ġikigbugbe": 8009,
      "Ġikitak": 8010,
      "Ġikileen": 8011,
      "Ġikiriraan": 8012,
      "ligo": 8013,
      "fofo": 8014,
      "wunwan": 8015,
      "Ġikes": 8016,
      "jaben": 8017,
      "jayen": 8018,
      "jabadi": 8019,
      "Ġchibi": 8020,
      "lajo": 8021,
      "layim": 8022,
      "dat": 8023,
      "dais": 8024,
      "Ġuwuson": 8025,
      "Ġikawa": 8026,
      "Ġikawo": 8027,
      "Ġikaak": 8028,
      "Ġikada": 8029,
      "Ġikajit": 8030,
      "Ġikasun": 8031,
      "Ġikatiti": 8032,
      "Ġikatip": 8033,
      "Ġikalibi": 8034,
      "Ġikatoon": 8035,
      "Ġikachechieek": 8036,
      "Ġikasasa": 8037,
      "Ġikagwak": 8038,
      "Ġikarom": 8039,
      "Ġikasak": 8040,
      "Ġikachachak": 8041,
      "Ġikafeen": 8042,
      "Ġikariki": 8043,
      "Ġikakigwat": 8044,
      "Ġekijo": 8045,
      "Ġekibene": 8046,
      "Ġekiman": 8047,
      "Ġekitip": 8048,
      "Ġekifaka": 8049,
      "Ġekinyan": 8050,
      "Ġekiruk": 8051,
      "Ġekisulu": 8052,
      "Ġekisisik": 8053,
      "Ġekijeje": 8054,
      "Ġekigugo": 8055,
      "Ġekiwulu": 8056,
      "Ġekitaba": 8057,
      "Ġekifiaan": 8058,
      "Ġekikwak": 8059,
      "Ġekikpukpulu": 8060,
      "Ġekisook": 8061,
      "Ġekiteen": 8062,
      "Ġekibala": 8063,
      "Ġekigbugbe": 8064,
      "Ġekirika": 8065,
      "kpare": 8066,
      "kpado": 8067,
      "kpawuuk": 8068,
      "kpasaba": 8069,
      "kpatetele": 8070,
      "kpalap": 8071,
      "kpariaan": 8072,
      "Ġinige": 8073,
      "Ġinika": 8074,
      "Ġinima": 8075,
      "Ġinigba": 8076,
      "Ġinisisik": 8077,
      "Ġiniwop": 8078,
      "Ġinigak": 8079,
      "Ġinikwo": 8080,
      "Ġinikinyi": 8081,
      "Ġinisaba": 8082,
      "Ġinikisi": 8083,
      "Ġiniroon": 8084,
      "Ġinibieen": 8085,
      "Ġinichim": 8086,
      "Ġiniteen": 8087,
      "Ġiniken": 8088,
      "Ġinikido": 8089,
      "Ġinifum": 8090,
      "Ġinisoon": 8091,
      "Ġinimaan": 8092,
      "Ġinititen": 8093,
      "oni": 8094,
      "Ġuni": 8095,
      "rugwu": 8096,
      "ruwa": 8097,
      "Ġjetu": 8098,
      "Ġjeya": 8099,
      "Ġjesana": 8100,
      "sefon": 8101,
      "seseme": 8102,
      "Ġonenika": 8103,
      "Ġonenigwa": 8104,
      "Ġoneniluk": 8105,
      "Ġonenichak": 8106,
      "Ġonenijaan": 8107,
      "Ġonenijot": 8108,
      "Ġonenitaka": 8109,
      "Ġonenikat": 8110,
      "Ġonenikikeek": 8111,
      "Ġonenikwala": 8112,
      "Ġoroon": 8113,
      "gagat": 8114,
      "gagana": 8115,
      "Ġibari": 8116,
      "Ġibabat": 8117,
      "Ġsara": 8118,
      "Ġsala": 8119,
      "Ġsafu": 8120,
      "Ġsalem": 8121,
      "Ġsayanan": 8122,
      "Ġsadis": 8123,
      "Ġmayat": 8124,
      "Ġmatata": 8125,
      "Ġmayim": 8126,
      "Ġmaten": 8127,
      "Ġmadai": 8128,
      "fufuun": 8129,
      "Ġjiki": 8130,
      "Ġjila": 8131,
      "Ġjifita": 8132,
      "yanya": 8133,
      "Ġekema": 8134,
      "Ġekano": 8135,
      "Ġyira": 8136,
      "tetge": 8137,
      "Ġkpedo": 8138,
      "Ġkpesibi": 8139,
      "Ġkpetip": 8140,
      "Ġkpegbaan": 8141,
      "Ġkpebon": 8142,
      "Ġkpetaka": 8143,
      "Ġkpelet": 8144,
      "Ġkpefiat": 8145,
      "Ġkpemumun": 8146,
      "Ġkpegbala": 8147,
      "Ġkpetetele": 8148,
      "Ġkpegegen": 8149,
      "Ġjana": 8150,
      "Ġjak": 8151,
      "Ġokiwa": 8152,
      "Ġokige": 8153,
      "Ġokika": 8154,
      "Ġokigbo": 8155,
      "Ġokiso": 8156,
      "Ġokigwa": 8157,
      "Ġokirio": 8158,
      "Ġokigwo": 8159,
      "Ġokitele": 8160,
      "Ġokinwo": 8161,
      "Ġokiraka": 8162,
      "Ġokifaka": 8163,
      "Ġokilet": 8164,
      "Ġokigbana": 8165,
      "Ġokinye": 8166,
      "Ġokigwat": 8167,
      "Ġokikpaka": 8168,
      "Ġokigen": 8169,
      "Ġokijijen": 8170,
      "Ġokifet": 8171,
      "Ġokililaba": 8172,
      "Ġokibeme": 8173,
      "Ġokititen": 8174,
      "Ġokigbugbut": 8175,
      "susut": 8176,
      "Ġototolek": 8177,
      "Ġechichit": 8178,
      "Ġechichili": 8179,
      "Ġebeen": 8180,
      "Ġebegwu": 8181,
      "Ġebeso": 8182,
      "Ġeberieen": 8183,
      "Ġebesan": 8184,
      "Ġeberio": 8185,
      "Ġebeche": 8186,
      "Ġebetele": 8187,
      "Ġebegbaan": 8188,
      "Ġebetoon": 8189,
      "Ġebegwak": 8190,
      "Ġebejin": 8191,
      "Ġebetataka": 8192,
      "Ġebeteteen": 8193,
      "Ġkakup": 8194,
      "Ġkachit": 8195,
      "Ġkarek": 8196,
      "Ġkalin": 8197,
      "Ġkasia": 8198,
      "Ġkasulu": 8199,
      "Ġkakiket": 8200,
      "Ġkabijen": 8201,
      "benan": 8202,
      "Ġjosi": 8203,
      "Ġjogi": 8204,
      "Ġjoii": 8205,
      "Ġobolo": 8206,
      "Ġobogwa": 8207,
      "Ġobomin": 8208,
      "Ġobotim": 8209,
      "Ġobokitumu": 8210,
      "Ġobotaka": 8211,
      "Ġobochili": 8212,
      "Ġobochep": 8213,
      "Ġobokijeen": 8214,
      "Ġobokibo": 8215,
      "Ġobonene": 8216,
      "Ġobobeme": 8217,
      "chitbe": 8218,
      "not": 8219,
      "noje": 8220,
      "noro": 8221,
      "nota": 8222,
      "nomun": 8223,
      "noben": 8224,
      "notap": 8225,
      "nofieek": 8226,
      "nowele": 8227,
      "Ġofofo": 8228,
      "Ġjulio": 8229,
      "kaneme": 8230,
      "nika": 8231,
      "niso": 8232,
      "nido": 8233,
      "niweek": 8234,
      "nigwook": 8235,
      "nifieek": 8236,
      "nifit": 8237,
      "nijijaka": 8238,
      "nigak": 8239,
      "nisaba": 8240,
      "nichep": 8241,
      "nigwak": 8242,
      "nichichini": 8243,
      "nifiaan": 8244,
      "nikido": 8245,
      "Ġdemas": 8246,
      "Ġifele": 8247,
      "Ġofifilabe": 8248,
      "Ġanaya": 8249,
      "Ġesarado": 8250,
      "Ġidaan": 8251,
      "Ġidadasi": 8252,
      "Ġgalan": 8253,
      "Ġgarebu": 8254,
      "faras": 8255,
      "Ġbakubuk": 8256,
      "Ġikanyan": 8257,
      "Ġikanyige": 8258,
      "Ġirama": 8259,
      "Ġirasito": 8260,
      "Ġimanuwen": 8261,
      "met": 8262,
      "meyon": 8263,
      "miya": 8264,
      "miti": 8265,
      "Ġikpakpaka": 8266,
      "kwukwulube": 8267,
      "Ġison": 8268,
      "Ġisoso": 8269,
      "Ġjaan": 8270,
      "Ġjasa": 8271,
      "Ġjaban": 8272,
      "Ġjada": 8273,
      "Ġjadu": 8274,
      "Ġjariya": 8275,
      "Ġjakisis": 8276,
      "fero": 8277,
      "fefet": 8278,
      "fefeen": 8279,
      "Ġosak": 8280,
      "Ġosaya": 8281,
      "Ġiboje": 8282,
      "Ġibobot": 8283,
      "Ġibotap": 8284,
      "Ġiboraka": 8285,
      "Ġogon": 8286,
      "Ġogogon": 8287,
      "Ġejejeen": 8288,
      "Ġenenika": 8289,
      "Ġenenikaan": 8290,
      "Ġenenigba": 8291,
      "Ġenenigwo": 8292,
      "Ġeneniluk": 8293,
      "Ġenenichieek": 8294,
      "Ġenenitim": 8295,
      "Ġenenikeek": 8296,
      "Ġenenikpe": 8297,
      "Ġeneniyik": 8298,
      "Ġeneniteen": 8299,
      "Ġenenimaan": 8300,
      "Ġininen": 8301,
      "Ġinineen": 8302,
      "Ġininwo": 8303,
      "Ġalabasita": 8304,
      "Ġmkpulube": 8305,
      "Ġilalaak": 8306,
      "Ġilalap": 8307,
      "nenido": 8308,
      "neniria": 8309,
      "nenirie": 8310,
      "nenigwook": 8311,
      "nenifieek": 8312,
      "nenisun": 8313,
      "nenijeen": 8314,
      "nenikisa": 8315,
      "nenigbana": 8316,
      "nenikito": 8317,
      "nenigwuun": 8318,
      "nenileke": 8319,
      "nenikigwen": 8320,
      "nenitolek": 8321,
      "Ġekagwu": 8322,
      "Ġekagwo": 8323,
      "Ġekaweek": 8324,
      "Ġekaben": 8325,
      "Ġekatele": 8326,
      "Ġekakiro": 8327,
      "Ġekagbaan": 8328,
      "Ġekachaka": 8329,
      "Ġekasaba": 8330,
      "Ġekakpe": 8331,
      "Ġekamumun": 8332,
      "Ġekatana": 8333,
      "Ġekagege": 8334,
      "Ġekatetge": 8335,
      "Ġgoyim": 8336,
      "Ġarodi": 8337,
      "Ġaroset": 8338,
      "Ġigbagba": 8339,
      "gbut": 8340,
      "Ġfikolu": 8341,
      "Ġfirijia": 8342,
      "Ġpuru": 8343,
      "ntio": 8344,
      "Ġichechep": 8345,
      "gio": 8346,
      "Ġokwakwala": 8347,
      "Ġokpok": 8348,
      "Ġochichi": 8349,
      "init": 8350,
      "fukge": 8351,
      "Ġnyiyala": 8352,
      "karep": 8353,
      "karerieen": 8354,
      "Ġekewo": 8355,
      "Ġekeche": 8356,
      "Ġekegban": 8357,
      "Ġeketoon": 8358,
      "Ġekechili": 8359,
      "Ġekejijen": 8360,
      "Ġugana": 8361,
      "Ġnawum": 8362,
      "Ġnafis": 8363,
      "Ġebekinu": 8364,
      "Ġebekini": 8365,
      "Ġebekinwo": 8366,
      "Ġokuko": 8367,
      "Ġinenibo": 8368,
      "Ġineniko": 8369,
      "Ġinenigo": 8370,
      "Ġinenikwu": 8371,
      "Ġinenibene": 8372,
      "Ġinenigban": 8373,
      "Ġinenifuk": 8374,
      "Ġinenisik": 8375,
      "Ġinenilook": 8376,
      "Ġinenigbana": 8377,
      "Ġinenichichini": 8378,
      "ninama": 8379,
      "Ġilobo": 8380,
      "Ġiloon": 8381,
      "kisasan": 8382,
      "Ġayaba": 8383,
      "Ġeliin": 8384,
      "Ġelipa": 8385,
      "Ġelililaba": 8386,
      "Ġelidadi": 8387,
      "Ġkpebesi": 8388,
      "Ġkpebesan": 8389,
      "Ġkpebefieek": 8390,
      "Ġkpebetim": 8391,
      "Ġkpebejibi": 8392,
      "Ġkpebejeje": 8393,
      "Ġkpebefuun": 8394,
      "Ġkpebegwaka": 8395,
      "Ġkpebefufuun": 8396,
      "Ġobebem": 8397,
      "Ġobebeek": 8398,
      "Ġobebieen": 8399,
      "Ġisikiwa": 8400,
      "Ġisikino": 8401,
      "Ġisikigbeme": 8402,
      "kakimo": 8403,
      "kakikwu": 8404,
      "kakiluk": 8405,
      "kakiweek": 8406,
      "kakitap": 8407,
      "kakiwuuk": 8408,
      "kakibele": 8409,
      "kakitoon": 8410,
      "kakikeek": 8411,
      "kakitotop": 8412,
      "kakiniin": 8413,
      "Ġkpojo": 8414,
      "Ġkpokpo": 8415,
      "Ġkpolo": 8416,
      "Ġkpotet": 8417,
      "Ġolilam": 8418,
      "gubu": 8419,
      "Ġseli": 8420,
      "Ġselomo": 8421,
      "Ġsesai": 8422,
      "Ġseredi": 8423,
      "Ġseyera": 8424,
      "Ġsebuyen": 8425,
      "Ġsegubu": 8426,
      "Ġmbaje": 8427,
      "Ġmbakaan": 8428,
      "Ġmbafieek": 8429,
      "Ġmbasulu": 8430,
      "Ġebekigban": 8431,
      "Ġebekifieek": 8432,
      "Ġebekiriaak": 8433,
      "Ġebekiwop": 8434,
      "Ġebekichimi": 8435,
      "Ġkechichi": 8436,
      "fiatge": 8437,
      "Ġebumbe": 8438,
      "Ġabidi": 8439,
      "Ġabiyen": 8440,
      "Ġabisuru": 8441,
      "Ġekekikaan": 8442,
      "Ġekekitap": 8443,
      "Ġekekikpulu": 8444,
      "Ġekekiriaak": 8445,
      "Ġekekiwut": 8446,
      "Ġasawo": 8447,
      "Ġbenais": 8448,
      "Ġnkigo": 8449,
      "Ġnkigwa": 8450,
      "Ġnkikpa": 8451,
      "Ġnkiria": 8452,
      "Ġnkikan": 8453,
      "Ġnkinwo": 8454,
      "Ġnkisisaak": 8455,
      "Ġneyariya": 8456,
      "Ġikikep": 8457,
      "yenyieen": 8458,
      "kwat": 8459,
      "Ġiwolo": 8460,
      "Ġiwowop": 8461,
      "duduku": 8462,
      "jakbe": 8463,
      "Ġetolek": 8464,
      "Ġifiik": 8465,
      "Ġokako": 8466,
      "Ġokakwu": 8467,
      "Ġokarie": 8468,
      "Ġkpebekpo": 8469,
      "Ġewewele": 8470,
      "Ġilim": 8471,
      "Ġililo": 8472,
      "Ġkpekigwu": 8473,
      "Ġkpekikup": 8474,
      "Ġkpekimun": 8475,
      "Ġkpekigwo": 8476,
      "Ġkpekiweek": 8477,
      "Ġkpekitele": 8478,
      "Ġkpekimin": 8479,
      "Ġkpekigbaan": 8480,
      "Ġkpekigobo": 8481,
      "Ġkpekigwat": 8482,
      "nenre": 8483,
      "nenene": 8484,
      "nenkana": 8485,
      "nenino": 8486,
      "nenken": 8487,
      "Ġokekikana": 8488,
      "Ġokekijeen": 8489,
      "Ġokekilomo": 8490,
      "Ġokekirep": 8491,
      "Ġokekireke": 8492,
      "Ġokekijibi": 8493,
      "Ġokekikpe": 8494,
      "Ġokekisak": 8495,
      "Ġokekimumana": 8496,
      "Ġokekigbugbut": 8497,
      "Ġbelu": 8498,
      "Ġberaka": 8499,
      "Ġberedi": 8500,
      "Ġbejek": 8501,
      "Ġbeyera": 8502,
      "Ġnkwukwulu": 8503,
      "Ġegobe": 8504,
      "Ġnrerie": 8505,
      "Ġkpekinwo": 8506,
      "Ġosikwu": 8507,
      "Ġosiyaka": 8508,
      "Ġosikan": 8509,
      "Ġnjijit": 8510,
      "Ġasina": 8511,
      "Ġasimon": 8512,
      "Ġntemebe": 8513,
      "Ġikakeek": 8514,
      "Ġmkpukpulu": 8515,
      "kitotoon": 8516,
      "kinyinyi": 8517,
      "Ġikinya": 8518,
      "Ġikineen": 8519,
      "Ġikinwan": 8520,
      "Ġikinwunwan": 8521,
      "Ġokiroon": 8522,
      "tataak": 8523,
      "owuwa": 8524,
      "kisisi": 8525,
      "pas": 8526,
      "pata": 8527,
      "pago": 8528,
      "Ġtamaris": 8529,
      "Ġnnenifo": 8530,
      "Ġnnenigwen": 8531,
      "Ġnneniben": 8532,
      "Ġtori": 8533,
      "Ġtobija": 8534,
      "Ġyobabu": 8535,
      "Ġjeyoseba": 8536,
      "Ġikasisi": 8537,
      "Ġdaberat": 8538,
      "Ġiwaak": 8539,
      "Ġiwawat": 8540,
      "Ġnraria": 8541,
      "Ġpelaya": 8542,
      "Ġpelon": 8543,
      "Ġikpukpukpuku": 8544,
      "Ġikpukpukpo": 8545,
      "Ġonigwu": 8546,
      "Ġonido": 8547,
      "Ġonirio": 8548,
      "Ġonibene": 8549,
      "Ġonitet": 8550,
      "Ġonibebene": 8551,
      "ekpukpo": 8552,
      "Ġifufuk": 8553,
      "Ġifufuun": 8554,
      "Ġifufuuk": 8555,
      "Ġegwurugwu": 8556,
      "kwekween": 8557,
      "Ġagoyim": 8558,
      "Ġnsigwen": 8559,
      "Ġnsinan": 8560,
      "Ġnsisaak": 8561,
      "kineen": 8562,
      "Ġebenwenwene": 8563,
      "Ġafian": 8564,
      "chobe": 8565,
      "Ġekitobo": 8566,
      "Ġekitoto": 8567,
      "wenwe": 8568,
      "Ġdibila": 8569,
      "Ġdidimo": 8570,
      "tababe": 8571,
      "Ġiyayaak": 8572,
      "kararia": 8573,
      "kekitap": 8574,
      "kekikeek": 8575,
      "Ġnoba": 8576,
      "Ġenirio": 8577,
      "Ġeniluk": 8578,
      "Ġeniman": 8579,
      "ikaje": 8580,
      "Ġajajiya": 8581,
      "Ġikwekween": 8582,
      "Ġrisa": 8583,
      "Ġoneninye": 8584,
      "Ġoneninaan": 8585,
      "Ġonininiin": 8586,
      "kwookbe": 8587,
      "Ġlayai": 8588,
      "Ġegwagwak": 8589,
      "sisaakbe": 8590,
      "kinanan": 8591,
      "Ġechichimi": 8592,
      "kibebem": 8593,
      "Ġwoii": 8594,
      "Ġikekisun": 8595,
      "kabota": 8596,
      "kabokwu": 8597,
      "kabomun": 8598,
      "kabonan": 8599,
      "kabofieek": 8600,
      "Ġsuyam": 8601,
      "Ġsupim": 8602,
      "Ġsubayen": 8603,
      "Ġjekamiya": 8604,
      "kiseme": 8605,
      "Ġibenigwa": 8606,
      "Ġibenitap": 8607,
      "Ġkpenyan": 8608,
      "Ġnkasi": 8609,
      "Ġnkato": 8610,
      "Ġnkafiatge": 8611,
      "Ġteba": 8612,
      "Ġteeteek": 8613,
      "Ġsuni": 8614,
      "Ġinunuun": 8615,
      "Ġjesimo": 8616,
      "juukbe": 8617,
      "bekweek": 8618,
      "kensa": 8619,
      "kenlook": 8620,
      "Ġekekinyi": 8621,
      "Ġekekini": 8622,
      "Ġekekinwo": 8623,
      "Ġegbabe": 8624,
      "Ġegbama": 8625,
      "bonibo": 8626,
      "bonire": 8627,
      "bonisa": 8628,
      "bonichili": 8629,
      "bonikikpulu": 8630,
      "Ġobaakbe": 8631,
      "kirerie": 8632,
      "jayabu": 8633,
      "Ġikwukwulu": 8634,
      "Ġitien": 8635,
      "Ġibonigwa": 8636,
      "Ġibonitet": 8637,
      "Ġibonitap": 8638,
      "Ġibonitim": 8639,
      "Ġiboniraka": 8640,
      "kekino": 8641,
      "Ġbuni": 8642,
      "Ġsilowam": 8643,
      "Ġaboru": 8644,
      "Ġisinikana": 8645,
      "mumanabe": 8646,
      "lilababe": 8647,
      "Ġobubatbe": 8648,
      "Ġomari": 8649,
      "Ġseyariya": 8650,
      "Ġseyarayim": 8651,
      "Ġenekwaan": 8652,
      "Ġenyanyan": 8653,
      "Ġmbanan": 8654,
      "Ġmbanyan": 8655,
      "Ġadonikam": 8656,
      "Ġadonisedek": 8657,
      "Ġramat": 8658,
      "nwenebe": 8659,
      "tembe": 8660,
      "Ġinikigwa": 8661,
      "Ġinikichieek": 8662,
      "Ġogbagbaan": 8663,
      "Ġoboniraka": 8664,
      "bokigbo": 8665,
      "Ġkpomore": 8666,
      "Ġkpomoyaka": 8667,
      "Ġkpomokeke": 8668,
      "nyanabe": 8669,
      "Ġolon": 8670,
      "Ġololook": 8671,
      "fukube": 8672,
      "Ġgerasa": 8673,
      "Ġelaka": 8674,
      "Ġelapbe": 8675,
      "Ġmesilem": 8676,
      "Ġebenigo": 8677,
      "Ġebenija": 8678,
      "Ġbejai": 8679,
      "Ġnneninan": 8680,
      "Ġokekeme": 8681,
      "bekigo": 8682,
      "kabakpo": 8683,
      "kabakpan": 8684,
      "kabawuuk": 8685,
      "Ġnayarai": 8686,
      "Ġewuwulu": 8687,
      "Ġewuwumbe": 8688,
      "Ġntiko": 8689,
      "kpoborie": 8690,
      "Ġakarabim": 8691,
      "Ġikatoge": 8692,
      "Ġseminit": 8693,
      "Ġocheche": 8694,
      "Ġadien": 8695,
      "Ġadidi": 8696,
      "chichiki": 8697,
      "Ġtiminat": 8698,
      "Ġofafiala": 8699,
      "bebeen": 8700,
      "Ġakwana": 8701,
      "Ġibubat": 8702,
      "Ġkpenyinyi": 8703,
      "Ġnnibo": 8704,
      "Ġnnibe": 8705,
      "Ġkpemiin": 8706,
      "Ġjayalen": 8707,
      "Ġebanbe": 8708,
      "Ġodidimi": 8709,
      "Ġasuwan": 8710,
      "Ġsaliman": 8711,
      "Ġkpebekiro": 8712,
      "Ġkpamaro": 8713,
      "Ġkpamario": 8714,
      "Ġkpamasulu": 8715,
      "Ġmoreset": 8716,
      "Ġikpekpebe": 8717,
      "Ġjeretan": 8718,
      "Ġasenat": 8719,
      "Ġnsikibe": 8720,
      "Ġikatapge": 8721,
      "Ġekinititiin": 8722,
      "Ġekenu": 8723,
      "Ġekenwo": 8724,
      "Ġgine": 8725,
      "Ġgenese": 8726,
      "Ġkakan": 8727,
      "Ġakisafu": 8728,
      "Ġnimira": 8729,
      "ngwugwa": 8730,
      "Ġechochon": 8731,
      "boboon": 8732,
      "berit": 8733,
      "Ġjasinti": 8734,
      "Ġnikolas": 8735,
      "Ġbetifegi": 8736,
      "nonin": 8737,
      "Ġkusan": 8738,
      "Ġjaribu": 8739,
      "Ġpenuwen": 8740,
      "Ġpentiko": 8741,
      "Ġtalimai": 8742,
      "Ġtalimayi": 8743,
      "Ġitutobo": 8744,
      "Ġmeyisa": 8745,
      "Ġariopago": 8746,
      "Ġnletbe": 8747,
      "Ġekwuk": 8748,
      "Ġayook": 8749,
      "Ġsamiga": 8750,
      "Ġajirien": 8751,
      "Ġrayabu": 8752,
      "Ġmmanbe": 8753,
      "Ġametis": 8754,
      "Ġnkekikpo": 8755,
      "Ġgedera": 8756,
      "Ġikaweekge": 8757,
      "Ġikasibige": 8758,
      "Ġtaiberia": 8759,
      "Ġepafaras": 8760,
      "Ġetababe": 8761,
      "Ġminye": 8762,
      "Ġolepbe": 8763,
      "Ġochocho": 8764,
      "Ġamutali": 8765,
      "Ġaruma": 8766,
      "unukpunu": 8767,
      "Ġmayarai": 8768,
      "Ġikanuge": 8769,
      "Ġineninama": 8770,
      "Ġtibini": 8771,
      "Ġiteran": 8772,
      "Ġejakbe": 8773,
      "Ġminiamin": 8774,
      "kikpukput": 8775,
      "inenitumu": 8776,
      "Ġsareja": 8777,
      "Ġsareseri": 8778,
      "Ġekafiatge": 8779,
      "Ġibeninween": 8780,
      "Ġparadais": 8781,
      "ilaisia": 8782,
      "nokana": 8783,
      "Ġigagan": 8784,
      "Ġmigidan": 8785,
      "Ġikachitge": 8786,
      "Ġofiakbe": 8787,
      "Ġekalukge": 8788,
      "Ġkpebekpaan": 8789,
      "Ġaneri": 8790,
      "Ġochepbe": 8791,
      "Ġolakbe": 8792,
      "Ġkiliyo": 8793,
      "Ġsitifana": 8794,
      "Ġonenebe": 8795,
      "Ġkpunukpunukpunu": 8796,
      "Ġsabetai": 8797,
      "Ġjotibata": 8798,
      "Ġijikien": 8799,
      "Ġlisias": 8800,
      "Ġbesoru": 8801,
      "Ġayisamak": 8802,
      "Ġadaramelek": 8803,
      "pelit": 8804,
      "ewelegwe": 8805,
      "Ġfurum": 8806,
      "Ġgbei": 8807,
      "Ġganim": 8808,
      "Ġmferek": 8809,
      "Ġodedi": 8810,
      "Ġmeyetaben": 8811,
      "Ġmesejaben": 8812,
      "Ġkonaniya": 8813,
      "Ġasikenaji": 8814,
      "Ġmiteredat": 8815,
      "Ġikatitimi": 8816,
      "Ġmatenai": 8817,
      "Ġkarekemis": 8818,
      "Ġbakubukia": 8819,
      "Ġjaduwa": 8820,
      "Ġnyiyalabe": 8821,
      "Ġelipayan": 8822,
      "Ġolilambe": 8823,
      "Ġselomot": 8824,
      "nenkenwuwum": 8825,
      "Ġakwanakwa": 8826,
      "Ġgineto": 8827,
      "Ġgeneseret": 8828,
      "Ġtaiberias": 8829,
      "Ġsitifanas": 8830,
      "ami": 8831,
      "agwut": 8832,
      "agan": 8833,
      "abusolo": 8834,
      "apolis": 8835,
      "ajeba": 8836,
      "dunu": 8837,
      "eyo": 8838,
      "elo": 8839,
      "eru": 8840,
      "egbe": 8841,
      "eret": 8842,
      "ejeri": 8843,
      "fak": 8844,
      "isan": 8845,
      "irio": 8846,
      "ifuk": 8847,
      "itutumu": 8848,
      "kene": 8849,
      "kekpo": 8850,
      "mbi": 8851,
      "mkp": 8852,
      "mfo": 8853,
      "mgban": 8854,
      "mbeek": 8855,
      "mmumun": 8856,
      "mbuban": 8857,
      "nt": 8858,
      "nsa": 8859,
      "ntumu": 8860,
      "ndo": 8861,
      "nria": 8862,
      "nwe": 8863,
      "nkwukwu": 8864,
      "ntitiin": 8865,
      "nlom": 8866,
      "nkeek": 8867,
      "nnaan": 8868,
      "ndodo": 8869,
      "ninife": 8870,
      "nwenween": 8871,
      "nneninyi": 8872,
      "njijin": 8873,
      "op": 8874,
      "oko": 8875,
      "obu": 8876,
      "okpu": 8877,
      "otere": 8878,
      "otito": 8879,
      "penaji": 8880,
      "sene": 8881,
      "teni": 8882,
      "teke": 8883,
      "temi": 8884,
      "tema": 8885,
      "teka": 8886,
      "ugwem": 8887,
      "uja": 8888,
      "uman": 8889,
      "umin": 8890,
      "uuruk": 8891,
      "ujuja": 8892,
      "wanan": 8893,
      "yuni": 8894,
      "Ġtiti": 8895,
      "Ġwut": 8896,
      "Ġwulu": 8897,
      "Ġgbagbala": 8898,
      "Ġiyen": 8899,
      "Ġidu": 8900,
      "Ġilak": 8901,
      "Ġiyim": 8902,
      "Ġimiri": 8903,
      "Ġilululuk": 8904,
      "Ġigagak": 8905,
      "Ġijujuk": 8906,
      "Ġidide": 8907,
      "Ġisuso": 8908,
      "Ġidunu": 8909,
      "Ġera": 8910,
      "Ġelu": 8911,
      "Ġerek": 8912,
      "Ġedun": 8913,
      "Ġetiti": 8914,
      "Ġelem": 8915,
      "Ġedu": 8916,
      "Ġesen": 8917,
      "Ġewut": 8918,
      "Ġejomo": 8919,
      "Ġegen": 8920,
      "Ġeleke": 8921,
      "Ġejojot": 8922,
      "Ġerarak": 8923,
      "Ġetatana": 8924,
      "Ġejuuk": 8925,
      "Ġeraan": 8926,
      "Ġelaakbe": 8927,
      "Ġedimi": 8928,
      "Ġetitibi": 8929,
      "Ġesusulu": 8930,
      "Ġewuwum": 8931,
      "Ġegbugbugbo": 8932,
      "Ġegbugbe": 8933,
      "Ġeseen": 8934,
      "Ġekpukpukpuku": 8935,
      "Ġetututuku": 8936,
      "Ġejujuuk": 8937,
      "Ġesuso": 8938,
      "Ġmwele": 8939,
      "Ġmwop": 8940,
      "Ġmfiin": 8941,
      "Ġmgbuku": 8942,
      "Ġmwuwuuk": 8943,
      "Ġmine": 8944,
      "Ġmgbukube": 8945,
      "ÌĦ),": 8946,
      "ÌĦ).": 8947,
      "Ġome": 8948,
      "Ġokare": 8949,
      "Ġosuuk": 8950,
      "Ġofaka": 8951,
      "Ġotat": 8952,
      "Ġosisik": 8953,
      "Ġolaak": 8954,
      "Ġokpukpo": 8955,
      "Ġoyat": 8956,
      "Ġososo": 8957,
      "Ġofuun": 8958,
      "Ġokpaka": 8959,
      "Ġofuuk": 8960,
      "Ġoyiyala": 8961,
      "Ġoyok": 8962,
      "Ġochacha": 8963,
      "Ġotatana": 8964,
      "Ġomega": 8965,
      "Ġofafiat": 8966,
      "Ġosem": 8967,
      "Ġobaya": 8968,
      "Ġosikbe": 8969,
      "Ġofele": 8970,
      "Ġoyadi": 8971,
      "Ġokpukpukube": 8972,
      "Ġodeke": 8973,
      "Ġojujuuk": 8974,
      "Ġoyiyalabe": 8975,
      "Ġomumumen": 8976,
      "Ġomemeen": 8977,
      "Ġokpukpobe": 8978,
      "Ġoyikbe": 8979,
      "Ġojakbe": 8980,
[...]
